#version: 0.2 - Trained by `huggingface/tokenizers`
Ġ ì
Ġ ë
Ġì Ŀ
Ġ ê
Ġ í
Ġì Ĺ
ĭ ¤
Ġí ķ
ĠìĿ ´
Ġ .
ĠìĹ Ĳ
Ġë ĭ¤
ĠìĿ ĺ
Ĭ Ķ
Ġë ĬĶ
Ġê ³
¡ ľ
Ġ ,
ì Ħ
Ġê °
ì Ŀ
¼ ë
Ġì ŀ
Ġíķ ĺ
ĠìĿ Ħ
Ġì ł
Ġì ľ
Ġ Ċ
í ķ
§ Ģ
ì ŀ
ë ¦
ĠìĿ Ģ
ì ł
¸ °
Ġ 1
Ġì ķ
ìĦ ľ
ê µ
Ġë ħ
Ĥ ¬
Į Ģ
ľ ë
Ġì Ħ
Ġê° Ģ
Ġë °
Ġ )
Ġë ¥
Ġì ĺ
Ġê ²
Ġê³ ł
Ġ (
Ġë Ĳ
Ġë¥ ¼
Ĭ ¤
ı Ħ
Ġëħ Ħ
ì ĭ
Ġìľ ¼ë
ë¦ ¬
ê ³
´ ë
Ħ ë
Ġì ĭ
ì ķ
Ġë §
Ġë ĵ
ê °
ì ļ
Ġë ¡ľ
Ġìľ¼ë ¡ľ
ì Ĭ¤
ĠìĹĲ ìĦľ
¸ ë
Ġìŀ Ī
Ī ĺ
Ġì §Ģ
Ĥ ĺ
Ġ 2
ìĿ ´
Ġíķ ľ
¶ Ģ
Ġë ĮĢ
Ġê ·
Ġê ¸°
ĠëĲ ĺ
ì Ĺ
Ġê µ
ì §Ģ
ĸ ´
Ġì Ľ
ĠìĹ Ī
Ġì Ĥ¬
Ġì Ļ
Ŀ ¼
Ġë ³
Ġë ıĦ
Į ë
Ġë ª
ĠìĿ ¸
Ġí ĸ
Ġê³ ¼
ê ²
ì ¹
£ ¼
ê ¸°
ĥ ģ
° ë
Ġë ©
ì ľ
ìĭ ľ
ı Ļ
êµ Ń
ĠìĿ ¼
ì Ĥ¬
Ġëĵ ¤
Ī ë
Ġìĭ ľ
ì Ľ
¬ ë
ĠìĽ Ķ
Ġì Īĺ
Ġíĸ Ī
Ġí ĺ
ìŀ Ĳ
Ġê· ¸
Ġìĺ Ģ
Ġìł ģ
ł ë
Ļ Ķ
ĠìĻ Ģ
Ġë ĭ
¤ ĳ
Ġìŀ Ĳ
ì §
ľë ĭ¤
í Ĭ
Ġ1 9
¨ ë
ì ĺ
ê° Ģ
Ġë ²
¡ °
ìŀ ¥
ê³ ł
Ġë į
Ġì ļ
ë §
í ĥ
ì Ĩ
Ġë ¬
Ġì ĸ´
Ġë ¶Ģ
Ġì §
ìł ķ
Ġë Ĥ
ĠìĹ ¬
ì ²
Ġì ²
í ĺ
íķ ´
Ġì Ĩ
Ġ2 0
Ġìł Ħ
Ġë ¶
Ġìł ķ
ì Īĺ
Ġì ¤ĳ
Ġ å
ìĿ ¸
¯ ¸
ë ¥
ã Ģ
ìĽ Ĳ
í Ħ
´ Ģ
ĵ ľ
¹ Ħ
ìķ Ħ
Ġìł ľ
Ġìľ Ħ
Ġì °
êµ ¬
ļ Į
ìĦ ±
ë ł
Ġê³ µ
íķ ľ
ìł Ħ
íĬ ¸
Ġì ¶
ì ĥģ
ì ĸ´
ì¹ ĺ
Ġ "
Ġ 3
Ľ Ħ
Ġ ãĢ
Ġê² ½
ë ĭ
ì £¼
Ġë Ĥĺ
Ġê² Į
Ġìķ Ħ
ì ĸ
Ġê² ĥ
Ġí ı
ê ·
í ĻĶ
Ġí Ķ
íĦ °
íķ ĺ
ĠìĿ´ ë
Ġê ±
ìł ľ
íķ Ļ
Ġíķ ´
Ġì £¼
Ġíķ ľëĭ¤
Ġì ĸ
¯ ¼
Ġëĵ ±
ìļ ©
Ġí Ļ
í Ķ
Ġì ¹
Ġí Į
Ġí ĥ
ìļ °
ĠìĦ ¸
í ĸ
í Ĩ
ë °
Ĥ °
Ĭ ¹
ĠìĦ ±
ë ¶Ģ
ë ¬
êµ Ĳ
Ġì ¡°
Ġë ıĻ
Ġ æ
ĥ Ŀ
Ġì Ĭ¤
ë ıĦ
Ġë Ŀ¼
Ġì ĥģ
Ġê° ľ
Ķ ë
Ġê ¹
í ļĮ
Ġë³ ´
ĠìĦ ł
Ģ ë
Ġìĺ ģ
Ġìĺ ¤
Ŀ ¼ë
© °
Ġí Ĩ
ì °
Ġë© °
Ġë© ´
ĠëĲ ľ
Ł ¬
Ġ 4
Ġìķ Ħë
ìĿ ĺ
ìĦ ł
¢ ħ
Ĳ ë
Ġ '
í Į
Ġêµ Ń
ìĭ ł
ê³ Ħ
í ģ
ê ¸
ë ³
Ġì ´
ìĹ Ń
ĠìĹ °
Ġë ¯¸
Ġ 5
Ġë ķ
Ġëª ħ
Ġê ´Ģ
ê ±
Ġë Ķ
ĳ Ĳ
ì Ĥ°
ł Ī
ìĿ Į
í ı
Ġë§ Ī
ìĭ Ŀ
Ġêµ ¬
0 0
ìĿ ¼
Ġ -
ë ĮĢ
í Ĥ
ì ¡
ì ¦
ĠìĿ ¼ë
Ġë§ Į
Ġê· ¸ë
ì ¶
ª ħ
ë§ Į
ìŀ ¬
Ġëį ĺ
ĠìĨ Į
ŀ ĺ
ì§ Ħ
ì² ´
Ġíķ ł
Ġìľ ł
ĳ ľ
Ġë ¦
Ġë° ľ
ì ¡°
ìĺ ¤
Ġë° ©
Ġìŀ ¥
ê² Į
¥ ´
ìĨ Į
£ ¨
Ġ â
ìŀ ĳ
ĠìĦ ľ
Ġ20 1
ı ħ
į °
êµ °
ê° Ħ
ì Ļ
Ġë ¹Ħ
í ĭ
Ġê ¸
Ĥ ´
í ĽĦ
ìľ Ħ
ê ´Ģ
Ġí ģ
Ġëĭ ¹
Ġí ĽĦ
íĸ ī
ĭ Ī
Ġ 6
Ġêµ Ĳ
ê³ µ
ë ¡
í Ļ
ĠìĹ Ń
ìĿ ´ë
ë ²
ŀ Ī
ĠíĨ µ
Ġ é
Ġ ç
Ġ Â
ĠíĶ Ħë
Ġë¬ ¸
íĥ Ģ
Ġë ¹
íģ ¬
ë¥ ´
Ġâ Ģ
Ġë ĺ
Ġìķ Ĭ
ìľ ¼ë
Ġ20 0
Ġìĭ ł
Į ì§Ģ
Ġê³ Ħ
¬ ¸
ł ¤
Ġ 7
Ġë Ŀ¼ë
íĤ ¤
Ġìķ ĺ
Ġì £
ìĹ ħ
Ġê¹ Įì§Ģ
Ġí ĻĶ
Ġì ĥĿ
Ġê° Ļ
Ġíķ Ļ
Ġ 8
½ Ķ
Ġìŀ ĳ
ë Ĥĺ
ë ŀ
ĠëĬĶ ë
ì Ĭ
ĠìĹĲ ê²Į
ë ¶
ìķ Ī
ì¹ ´
Ġí İ
© ´
Ġë° Ľ
Ġë Ħ
Ġê° ķ
Ġì ¡
ìĸ ĳ
Ġìľ¼ë ©°
í ŀĪ
ìĨ į
Ġíĺ Ħ
ë¡ Ŀ
ì Ī
Ġê² °
¶ Į
Ġì§ Ħ
Ġ è
ĠëĲ ľëĭ¤
Ġë² Ī
ìŀ Ħ
µ ľ
Ġìļ °
íĶ Ħ
ĠãĢ ĭ
ĠìĽ Ĳ
ìľ ł
Ġ ~
Ġë¦ ¬
Ġë° ĺ
Ġëª ¨ë
ë¦ ½
ë ıĻ
ê² ½
Ġì° ¨
Ġêµ °
Ġíķ ¨
Ġ 9
í İ
Ġì§Ģ ë§Į
ìķ ¼
Ġì¶ ľ
Ġ1 0
³ ¸
ì ¢ħ
Ġì ĭ¤
Ġë¶ Ħ
Ġíı ¬
Ġíĺ ķ
ìĺ ģ
ì ĥĿ
í ĳľ
ìĹ ¬
íĺ ¸
ìļ Ķ
Ġìľ łë
Ī ¬
ĠìĹ Ĩ
Ġëª ¨
ê³ ¼
ĠëĤ ´
Ġë¶Ģ íĦ°
íĨ µ
Ġë° °
Ġë¬ ´
ĵ ¤
ĠëĤ ¨
Ġëķ Į
ĠÂ ·
Ġëĭ ¨
ë ¡ľ
ê² ©
ê± °
§ Ī
Ġë° Ķ
Ġë§ Ĳ
ĠìĤ¬ ìļ©
ê° ģ
Ġì ĥ
ĠëĿ¼ ê³ł
Ġë ĳĲ
Ġ S
íĨ ł
o r
ìĹ °
ĠëĿ¼ë ĬĶ
Ġí Ĺ
ìł ģ
í ħ
Ġí ļĮ
Ġì ¢ħ
ĠíĮ Į
ê· ¸
Ķ Ķ
ë¥ ¸
ë Ŀ¼
Ġë Ĩ
Ġë¶ Ī
Ġì µľ
Ġë¯¸ êµŃ
Ġíĺ ¸
ìļ ´
ĠëĶ °ë
Ġìĭ ľë
´ ĳ
ëĭ ¨
ĠìĦ ¤
Ġì ¦
íķ ©
ìĸ ´ë
ë Ĥ
Ġë©´ ìĦľ
ë ĬĶ
° ĺ
ĠìĿ´ íĽĦ
Ġë³ ´ë
ì ´
ĠãĢ Ĭ
Ġí Ĭ¹
Ġê± °
ª ¨
Ġ C
ª ½
ĠëĬĶë į°
Ġíĥ Ģ
Ġ1 2
ĠìĿ¼ë ³¸
e r
Ġìĺ Ī
í Ĺ
ì ¼
Ġ1 8
Ġìł Ħë
Ġì£ ¼ë
í Ĵ
ìĦ ¸
ìľ¼ë ©°
Ġìļ Ķ
ì§ ģ
Ġìķ Ī
Ġ A
ë ħ
Ĭ ¥
Ġ ä
ì ĭ¤
Ġë ıħ
ë¦ Ħ
Ġìŀ ¬
íı ¬
ì ħ
ì ¤ĳ
¤ Ģ
¯¼ êµŃ
ë§ Ī
Ġíĸ ī
ë¦ °
ìĦ ¤
Ġì² ĺ
ì Ĭ¹
Ġì Ī
Ġëĺ Ĳ
íķ ľë
Ġ M
ë¶ Ħ
ĠìĻ ķ
Ġì§Ģ ìĹŃ
ë ªħ
Ġìŀ ħ
Ġë§ Įë
Ġì Ĥ
Ġ19 9
ĠìĿ ¸ë
Ġí Ŀ
ìł Ĳ
Ġëĭ¤ ìĿĮ
íĮ Į
Ġ1 1
Ł ¬ë
íĥ ľ
Ġì ±
ì° ¨
ëł ¥
Ġë§ İ
l a
Ġê ¶Į
ĠëĮĢ íķľ
Ġë ¸
íķľë ¯¼êµŃ
ë¬ ¸
ë¬ ´
Ġíı ī
Ġë§ ¤
ì¦ Ī
ì¡ ±
ĠìĤ¬ ëŀ
Ġìĸ ĳ
ë ©´
Ġëį °
ĭ ¹
2 0
o n
Ġì¶ Ķ
ë ¯¸
ì ¸
íĺ Ħ
Ġì Ĭ¹
ëł ¹
Ġí ħ
ì ½Ķ
Ġíĥ ľ
Ġìĸ ´ë
Ġê²½ ê¸°
1 9
Ġëĭ¤ ë¥¸
ìĪ ł
íĭ °
Ġë° ı
Ġëĭ¤ ê³ł
Ġëķ Įë
ì ª½
ë¬ ¼
íĺ ķ
Ġ T
ìĭ ¬
Ġì Ĥ°
ì¶ ľ
ĠìĨ į
ĠìľĦ íķ´
Ġì° ¸
i n
ĠëĮĢ íķĻ
íĬ ¸ë
ë ĵ
Ġì´ Ŀ
ìķ ½
Ġëħ ¸ë
ì ĥ
£ Į
Ġê± °ë
Ġì ½
Ġí Ĭ
Ġë ¯¼
¡ ł
Ġê° Ħ
ĠíĶĦë ¡ľ
ìĦ Ŀ
ĠìĿ Į
Ġê·¸ ë¦¬
ìķ Ħë
Ġëª ©
Ġë ¯
ĠëĮĢ íķľë¯¼êµŃ
ê¸ Ī
ĠëķĮë ¬¸
ë° ©
a n
Ġë¶ ģ
ê± ´
íĸ ¥
ê »
ìŀ ħ
Ġì »
Ġì§ ĳ
Ġìĭľ ìŀĳ
Ġê° ľë
ł ¥
Ġë ı
ŀ ĳ
ŀ Ģ
Ġ :
° ľ
Ł ī
Ġëį Ķ
Ġê° ģ
Ġë² ķ
Ġì§ ģ
ë ĵľ
íĴ Ī
Ġ F
Ġí Ľ
ê» ĺ
Ġì´ Ī
ëĭ ¹
ì ¤Ģ
ĠìĤ¬ëŀ Į
¬ ¼
ìĨ ¡
³ ´
Ġìĺģ íĻĶ
Ġëħ ¸
Ġë łĪ
ĠìĦ ľë
Ġíķ¨ ê»ĺ
ì ¿
ĠëĶ°ë Ŀ¼
íĮ Ĳ
Ġë³ Ģ
ë¦¬ ìķĦ
ëĭ Ī
ì² ľ
ìļ ¸
Ġìł Ĳ
Ġ19 8
Ġ B
ì² Ń
Ł ģ
Ġìķ ½
ĠíĶ ¼
Ġíķ Ń
ì§ Ī
ĠìĹ ´
ì »
ë ĭ¤
Ġí ĮĢ
Ġ1 5
Ġê¹ Ģ
Ġ f
Ġë§ Īë
Ġì² ´
ìł ¸
ê¸ ī
ë Ĭ¥
ĠìĨ Įë
ĠìŀĲ ìĭł
ì Łģ
Ġê²½ ìļ°
ê· ¸ë
íķ ¨
ĠìĦł ìĪĺ
Ħ ¤
Ġ D
ë¦ ¼
Ġì¹ ´
ĠìĹ ¬ë
ĵ °
© Ķ
ĭ ¨
ľë ıĻ
Ġì¹ ĺ
ìĹ Ĳ
ë ¹Ħ
Ġì Ĭ
Ġë Ĵ
ê° ľ
ë³ ´
ĠëĺĲ íķľ
Ġí ĳľ
Ġë ģ
ìĬ¤ íĬ¸
² Ħ
Ġê± ´
Ġí ļ
íĶ ¼
ĠìĦ¸ ê³Ħ
ĠìľĦ ì¹ĺ
Ġ P
ë² ķ
ìĸ ¸
¸ Į
Ġìķ Įë
Ġ1 6
Ġë° ķ
Ġê ´ĳ
ĠìĿ´ ë¦Ħ
Ġì ½Ķ
´ ī
Ġì² Ń
Ł¬ë Ĥĺ
ì´ Ī
Ġì º
Ġê¸° ë¡Ŀ
Ġíķĺ ëĤĺ
í Ŀ
Ġìļ ©
Ġë ¨
ìķ ħ
Ġ m
ĵ ł
ĠíĺĦ ìŀ¬
í Ī¬
Ġë¹ Ħë
Ġëĭ¹ ìĭľ
Ġíķľ êµŃ
e n
ĠíĮ Ĳ
ê° ķ
Ġìķ Į
Ġë³ µ
Ġíģ ¬
ê² °
Ġëĭ¤ ëĬĶ
Ġì¶ ķ
ìĭľ ìķĦ
ì ³
ĠìĤ¬ ìĿ´
Ĳë ĬĶ
ĠíĻ ķ
ħ ¸
ĠìĻ ¸
Ġ _
Ġìļ ´
Ġì ¸
Ġí Ī¬
Ġì ¢
Ġê°Ģ ìŀ¥
Ġíİ ¸
a r
ĠêµŃ ê°Ģ
m u
Ġëĺ ĲëĬĶ
ĠìĿ´ë Ĥĺ
Ġê°Ģ ì§Ģ
Ġì¡ ´
Ġë³ ¸
íķ Ń
Ġìł Ģ
ĠëĴ ¤
Ġìķ ¼
ĠëĦ ¤
Ġì² ľ
ĠíĻ ľëıĻ
Ġíķ ©
Ġ1 7
ì£¼ ìĿĺ
Ġë© Ķ
ì¡ Į
ĠíķĻ êµĲ
ìĻ Ģ
Ġ L
Ġf or
ë ª
Ġë² ł
Ġì§ ¸
mu la
íİ ¸
Ġê° Ĳ
Ġëĭ ¬
ìħ ĺ
Ġë¦¬ ê·¸
Ġ19 7
Ġë° ľë
Ġëĵ ľë
Ġë° Ķë
ë £Į
Ġ K
ĠìĿĺ íķ´
ê² ¬
Ġì¦ Ŀ
Ġ I
ê ¹
į ¼
° ©
Ġì¡° ìĦł
ì ½
Ġëª »
ìł Ģ
¼ë ¦
í ļ
ĠìĹ °ë
íĻ ©
ë ¯¼
ìĥ ī
ë¶Ģ íĦ°
Ġfor mula
ĠëĶ Ķ
Ġìĭ Ŀ
Ġìŀ Ħ
Ġíķ ´ë
Ġë³ ĳ
Ġì Ĥ´
Ġì° ½
ĠíĨµ íķ´
íİ ĺ
Ġ /
íĻ ĺ
ĠìĹ° êµ¬
Ġê·¸ë Ł¬ëĤĺ
ê· ¼
Ġë° ±
¬ ´
Ġ k
° Ķ
Ł ½
Ġí Ĥ
ĠëĮĢ íĳľ
Ġì ¤
Ġë² Ħ
Ġêµ ¬ë
ìľ¼ë Ĥĺ
a l
¶ ģ
ĠíĶĦë ŀĳ
Ġ1 4
Ġ R
ìľ ¡
Ġ G
ìł Ī
´ë ĵľ
Ġë ľ
Ġê·¸ë¦¬ ê³ł
t i
íĥ Ģë
ìĻ ķ
20 1
Ġìĭ ¬
Ġíİ ĺ
ĠìĤ ¼
íĹ ĺ
ĠìĦ ¸ë
Ġë Ī
ë¥ ĺ
Ġíķ Ħ
ê ¶Į
Ġ19 6
Ġ 0
ì¦ Į
ëł ¤
ì Ĥ
ŀ ľë
¸ë ĭ¤
Ġìł ľë
Ķ ¨
Ġ1 3
Ħ Ī
Ġë¬ ¼
ìĻ ¸
ĠìķĦë ĭĪ
ĠíĻ ©
Ġë³´ë ĭ¤
Ġì² «
Ġë§Įë ĵ¤
ĠâĢ Ļ
· ¨
ĠíĶ Įë
Ġìĭ łë
ĠëĨ Ĵ
Ġëĭ¤ ìĭľ
Ġì¶ ©
e s
Ġì ĵ°
Ġí Ĵ
ì £
Ġìĺ ¬
Īë ¡ľ
Ġë¸ Įë
ì ±
íķ ł
ìĽ Į
² ķ
Ġë £¨
ĠìĤ¬ íļĮ
Ġìĭľ ì¦Į
ĠâĢ ĺ
Ġì´ Īë
Ġíĺ ĳ
Ġ H
Ġ N
Ġë ł
ê ´ĳ
Ġë¯ ¸ë
Ġíı¬ íķ¨
ŀľë ĵľ
ĠëĬĶë ĭ¤
Ġ E
Ġìĭľë ĮĢ
Ġëľ »
Ġë¬ ´ë
Ġìłķ ë¶Ģ
ĠëĮĢ íķ´
ī ´
ê³ ¡
Ġê¸ Ī
ì¸ ł
ĠíĶĦëŀĳ ìĬ¤
ĠëıĦ ìĭľ
ĠìĪ ľ
Ł °
íķĻ êµĲ
Ġì¤ĳ êµŃ
Ġë ĸ
ħ Ģ
ë į
Ġëı Į
¥ ĺ
Ŀ ½
Ħë ĭ¤
ì§ ĳ
íĥ Ī
íĸ Ī
Ġìĺģ êµŃ
ì° °
Ġëĭ Ī
Ġí ĭ
Ġì ¼
Ġê° Ĳë
¼ë¦ ¬
ì³ Ĳ
Ġìľ¼ë Ĥĺ
Ġëĭ¤ ê°Ģ
Ġë¡ľ ìĦľ
ĠìĹ¬ë Ł¬
ê² ĥ
ëł Ī
ìĺ ¨
ĠëĤ ´ë
ĠíĽ Ħë
Ĥ ľ
ĠìłĦ ìŁģ
Ġì£ ½
ĠíĤ ¤
ë§ Ŀ
Ġëıħ ìĿ¼
ìĿ ¼ë
ëĵ ±
Ġ19 4
Ġë Ł¬
Ġí Ħ
Ġíģ °
Ġëª¨ë ĳĲ
Ġë ĳ
Ġ %
Ġë°° ìļ°
Ġê°Ģ ëĬ¥
íħ Į
ì¡ ´
ê· ¹
´ë ıĻ
ĠìĦľ ìļ¸
ĠëıĻ ìķĪ
Ġì° ¨ë
ĠìľĦ ìĽĲ
Ġë¬¸ íĻĶ
ìķ Ļ
Ġê°Ĳë ıħ
ĠìĿ´ ìĥģ
h e
Ġì ¿
Ġìĸ ¸
Ġk m
§ ¤
Ġìłķ ì¹ĺ
ì¹ Ń
Ġê³ ¡
ë° ĺ
ĠíĨ ł
ĠëĮĢ íļĮ
ìĹ ´
ìĿ Ģ
íı ī
ìĬ µ
ĠìķĮë ł¤
Ġ19 5
łĪ ìĿ´
ì¶ ķ
Ġë Ĭ
Ġë¬¸ ìłľ
ĠìĿ¼ë ¶Ģ
Ġ c
Ġë°© ìĨ¡
Ġìĺ¤ ë
ì¿ ł
Ġëª¨ë ĵł
ĠíĻ ĺ
Ģë ¡ľ
ĠìĦ łë
ĠìĿ´ë £¨
Ġìłľ ìŀĳ
Ġê°ľë °ľ
Ġì¹ ľ
Ġêµ¬ ìĦ±
ĠìĻ Ħ
ë³ ¸
Ġ W
ĠìľĦ íķľ
Ġì§Ģ ë°©
ĩ ´
Ġì²ĺ ìĿĮ
íĥ Ħ
i c
Ġê¸ ¸
ì¼ Ģ
Ġä ¸
00 0
ĠìĺĢ ìľ¼ë©°
ê° Ĳ
ĠëĮĢíķĻ êµĲ
i s
ĠìĦ¸ ê¸°
¥ ´ë
Ġ3 0
Ġíħ Į
ĠëĲ ł
Ġ U
Ġëģ Ŀ
Ł ¼
ł ¸
ë ª¨
Ġì¶ķ êµ¬
ë° Ķ
ĠìĦ Ŀ
ĠìĹ Ķ
ìĺ Ī
ĠìĿ¸ êµ¬
ì² ĺ
ĠìĨ Ĳ
ĠíĬ ¸
Ġìĭľ ê°Ħ
ĠìĿ´ ìļ©
Ġì¡´ ìŀ¬
Ġìŀĳ íĴĪ
ë Ĥ´
Ġìłķ ëıĦ
ìĭ ľë
Ġê² Ģ
ë³ µ
ìĿ´ ìĬ¤
ì¶ Ķ
ĵ ±
ĠíĬ ¸ë
ĠëĨ į
Ġì± Ħ
ĠëĤ ¨ë
Ġê³ ³
Ġíģ ´ë
ł ¨
Ġë¶ Ħë
Ġì¦ ī
ĠëĤĺ ë
Ġê¸ ī
Ġë¦ ¬ë
Ġê²Į ìŀĦ
Ġì ·¨
Ġì£¼ ìŀ¥
ĠìĿ Įë
ê² ¨
Ġ s
Ġíĸ ¥
łë ıĦ
Ġë ł¤
Ġìĺ ¬ë
Ġì² ł
Ġê´Ģ ê³Ħ
Ġì¹ ´ë
ĠìĿĮ ìķħ
Ġìļ ´ëıĻ
Ġë ī´
Ġíı Ń
į Ķ
ì° ½
Ġë§ ¡
íļ į
ĠìĿ¼ë °ĺ
Ġê±°ë Ĥĺ
³ ĳ
2 00
Ġ t
ĠëĤ ł
ĠÂ ł
Ġ J
Ġìķ ŀ
Ġì Ķ¨
ĠëĤĺ íĥĢë
ĠìĤ¬ ê±´
² Ķ
ĠíĻ ľ
ãĢ Ĭ
íĥ Ŀ
Ġì¤ĳ ìĭ¬
Ġìł ĳ
ë £¨
ĠêµĲ ìľ¡
ì± ħ
Ġëį °ë
Ħ Ĳ
Ġê¸° ì¤Ģ
Ġå ¤
į ¨
Ħë ĮĢ
Ġë ¡
Ġë§ ŀ
ĠìĹŃ ìĤ¬
ë³ Ħ
ë¶Ģ ë¶Ħ
Ġë¶ Īë
Ġ2 5
Ġìĥ Īë¡ľ
Ġì½ Ķë
ĠíĸĪ ìľ¼ë©°
Ġê· ¼
Ġê· ¹
Ġë°ľ ê²¬
ëł ¨
ë² Ħ
ĥ Ī
Ġ ]
Ġê° ĸ
a t
ĠêµŃ ìłľ
ĠãĢ ī
Ġ ã
ì¦ Ŀ
íĶ ½
l e
Ġìľ ¡
íĨµ ëł¹
Ġë°ľ íĳľ
ë¦¬ ìĬ¤
ì° ©
ë ıħ
ĠíĮ ¨
ĠìĦ ¬
ŀ Ģë
Ġ >
Ġíĥľ ìĸ´ë
Ġì¸ ¡
r e
ŀ ¨
Ġìĭľ íĤ¤
ĠëıĦ ë¡Ŀ
ĠíĨ łë
í į¼
Ġê¸° ìĪł
ì¹ ´ë
íĻĶ êµŃ
ĠìķĦë ĵ¤
íĦ ´
Ġë¡ľ ë¶ĢíĦ°
¯ ¸ë
Ġìŀ ĺ
Ġíı ¬ë
ìĬ ¨
Ġë§ ī
¨ ìĸ´
i t
Ġì± ħ
íĭ °ë
Ġå ħ
Ġê± ¸
Ġê³µ ê²©
Ġ19 3
ìĽ Ģ
ĠìĿĺ ë¯¸
Ġ O
ì§ ķ
Ġí ŀ
ë§ ¤
ëħ Ħ
ĠìĿ´ë Ł¬
¨ë ıĦ
íĻ ľ
Ġëĵ¤ ìĸ´
ĠìłĦ íĪ¬
Ġìĭľ ì¼
ë¦ Ń
Ġë² łë
ë Łī
ľ ĺ
Ĥ ¨
ìł ĳ
Ġê²½ ìłľ
ĠìĦł ê±°
Ġê· Ģ
o u
Ġìļ° ìĬ¹
Ġí ĳ
¨ ¸
Ġë ¿
ì² ł
Ġë ´ī
íĶ Ħë
Ġë° Ŀ
ë¶ ģ
ìĪ ľ
ë° °
ĠëĮĢ íĨµëł¹
ì Ĥ´
Ġìĺģ íĸ¥
ê¸ Ģ
Ġíļ ¨
Į ë¦¬
Ġ2 1
Ġì¤ Ħ
ĠëĮĢ ë¶Ģë¶Ħ
ĠìĤ¬ ë§Ŀ
ëĤ ¨
ĠãĢĭ (
ë Ł¬
ĠãĢ Ī
Ġê± ´ë
Ġìŀ ¡
Ġì ĩ
Ġì§Ģ ìĽĲ
Ġê³¼ ìłķ
ì į¨
ĠíĶĦë¡ľ ê·¸ë
ĠìĽ Ĳë
Ġê· ľ
íĺ ¼
ŀĢë ĵľ
ª ©
Ġê²° ê³¼
Ġêµ °ë
ĠíĻ į
¡ Ģ
Ġìĸ »
Ġë° Ģ
Ġì°¸ ìĹ¬
ĠìĹ ħ
Ġìķ Ķ
Ġìķ ł
ìĿ Ħ
Ġì§Ħ íĸī
Ġì» ¤
Ġë¶Ģ ë¶Ħ
Ġê´Ģ ëł¨
ĠíĶ Ħ
Ġë°ľ ìĥĿ
ħ Ħ
Ġëĵ ľ
ì§Ģ ë§Į
ŀ Į
e l
ĠëĲ Ĳ
Ġ [
Ġìµľ ì´Ī
ĠíĹ ¤
Ġë³ Ħ
Ġë°ľë §¤
ìĤ °ë
Ġê³ ¨
Ġìĸ´ ìĦľ
Ġë³ ¼
ìĿ ĳ
Ġì¡ °ë
Ġìļ °ë
²Ħ ì§Ģ
ĠìĦ¤ ë¦½
Ġìłľ êµŃ
ìĿ´ íĬ¸
Ġê²° ìłķ
Ġëıħ ë¦½
Ġì¤ĳ ìķĻ
Ġìĥģ íĥľ
íģ ¬ë
ĠìĦ¤ ì¹ĺ
ĠìķĦ ìĿ´
ĠíĬ¹ íŀĪ
ë§ ī
Ġíĺķ íĥľ
Ġê°Ļ ìĿ´
ë¦¬ ì¹´
ĠâĢ Ŀ
ĠìĨĮ ìĨį
Ġê³ł ëĵ±
ì µľ
ĵ ľë
Ġëĭ¤ ìĸĳ
ë° ľ
ëª ©
Ġì¼ Ģ
ĠìĤ¬ ìĭ¤
§ Į
Ġå ®
Ġ <
ĠìĨ ¡
ìĽ Ķ
Ġìľłë Ł½
ì£ ¼ë
ĠìĿ¼ ìĸ´ë
ĶĶ ìĺ¤
ìĺ Ģ
Ġ2 4
ĠìĿ´ ìłĦ
Ġ2 3
ìļ ´ë
Ġìŀ Ħë
Ġìľ¼ë¡ľ ìĦľ
Ġìĺ¬ ë¦¼
¶ Ħ
ĠâĢ ľ
Ġë² Ķ
ĠìĥĿ ê°ģ
Ġìŀ ¬ë
ĠìĿ¸ íķ´
Ġíı Ĳ
Ġìķ ħ
Ġì£¼ë ¡ľ
Ġì´Īë ĵ±
o m
ĠìĥĪë¡ľ ìļ´
· Ķ
Ġì¢ ĭ
ĠëŁ¬ ìĭľìķĦ
ìļ° ìĬ¤
² ł
ĠëĤĺ ëĿ¼
ĠíĮ Įë
° °
ë³ ĳ
o l
Ġìķ ¨ë
ĠíķĦ ìļĶ
ĭ ¬
íĮ ¨
ı Į
ìĨ Ĳ
Ġíĥ Ħ
Ġ201 0
ĠíĶĦë¡ľê·¸ë ŀ¨
ìķ ł
u s
ĠìĦ ¼
ìļ °ë
Ġêµ¬ ì¡°
Ġì¶ľ ìĭł
ìĿ´ë ĵľ
Ġ2 2
Ġæ Ŀ
íĨ łë
Ġìĺ ¨
ĠìĿ¸ë ¯¼
ĠíĹ Ī
Ġì¡° ì§ģ
Ġê·¸ë ħĢ
Ġ V
ìĬ¤ íħ
Ġíģ ¬ë
ëĤ ľ
ĠìĿ´ íĥĪ
Ġëĵ± ìŀ¥
Ġì¤ĳ ìļĶ
ĠìĿ´ ê²ĥ
Ġë ŀĢ
Ġìļ´ ìĺģ
Ġí ŀĪ
Ġê¸° ê´Ģ
Ġìĺ¬ë¦¼ íĶ½
Ġê³Ħ íļį
Ġê´Ģ ë¦¬
a s
¨ë ĭ¤
Ġì°¸ ê°Ģ
Ġê³Ħ ìĨį
ĠìĬ Ī
ĠìĹ¬ ìĦ±
Ġíĸī ìłķ
Ġìĭ ±
Ġì ħ
í ĩ´
ĠìľĦìĽĲ íļĮ
Ġíķ´ ìĦľ
ĠìĦ± ê³µ
Ġìłķ ë³´
ì° ¬
Ġì§Ģ ìłķ
Ġíĭ °
ĠìĿĮë °ĺ
Ġë§¤ ìļ°
Ġë¡ľ ë§Ī
a m
Ġíķĺ ì§Ģë§Į
Ġìĥģ ëĮĢ
£ ¹
ti on
Ġì¢ Į
ķ Į
Ġìĸ´ë ĸ
ë Ł¼
ĠëĦ ĺ
Ġ 000
ì¹ ľ
Ġíķ´ë ĭ¹
Ġì µ
ê° Ŀ
Ġ2 6
Ġìĥ Ī
Ġìĸ µ
íĿ ¬
Ġë¿ Ĳ
Ġì ¤Ģ
Ġë² Į
ìľ ¨
Ĭ ĺ
ĠìŀĲ ìľł
Īë ¹Ħ
Ġëį°ë ·Ķ
ìĨ Įë
ëĭ ¬
Ġë³ ¸ë
ì¸ ¡
Ŀ¼ë §Ī
ë° ķ
Ġ2 8
ë¦¬ ì¦Ī
ê ´
ĠìŀĲ ë¦¬
Ġì² łëıĦ
ê· ľ
Ġ2 7
Ġì° ¾
ìĿ µ
ĠìĿ´ ìĸ´
ĠìĹ¬ ìŀĲ
Ġì²ĺ ëŁ¼
Ġ19 2
Ġë°ľ ìłĦ
Ġë¯¼ ì£¼
Ġê³¼ íķĻ
ĠìĿ´íĥĪ ë¦¬ìķĦ
Ġ d
ê· ł
ĠìĤ¬ ìĹħ
ì§ Ħëĭ¤
in g
ëħ ¸
ĠìĥĿ ìĤ°
Ġëª ĩ
Ġê¸ Ģ
íĦ °ë
ìĿ´ ìħĺ
íĺ Ģ
ì» ¤
i l
ĠëĶ°ë ¥´
íĶĦ íĬ¸
íĭ Ģ
Ġë°© ë²ķ
¥ Ĳ
ĠìķĦë ²Ħì§Ģ
Ġëĭ ¬ë
ìĬ ¬ë
Ġê³ł ëł¤
ìĬ¤ íĦ°
Ġìľ ¤
Ġì°¨ ì§Ģ
Ġê· ľë
e t
Ġìķ¨ë ²Ķ
¥ ¸
Ġê·¸ë £¹
c h
r o
Ġë¸ Ķë
Ġê°Ģ ë¦¬
Ġì½ ĺ
Ġ o
§ Ŀ
Ġ200 8
Ķ ©
Ġìĭľ ë¦¬ì¦Ī
ĠëĮĢ ìłĦ
ĠíĽĦë ³´
ë ¹
į ¸
ĠëĪ Ħ
Ġì£¼ ìļĶ
Ġë³´ ìĿ´
Īë ĭ¤
ĠëĤ´ ìļ©
ëĤ ł
Ġ1 00
Ġì¶ľ ìĹ°
Ġë £
Ġë Ĭ¥
ĠíĥĢ ìĿ´
Ġíķ ľë
Ġìµľ ê³ł
¼ë §Ī
ĠíļĮ ìĤ¬
Ġ200 7
Ġì¡ Į
Ġë¬ ĺ
Ġê²° êµŃ
Ġëĳ ĺ
Ġ b
ìļ´ë į°
Ġé ĩ
ĠíĮ Ķ
ĠìłĦ ì²´
Ġíĥľìĸ´ë Ĥ¬
ĠìĺĢ ìľ¼ëĤĺ
°ë ĭ¤
Ġëĵľë Ŀ¼ë§Ī
Ġê² ©
³ Ģ
íı ¬ë
Ġì¸ µ
Ġ p
ĠëĤ ľ
ĠìĥĿ íĻľ
Ġí ŀĺ
Ġëª» íķĺ
¸ë ĭĪ
Ġ201 2
Ġ200 9
Ġë§İ ìĿ´
ł Īë
ĠëıĮ ìķĦ
Ġëį Ķë
Ġê·¸ë¦¬ ìĬ¤
Ġ201 1
íķ ľëĭ¤
Ġê°Ģ ìļ´ëį°
Ġê· ¼ë
Ġë°© ìĭĿ
Ġê³łëĵ± íķĻêµĲ
Ġ2 9
Ġìłľ ê³µ
ĠìĿ´ ìľł
ĠìĽĶ ëĵľ
Ġìĭľ ê¸°
Ġ19 1
F A
ìķ ķ
ĠìĿ´ë ģ
ì ĻĶ
Ġê¸° ìĹħ
ĠìĹŃ íķł
Ġë¹Ħë ¡
Ġìķ Īë
Ġê¸° ìĽĲ
ĠêµŃ ë¯¼
ĠìĿĺ ìĽĲ
¸ Ķ
Ġê³µ ìĭĿ
Ġæ ľ
Ġ" )
³ Ħ
ĠìĿ¸ë ıĦ
êµ ¬ë
ìĹ ĺ
ĠìķĦë ŀĺ
Ī Ħ
ĠìĹ° íķ©
ĠìĬ¤ íĥĢ
ĠíĴ į
Ġìľłë ªħ
ìł ľë
Ġìĩ ¼
ĠìĿ¸ ê°Ħ
Ġëł Īë
ìĬ¤íħ ľ
Ġê±° ìĿĺ
Ġêµ° ìĤ¬
Ġìľ¼ë¡ľ ìį¨
³ µ
Ġë°ĺ ëĮĢ
Ġì¡° ìĤ¬
ê° Ī
Ġìł Ī
Ġìĥ ī
Ġìĭľ ìĬ¤íħľ
ĭĪ ìķĦ
Ġìłľë ıĦ
Ġë¯¼ ì¡±
łë ¥´
ìķ Ķ
ì ĵ°
ì´ Ŀ
ĠìĬ¤ íİĺ
í ľĺ
ìĿ ¸ëĭ¤
ĠëĮĢ ìĭł
Ġê ¶
Ġìľ¼ë¡ľ ë¶ĢíĦ°
ë¥ ´ë
Ġíĳľ íĺĦ
ì¹ Ļ
ì ĩ
ĠíķŃ ê³µ
® ¤
Ġì¶ľ ìłĦ
Ġíıī ê°Ģ
Ġíķ´ ìķ¼
ĠìĿ´ë£¨ ìĸ´
ë Ħ¤
Ġì¶ ľë
ëŀ Ģ
Ġìļ° ë¦¬
Ġê³µ ê°ľ
ĠìĪĺ ìĥģ
Ġìľł ì§Ģ
Ġ201 4
Ľ °
ĭ Į
Ġä º
ì¶ ©
Ġì ī
íĴ į
Ġìµ ľë
§ Īë
ê· Ģ
Ġë¨ ¸
Ġìº Ĳ
ĠëĮĢ ìĥģ
Ŀ¼ ìĿ´
ĠìĿ´ ë¥´
Ġê¸° ëĬ¥
Ġì¿ ł
ìķ¼ ê¸°
Ġë¶ Ļ
Ġëª¨ ìĬµ
Īë ©Ķ
r a
ĠêµĲ íļĮ
ĠëĨ ĵ
Ġê°ģ ê°ģ
ĠìĹ ĺ
Ġë° ĸ
Ġíĥ Ī
ĠìĬ¹ ë¦¬
ìľ ¼
Ġê·ľë ª¨
Ġí ľ
Ġì§Ģ êµ¬
ì§Ģ ë§ī
Ġì´Ī ê¸°
Ġ3 1
Ġìĸ¸ ìĸ´
ĠìĿ¸ ìłķ
Ĭ Ĳ
Ġ201 3
Ġì§ Ħë
ìĬ Ī
ĠìĹ° ê²°
ĠìĿ´ë ¯¸
ê¹ Ģ
Ġëĸ ¨ìĸ´
Ġë¶Ħë ¥ĺ
ĠìŀĦë ªħ
Ġë¨ ¼
Ġëħ¸ë ıĻ
Ġìĭľì¼ °
Ġìķ łë
B S
Ġëħ ¹
¹Ħ ìķĦ
ê° Ķ
ħ Ĳ
Ģë ĭ¤
Ġëĭ¨ ì²´
Ġ200 6
Ġíħ Ķ
ì³ ¤
Ġëª© ìłģ
Ġì¹ ¨
í Ľ
ĠìĪĺ ëıĦ
Ġì¡ ¸
Ġì§Ģ ëıĦ
ĠìķĮëł¤ ìł¸
¨ ¸ëĭĪ
ìļ ķ
íĿ ¥
Ġë¥ ´
íħ Įë
Ġì§Ħ ì¶ľ
Ġo f
Ġê ¼
Ġìŀ ł
ĠíĬ¹ ë³Ħ
ĠëıĻ ìĭľ
Ġìĥģ íĻ©
ìĿ´ íĦ°
ĠìĹĲ ë
ĠìĿ´ë ¡ł
Ġì ĵ
ëĵ Ŀ
Ġë§Ī ì§Ģë§ī
ê³ łë
Ġë¶Ī ë¦¬
íĹ Į
ê¹ Į
Ġ201 5
Ġì§ģ ìłĳ
e d
ìĿ´ ì§Ģ
ĠëĶ°ëĿ¼ ìĦľ
Ġê°ľ ìĿ¸
ê² ¼
ĠìĦľë ¡ľ
Ġíķ µ
ë° ±
Ġì» ´
Ġê¸° ê°Ħ
ĠìĻ Ķ
ĠìĿ ĳ
Ġë¥ ĺ
Ġë Ľ°
ĠíĦ °
Ġë¬ ¼ë
Ġìłķ ì±ħ
Ġì Į
ĠíĸĪ ìľ¼ëĤĺ
ĠìĿ´ ìķ¼ê¸°
ìĦ ¼
ĠìŀĲ ìĹ°
Ġì§ Ī
Ġê³Ħ ìķ½
Ġíħ Įë
ĠìłĦë ¬¸
Ġå¤ §
Ġë¨ ¹
íĺ ģ
Ġ5 0
Ġìłķ ìĿĺ
ë ĳĲ
Ġìĭľ ìŀ¥
íĭ ´
Ġì¶Ķ ê°Ģ
Ġë ŀ
ĠìĹ´ ë¦°
Ġì¡ ±
ê³ ¨
Ġìĭľ ìłĪ
ĠìĤ° ìĹħ
ìĽ ł
¹Ħ ìĬ¤
ë ©Ķ
í ŀ
Ġëħ ¼
ê´ ´
ê³ ³
Ġëħ¸ë ŀĺ
ì¹ ¨
Ġê±´ ìĦ¤
Ġê³µ ëıĻ
Ģë ŀľëĵľ
Ġíĺ ģ
Ġ19 0
Ġíĺ ĦëĮĢ
Ġ201 8
íķĻ ìŀĲ
Ġê³µ ê°Ħ
Ġê²½ ìĥģ
ĠìĬ µ
Ġê°ľ ìµľ
ĠêµĲ ìĪĺ
íĺ Ķ
¸ Įë
ĠíĻľ ìķ½
Ġì§Ģ ê¸Ī
Ġ201 6
íĬ ¹
Ġëĭ ¨ë
Ġíĺķ ìĦ±
Ġìľ¼ë ©´
i d
Ġíĺ ¸ë
§ ģ
ĠíĶĮë łĪìĿ´
Ġëĸ łë
Ġê±´ë ¬¼
Ġë³Ģ ê²½
Ġëª¨ë į¸
Ġå Ń
ĠíĶĦ ë¦¬
Ġê±° ë¦¬
Ġíĺ ¹
Ġê´Ģ íķľ
Ġê²° íĺ¼
ĠìĿĺ íķĺ
ĠìĿ¸ë ¬¼
Ġë¶Ģ ë¥´
Ġìķ ķ
íĤ ¨ëĭ¤
Ġëĭ ´ë
ë² ł
ëĤĺ ëĿ¼
Ġë³Ģ íĻĶ
Ġ20 00
Ġì¡¸ ìĹħ
Ġê·¸ ê²ĥ
´ ë¦¬
Ġæ ĸ
Ġå ı
Ġíĺ ¼
Ħë ĵľ
ìĬ¤ íĬ¸ë
Ġê°Ģ ìĪĺ
ĠìĤ¬ ìĥģ
ĠìŀĲ ëıĻ
ëħ Ĳ
Ġê²½ ì°°
Ġí į¼
a c
Ġë³´ ìĹ¬
Ġê¸ ´
ĠìĻĦ ìłĦ
Ġë¹Ħë¡ ¯
ĠìĹ¬ ê¸°
19 9
ĠìĹŃ ìĭľ
¶ Ī
ì» µ
ëĭ Īëĭ¤
¨ ¼
Ġë§ Ŀ
ìĿ ¸ë
ìĹ ¼
Ġìº Ĳë
Ġëª ¸
ĠT V
ĠíĮ ¨ë
ìľ łë
1 8
ê³µ íĻĶêµŃ
ì¸ µ
Ġ !
Ġ201 7
t er
íĤ ¨
ĠíĶ ¼ë
Ġëĭ ´
ĠìĿ¸ë¯¼ ê³µíĻĶêµŃ
ł ¹
ĠëĤ ®
Ġì¹ ¸
o s
Ġ200 5
ĠìĨĮ ìĦ¤
ĠìĬ¤íİĺ ìĿ¸
Ġê² ł
Ġìµľë ĮĢ
Ġìķ¼ êµ¬
ë £
Ġ4 0
ìĹ Ħ
íĻ ķ
Ġê³µ íĻĶêµŃ
ë¥ ł
ĠìĨį íķĺ
Ġê° Ī
ĠìĽ ¨
ĠêµŃ íļĮ
Ġëħ¸ ìĦł
ĠíķĻ ìĥĿ
ĵ ¨
Ġæ °
Ġê±° ì³Ĳ
Ġì¤ĳ íķĻêµĲ
Ġ ?
ĠìļĶ êµ¬
ĠìĿ¼ ìľ¼
ì½ Ķë
ĠìĹĨ ìĿ´
ł ī
ĠëĶ ¸
Ġë§Ī ìĿĦ
íĥ ķ
Ġì§Ģ ì§Ģ
ĠìĦľë ¹ĦìĬ¤
ìĺ ¥
Ġìĭ¤ ìĭľ
¬ ë¦¬
ì¿ Ħ
Ġíļ Įë
Ġë¸Įë Ŀ¼
ĠíĮĲ ë§¤
ëį ķ
Ġê ¶ģ
Ġ200 4
ĠãĢ į
Ġìĥ ¤
² Ī
Ĳ ë¦¬
ìļ ±
i g
ìļ ´ëĵľ
Ġë³´ íĨµ
Ġë§Ī ìĿ´
Ġê² ¸
ë§ Īë
ĠìĤ¬ëŀ ĳ
Ġìŀ ī
° Ģ
Ġëĭ¬ ë¦¬
ë¦ °ëĭ¤
êµ ´
ĠìĻ ¸ë
ĠìľĦ íķĺ
Ġíĥ ĳ
ĠìĦ¸ë ł¥
Ġìĸ ¸ë
Ġê°Ģ ì§Ħ
ëĭĪ ìķĦ
ĠF C
ĠíĻ© ìłľ
Ġíķľ íİ¸
ĠìĿ¸ íĦ°ë
ĠìĤ °ë
íĮ ħ
ë¥ Ļ
Ġë¹Ħ íĮĲ
ĠìŀĲ ê¸°
Ġìĭ± ê¸Ģ
Ġê¸° ë°ĺ
ĥ Ĳ
ĠìĹ ´ë
Ġíķľëĭ¤ ëĬĶ
ëĤ ¨ëıĦ
ìĹŃ ìĭľ
Ġë° ´ëĵľ
Ġì§Ģ ëĤĺ
an d
Ġì² ľë
Ġì§Ģ íķĺ
Ġë§Įë ĵł
½ ĥ
Ġìĭ ¸
ê ¶ģ
Ġ n
Ġì§ Īë
Ġëªħ ì¹Ń
Ġëª» íĸĪ
Ġëª¨ ìĸĳ
íĶĦ ë¦¬ì¹´
Ł °ë
ĠëĪ Ī
ĠìŀĲ ë£Į
ĠíħĶ ëł
ĠT he
Ġå ¯
ì£ Ħ
ĠìłĦ êµŃ
ìĪ Ļ
Ġìłľ ìĻ¸
ĠìĿĺ íļĮ
í ĳ
u r
ĠãĢ Į
Ġì¤ĳ íĻĶ
ĠìĪĺ íĸī
Ġ ï
Ġë³´ íĺ¸
ê¸ ¸
Ġìļ° ì£¼
¬ ´ë
ë¡ ł
Ġíĺ¹ ìĿĢ
Ġìĸ´ëĸ ¤
Ġì¢ħ êµĲ
ŀ Ĳ
ë į°
Ġë¶Ģ ìĤ°
o d
Ġìļ ¸
ĠëĤĺ ìĿ´
íĮ Įë
Ġìļ´ íĸī
a d
¨ ë¦¬
į ĺ
ĠìĽ Į
ĠëĤĺ ìĺ¤
Ġê·¸ë ŀĺ
ĠëĮĢíķ´ ìĦľ
Ġë¶Ģ ëĮĢ
u n
ĠìłĦ íĨµ
Ġë¶Ħ ìķ¼
Ġê¸° ë³¸
Ġê¸°ìĽĲ ìłĦ
ĠíĻĺ ê²½
Ġì°¨ ìĿ´
Ġìĭľ ìĦ¤
Ġê²½ê¸° ëıĦ
ĠìķĦë ĭĮ
ì¦ Īë
ë ĳ
ìĬ¤ íĥĢ
ìŀ ¡
ĠìĪ Ļ
ĠìĨĮë ł¨
Ġê³µ ìĹ°
í ĥģ
Ġëħ ¼ë
Ġëĵ Ŀ
ê¸ ´
Ġìĺ Īë
Īë¹Ħ ìłĦ
Ġå °
ĠíļĮ ìĿĺ
Ġë ¡ł
ĠíĦ °ë
ë ĶĶ
ĭ ´
Ġ201 9
ë¦ ´
íĶ Įë
ĠíĬ¹ ì§ķ
Ġéĩ ĳ
Ġìŀĳ ìĹħ
Ġì»´ í
ì¶ ĺ
ĠìĦ¤ ëªħ
ĠíĨµ íķ©
Ġë§ ¥
ĮĢ ë¡ľ
Ġå ľ
en t
± ±
ĠëıĦ ìŀħ
ĠìĿĺ íķľ
Ġt he
ĠíħĶëł Īë¹ĦìłĦ
Ġì§Ģ ë
ĠìłĦ ìŀĲ
íļ ¨
a tion
ĠìĿ´ë ıĻ
Ġë°© íĸ¥
Ġ200 2
ĠìłĦ ê¸°
Ġì¶ľ ìĭľ
íķ Ħ
ë ıĮ
ĠìĬ¹ ê°ķ
¾ ¸
Ġë¹Ħ ìĬ
Ġ18 9
ìĻ Ħ
å Ń
Ġë°Ķë ¡ľ
Ġí ĩ´
íĺ ĳ
Ĥĺ ëĭ¤
ì Ķ¨
Ġì§Ģ íľĺ
ĠìĽĲë ŀĺ
Ġë ®¤
ĠëĤ¨ ìª½
Ġêµ°ë ĮĢ
ĠìĺĪ ìĪł
ĠìĦ¼ íĦ°
ĠìĦł ìłķ
ĠëĬ¥ ëł¥
ŀ Ļ
Ġë¯ Ģë¡ľ
ĦĪ ì§Ģ
ĠíĻķ ìĿ¸
Ġìŀĳ ê³¡
Ġíĸī ëıĻ
ĠëıĦ ë¡ľ
Ġëª© ë¡Ŀ
Ġìĺ ®
ìĽ ¨
ĠëĦ ĵ
Ġìĺ ¥
Ġë¹ĦìĬ ·
ë Ŀ½
ë³ Ģ
Ġìŀĳ ê°Ģ
Ġå į
Ġíĸī ìľĦ
Įë ²ķ
ĠìĹ°ë °©
Ġë¶ģ ìª½
Ġêµ¬ ìĹŃ
¬ íķ´
ĠëıĻ ë¬¼
Ġê¸° íĥĢ
ĠëĨĴ ìĿ´
u m
Ġå ·
Ġì°¨ë Łī
Ġê¸° ëıħ
Ġíĺķ ìĭĿ
Ġì° ©
Ġìĭ Ń
Ġíĥ Ĳ
Ġë¬¸ íķĻ
Ġìĸ´ë ¨¸ëĭĪ
t e
B C
Ġê°Ģ ì¡±
ĠìĽĶëĵľ ì»µ
ìľ ¤
Ġìł Īë
ë¡ Ģ
Ġ Y
Ħ ·
ĠìĹŃ ìŀĦ
ĠêµĲ íĨµ
ĠíĶ¼ íķ´
ĠìĿ´ëģ Į
ĠëĤĺ ê°Ģ
ìĥ Ī
Ġì¦Ŀ ê°Ģ
ĠìĹ´ ì°¨
ĠêµĲ íĻ©
Ġë§Īë ĭ¤
ìĬ¤ íĥĦ
Ġê¸° ì¡´
ĠæĿ İ
Ġë² Ħë
Ġíļ¨ ê³¼
ìĿĺ ìĽĲ
Ġì§Ģ ë°°
ĠëıĦ ì¿Ħ
ĠìĨĮ íĶĦíĬ¸
ì ¢
ëĭ ´
Ġìŀĳ ìļ©
Ġìľł ìĿ¼
ĩ Į
Ġíĺģ ëªħ
Ġëĭ´ë ĭ¹
Ġê° Īë
° ±
ŀ µ
Ġ200 3
Ġì¶Ķ ìłķ
Ġìľ Ħë
Ġë³´ë Ĥ´
ĠìĿ´ ìłģ
ë¥ ¸ëĭ¤
ĠìĿ´ë ķĮ
ĠìĬ¹ê°ķ ìŀ¥
Ġê ´
Ġå Ĳ
¡ľ ìĬ¤
ë§ ¹
ĠíĿ Ĳ
Ġê¸° ëħĲ
ìĭ ±
ĠêµŃ ëĤ´
ĠëĤ¨ë ¶Ģ
ëĵ ľë
ëħ Ģ
Ġíģ´ë Ł½
Ġíĥľ ìĸĳ
íĽ Ī
ĵ¨ íĦ°
Ġë§Īë ¥´
į ¼ë
Ġë©´ ìłģ
Ġê¸°ëıħ êµĲ
Ġê° ĳ
ĠìĻķ êµŃ
ìĬ¤ íģ¬
Ġì ª½
Ġìłģ ìļ©
ë¶ģ ëıĦ
Ġ =
Ġë°Ķ ìĿ´
Ł¬ ìĬ¤
ĠíĻ Ī
ìķ ¡
² Į
Ġíĺĳ íļĮ
Ġìŀ¥ ê´Ģ
Ġìĭľì¼ ľ
ĠíĿ ¬
Ġë¹Ħ êµĲ
ĠíĴ Ģ
Ġìĭľë ¯¼
Ġíķľëĭ¤ ê³ł
Ġìłķ ëĭ¹
Ġë¬ ¸ë
v e
ĠëĤ¨ ìŀĲ
ĠìºĲë Ĥĺëĭ¤
ì ¥Ĳ
ĠìĿ¸ ê¸°
ĠìĺĪ ìłķ
ëŀ ĳ
Ġå ¾
ĠëıĻ ìª½
íģ ´
ĠìłĦë Ŀ¼ë
ìĹ Ķ
Ġì£¼ë ³Ģ
ì´ Į
r i
ëł ¬
ĠF I
Ġë¹ Ī
ĭ Īë©Ķ
Ġê³¼ ê±°
į °ë
ìŀĲ ë¦¬
å ®
Ġ199 0
ì¿ łë
Ġ h
ł Į
ĠìĿ´ ìĤ¬
ĠëĿ¼ ìĿ´
Ġê³ §
Ġ X
Ġêµ¬ ê°Ħ
Ġë°Ķ ê
ĠëĤ Ļ
Ġìĥģ ëĭ¹
ì± Ħ
Ġíļ į
Ġíķ ¨ë
ĠëĦ £
Ġì» µ
Ġíĳ ľë
Ġê°ľë ħĲ
¡ Ŀ
Ķë ¡ľ
Ġê°Ģ ê¹Į
Ġì°¨ë ¡Ģ
ĠëĮĢ ìĤ¬
ĠëĮĢ íķĺ
ĠëĬ Ĳë
o t
Ġíģ¬ ê¸°
Ġì± Ķ
ĠìĦľ ìª½
ì º
ŀ ľ
Ġê±´ ì¶ķ
ĠìĹ° ê¸°
ì£¼ë ĭ¹
Ġí Ī
Ġê³µ ìĤ¬
ĠíĿ ¥
ĠìŀĲ ì²´
Ġìķ ¡
Ġìľ¡ êµ°
ì¼ ĵ
ĠìĹĲë ĦĪì§Ģ
Ġë³ Ħë
Ġë© ¤
Ġì£¼ë ıĦ
Ġì§ ķ
Ġìĭ¤ íĮ¨
¯ Ģë¡ľ
ë Ķ
Ġë°© ìĺģ
Ĥ ł
Ġìĺģ ìĸ´
ĠìĤ¬ ë¬´
Ķë Ŀ¼
Ġìķłë ĭĪë©Ķ
ìĿ´ë ¸Į
ĠìĿ´ë Ŀ¼
Ġé ĥ
ĠìĦ± ìŀ¥
o w
Ġìĺ¤ë Ĭĺ
ì ·¨
ìĺ ¬
ã ģ
ĠìĤ¬ ê³ł
Ġì±Ķ íĶ¼
ê¸ Ģëŀľëĵľ
Ġë²Ħ ìłĦ
Ġìĺ¬ë Ŀ¼
Ġì¢ħ ë¥ĺ
Ġëī´ ìļķ
íĦ ¸
ë¶ Ī
Ġì»´í ĵ¨íĦ°
ìĿ ¼ë¦¬
Ġìŀĳ ìłĦ
Ġë Ŀ
Ġæ ĺ
ĠëĬ ĺ
ĠëĶĶ ìŀĲ
ê°Ģ ì§Ģ
Ġëĭ¤ ë¥´
ĠìĪĺ ë¡Ŀ
ìĹ Ĳë
Ġë¯¼ì£¼ ì£¼ìĿĺ
Ġíĳ ¸
ĠìľĦíķ´ ìĦľ
Ġ200 1
Ġìĸ´ ë¦°
Ġ20 20
e c
Ġëķ ħ
ì¢ Į
ł ĩ
Ġíı ´ë
Ġì¡° ê±´
Ġç Ķ
ĠëłĪ ìĿ´
Ġë¹ Įë
Ġëĭ¬ë Ł¬
Ġì¹ Ń
ĠìĤ¬ ëĭ¨
ĠìĽ Ģ
Ġê·ľ ìłķ
Ġë°ĺ ìĿĳ
ë² Į
íģ ´ë
íĶ Į
ĠìĹ° ìĨį
ê±° ë¦¬
íħ Ķ
Ġë¬ ¼ë¦¬
Ġë²Ħ ìĬ¤
ë² Ķ
Ġé Ļ
ĠìķłëĭĪë©Ķ ìĿ´ìħĺ
Ġì¿ łë
ĠíĹ Īë
ĠìŀĲ ì¹ĺ
Ġëª ½
Ġìķ ¤
ĠìĨį ëıĦ
Ġë¶Ģ ì¡±
ĠìĹ° ì£¼
Ġì²´ ìłľ
Ġì§Ģë ĥĪ
Ġìĸ ¼
ĠìĦł íĥĿ
Ġìĸ´ë ĬĲ
ĠíĬ¹ ìłķ
íĬ¸ ë¦¬
Ġìĺ Ľ
Ġë©¤ ë²Ħ
ì ¤
ìĤ ¼
ĠëĤ´ë ¶Ģ
ĠëĶ °
Ġ a
Ġëªħ ëł¹
Ġë¶ģ ë¶Ģ
ë ´ī
Ġë°Ŀ íĺĶ
5 0
Ġì¹ľ êµ¬
Ġê±¸ ì³Ĳ
ĠìĹ°ë ĮĢ
ĠëĬĶ ì§Ģ
Ġc m
ìĬ¤ ì½Ķ
Ġì¶© ì²Ń
ĠíĴ Ī
Ġë¡ Ŀ
Ġíľ ´
Ġëĭ¨ ê³Ħ
ĠìĦ¸ íı¬
Ġê·¸ë Ł¬
ĠìĹ Ħ
íķ Ģ
íı Ĳ
ĠìĦł ì¶ľ
ì¦ ĺ
i r
ĠìĿ´ë Ł°
Ġë³´ ìĿ¸ëĭ¤
ìĽ ¨ìĸ´
Ġê°Ģ ì¹ĺ
ìł ¤
Ġë¨¸ ë¦¬
ĠìĦł ìĸ¸
ì» ¬
íĬ¸ë Ĥ¨
ìĭľë §Ī
Ġíķ´ êµ°
Ġì¡° ìķ½
ĠìĿ¼ìĸ´ë Ĥĺ
i a
Ġé ģ
ĠìķĦë ¥´
Ġë¬¼ ì§Ī
ĠíĹ Įë²ķ
Ġì¦ Ī
Ġì¶ľ íĮĲ
ĠS t
Ġ6 0
Ġä »
łĪ ìĬ¤
ĠFI FA
ë¬ ´ë
19 8
Ģë ¹Ħ
Īë ıĦ
o p
Ġë§ ¨
Įë ĵľ
Ġê°ľ ìĽĶ
ĠìĿ¸ ì§Ģ
Ġëį ķ
Ġæ Ń
ìĬ ¬
ë ŀĺ
ĠíĿ ĳ
Ġë§Ī ìĿĮ
ł µ
ĠëįĶ ìļ±
ì² Ļ
ĠìĬ¤ íı¬
Ġë§Ī ë¦¬
Ġì§Ģ ëªħ
² ¨
ì¡ °ë
į ´
Ġê°ľ íĺģ
ĠìĿĺ ìĤ¬
Ġìŀī ê¸Ģëŀľëĵľ
Ġë²ķ ìĽĲ
íĨ ¨
Ġ g
Ġì Ķ©
Ġë¶Ħ ìĦĿ
íĻ į
Ġë¶Ģ ë¬¸
Ġê³ ¤
ĠìĿ µ
Ġëĭ¹ íķĺ
ĠëĤ´ë ł¤
Ġìµľ ì¢ħ
Ġm m
ĠC h
Ġë©Ķ ìĿ´
Ġíıī ê·ł
Ġê²° ìĬ¹
Ġì²´ ê³Ħ
Ġë¹ ł
ì¹ ¸
Ġë°° ì¹ĺ
§ ¹
ĠìĦ¤ ê³Ħ
Ġ18 8
Ġê°ľë ´ī
Ġê´Ģ ìĭ¬
ĠìĦłë °ľ
Ġì² Ļ
Ġë¹Ħ íĸī
ìķĦë ĵ¤
Ġìĸ¸ ê¸ī
ĠíĹ Į
c e
ĠíĺĦ ìĥģ
Ġìłķ ìĭł
Ġë§ º
ĵ Ŀ
Ġíŀ Īë
ĠìĮ į
Ġë§ ģ
Ġ" (
Ġê°Ģë¦¬ íĤ¨ëĭ¤
Ġë¶Ħ ë¦¬
Ġì½ ľë
ì§ ¸
Ġê°ķ íĻĶ
Ġìĸ´ ìķ¼
v er
Ġíĳľ ì¤Ģ
Ġê´Ģ íķł
ë§ Ĳ
Ġì§ĳ ëĭ¨
Ġ198 0
Ġìŀ Ķ
¨ë Ŀ¼
ëĮĢ íķľë¯¼êµŃ
Ġë° ¤
íĺ ľ
Ġíİ¸ ìĦ±
Ġë ´
íĹ Ī
Ġë¶Ģ ìĥģ
ä º
íĨ ¤
ĠëıĦ ìĽĢ
ĠìļĶ ìĨĮ
Ġì²ĺ ë¦¬
ĠíĽĦë °ĺ
ĠíĿ Ķ
ã ĥ
Ġìĥ Īë
Ġê³ł ìŀĲ
ìĿ¼ë ³¸
Ġê° Ħë
ĠíĻķ ìŀ¥
ĠëıĻ ìĿ¼
Ġë°Ķë Ģ
ëį ľë
Ġí ľĺ
Ġëı Ī
ĠìĹĶ ì§Ħ
Ġíļį ëĵĿ
ģ ¼
Ġê³ł ëĮĢ
ìĦ ¸ë
Ġì¡° ìłķ
Ġë£ ¨ë
©Ķ ë¦¬ì¹´
ĠìĿ¼ ì¢ħ
ë¥´ íģ¬
Ġëł¤ ê³ł
Ġì¡° ì§Ģ
Ġëĵ¤ìĸ´ ê°Ģ
Ġìŀħ ëĭ¨
Ġì§Ģ ìĨį
Ġ3 2
íħ Ĳ
ë ¸Į
Ġ199 9
o c
ë ĺ
Ġë¬¸ ìŀĲ
Ġìľł ìĤ¬
Ġìŀ¥ êµ°
ĠìĨĮ ìľł
Ġê¸° ìĤ¬
Ġìłľ íĴĪ
Ġê³µ íķŃ
ĠìłĲ ëł¹
ëįľë ŀĢëĵľ
Ġìŀ ĥ
Ġìĭ¤ íĹĺ
į ķ
ĠëĮĢ ì¤ĳ
Ġìŀ¬ íĮĲ
Ġìĸ´ë ł¤
Ġì£¼ ìĿ¸
ĠëĽ° ìĸ´ë
ìĦ ¯
a g
ìķ ¼ë§Ī
ìĩ Ħ
Ġ199 8
ĠI n
Ġê°Ģ ë¬¸
ĠìĹ ¼
° ķ
Ġìĭľë ıĦ
Ġëª °
íĬ ¼
ĠìĨĮë ¹Ħ
ê´ĳ ìĹŃìĭľ
Ġì±ħ ìŀĦ
Ġìłķ ê·ľ
Ġë¶ģ íķľ
ĶĶ ìĸ´
Ġë© Ķë
Ġëĵ ¯
ë ©
Ġíķ¨ ìĪĺ
ĠíĮ ¬
ĠìĤ¬ ëł¹
Ġì±ĶíĶ¼ ìĸ¸
Ġíĸī ìĤ¬
íĿ Ĳ
Ġç İ
ĠêµŃ ë¦½
ĠìĪĺ ì¤Ģ
Ġë² ¤
ĠìķĦ ìĭľìķĦ
Ġìŀ¥ ì¹ĺ
ĠìĿ´ íķ´
Ġëĭ¤ ë©´
Ġë² ¨
Ġ &
Ġå Ī
£¨ ìĬ¤
ìĥ ¤
Ġìķ ¼ë
Ġê¸¸ ìĿ´
Ġê²° íķ©
ĠëĤĺíĥĢë Ĥĺ
Ġìĸ¸ë ¡ł
ìł Ŀ
íı °
ĠíĪ¬ íĳľ
Ġê¹ Ĭ
Ġê±° ì£¼
Ġí Ģ
ĠìķĪ ìłķ
ĠìĻ¸ êµŃ
Ġë ĥ
Ġì£¼ë ¯¼
¢ °
Ġã ģ
ĠìĬ¤íı¬ ì¸ł
ĠíĽ Īë
ë¦ ī
Ġìĭľ íĹĺ
Ġë¶Ī êµ¬
ĠíķĻ ìŀĲ
ĠìĽĲ ìŀĲ
ĠíĮĮ ë¦¬
i m
Ġëį° ìĿ´íĦ°
ĠëıĻ ë§¹
¡ ¤
ĠãĢĭ ,
Ġê³µ ìĽĲ
ĠìĬ ¬ë
Ġë¡ľ ìĬ¤
Ġë§Įë Ĥĺ
Ġ3 5
ĠìŀĲëıĻ ì°¨
Ġì¤ Ģë¹Ħ
Ġêµ¬ë ĭ¨
ìĿ į
Ġæ ´
Ġê³µ ë¦½
ìĹ Ī
Ľ ¸
Ġê° Ķ
ĠëĶĶìŀĲ ìĿ¸
Ġê ½ĥ
Ġë¹ Ľ
Ġ in
Ġìĭłë ¬¸
Ġë¹Ħ íķ´
ĠëĦ¤ ëįľëŀĢëĵľ
Ġëª© íĳľ
Ġë²ł ìĿ´
Ġìµľ ê·¼
Ġ7 0
ëĺ Ĳ
Ġìłľ íķľ
ĠìĿ¸ë į°
Ġì ¥Ĳ
ìĸ ¼
íĬ¹ ë³Ħ
Ġê¹ Ģë
Ġë°© ë¬¸
a y
Ġìłķ íĻķ
ìĿ¼ë ŀľëĵľ
Ġìłķ ê¶Į
Ġì» ¨
Ġê° Ĵ
Ġ199 5
Ġêµ¬ë ¶Ħ
e m
Ġíı´ë ŀĢëĵľ
ĠëĮĢ ë¡ľ
í Ĥ¬
ĠíĨµ ì¹ĺ
ìłĿ íĬ¸
Ġ w
Ġë¯ ¿
Ġë¬¸ ìĦľ
ìĭ Ń
Ĩ į
Ġê²½ íĹĺ
u l
ĠëĤĺ ë¬´
Ġì± Ħë
Ġê·¸ ë¦¼
Ġê·¸ë łĩ
Ġê³ł ìĨį
Ġìĺ¬ë ŀĲ
ìĬ¤ ë¡ľ
Ġëł¤ ëĬĶ
Ġë¹Ħë ĶĶìĺ¤
Ġ5 00
t h
ê° ĳ
ĠìĤ¬ ì§Ħ
ë Ŀ¼ë
ĠìķĮëł¤ ì§Ħ
Ġíı¬ë ¥´
ĠíĨµ ê³¼
Ġê±°ë ĳĲ
ĠíĨµ ìĿ¼
ä ¸
ã Ĥ
6 0
Ġê¶ Įë
Ġëª ¬
Ġë²Ī íĺ¸
ĠìĦ± ìłģ
Ġ199 7
ĠìķĦ ì§ģ
Ł°ë įĺ
Ġìī ½
Ġì¹ĺ ë£Į
Ģë Ŀ¼
Ġìļ© ìĸ´
Ġìĺ¤ëĬĺ ëĤł
Ĥ ľëĭ¤
Ġë³¸ ìĦł
ĠìĽĲ ìĿ¸
Ġì´ ī
Ġìłľ ì¡°
Ġë¶Ī êµĲ
ĠëĮĢ êµ¬
Ġ199 6
Ġë§Į íĻĶ
ĠìĻ ľ
Ġìŀħ ìŀ¥
ë¦¬ ìĺ¤
ĠìĽ ¹
Ġê²½ ìĺģ
Ġê°Ģ ìłķ
Ġìĺģ ìĹŃ
£ ¨ë
Ġê³ Ħë
ì¹ ł
ĠíļĮ ìŀ¥
Ġ8 0
Ġíıī íĻĶ
Ġìľłë ŀĺ
Ġì° ¬
Ġë²ł íĬ¸ëĤ¨
Ġå º
ĠíıĲ ì§Ģ
ĠìĦľë ¶Ģ
ĠëĦ Ĳë¦¬
íĹ ¤
ĠìĻķ ì¡°
Ġë°ľë ĭ¬
ì£¼ ìĭľ
Ġíķ´ ìĦĿ
ìĭ łë
Ġëħ¸ë ł¥
Ġë³ĳ ìĽĲ
ĠíĪ¬ ìĪĺ
ĠìĨĮ ìŀ¬
Ġì¹ ¼
Ġìľł ìłĦ
· °
Ġë¯¼ ì£¼ëĭ¹
ìĬ¤ íĦ´
Ġë¶Ģ ìĿ¸
íģ ¼
ĠìĪ ł
Ġå ±±
ĠìĿ¸ ì²ľ
ĠìĦ¸ ìĽĮ
© ĺ
Ġë³´ë ıĦ
ĵ ¬íķ´
Ġï ¼
Ġê²½ ìŁģ
ĠìĻĦìłĦ íŀĪ
Ġì¶Ķ ì§Ħ
Ġë Į
ìĽ¨ ìĿ´
ĠìĿ´ ê³³
ĠìĻ Ħë
ĠìļĶ ì²Ń
² ¤
Ġ199 4
ĠìķĦ ìĿ´ë
ł Ģ
ì½ ©
Ġë°© ìĸ´
ĠìĺĪ ìĦł
ĠëĪ Ħë
Ġæ Ī
ĠìĤ¬ ëĿ¼
Ġ197 0
Ġì¢ħ íķ©
Ġ199 2
ĠíĶĦë¡ľ ìłĿíĬ¸
ĠíĮĮ ê´´
ĠìĽĢ ì§ģ
ĠãĢ ı
ĠëĤĺë ī
Ġìłľ ìķĪ
Ġì´Ŀ ë¦¬
Ġì£¼ ìĹ°
Ġë²ķ ë¥ł
Ġê³ ¼ë
Ġíĳľ ê¸°
Ġíĺ Ī
í Ī
ĠìĹ¬ ê²¨
2 1
Ġê¶ ¤
Ġíİ ¼
Ġ +
ì ĵ
Ġíĸī ìĦ±
Ġë¬´ ê¸°
ë§ İ
Ġê²½ ê³Ħ
íĬ¸ë ¡ľ
¹ Ī
ĠìļĶ ë¦¬
Ġìĭłë Ŀ¼
Ġë¯¸ ìĤ¬
Ġ18 7
ĠìĿĢ íĩ´
Ġìłķ ë¦¬
Ġë°Ķ íĥķ
ĠíĽĪë ł¨
Ġìł Ģë
Ġìĺģ íĨł
¨¸ ì§Ģ
ĠíĨµ ìĭł
Ġëĵ± ë¡Ŀ
Ġë¬´ë ĮĢ
ĠìŀĲ ì£¼
Ġë¶Ģ ìłķ
ĠK BS
ĠëıĻ ë¶Ģ
ĠìĭĿ ë¯¼
³ ´ë
ĠìĿ¼ ìłľ
íĹ ¨
ĠìĪĺ ìļ©
n d
Ġë Ł°ëįĺ
Ġë¯¸ ìĪł
ĠëįĶë ¶Ī
ìłľë ¡ľ
Ġìłķ ìĥģ
Ġ3 3
ì½ ĺ
§ ¥
ìļĶ ìĿ¼
ĠìĬ¤ ìĬ¤ë¡ľ
Ġìĺ¤ ìĬ¤íĬ¸
ĠëĤĺë ¨¸ì§Ģ
Ġç ¾
íı Ń
Ġìº ł
Ġìķ Ļ
íĨ¨ ë¦Ń
Ġä ½
ĠìĥĿ ë¬¼
Ġìŀ ĩ
Ġì¡° ê°ģ
ì°¬ ê°Ģì§Ģ
ìĽ ¨ë
ĠìĹ°êµ¬ ìĨĮ
ĠìķĦ ìĦľ
ĠìĹħ ë¬´
Ġê¸Ī ì§Ģ
ĠëıĦ ìĦľ
Ġì£¼ ìłľ
Ġë°Ľ ìķĦëĵ¤
1 0
ĠìķĦ íĶĦë¦¬ì¹´
Ġì§Ģ ëĮĢ
ĠëĵĿ ìłĲ
ĠìłĦ íķ´
ĠìĿ¸ ìĭĿ
Ġ199 1
Ġìłķ ìĭĿ
íĨł ë¦¬
ìĭľ ì½Ķ
Ġëĭ¹ íĸĪ
Ġê±°ë ¶Ģ
ĠìĿ¸íĦ°ë Ħ·
ĠìĹ°ë §¹
ĠëĿ¼ë ĶĶìĺ¤
Ġë© Ģ
ĠêµŃíļĮ ìĿĺìĽĲ
Ġ ;
Ġë°ķ ìĤ¬
Ġëª °ë
Ġìĺ¤ë ŀĺ
Ġë°ľ ìĤ¬
Ġê·¸ë ĮĢë¡ľ
Ġì²ł íķĻ
Ġë¸ Į
ĠìĻ¸ êµĲ
ëĳ ¥
Ġê²° ìĦ±
Ġ" ,
Ġä ¹
ĠìĨĮ ë¦¬
Ġê² ¨
² ½
Ġê² ¬
Ĥĺ ëĿ¼
Ġë¡ľ ìį¨
ëĭ ĺ
ìľ µ
ĠãĢĭ( )
ĠìĿĺ ìĭĿ
ĠëĮĢ ì²´
ìĽ¨ë į´
Ġë³´ ìĪĺ
ĠìĿ´ëĿ¼ ê³ł
Ġ199 3
Ġë³µ ê·Ģ
ĠíĮ¨ë °°
ĠëĤ¨ ìĦ±
Ġë°ĶëĢ Į
Ł ³
Ġê¸° ìĹ¬
å ·
Ġëĭ¤ ìĪĺ
Ġê³Ħ ìĹ´
ëłĪ ìĬ¤
ìķ Īë
ĠìĬ¤ íħĮ
ë ĵ¤
Ġìłĳ ê·¼
ĠìĿ´ë ĵ¬íķ´
Ġ e
Ġíĳľ ìĭľ
Ġìĺ¤ ë¥¸
Ġì°¨ ìĽĲ
ĠìºĲ ë¦Ń
ë¥ ¼
Ġìĥģ íĺ¸
E FA
ë ¯¸ë
Ġíģ¬ ë¦¬ìĬ¤
ìķĦ ê°Ģ
ëŀ µ
ĠìĦ± ê²©
Ġì§ §
Ġì¶ Ķë
Ġä¸ Ń
ĠìĿ´ ìĬ¤
ĠìĦľ ìĭĿ
Ġë§Ī ì°¬ê°Ģì§Ģ
Įë ĭ¤
íĤ ¹
Ġìĭ¤ ìłľë¡ľ
Ġíķ´ ê²°
Ġìŀ¥ ìĨĮ
Ġå ¹
Ġê°ķ ëł¥
Ġê²½ê¸° ìŀ¥
ìĹ Ĩ
ĠìĿ¸ ìĤ¬
ë° Ģ
Ġë² ½
Ġ198 8
Ġìĵ° ìĿ´
Ġê¸° ì´Ī
Ġê ¿
Ġê°Ģ ë¥´
ìķ Į
í į¼ë
ĠìºĲë¦Ń íĦ°
ĠìŀĦ ìĭľ
Ġíķĺ ê³Ħ
Ġì£¼ ìĿĺ
Ġì§ĢëıĦ ìŀĲ
Ġ3 8
Ġê³µ ìŀĳ
ëª ¨ë
ë° Ľ
l i
Ġæ Ļ
§ Ĳ
ìĽ ħ
Ġëı ¼
ĠìĹĲ ìĬ¤
íĺ ¹
Ġë°Ķ ìĿ´ë
Ġëĭ¤ ë¦¬
íŀ Īë
Ĳ ĺ
Ġì´Īë ĮĢ
Ġê³ ¨ë
íĺ ¸ë
ê³ ¤
Ġæĸ ĩ
Ġë Łī
ķ ìĭľì½Ķ
Ġë¬ĺ ìĤ¬
Ġë°ķ ë¬¼
19 7
íĬ ľë
ĠìĭĿ ë¬¼
Ġê·¼ ì²ĺ
Ġìĺ¤ ë¥´
ĠìĿĢ íĸī
íķľ êµŃ
ìĦ Ń
Ġê²Ģ ìĤ¬
Ġë¨ ¸ë
19 4
Ġë°ľ íĸī
Ġæ ³
ìĬ¤íĬ¸ë łĪ
Ġëĭ¨ ìĪľ
ĠìĹ¬ ê°Ŀ
Ĥ ¨ëıĦ
Ġê¸° ìŀĲ
Ġì°¨ íĬ¸
Ġë°ĺ ë©´
Ġìľ ¨
ĠìķĦ ìĿ¼ëŀľëĵľ
Ġê°Ģ íĨ¨ë¦Ń
ĠëıĦ ì°©
ìĿ´ íģ¬
Ġë§Į íģ¼
Ġì§Ģ ìłģ
ëª ĩ
Ł Ń
ĠìĹ° ê·¹
Ġìĺ¤ ëŀ
ĠíĻĶ íķĻ
ĠìĬ¤ ìĽ¨ëį´
ĠëĤĺíĥĢë Ĥ´
Ġì¹ ¨ë
ĠëłĪ ìĿ´ë
Ġê´Ģ ì¸¡
Ġ198 9
ìĿ¼ë¦¬ ìķĦ
Ġê¶Įë ł¥
Ġê¸° êµ¬
o g
íĬ¹ë³Ħ ìĭľ
ìĬ¤íĬ¸ëłĪ ìĿ¼ë¦¬ìķĦ
ħ ¸ë
Ġ196 0
Ġë°Ķë ĭ¤
ìĽ Įëĵľ
ĠíļĮ ìĽĲ
ĠíĻľ ìļ©
Ŀ¼ ìĬ¤
Ġé «
ĠìĪĺ íķĻ
Ġëĭ¤ ìĿ´
ĠíĪ ¬ë
Ġê°ľ êµŃ
ìĿ¸ íĬ¸
¦ ¬
Ġì´Ŀ ìĦł
Ġìĭľ íĸī
Ġë¯ ¼ë
ĠíĿ ¡
Ġê¸° ê³Ħ
ĠìĦ¸ë ĮĢ
Ġëģ Į
ĠìĿ¼ ìłķ
§ ī
å ľ
Ġì§Ģ ëĤľ
Ġì¡° ìĦ±
Ġë¸ĮëĿ¼ ì§Ī
Ġë¬´ ìĹŃ
ĠU EFA
Ġë²Ī ìĹŃ
Ġì§ĳ íķ©
Ġëĭ¨ ìĸ´
1 7
ë Ĭĺ
Ġë¨¼ ìłĢ
ĠìĿ´ ìĻ¸
Ġì¤ĳ ëĭ¨
Ġíĥ Īë
ìĸ µ
ìŀ Ķ
1 5
ĠìĿ´ ëł
Ġë²łë ¥´
Ġíı ´
a p
Ġì¹ ´ëĵľ
ìŀĦ ìĬ¤
Ġë°ĺ ëŀĢ
ĠíĨµ íķĺ
Ġ18 6
Ġ4 5
Ġíĺĳ ëł¥
ar d
Ġ3 4
Ġë¶Ħ íı¬
Ł İ
ĠãĢ İ
Ġê´ĳ ì£¼
Ġíĭ °ë
ĠìĤ¬ìĿ´ íĬ¸
Ġíĺ ¼ë
²Ħ ìĬ¤
Ġë°ķë¬¼ ê´Ģ
ł ¡
» į
Ġé Ľ
ĠìĹ° ìŀ¥
ĠìĦľìļ¸ íĬ¹ë³Ħìĭľ
N A
Ġìĭ¤ ìłľ
Ġê² ª
ĠìĨĮíĶĦíĬ¸ ìĽ¨ìĸ´
ĠìĹ¬ ë¦Ħ
ê° Ħëĭ¤
ĠìľĦ íĹĺ
ĠëĦ Īë
Ġíĺķ ìłľ
Ĥ ¸
ĠíĬ¸ ë¦¬
Ġì£½ ìĿĮ
Ġìłľ ìĭľ
Ġëĸłë Ĥĺ
ĠíĮĮ ê²¬
ĠìĥĿ ìĦ±
Ġë¹ Į
Ġë¶Ģ ìĹ¬
ĠìĦ± ë¦½
ë¬´ ìĽĲ
Ġê³µ ìŀ¥
ĠìķĪ ìłĦ
ĠìĹ¬ íĸī
Ġì¤ĳ ê°Ħ
Ġê·¼ ê±°
ĠìĬ¤ ìľĦ
ìĽĮ íģ¬
Ġíķ´ ìķĪ
Ġìłľ ê¸°
ĠíĽĦ ê¸°
Ġë°Ķê ¾¸
ê·¸ë Ł¬ëĤĺ
ĠìĪĺ ë§İ
Ġíĺ Ĳ
Ġìĺ¤ ìĬ¤
íĥ ĳ
Ġíı °
ĠìĿ´ëł ĩ
Ġë¶ ķ
Ġëĭ¤ ë§Į
Ġìĺ¤ìĬ¤íĬ¸ ë¦¬ìķĦ
ĠìķĮë łī
ĠíĻķ ëĮĢ
Ġë°Ķ ë¥´
Ġìĺ¤ë ¸Į
Ġë³¸ë ¶Ģ
Ġê·Ģ ì¡±
ì§Ģ ìħĺ
Ġìľł íĺķ
íļĮ ìĤ¬
Ġë°Ŀ íĺĢ
ĠìĬµ ëĭĪëĭ¤
Ġíŀ Īë¡ľ
ê°Ģ ìĻĢ
Ġ9 0
ìķĦ ìĭľìķĦ
Ġëī´ ìĬ¤
ĠíĪ¬ ìŀĲ
ì° ¸
Ġìĸĳ ìĭĿ
ĭ Ŀ
ĠìĦ¸ ìĽł
ìĽ ĥ
Ġì´ ¬
ĠíķĦ ë¦¬
Ġæ ķ
Ġëħ¼ë ŀĢ
Ġ4 8
Ġå ¿
Ġ3 6
Ġìľłë ¡ľ
Ġëĭ¹ ìĦł
Ġë¹ ħ
Ġìłķì¹ĺ ìĿ¸
ë Ĳĺ
Ġë³´ ìľł
ĠìĻĦ ìĦ±
Ġå ¼
ĠëıĻ ìĥĿ
ĠìĤ ¶
ê°Ģ ë¦¬
ĠìĪľ ìľĦ
Ġëĭ¨ ìľĦ
Ġê°ķ ìĽĲ
Ġìĥģ ì§ķ
s t
Ġê ¾
Ġê·¹ ìŀ¥
ĠìĬĪ íį¼
´ë ¡ľ
Ġëĵ ł
i e
Ġì§Ģ ìĭĿ
ĠëĮĢ ìĿĳ
ĠìĦ¸ ìĥģ
ĠìĪĺ ìĤ¬
ì¡° ìĦł
ĺ ë¦¬
Ġì§Ģ ìĥģ
Ġë³´ ìĺĢ
ĠìľĦ ê¸°
ĠëĤĺ ì¤ĳ
Ġë³´ ì¡´
Ġì£¼ ìĸ´
Ġìĺ¤ ë¦¬
ĠíķĻ ìľĦ
ĠìłĦ ìĭľ
Ŀ¼ ìĿ´ë
íĭ ±
í ŀĮ
ëĺĲ íķľ
Ġì½Ķë ĵľ
Ġì´¬ ìĺģ
Ġì§Ģíķĺ ì²ł
Ġå »
íĳ ¸
ë°° ìļ°
Ġëĭ¬ ìĦ±
íķ µ
Ġìĺģ ìĥģ
Ġìľ¼ë ¯Ģë¡ľ
ĠìłĦë ŀµ
ĠìĪ ¨
Ġë¸ Ķ
Ġê²½ìĥģ ëĤ¨ëıĦ
ĠëĤ´ ê°ģ
ë Ħ
ì ī
Ġë²Į ìĸ´
² łë¥´
ë¦¬ ëĵľ
Ġã ĥ
ëį Ķ
íıī ìĸĳ
ĠëĶĶ ì§Ģ
Ġìĵ ´
Ġ v
Ġê³Ħ ìĬ¹
Ġë¶Ģ ë¥¸ëĭ¤
Ġìĺ Ĩ
Ġê·¼ë ¬´
ĠëĦ¤ íĬ¸
Ġê°Ĳ ìĨĮ
Ġìľłë ĮĢ
ìĭ ¸
in e
Ġê´Ģ ê´ĳ
Ġì½Ķ ì¹ĺ
Ġë®¤ ì§ģ
Ġé Ŀ
Ġìĺ¤ ìĤ¬
ĠìĤ¼ ìĦ±
Ġìĺ ¹
ĠìłĦë ĭ¬
ê ¶
ê² Ĳ
ì° ¨ë
Ġ198 6
ĠíĥĢìĿ´ íĭĢ
Ġìĭ ¶
ĠìĽĲ ìĨĮ
Ġëĵľë Ł¬ë
Ġ3 00
Ġì²´ ê²°
Ġë°ľë§¤ ëĲĺ
â Ģ
Ġëĭ ĺ
Ġç ¥
u t
Ġì²´ íı¬
Ń ī
Ġ and
Ġê²½ìĥģ ë¶ģëıĦ
ĠìĦ¤ ìłķ
Ġ198 7
1 6
ĠíĬ¹ ìĪĺ
Ġì¸ ł
ĠìĥĿ ëªħ
ĠìĬ¤ ì½Ķ
ĠíĨ ¤
Ġê°Ģ ìł¸
Ġì§ģ íĽĦ
ì§ĳ íĬ¸
Ġê°ľ ìłķ
ĠìĭĿë¯¼ ì§Ģ
es s
Ġìĥģ ìĹħ
ĠêµŃ ìĻķ
ĠíĮĲ ëĭ¨
ëħ ¸ë
± ħ
íĺ Ī
ĠëĿ¼ ìĿ´ë
Įë¦¬ ìĹĦ
ĠëĦ Ī
ĠìĿĺ ê²¬
ìł Ħë
Ġä¸ ī
Ġíİ ľ
Ġê¶Į ë¦¬
Ġíķĺ ë£¨
ì¹´ ìĿ´
Ġìĺ¤ ìĬ¤íĬ¸ëłĪìĿ¼ë¦¬ìķĦ
ĠíĮĮ ìĿ¼
Ġë© ķìĭľì½Ķ
ìĨĮë ħĦ
Ġæ µ
ŀ į
Ġë° ĳ
ĠìķĦë Ĥ´
Ġìł ¸
Ġê°ľ íĨµ
Ġê² °ë
ë£ ¡
ĠëĤ ³
Ķ Ķë
ĠìĬ¹ ê²©
Ġì¸¡ ìłķ
ĠíĻ Ģ
Ġëĭ¤ ë£¨
Ġì£ Ħ
ĠìĮ ĵ
ĠëĶ°ë ¥¸
į ¤
Ġìŀ¥ ìķł
íĴ Ģ
Ġìĭľ ì²Ń
ĠìķĦ ìĭľ
ĠìĿ´ íķĺ
Ġìľł ë¦¬
æ ľ
ĠëĶ Ķë
ĠìłĦ íĻĺ
Ġìłľ ìłķ
ĠëĮĢ ëĮĢ
Ġìļ Ķë
Ġì±Ħë ĦĲ
1 2
Ġì²ľ íĻ©
Ġë¯¸ë ŀĺ
Ġ3 7
ê ¼
Ġëªĩ ëªĩ
ĠíĬ¹ ìĦ±
íĭ°ë Ĥĺ
Ġê¸° íļį
ĠêµĲ ì²´
i on
ĠìĿ¼ìľ¼ ì¼
ìł ł
Īë Ł°
ĠìŀĲ ë³¸
Ġì¢ħ ë£Į
Ġì¶ľ ìĥĿ
ŀ «
ì½Ķë ĵľ
Ġæ° ı
Ġ198 4
êµĲ íļĮ
Ġë¯¸ êµ°
ĠìĹĺ ë¦¬
Ġë° °ë
Ġêµ Ĳë
Ġê´Ģ ì°°
Ġë¬¸íĻĶ ìŀ¬
Ġë§ ¹
Ġë§Ī ìĤ¬
ì² łëıĦ
ëŀ Į
Ġì·¨ ìŀĦ
Ġì£¼ìĿ¸ ê³µ
ĠìĨĮ ìĪĺ
Ġì¹ ¼ë
Ġì§Ģ ìľĦ
ĠìĿ´ë ŀĺ
í Ģ
ĠëĮĢ ë¥Ļ
Ġë² Ĺ
ĠìĨĮ ê°ľ
Ġê°ķ íķľ
Ġ' ,
a b
Ġìł Ĭ
Ġ Z
Ġì§Ģ ì§Ħ
ì§ Īë
Ġê³Ħ ê¸°
Ġë¯¸ìĤ¬ ìĿ¼
ëĭ¤ ìĿĮ
Ġëª» íķľ
Ġì¶ ĺ
Ġçİ ĭ
Ġì ·
ĠìĨĮ ìŀ¥
ĠíĻ ĪëŁ°
Ġíĺ ľ
ìĺ ¹
Ġ195 0
Ġê³µ ê¸ī
ìłĦ íŀĪ
Ġë¥ ł
Ġ198 5
íģ¬ ìĬ¤
Ġë¬¼ë ¡ł
Ġë¹Ħ ìļ©
Ġì£¼ë ª©
ĠìĬ¤ íĬ¸ë
1 4
Ġë²Ķ ì£Ħ
Ġëĸ¨ìĸ´ ì§Ħ
ĠëĤ ©
Ġì£¼ ìĭĿ
åŃ ¸
ĠìĿ´ëłĩ ê²Į
Ġê°Ģë¦¬ íĤ¤
Ġë³´ë ĥĪ
ĠëıĦìĦľ ê´Ģ
Ġé« ĺ
Ġê·¸ ë¦°
Ġ3 9
Ġìĭł ê²½
íķľ íİ¸
ìĤ°ë ĭ¹
ĠìĿĢ íķĺ
Ġê³µ ë¶Ģ
ĠëĶĶì§Ģ íĦ¸
Ĳë Ŀ¼
Ġëĵ £
Ġì¶© ëıĮ
Ġë°° ê²½
Ġìĺ¬ ë¦¬
Ġë§Įë ĵľ
Ġìĺ® ê²¨
Ġìľ¼ë©´ ìĦľ
Ġë ĩĮ
ĠëĲ ¨
Ġíħ į
Ġì¢ħ ëª©
Ġìłľ ê±°
ĠíĹ Ŀ
it y
¡ Ń
ì Ķ
ĠìŀĲ ê²©
Ġê³µ ìĤ°
ë¹ Ī
Ġíİĺ ë¥´
ĠìĿ´ ì§ĳíĬ¸
Ġê°ģ ì¢ħ
ĠìĿ ½
Ġ l
Ġê¶¤ ëıĦ
Ġìŀĳ ìĦ±
Ġëħ¹ ìĿĮ
Ġìĭľ íĭ°
Ġå ¸
Ġíķ´ ìĻ¸
Ġìī ¬
ĠM BC
ĠìĪĺ ìłķ
Ġêµ° ìĿ¸
Ġì¤ Ģëĭ¤
Ġì¦ Ĳ
ĠìĤ¬íļĮ ì£¼ìĿĺ
Ġê°Ģ ìŀħ
ĠìĿĮ ìĭĿ
íĶ ¼ë
Ġëĳ Ķ
Ġì¦ī ìľĦ
Ł ´
Ġíķ© ë¥ĺ
Ġ Î
ĠìłĦ ì°¨
Ġíģ¬ë ¡ľ
ë ¸Įë
Ġì į¼
ĳ Ķ
Ġìĺ¤ íĽĦ
Ġê±°ë ĮĢ
Ġìŀħ íķĻ
Ġëı Įë
Ġë ŀĺ
Ġë³ĳ ëł¥
3 0
a k
Ġìŀ¥ ê¸°
ĠëĤĺë ĪĦ
ĠìĿ¸ ê·¼
ìķ ¤
Ġê³Ħ ìĤ°
ĠìĽĲ ìłķ
ìļ ¸ë
f or
ĠìĿ´ë £
ĭ ī
Ġíı¬ë¥´ íĪ¬
Ġì§ĳ ì¤ĳ
u d
Ģë Ł¬
Ġëģ ¼
ĠíĽ Ī
Ġíģ ´
Ġë¹Ħë °Ģ
Ġê°ľ ìĦł
ĠìĿ¸ ìĪĺ
ĠìĿ´ë£¨ìĸ´ ìł¸
ìĸ´ë Ĥĺ
Ġì§Īë Łī
Ġ198 2
ĠìĿ¼ìĸ´ë Ĥľ
ĠêµŃ ê²½
Ġê°Ģê¹Į ìļ´
íĭ° ìķĦ
Ġë¶Ģ ëª¨
Ġ194 5
ĠìĦ± ìļ°
Ġë³ĳ ìĤ¬
Ġê°ķ ì¡°
ĠìłĦ ìĤ¬
ĠëĿ¼ ìĿ¸
ĠìłĢ íķŃ
ìĹ ½
Ġë§Ī ì¹ĺ
Ġë¸ Įë¦¬
Ġì§Ģ ëĤ´
ĠìĺĪ ìĪĺ
Ġíĥ ľë
ìĿ´ íĽĦ
ĠëĬ Ĳ
Ġìĭ¤ íĸī
ĠëĦ¤íĬ¸ ìĽĮíģ¬
ĠìłĦëĿ¼ë Ĥ¨ëıĦ
Ġê°Ģ ê²©
Ġëªħ ìĺĪ
Ġëł Į
Ġì¸¡ ë©´
Ġd e
Ġìłľë ª©
ìĺ¤ ì¹´
Ġê· ł
y s
Ġìķ½ ê°Ħ
ig h
ĠíĻį ì½©
ĠI I
Ġìľ ĪëıĦ
ìĦ ¬
ì½ ľ
ĠìĬ¤ íĤ¤
ê² Ģ
b er
Ġâ Ī
ĠëıĦ ì¤ĳ
Ġé ĸ
Ġê²°ìĬ¹ ìłĦ
ĠìŀĲ ìĽĲ
Ġìĭł íķĻ
201 0
Ġíı¬ ì§Ģìħĺ
Ġê° Ŀ
Ġëį ¸
ìĨĮ ë¦¬
ëł Į
ĥ ¥
Ġìłķ ì°©
Ġê¸° íļĮ
Ġê º
Ġë³Ģ íĺ¸
Ġë ļ
ĠíķĻ ë¬¸
ĠëĤ¨ë ¶ģ
ìĩ ¼
Ġëĳ Ĳë
Ġå Ĭ
Ġê°Ģ ì¡Į
´ë ĭ¤
© ¸
ĠæĿ ±
ëĭ ¥
ĠëĤĺ ìĻĶ
Ġëħ¸ëıĻ ìŀĲ
ìĿ´ ìĸ´
Ġë¬´ë łµ
Ġì²Ń ëħĦ
Ġëį ´ë
ëıĦ ë¡ľ
ìķĦë ħ¸
Ġìĭ¬ ë¦¬
Ġë³¸ ê´Ģ
is t
Ġë°Ģ ëıĦ
Ġì¹ ł
ĠìĻ ¼
Ġ' (
ì» ·
Ġä ¿
ë¦¬ íŀĪ
Ġì§Ģ ìłĲ
Ġë§Īë ł¨
Ġì§ ĵ
ë¦ ¿
Ġè ¡
Ġ198 3
Ġìŀ İ
Ġê³µ êµ°
ĠìķĦ íĤ¤
Ġíİ¸ ì§ĳ
ĠìĿ´ ìĬ¬ë
ĠìĪĺ ë¹Ħ
Ġç Ľ
ĠíĺĲ ìĿĺ
ĠìĬ ¬
Ġìĭł íĺ¸
ìħ Ķ
ĠìĿ´ ì£¼
Ġìĭľ íĤ¨
ĠìĿ´ë ŀĢ
ĠìĻ¸ë ¶Ģ
Ġå ¥
Ġëªħ ëĭ¨
Ġê±´ ê°ķ
íĶ¼ ìķĦ
Ġëĭ¤ ìĿ´ë
19 6
Ġì· ¨ë
es t
ë° Ķë
ĠíĹĪ ìļ©
Ġë¬´ ìŀ¥
ĠìłĦë °ĺ
ĠëĿ¼ ìļ´ëĵľ
Ġë¶Ī ë¦°ëĭ¤
Ġì¶© ë¶Ħ
ĠìĿ¸ íķľ
ĠíĨµ ìłľ
Ġíĳľë ©´
Ġê°ĸ ì¶Ķ
ì´ ī
Ġíĭ Ģ
Ġëĵ Ģ
Ġì¦Ŀ ëªħ
é Ļ
Ġìµľ ìĨĮ
å Ĳ
ĠìķĦë §Ī
ê² ¨ë
Ġì²´ ìľ¡
ĠìĺģíĻĶ ë°°ìļ°
ìĺ¤ ìĬ¤
ĠíĦ° íĤ¤
Ġê±´ë ĦĪ
Ġê´ĳ ê³ł
ë¶ ķ
Ġç ¦
Ġë²łë Ħ¤
¼ë¦ °
ĠëĴ ·
Ģë ŀĢëĵľ
ĭ Īë
r an
íĶ Ī
Ġê·¸ë ł¤
íİ ľ
ĠíĺĦ ìĭ¤
g e
ĠìķĦ ì¹´ë
¶ģ ëıĦ
ĠìĹ¬ ìłĦíŀĪ
Ġê¸° íĽĦ
ĠëıĻ ë£Į
ë ĦĲ
¶ Ļ
ĠìĿ¸ë ĶĶ
Ġìŀ¬ ìĤ°
Ġëĵ± ê¸ī
ĠìľĦìĽĲ ìŀ¥
ĠìĿĮë ł¥
Ġìľ Įë¦¬ìĹĦ
ĠA l
Ġìŀ¬ ì§ģ
al l
ìķĦ íĶĦë¦¬ì¹´
ìħ Ģ
Ġë°Ķë ŀĮ
Ġìłģ ê·¹
ĺë¦¬ íı¬ë
¹ Ħë
ĠêµŃ ë°©
ĠR e
ĠìłĦë ł¥
¸ Ĳ
Ġë ŀĳ
íķ ĳ
Ġíķ© ë³ĳ
ĠìļĶ ìĭľ
201 4
Ġè Ī
ĠëĤĺ ìĺ¨
ĠìĨĮ ìĨ¡
ë§ ģ
ĠíĻĺ ìŀĲ
Ġìĺ ¨ëıĦ
Ġëĳĺ ëŁ¬
ĠíķĻ ëħĦ
Ġê³Ħ ê¸ī
Ġëª¨ ìĬ¤
Ġìŀ¡ ì§Ģ
ĠìłĦ ìĹŃ
ĠëĨį ìĹħ
q u
Ġ198 1
Ġê¸Ī ìľµ
p h
Ġë³¸ë ŀĺ
ì§ ĵ
Ġ4 00
Ġë¯¸ë ĶĶìĸ´
Ġë²Ķ ìľĦ
å ¤
ĠìľĦ íĺĳ
Ġìŀ¬ ìłķ
ĠíĹĿ ê°Ģë¦¬
Ġ Ð
ĠìŀĦë ¬´
ìķ ¼ë
ĠìĿ¸ íķĺ
F C
ĺë¦¬íı¬ë ĭĪìķĦ
Ġëħ¸ë ¥´
ª¨ íĨł
Ġåħ ¬
ìĬ¤ íĤ¤
Ġìľłë ıĦ
¶Ģ ë¥´íģ¬
Ġì¶ľë °ľ
ĠíĻķ ë³´
ĠìłĦ íķĺ
ĠíĦ°ë ¯¸ë
ĠìĪ ²
Ġæ ī
ĠìĹħ ì²´
íĺĦ ìŀ¬
Ġëł ¹
Ġå Į
ĠíķŃ ìĥģ
ĠìĿ´ìĬ¬ë ŀĮ
u b
Ġë§ĪìĿ´ íģ¬
ì§ ľ
Ġë³´ ê³ł
¬ë ĭ¤
Ġíķ´ë °©
ĠíĦ ¸
§Ī íģ¬
Ġê²¨ ìļ¸
Ġë¶Ģ ê·¼
t y
Ġìĭľ ìĿ¸
Ġëĭ µ
Ġå ī
Ġëĥ ī
ĠìĪĺ ìŀħ
ĠìłĲ ì°¨
Ġì ³
200 8
Ġë¶ķ ê´´
ĠâĢ ĵ
Ġêµ¬ ì¶ķ
ĠìłĦ ìĦł
Ġìĸĳ ìĦ±
201 1
Ġê¼ ¬ë¦¬
Ġê±°ë ŀĺ
ìķ łë
ĠìĿ´ë¯¸ ì§Ģ
ìŀ ī
Ġæ Ĺ
Ġì±Ħ íĥĿ
ĠìĬ¹ ìĿ¸
ĠìĪĺ ë¦½
Ġìŀ¥ ë©´
ĠëĿ¼ë ©°
Ġíĥľ íıīìĸĳ
Ġëħ¼ë ¬¸
Ŀ¼ë ıĦ
ĭĪ ìĬ¤
íĬľë ĶĶìĺ¤
Ġê°ľ íİ¸
Ġ197 9
ĠíļĮë ³µ
201 6
ĠíĬ¸ë łĪ
Ġë ĥĪ
Ġë¯¼ ê°Ħ
ìħ ľ
Ġë°ĶìĿ´ë Ł¬ìĬ¤
Ġë¡ ¤
el l
Ġì¡° ì¹ĺ
ĠåŃ ¸
Ġå Ľ
Ġëĭ¤ ìĦ¯
Ġê°Ģ ìĬ¤
Ġ18 4
ĠëĮĢíķĻ ìĽĲ
ĠìĿ´ë ²Ī
ìĿ´ë ıĦ
Ġë§Į ì¡±
ĠìĦłê±° êµ¬
Ġ4 2
ti c
ĠìĹĶ íĦ°
Ġì½ ©
Ġê°ķìĽĲ ëıĦ
ĠìĦ Ń
Ġé Ģ
Ġê³ł ìłĦ
Ġ6 4
Ġê°ķ ìĿĺ
ĠìłĦ ê°ľ
ĠM ar
Ġíķ© ìĿĺ
Ġëĭ¤ ëĭĪ
ĠA n
ĠêµĲ ìĤ¬
ĠíĦ°ë¯¸ë ĦĲ
Ġë¹Ħ íĬ¸
ëĭ Į
Ġê³µ ìĤ°ëĭ¹
Ġì ħĢ
Ġê°ķ ìłľ
ª¨ ë¦¬
Ġíı¬ë¥´íĪ¬ ê°Ī
Ġê·¸ íķ´
Ġë¸Ķë ŀĻ
ĠìĬ¤ íĬľëĶĶìĺ¤
Ġê·¸ëŀĺ ìĦľ
Ġêµ°ë ĭ¨
ê³ł ë¦¬
ĠìľĦ ìĦ±
ĠìĽĲ ì¹Ļ
Ġ5 5
1 3
Ġæ ²
Ġìŀ¥ ë¹Ħ
Ġ197 3
Ġíķĺ ìĿ´
Ġ197 2
Ġê³µ ê³µ
Ġêµ° ì£¼
C A
Ġë¶Īë łĢ
Ġë²Ħ ë¦¬
ëª ¬
ª ¬
ĠìĿ¼ ìĽĲ
ĠìĪĺ ëĭ¨
ì£¼ êµĲ
Ġì¶©ì²Ń ëĤ¨ëıĦ
ĠëĿ¼ë ©´
Ġëģ Ĭ
ë¬¸ íĻĶ
Ġì´ Į
Ġê¸° ì§Ģ
Ġì ı
ĠìĹ ĳ
Ġì§Ģ ëĤ
Ġì¹´ ìĿ´
Ġì¤ĳìĭ¬ ì§Ģ
ĠíĽĦ ì¿ł
Ġìĭł íĻĶ
Ġìŀ¥ ìĭĿ
Ġå¯ º
¥ Ń
Ġìĸĳ ìŀĲ
er s
Ĥĺ ìĿ´
ĠíĶĮë ¡ľ
Ġìĸ¼ êµ´
Ġê³µ ìĹħ
Ġå® ī
n e
ĠíĨłë ¡ł
ĠíĻķ ìĭ¤
ĠëĦĪë ¬´
Ġíķ´ë ıĦ
¹ ìĬ¤
ĠëıĻ ê³Ħ
ĠìĹĲê²Į ìĦľ
201 3
ëł ¸
ŀĺ íĶĦíĬ¸
ĠT h
ë³ ¼
Ġb r
ĠëĤ¨ íİ¸
ëłĪ ìĿ´
ìĿ´ë ĦĪ
ê± °ë
Ġê°ķ ìłĲ
ĠíĨł ì§Ģ
ë¬ ĺ
Ġë ½
ĠëĮĢ ìĪĺ
Ġê³ł ì¢ħ
Ġë¯¸ ì¹ĺ
ĠìķĮëłī ìĤ°ë
Ġè ĩ
Ġåį Ĺ
Ġê·¼ë ĮĢ
ĠìĤ¬ ë¡Ģ
Ġê°Ħ ì£¼
Ġë¶Ī ê°Ģ
Ġí Ĥ¬
Ġìº ĺë¦¬íı¬ëĭĪìķĦ
Ġê²½ íĸ¥
201 2
ĠìĿ¼ìĸ´ë Ĥ¬
íķ ´ë
Ġ4 4
Ġë¶Ħ ìŀĲ
ĠëĮĢ ìŀ¥
Ġ18 0
ëĤĺ ë¬´
ĠìĿĺ íķĻ
Ġ18 5
ĠëĮĢ íĺķ
Ġê·¸ ê³³
201 8
Ġê²½ ëł¥
ëĿ¼ ìĹĺ
Ġì¢ħ ì¢ħ
ĠìĦ¸ ìļ°
ìļĶ ìĭľ
Ġë§¤ ëħĦ
Ġ4 7
Ġíķ´ ì²´
Ġê¿ Ī
ĠìĬ¤ ëŁ¬
ĠìĹ´ë ł¸
Ġíĥĳ ìŀ¬
u c
Ġì¢ħ ìĿ´
į°ë ¯¸
Ġìķ ¼ë§Ī
Ġì² ´ë
Ġè ¨
ìĦ łë
Ġê¸° ìĸµ
ë¦ ´ë
Ġê·ľ ì¹Ļ
Ġë¹ ¼
ìĸ´ë ĵ¤
Ġë¦ °
ĠìĬ¤ ë
ìļ°ë ĵľ
Ġíĸ¥ ìĥģ
ĠëĤ¨ë ıĻ
êµ¬ë ł¤
Ġå¤ ©
ĠíĿ ¬ë
Ġíķ łë
ĠìĦ± ìĿ¸
ĠíĶĦë łĪ
°± ì§Ī
ĠìĦ¸ ì¢ħ
ĠìĦł ìĥĿ
Ġìļ ķ
ëł Īë
ĠíķŃ ìĦ±
Ġëĸ¨ìĸ´ ìł¸
í ľ
ĠìĦł ê³ł
Ġë¶Ī ê³¼
Ġìĭľ ìľĦ
Ġæ ·
Ġ î
ĠëĮĢ ê¸°
Ġì¦Ŀ ê±°
Ġë¥ ´ë
201 5
Ġìļ¸ ìĤ°
Ġëį° ìĿ´ë
ìķĦë ©Ķë¦¬ì¹´
Ġë¡ Ń
Ġìŀł ìĭľ
ĠìķĦ ì£¼
ĠëĿ¼ íĭ´
ëĭ Ŀ
ìļ ´ëıĻ
Ġìĸ´ëĸ »
Ġìĭł ìĦ¤
ìĨ Ķ
ĠìĿĺíķ´ ìĦľ
Ġëĳ ¥
ou n
Ġíķ ĢëŀĢëĵľ
Ġ re
Ġìļ ´ë
Ġæ ±
Ġç Ļ
ë¯¸ êµŃ
Ġë³´ ìŀ¥
Ġì¹¨ ê³µ
Ġ197 4
ë ¯¼êµŃ
ĠìĬ¤ìľĦ ìĬ¤
Ġì§ Ĳ
Ġë§Į ìķ½
ĠíĿ °
Ġ7 5
íĤ¤ ìķĦ
ou r
Ġì²łëıĦ ìĹŃ
Ġëıħ ìŀĲ
Ġìľ µ
Ġì¡° íķ©
ĠìĿ´ëģ Ħ
Ġê°Ĳ ìłķ
Ġê°Ģ ë¡ľ
Ġì° ¸ë
Ġê·Ģ êµŃ
Ġë§ Ĳë
Ġíİ¸ ìŀħ
íĭ Ģëŀľëĵľ
ĠíĻ ľë
ĠëĮĢ ë¦½
ì½ ľë
ìĿĮ ìĿ´
Ġíķ Ħë
Ĥ ¸ëĭ¤
ĠíĻķ ìłķ
Ġì§Ħ íĻĶ
ìĿ¼ë Ł¬
Ġê°ĸ ì¶ĺ
ĠìķĦ ë¦
Ġê¸° ëĮĢ
ĠëłĪ ì½Ķëĵľ
Ġ197 8
Ġë¹ łë¥´
201 7
¾ į
Ġì¢ Ģ
Ġìħ °
Ġìĥģ íķĺ
ĠíķĦë¦¬ íķĢ
Ġëĭ¨ ì§Ģ
¤ Ħ
ĠìķĮëł¤ ì¡Į
Ġâ ī
å· ŀ
ĠìĿ´ë£¨ìĸ´ ì§Ħ
ê³ł ê¸°
ëª »
ìĺ ¨ëĭ¤
Ġ Q
e a
ĠìĦ± ê³¼
Ġìłľ ì£¼
Ġìĵ° ìĿ¸ëĭ¤
Ġíı ¼
ĠìĤ´ íķ´
Ġíķ¨ë ĮĢ
Ġë³µ ìŀ¡
Ġ197 1
ĠëĤĺëī ĺ
Ġë³´ë ³ĳ
Ġìĭľ ê°ģ
ĠìķĦì¹´ë į°ë¯¸
Ġë¹Ħ ìľ¨
Ġëª½ ê³¨
ìĦ °
ĠëĬĲë Ĥ
Ġ Ã
Ġë¶ ī
on g
ĠëĿ ł
ĠìĿĺ ìŀ¥
Ġ15 0
Ġìļ° ìĪĺ
ĠìķĦë Ĥĺ
i p
Ġ4 3
ë§ ¨
ĠíĪ¬ ìĸ´
ìħ Ķë
Ġê°Ĳ ìĹ¼
Ġìĭł ìķĻ
Ġë²ķ ìĿ¸
ĠìĤ Ń
ĠìķĦë ŀį
Ġ197 6
ĠëĤ Ń
ĠëĽ°ìĸ´ë Ĥľ
ĠìĿĺ ë£Į
Ġì°½ ìĦ¤
Ĭ ¬
íĬ¸ë Ŀ¼
ìĹ ĩ
ic e
ĠìĿ´ ìĬ¹
ìłķ ë¶Ģ
Ġìłľ ìŀĦìĬ¤
Ġê³µ ì£¼
ìľłë Ł½
ìĹ °ë
ª ¨ë
ĠëĤĺ ì¹ĺ
ìĿĮìĿ´ ìĿĺ
ìķĦë ²Ħì§Ģ
³ ¼
ĠëıĻ ìĿĮìĿ´ìĿĺ
ĠëĦĺ ìĸ´
Ġåľ ĭ
Ġ197 5
Ġì§Ģ ìĭľ
ĠìłĦ íĻĶ
ëĦ¤ ìĭľìķĦ
1 1
Ġìĭľ íĤ¬
Ġë³´ ê¸ī
ĠíĸĪ ìĹĪ
ìĹĨ ìĿ´
íı¬ë ¥´
Ġë°ĺ ëıĦ
¨ëĿ¼ ìĿ¸
ì¹ ¨ë
Ġæ Ķ
ŀ Ń
ìĪ Ń
Ġìľłë ĭĪ
ĠìĻķ ìľĦ
ĠìĿ´ìĬ¤ ëĿ¼ìĹĺ
¡ ±
ĠìŀĲ ê¸Ī
Ġì°¸ ìĦĿ
ĠìĦľ ìĸĳ
ĠìĺĪ ìĥģ
Ġíĥľìĸ´ë Ĥľ
Ġì²Ń ëĤĺëĿ¼
Ġ196 9
ĠìĿ´ë£¨ìĸ´ ì§Ģ
ì¤ Ħ
Ġê² Įë
Ġì¹´ ìļ´
ìĭ± íĦ´
Ġêµ ´
ĠëĤĺ ìĻĢ
200 9
ĠìĦł ì¡°
ĠìĹĲ ìĦł
Ġë¸Įë ŀľëĵľ
ìĿĺ íļĮ
Ġì§ĳ íĸī
Ŀ¼ë ħ¸
Ġíıī ìĸĳ
Ġê°ķìłĲ ê¸°
ê ½ĥ
Ġê°Ģ ìĤ¬
Ŀ¼ë ¹ĦìķĦ
ķ ·
ĠìłĢ ìŀ¥
Ġê³ł ë¬¸
Ġì¹´ë ©
ìĸ Ģ
Ġë§Į ì£¼
Ġê³ł êµ¬ëł¤
Ġê³ł ìĸĳ
Ġëĭ¨ë °±ì§Ī
Ġë³¸ ê²©
Ġìĺ¬ë ł¸
ĠìłĦ íĺĢ
ìŀ ¬ë
íģ Ĳ
i k
ìľ Ī
Ġìĸ ¼ë§Ī
ĠëıĻ ìĿĺ
ĠìĪ «
ìĽĲ êµ°
Ġë©ĶìĿ´ ìłĢ
ĠìķĦë ¬´
Ġë§Īë ĵľ
ĵľë ¡ľ
Ġëª¨ ë¦¬
ĠíĽĦ ìĨĲ
Ġì§Ģ íĤ¤
íĭ°ë ¸Į
Ġìľł íķĻ
ĠíĿ ĺ
ĠìŀĲ ìĦ¸
íĻ Ģ
Ġê²Ģ ì°°
ìĹ ¬ë
Ġëª¨ë ¥´
ĠâĪ ¼
Ġíģ´ë ŀĺ
Ġëŀ Ń
Ġìĭ ¬ë
Ġë°ķ ì¥Ĳ
å ħ
Ġëħ¸ ìĺĪ
Ġíĥľìĸ´ë Ĥĺ
Ġ |
Ġ196 8
Ã ©
ĠìķĦ ìĬ¤
Ġê·¸ë Ł°
ĠíıŃ ë°ľ
Ġê³µ ìľł
ë ı
ë° į
Ħ Īë
Ġë°© ë©´
ìĹĲ ë¥´
Ġìĭľ íĤ¨ëĭ¤
Ġì£¼ êµĲ
Ġì° °
Ġíĺĳ ìĥģ
Ġì°¨ë ³Ħ
åŃ Ĳ
ìĵ °ë
íķĺ ëĿ¼
ê³ ±
ĠíĽĦ ì§Ģ
S T
Ġk g
Ġì¡° ê¸Ī
ĠëĨ Ģ
Ġ196 3
Ġì¤ĳíĻĶ ë¯¼êµŃ
ĪĦ ìĬ¤
ĠL e
ĠìĹ° ê³ł
Ġìļ° ìĦł
Ġê³µ íķĻ
Ġíķµ ìĭ¬
ë¹ Ħë
ê°ģ íĺķ
íĹ¨ íĭ°ëĤĺ
ë² ½
ĠìĪĺ ìĽĲ
ĠìĪĺ ì¶ľ
Ġåħ ĥ
ĠìĬ¤íĥĢ ìĿ¼
Ġë¶Īë Ł¬
Ġëį´ë §Īíģ¬
Ĭ Ħ
Ġíķĺ ëĬĺ
ĠìĦ¸ ìļ´
ëĵ Ģ
ĠìķĦë ¥´ë
ĠíĬ Ģ
Ġæ ħ
ĠU n
Ġìĵ °ë
Ġë§Ī ë¦¬ìķĦ
ĠíĮĲ ê²°
Ġì¤ĳ ë°ĺ
ĠëĮĢ ë¹Ħ
ĠìĤ¬ íĽĦ
ĠíĥĦ ìĥĿ
ĠëĮĢ íķŃ
ĠíĨµ íķľ
ĠìķĦ ìķ¼
ìĶ ¬
Ġ5 4
Ġ r
Ġë¬ »
íļ Įë
Ġå¹ ³
Ġìĺ ·
ĠíĮ Ĳë
Ġì´Īë °ĺ
ĠìłĦ ìĦ¤
Ġê¶Į íķľ
ĠìĨĮë ħĦ
Ġì²Ń ìĨĮëħĦ
ĠìĿ¸ ìĥģ
ĠìłĦ ìļ©
ë ģ
ìĺ¤ íĶĦ
ĠìĪ Ń
Ġì½ ľ
ĠìľĪëıĦ ìļ°
Ġë§Ĳ ê¸°
íĦ° ë¦¬
Ġêµ¬ ì²´
Ġë²ł ìĿ´ìĬ¤
Ġ197 7
ĠìĤ°ë §¥
ĠA r
¼ë ¡ľ
ĠìĨ Ķë¡ľ
ĠìķĮ ë¦¬
Ġìĥģ íĴĪ
ĠìĦ± ëĭ¹
Ġ4 6
ìĬ ´
Ġìŀ Ń
Ġç «
Ġìĩ ł
ĠëĤĺ íı
19 5
Ġíĺ Ħë
Ġìĺ ¨ëĿ¼ìĿ¸
ĠD e
Ġë´ Ħ
ĠìĿ´ ìĿµ
íı ´
Ġ x
ìħĶë ĦĲ
ĠìĪľ ìĦľ
Ġì§ģ ìĽĲ
Ġìŀĺ ëª»
ĠìĪĺ ìĹ¬
Ġë³Ħë ıĦ
Ġë¹Ħë Ĥľ
ìķ Ĺ
¥ ¼ë¦°
ĠìĿĺ ë¬´
ĠìĹĲ íĶ¼
íľ ´
é ĥ
ĠìķĦë ©Ķë¦¬ì¹´
ĠN e
ĠìĬ¤ ë¦¬
íķ´ ì¡Į
ĠìĨ Ķ
Ġë£¨ ìĿ´
Ġê² Ĳ
ìķ Įë
Ġìŀ¥ ì°©
å ±±
ĠìĿ¸ ì¡°
ĠìķĶ ìĤ´
Ġì¤ĳ ë¶Ģ
a v
ĠìĤ¬ ìłĦ
Ġê³ł ìłķ
Ġë³Ģíĺ¸ ìĤ¬
Ġê³µ íı¬
ìĤ ´ë
ê± ¸
¸ Ķë
ìĺ ¬ë
Ġëħ ¼ë¦¬
íĶĦ ë¦¬
ìĨĮë ĵľ
ĠìĨĮ ìĭĿ
ĠíĶĮë ŀ«
ĠìĤ¬ íķŃ
ì° į
ĠìĽĲ ìŀĳ
ĠíĪ¬ ìŀħ
° Ķë
Ġìŀĳê³¡ ê°Ģ
¹ Ļ
Ġëį ®
Ġç ¸
ë ©°
Ġë³¸ ìĿ¸
Ġë¬´ ë¦¬
Ġë§Īëĵľ ë¦¬ëĵľ
Ġìľ¡ ìĥģ
Ġê³µ ë¬´ìĽĲ
íķ Ħë
Ġê³µ ê¸°
¥´ íĬ¸
ĠíļĮ ìłĦ
Ġê°ģ ë³¸
ĠëıĮìķĦ ê°Ģ
an g
Ġè ģ
ë²Ħ íĬ¸
ĠìĹŃ ëĮĢ
ìļ° ë¦¬
r y
é ģ
ê° ľë
ìŀĲ ê¸°
Ġê´Ģ ë£Į
Ġíĺĳ ìłķ
ĠíĿĶ íŀĪ
ĠíĶĮëłĪìĿ´ ìĸ´
¬ ĺ
íģ¬ë °Ķ
Ġìľł ìĹĶ
Ġë¹ łë
Ġ19 20
ĠíķŃ ë³µ
Ġê³ł íĸ¥
ĠìłĢ ì§Ģ
¯ ¼ë
Ġs t
ìĤ¬ íĤ¤
ìĿ¼ë ³´
s e
Ġê°ķ íķĺ
Ġëĭ¨ ìĿ¼
Ġìĺ¤ íŀĪë
Ġìĸ´ë¦° ìĿ´
Ġëį ´
Ġê´ĳ ìĹŃìĭľ
Ġ196 4
ĠìĬ¤ ì¼Ģ
Ġ17 9
ĠìļĶ ìĥĪ
ĠíĽ ¨
ĠìĤ¼ êµŃ
°ĺ ëıĦ
ĠëĤĺë Ī
ĠìĤ¬ëł¹ ê´Ģ
ìĸ´ ìĬ¤
Ġìĺ¤ë¥¸ ìª½
ê´ Ħ
íį¼ ìĬ¤
Ġì¶Ķ ì¸¡
ĠìĦłìĪĺ ëĭ¨
Ġìłķ ë³µ
ìĦľ ìļ¸
ĠíĤ ¹
Ġë© ¸ë
ic h
ĠìĬ¤ ì¹´
² Ħë
ĠìĿ´ ìĦ±
Ġì¶ľë §Ī
ĠíĽ¨ ìĶ¬
8 0
è ¡
ĠìĤ° íķĺ
Ġì ¾
ìķĦë Ĥ´
ĠìķĦë¥´ íĹ¨íĭ°ëĤĺ
Ġ194 0
¥ ¿
Ġä¸ Ģ
ĠìĿ¸ìłķ ë°Ľ
Ġë²ķ ì¹Ļ
ë³ ´ë
Ġìľł ìłģ
ë² łë
Ġìĺ¤ìĤ¬ ì¹´
Ġë¶ģ ìĦľ
Ġëħ¼ ìĿĺ
Ġ196 7
o b
« ĵ
Ġë³´ ì¡°
Ġë¶ģ ëıĻ
ĠìĻ¼ ìª½
ĠìĿ¸ ê°Ģ
ĠêµĲ ë¥ĺ
ìĤ° ìĭľ
Ġìķŀ ìĦľ
ë©Ķ ëĭ¬
ëł Ģ
Ġì° į
Ġìĺ¤ ìłĦ
ĠíĶ Į
Ġ193 0
B O
Ġì¼ Ģë
Ġìĸ´ëĸ» ê²Į
Ġ4 9
Ġêµ¬ë ³Ħ
Ġì§Ģ ëĭĪ
Ġë½ ĳ
ë¦¬ ìĬ¤íĬ¸
ì£ ½
Ġê³µìĤ° ì£¼ìĿĺ
Ġìĺ¤íŀĪë ł¤
f f
Ġë°© ì¶ľ
igh t
ĠìĪ« ìŀĲ
Ġëĭ¤ ì¹´
Ġìĭ¬ ê°ģ
Ġê°Īë ĵ±
ĠìĹ¬ê°Ŀ ì²łëıĦ
Ġêµ° ìĪĺ
ĠìĹ´ ë¦¬
Ġì£¼ ìľĦ
ë ¨¸
ĠìĿ´ ìłľ
ĠìĿ į
Ġë¡ľ ëĵľ
ë§ ¥
Ġìķŀ ëĳĲ
Ġìŀħ ìŀĲ
200 7
Ġìļ´ ìłĦ
Ġ196 2
Ġë¶Īë ł¸
íĮ Ķ
íį¼ë ĵľ
Ġç ļ
ĳ ¥
Ġìłľ ìŀĲ
Ġãĥ »
Ġì°½ ë¦½
Ġë©¸ë §Ŀ
ĠìĿ¼ìľ¼ íĤ¤
19 3
ĠëĿ¼ë ıĦ
Ġì» ¬ë
ĠìĹ°íķ© êµ°
ĠíĿ¡ ìĪĺ
Ġì§ Ħëĭ¤
Ġìļ° íģ¬ë
ĠíĪ¬ ìŁģ
ëĵĢ ìĦľ
Ġê¸Ī ìĨį
ĠC D
Ġëį° ìĿ´
ë Ł°
Ġìĺ¤ íĶĪ
Ġ194 8
¯¸ë ĶĶ
Ġìļ´ ìļ©
Ġê±´ êµŃ
å ¸
Ġìĭľ ìłĲ
Ġì§ĳ ìķĪ
Ġìłľ ì¶ľ
Ĩ ĵ
Ġëª© ìĤ¬
ĠëĤ´ë ł¸
Ġíļ¨ ìľ¨
± Ģ
Ġë¶Ļ ìĹ¬
Ġ5 3
ĠìłĦëĿ¼ë ¶ģëıĦ
Ġ5 2
Ġì²ľë ¬¸
Ġê¸ Īë
ĠìĿ¸ ê¶Į
ì¸ łë
Ġë°ĸ ìĹĲ
S A
Ġ6 5
ê·¸ ë¦¬
ĠìĽĮ ìĭ±íĦ´
ĠìķĦìĭľ ìķĪ
Ġé Ħ
Ġì·¨ ê¸ī
ĠíĶĦë¡ľ ëĵĢìĦľ
Ġê±° ìłĪ
Ġê³µ íĻĶ
ìī ¬
Ġì¼ Ħ
ĠìľłìłĦ ìŀĲ
ì² ľë
Ġé »
Ġå Łİ
ĠìĹ° ìĤ°
u p
Ġì£½ ìĿ´
Īë©Ķ ëĭ¬
ĠìłĦ ê³µ
Ġê°ľ ìĭľ
ìĿ´ë Ŀ¼
Ġë¡ ¯
Ġå· ŀ
ĠëĤ ¸
Ġê¸ Īë©Ķëĭ¬
l y
ĠìĦ± ì§Ī
Ġë§ Ľ
Ġì£¼ ê¸°
Ġëĵ¤ìĸ´ ê°Ķ
ĠìĦľ ê¸°
ìł¤ ëłĪìĬ¤
Ġä ¼
ĠìłĪë ĮĢ
Ġíķ© ìĦ±
ĠíĨµíķ´ ìĦľ
ar t
ä ½
Ġì§Ģ ë¦¬
ĠíĻľë °ľ
ĠìķĦ íĮĮ
ĠìĿ¸ë ¥ĺ
ĠìĪĺ ìĨ¡
ĠìĿ´ìĸ´ ì§Ģ
Ġë°ĺ ë³µ
ĠìĿ¸íĦ°ë ·°
Ġíĺ¸ íħĶ
Ġ196 5
Ġíı¬ ê¸°
Ġìħ ĭ
ĠìĹĲ ìĿ´
ĠìķĪ íĥĢ
Ġìłķ ë¹Ħ
Ġíģ´ë Ŀ¼
s s
ĠìķĦ ì¹¨
Ġå ĸ
Ġêµ¬ ìĨį
Ġë© ¸
ç Ķ
ĠíĺĦ ìŀ¥
Ġ196 6
¹ Į
Ġê´ ´ë
ĠìĿ¸ íĦ°
Ġíķ´ ìĥģ
Ġì¤ĳ ëĮĢ
ì¹´ ìĻĢ
ĠìłĦë ¶Ģ
Ġç ¶
ì ģ
Ġíļ¨ ìĨĮ
ĠìłĦ ì²ł
Ġìĸ´ë łµ
ĠìłĦ íĽĦ
Ġë² ¡
ĠìĥĿ ê¸°
ĠìĿ¸ ì¢ħ
ĠìĿ¼ ì¹ĺ
Ġëª¨ìĬ¤ íģ¬ë°Ķ
Ġíĥľ íĴį
å °
ĠìĹ° ê´Ģ
Ġë³ Ģë
Ġè «
ĠìłĢ ìĦľ
ĠëĮ Ħ
Ġê±´ ë¦½
Ġëħ¼ ìŁģ
Ġê±´ ì¡°
ĠëĤ´ ë¦¬
ħ ¼
Ġè ¦
Ġì¶ľ ìŀ¥
ĠíĶĮëłĪìĿ´ ìĺ¤íĶĦ
Ġê± ¸ë
Ġê¹ ¨ë
Ġ18 3
ĠìĬ¤ì½Ķ íĭĢëŀľëĵľ
Ġë³µ íķ©
Ġì°½ ì¡°
Ġíķľë ķĮ
Ġì·¨ë ĵĿ
Ġë¹ Ļ
ĠëįĶë Ŀ¼ëıĦ
Ġ 00
Ġë Ł¬ë
Ġë¶Ģ ìŀ¥
Ġê¹ ¨
ĠìĤ¬ ë²ķ
äº º
Ġå İ
Ġë ®
ĠìĦ± ê²½
Ġì¶ľ ìŀħ
ĠS h
en d
´ ĩ
u e
a in
¼ Ī
Ġíĥ Ŀ
Ġ194 6
ëĭ µ
Ġíķĺ ëĵľ
ĠìĿ¼ë ĮĢ
ĠëıĻ ìĽĲ
Ġì§ģ ìłĦ
20 19
ĠìĽĲ ë¦¬
Ł°ë į°
ĠìĹĲíĶ¼ ìĨĮëĵľ
Ġíķ´ ì¡Į
Ġìŀ¥ ìķħ
Ġëªħ ìĦ±
ĠL G
ĠìĤ¬ íĥľ
ìĦľ íĬ¸
ĠìĨį íķľëĭ¤
Ġí ĥģ
Ġì§Ģ ì¼
ì² ©
ĠS BS
Ġë »
Ġë¶Ģ íĻľ
Ġíĺ¼ë ŀĢ
ĠìĺĪ ìĤ°
Ġì§ĢëĤ ¸
¡ľ ëĵľ
Ġì½Ķë ¯¸ëĶĶ
´ë łĪ
ìĿ´ íĶĦ
ĠëĿ¼ ìĿ´ë¸Į
Ġì´Ŀ ëıħ
ìĬ¤ ì¹´
ĠìĿ¸ ê³µ
Ġè ²
Ġìĺ¤ëŀ ľ
Ġê ¾¸
ìĦ± êµ°
ë ī´
Ġ196 1
at e
Ġ9 9
Ġíķľ ìŀĲ
ĠëıĦ ëĭ¬
Ġè Ģ
Ġìĥģëĭ¹ íŀĪ
Ġë³´ íĹĺ
Ġå¤ ª
Ġìķ½ ìĨį
ĠìĤ¬ëł¹ ë¶Ģ
Ġíİ¸ ì§Ģ
Ġ194 9
Ġê¸ Ģë¡ľ
Ġì£¼ íĥĿ
Ġì·¨ íķĺ
ì» ´
åľ ĭ
ê¸° ìĹĲ
ĠìĨĮë ħĢ
200 6
Ġëħ¸ë¥´ ìĽ¨ìĿ´
Ġê² ¬íķ´
Ġíĳ ¸ë
ĠìŀĦ ê¸Ī
Ġê´Ģ ì§ģ
Ġë²łìĿ´ ì§ķ
å ı
ĳ ĳ
Ġëħ¸ ìĬ¤
Ġì½Ķ ìĬ¤
ĠìĿ¼ìľ¼ì¼ °
Ġ. .
Ġê³ł ìľł
ĠíĮĲ ìĦľ
Ġìĭł ì²´
Ġì§ģ ìĹħ
ĠíĻľ ìĦ±
Ġíĥľ êµŃ
Ġíĺķ ìĤ¬
ĠC om
Ġëħ¸ë ¶Ģ
Ġìļ° ìĬ¤
ì£¼ë ¯¼
Ġë³´ ê´Ģ
ĠíĽĦ ìĽĲ
ĠíĶĦë Ŀ¼
ĠìĹĲ ëĵľ
Ġ5 7
Ġê²½ ì£¼
ĠìķĦë¦ Ħëĭ¤
Ġë¶Ħ ìŁģ
Ł ĵ
Ġíĥ Ģë
° Ľ
Ġë¶Īë ²ķ
Ġëªħ ëªħ
O S
ìķ¤ ìł¤ëłĪìĬ¤
Ġì²ł ìĪĺ
Ġíķ´ ìĸĳ
Ġëĸłë Ĥ¬
Ġìŀ¥ êµĲ
ìĻ Ģë
Ġì£¼ ê´Ģ
Ġìĺģ ìĹħ
ĠìĦ± ëĬ¥
Ġë³¸ë ªħ
Ġê³ł ìļ©
Ġê°Ħë ĭ¨
å Ī
ĤĺìĿ´ íĭ°
å º
ĠìĤ¬ ë
Ġë³¸ ìĤ¬
Ġì¹´ë ¥
Ġìĥģ ìĬ¹
ìĹĲ íĬ¸
Ġë© ĺ
Ġë°ĺ ìĺģ
ĠëĮĢ ë¦¬
Ġ5 6
ĠêµĲ íĻĺ
Ġëª¨ë ĵľ
ãĢ Ī
Ġìłĳ íķĺ
ĠìĪĺ ì§ĳ
¥ ¨
Ġì¹ ¼ë¦¬
ĠíĨµ ê³Ħ
i an
ĠìĹ¬ë ¶Ģ
łĪìĿ´ ìħĺ
Ġt o
ĠíķŃê³µ ê¸°
Ġë¶Ģ ìŀĦ
ĠìĨĮ ìĬ¤
Ġæ º
ĠìĤ¬ ìŀ¥
ĠìĤ ¼ë
Ġìŀ¬ë ĭ¨
Ġì²ľ ì²´
Ġíķĺ ìľĦ
ĠëıĦ êµ¬
Ġìĥģ ë¥Ļ
Ġë¯¸ íĦ°
Ġë²łë ¥¼ë¦°
Ġê²½ ìĦ±
¡ľ ëĤĺ
ĠíĬ¸ë ŀĻ
íĭ ¸
Ġê°ľ ì²´
ĠìĬ¤ íĥ
Ġì§ ľ
ĠìĿ´ ê¸°
Ġ i
íĶĦë ŀĳ
ê³ ½
ĠëĨį ë¯¼
ĠìĹ° ìŀ¬
o h
ĠëĮĢ ëŀµ
ĠíıŃ ëł¥
¤ ¼
æ ł¡
Ġìĺģ ìŀħ
ĠìĿ´ë ¯¼
ĶĶ ìķĦ
Ġì¤ĳ ìĦ¸
Ġê±° ê¸°
Ġì¢ ģ
ĠìĬ¬ë ¡ľ
ë¬¸íĻĶ ìŀ¬
ĠíĻĶ ë¬¼
ĠíķĻ ë¶Ģ
© į
Ġê´Ģ ìłĲ
ĠãĢī ,
Ġë¬´ ìĹĩ
ĠP C
Ġìľłë ĤĺìĿ´íĭ°
Ġíħ Ĳ
ĠíķĻ ìĪł
Ġì½ĺ ìĦľíĬ¸
Ġë°ĺ ë°ľ
ĠìľĦë °ĺ
Ġìłķ ì²´
ĠíĮĮ íģ¬
ì²ľ êµ°
łë łĪ
Ġì§Ħ ìŀħ
´ë ĮĢ
Ġ5 8
Ġç ´
ĠëĮĢ íĻĶ
Ġìŀĳ ìĤ¬
T V
ì¤ Ģëĭ¤
Ġíı¬ë ıĦ
Ġë¹łë ¥¸
ĠìĬ¹ ì§Ħ
Ĩ Ĵ
Ġëĭ¹ íķľ
ĠìĹ° ì¶ľ
Ġìĺģíĸ¥ ëł¥
ĠíĹĪ ê°Ģ
Ġìĭł ìĦ±
ĠíĹ ¬ë
ê° Ļ
ĠíķľêµŃ ìĸ´
Ġìŀ¬ ìľĦ
Ġë©Ķ ìĭľ
ĠíķĻ ìĬµ
ĠíŀĪë į°
ì²ľ ìĭľ
ĠëıĦ ë§Ŀ
ì¤ĳ êµŃ
ì¿łë Ŀ¼
ĠìĬ Īë
ĠìĹ°ë £Į
ĠêµĲ íĨł
Ġë¡ľ ìļ´
Ġìłķ ì§Ģ
ì¹´ ìĿ´ëıĦ
Ġéģ ĵ
Ġíķ Ģ
ĠíķŃ êµ¬
2 2
ĠìĭŃ ìŀĲ
¨ ¹
Ġë°± ìŀĳ
Ġê·¸ë¦¬ìĬ¤ ëıĦ
Ġíı¬ ìľĦ
Ġë°± ìłľ
Ġìŀ¬ë £Į
Ġê¼ Ń
Ġè ¥¿
ĠíĥĪ ì¶ľ
Ġì±Ħ ìļ©
ĠìĪĺ ìĪł
ĠìłĦë¬¸ ê°Ģ
ĠíĹ ¬
Ġë³´ ìĬ¤
ĠæŃ £
ãĢ ĭ
Ġç ľ
Ġë¦¬ë įĶ
Ġå ½
ìĭľ ìĬ¤
ëĵ ł
ĠíĹ ¨ë¦¬
Ġë³´ ìķĪ
Ġ16 0
il l
Ġ195 8
ĠìĦłë ³´
ĠìŀĲ ìĤ´
Ġíķ© ê²©
ĠíĥĪë Ŀ½
Ġì£¼ë ħĦ
Ġì°½ ëĭ¨
©Ķ ë¦¬
Ġë³ ¼ë
Ġë§Ī íģ¬
Ġë°© ìĤ¬
ĠíĺĦ ì§Ģ
ìķĦë Ĥĺ
íħĮë Ħ¤
ìĿ´ë ²Ħ
Ġ1 000
o v
ĠìĦł êµĲ
Ġë¯¸ë ĭĪ
íĤ¤ ìĬ¤íĥĦ
Ġê´ ´
Ġëĭ¤ ìĬ¤
ĠìĨĮë °©
Ġì£¼ ê°Ħ
ĠíĶĦë¡ľ ìĦ¸
Ġìĭł ì²Ń
Ġê¸° ëıĦ
ĠìĬ¤ëŁ¬ ìļ´
Ġìłľ ìĸ´
æ ĸ
ĠS p
Ġì§Ģ ë¶ķ
Ġå £
Ġë¶Ī ìĥģ
ì» ¨
Ġë¯¸ë ĵľ
Ġì¶ķ ìłľ
Ĺ ëĤł
Ġìĭľ ë¦¬ìķĦ
Ġì§Ħ ìķķ
Ġìĭłë ¶Ħ
Ġêµ¬ìĦ± ìĽĲ
ĠêµŃ ìŀ¥
ĠìłĦ íĮĮ
ĠìķĦ ìļ°
Ġê°Ĳ ìĤ¬
Ġì§Īë ³ĳ
Ġì°¸ ìłĦ
o k
ĠìĿĺ ëıĦ
20 20
ĠíķĻ íļĮ
Ġì£¼ ìłĦ
Ġê³Ħ íĨµ
ĠíķĻ ê³¼
ĠëĶĶ ìĬ¤
ìĿ´ ì¹ĺ
Ġê¹Ģ ìłķ
ĠìĺģíĻĶ ìłľ
ĠíĿĲ ë¥´
Ġê³µ íĨµ
ëł ´
Ġëª¨ ìķĦ
ĠíĮ Ŀ
Ġê¸° íĺ¸
ìĪĺ ë¡Ŀ
Ġì¶ľ ê°Ħ
ĠëĤ¨ ìĦľ
ì¶ °
ĠíĥĢìĿ´ ìĻĦ
Ġë°ľ ìĸ¸
Ġé ķ·
ë¦¬ íĬ¸
Ġì² ¨
êµ¬ë ĭ¨
ĠëĦ ·
Ġì§Ģ ê¸ī
Ġë³µ ë¬´
Ġíı ´ë¦¬
Ġì Ķ
ìłĢ ìļ°
Ġé ł
Ġíı¬ë ¡ľ
ĠâĢĻ (
ĠìĿĳ ìļ©
Ġì¹ľ ìĿ¼
ĠíķĻ ìĽĲ
ĠìĦ¸ë ¥´ë
Ġë³Ģ íĻĺ
Ġìłķ ìĽĲ
Ġë³´ ì»¬
Ġê³ł ëıĦ
Ġë³´ë Ĥ¸
Ġì¹´ìļ´ íĭ°
ĠìĺĪ ì¸¡
Ġ~ )
ĠìĿĺ ì¡´
Ġë°° ì¶ľ
Ġì£¼ë ĳĶ
Ġìłľ ìĿ¼
ĠìĤ ´ë
Ġéĥ ¡
ĠíĨµ ìĥģ
ìłķ ìĭĿ
Ġ4 1
en s
ĠìĬ¤ë Ł½
ĠíĥĦ ìĨĮ
Ġç Ħ
Ġìĺ Īë¹Ħ
Ġë© ľë
íĥĢ ë¥´
Ġë ĥĲ
ĠëĬĶ ê°Ģ
Ġìĭľ íĺ¸
ĠëłĪë ĵľ
Ġå §
Ġë§Ŀ ëªħ
ìľ ĦëĮĢ
Ġ15 9
Ġë²ł ìĬ¤íĬ¸
ĠëĪĦ êµ¬
¹ Ħëĵľ
Ġ195 6
ĠíĶĦë ŀĢ
Ġíİ ł
Ġìŀ¥ ë¥´
Ġëĭ¤ ë£
Ġë°©ìĨ¡ êµŃ
ë ¯¼ë
Ġì¡° ìłĪ
Ġê³ł ë¦¬
ĠìĤ¬ ìļ´ëĵľ
Ġìĸ´ëĸ ł
Ġë¬¸ íĹĮ
Ġì·¨ ìĨĮ
Ġíĥľìĸ´ëĤ¬ ìľ¼ë©°
Ġâ Ħ
Ġë§ī ë¶Ģ
Ġê³µëıĻ ì²´
Ġì «ĵ
Ġè ³
Ġê¸° ë²ķ
Ġì¡° ìŀĳ
íĥĢ ìĿ´
Ġè ª
ĠëıĻ ìŀĳ
ĠF A
ĠìļĶ ìĿ¸
Ġê¸Ģ ìŀĲ
Ġíķĺ ìļ°ìĬ¤
ì§ Ħë
Ġë¹Ħë¡ Ŀ
ĠëĤĺ ê°Ķ
ĠC on
ê¹ ¨
ĠìĬ¤ íĨłë¦¬
ĠíĿ ī
Ġëĭ¬ íķĺ
Ġìłľë ĮĢë¡ľ
Ġë ī
Ġìŀ ĦëĮĢ
Ġæĸ °
ĠìĽĲë ħĦ
Ġë³Ģ íĺķ
ĠìłĪ ì°¨
ĠëĤ¨ ê²¼
Ġì¶©ì²Ń ë¶ģëıĦ
Ġì²Ń êµ¬
ĠìĻ¸êµŃ ìĿ¸
Ġë¬¸ ìŀ¥
ĠìłĢ ìŀĳ
E R
ëĵľ ìĭľ
ĠíĻĶ ë©´
ë ®¤
la n
Ġ% ,
Ġë²¨ ê¸°ìĹĲ
ĠíħĮë Ł¬
ë¶ Ļ
ĠíĶ¼ ìķĦëħ¸
ĠìĦľë ²Ħ
Ġæ Ģ
Ġë°ĺ ëĵľìĭľ
ĠP ro
ĠìĿ¸ëıĦ ëĦ¤ìĭľìķĦ
Ġæ³ ķ
ìĦ¸ ìĿ´
Ġæ ¼
ĠìĬ¤ íģ¬
ĠëĬ ¦
ĠìĥĿ ì¡´
Ġì²ĺ íĺķ
Ġç ī
Ġê°Ģ ìĿĦ
Ġëĭ Į
Ġìºł íį¼ìĬ¤
or t
Ġë¬´ë į¤
Ġë¶Ħ ìĹ´
an t
Ġíķ´ ìĤ°
Ġíļ ¡
ĠíĹ¤ ìĿ´
Ġ195 9
ĠìļĶ íķľ
ĠíĽ ĹëĤł
ĠìĹ° ìķĪ
íİĺ ëĿ¼
ĠíĶĦë¦¬ ë¯¸
ĠíĿĳ ìĿ¸
Ġ6 00
ĠíĮĮ ìķħ
Ġë°© ì§Ģ
ĠëģĿ ëĤĺ
Ġå ĳ
Ġì¹´ë ¥´
ĠL i
³ ´ëĵľ
Ġêº ¾
ĠìĿ´ìĬ¹ ë§Į
Ġì£¼ìĭĿ íļĮìĤ¬
ä »
ĠìĭĿ íĴĪ
¥ íĦ°
Ġì į¨
Ġìĭ¸ ìĽĢ
Ġê´ĳ ìŀ¥
Ġ9 5
Ġëª© ìĨĮë¦¬
ĠíķĺëĤĺ ëĭĺ
ìĿ´ë ¸Ķ
Ġê¸° íķĺ
Ġê¸° ì²´
Ġë§Ī ì¼Ģ
Ġë§ŀ ìĿ´
ĠìĹĦ ì²Ń
ĠíĺĦ ìĹŃ
Ġë¶Ħë ªħ
Ġì§Ħë ³´
Ġìĭľë Ĥ´
Ġë¶Ģ ë¶Ģ
ĠëĲľëĭ¤ ëĬĶ
Ġë¡ľ ì¼ĵ
ĠíĮĲ ìĤ¬
Ķ ĺ
Ġêµ¬ íķĺ
íķĻ ìĥĿ
Ġê°ľ ì¡°
Ġëıħë¦½ ìļ´ëıĻ
m an
ĠìĨĮë¹Ħ ìĹĲíĬ¸
Ĥĺ ë¬´
Ŀ¼ë ĵľ
ĠìĿ´ë ¤Ħ
Ġëĵ± ì§Ģ
ĠìĿ¼ë³¸ êµ°
Ġ194 1
2 4
Ġ12 0
Ġë©Ķë ª¨ë¦¬
Ġìĭ¤ ìĪĺ
ĠìŀĲ ëħĢ
Ġê·¸ë łĪ
ĠìĿ´ë£ ¬ëĭ¤
ĠìĦ± íĸ¥
Ġìĭ¸ ìļ°
Ġê° ¤
Ġìķķ ëł¥
Ġë³Ħë ªħ
A R
Ġ8 00
ĠìĹ¬ë ĭ¨
ĠëĤĺíĥĢë Ĥ¬
íĥĢ ìĿ¸
Ġë¬¼ ì²´
Ķë ĭ¤
ĭĪ ìĸ´
Ġåħ ī
Ġë¬ ¶
å į
Ġê »
Ġ194 4
Ġìļ°ë ł¤
Ġë¶Ģ ìĤ¬
Ġìŀ¥ ìĪĺ
Ġìłķ ê¸°
i o
ħ ģ
Ġë¿ Įë¦¬
O N
Ġíķľë °ĺëıĦ
ë¦Ń ìĬ¤
Ġë°ķ ìłķ
Ġ194 7
Ġ5 9
ĠíĶĮë Ŀ¼
Ġìĭ¤ ì§Ī
Ġëıħ íĬ¹
Ġìĥģ ìĽĲ
ë¥ ¸ë
ê³µ íķŃ
Ġë° Ģë
ĠíŀĪ íĬ¸
ĠìĤ¬ ìļ°ë
ĠìĦł ìłĦ
Ġë³´ë ¬¼
ĠìĹ¬ ìķ¼
ĠíĦ°ë ĦĲ
Ġë¹ ¨
Ġë¦¬ ìĬ¤
ìĭł êµĲ
Ġê²½ ë¡ľ
ĠìĪĺ ìĨĮ
ĠíĥĢ ê²©
Ġíķ ĳ
ĠìĬ¤ ë§Ī
Ġìĭł ìĿ¸
Ġëª ¸ë
Ġè Ĺ
ĠìłĦë ©´
ĠëĤĺíĥĢë Ĥľëĭ¤
Ĥ ¼
ĠæĪ Ĳ
m ent
7 0
ĠìķĦ ìĤ¬
Ġì¹´ë© ĶëĿ¼
Ġì½ ¤
Ġë²Ħë ł¸
ĠìĻķ ìŀĲ
Ġê°Īë Ŀ¼
Ġë¡¯ ëį°
Ġìĺ¤ìĬ¤ ë§Į
A T
Ġë¹¼ ìķĹ
Ġì²ĺ ë²Į
Ġíĺ¸ ìĪĺ
u re
Ġë¯¸êµŃ ìĿ¸
Ġê°Ħ íĸī
ĠìļĶ ì½Ķ
Ġ6 8
Ġ6 6
§ ¨
Ġì¶Ķ êµ¬
ĠëĨį êµ¬
or d
ĠìĦľ êµ¬
Ġ7 4
Ġë²ķ ìłķ
Ġìĺ¬ë ł¤
ì¹¨ë Ĥ´
ĠëģĿ ëĤľ
ĠìĪĺ ë¦¬
Ġ6 3
ĠS K
Ġì¦Ŀ ìĥģ
2 5
ìĤ¬ ìĬ¤
ìľĦ ê¸°
Ġ195 4
Ġ8 8
Ġë Ŀ½
Ġê³µ ìłķ
a e
ĠÂ °
ĠëĤ ľë
ĠìĽĢì§ģ ìŀĦ
Ġíĸ¥ íķ´
Ġíĸ¥ íķĺ
ĠìĻĦë £Į
ìĭľ ìĺ¤
ĠìłĦ íĺķ
ĠìĦľ ìĽĲ
ĠëłĪ ìĬ¤
ĠìĿ´ ìĺ¨
ĠíĴį ë¶Ģ
ì§Ģ ì»¬
on e
c t
ĠíĨ ±
Ġë¶Ģ íķĺ
ì§Īë ŀľëĵľ
ĠíĿ¬ë §Ŀ
ĠíĶ ½
í ĮĢ
Ġìľłë ¬¼
Ġëª¨ ìĹ¬
ìĤ¬ ìŀĲ
ĠìŀĲ ëĿ¼
Ġê²Į ìĿ´
Ġä» ģ
ĠìĤ ½
ìĹĲ ìĿ´
Ġë°© íķ´
Ġë¡ľìĬ¤ ìķ¤ìł¤ëłĪìĬ¤
Ġê·¸ë Ł°ëį°
Ġì¹ĺ ëŁ¬
ĠìĹĲ ëıĦ
Ġê³ł ì§Ģ
Ġì§Ģ ëĭĮ
Ġ195 2
Ġå· Ŀ
ĠìĨĲ ìŀĲ
ĠìĬ¤ íĥĢë
ĠëıĻ ìĦ±
Ġê ½
ĠìĤ¬ ë¦½
Ġæ ¨
ĠíĬ¹ ìĿ´
Ġíķľ ìłķ
ĠëıĦ ìłĦ
Ġç¸ £
ĠìķĦíĮĮ íĬ¸
ĠëĮĢ ê°ľ
Ġæ ¬
ë² Ī
ĠìĹĳ ìĬ¤
ĠìĿĺ ì§Ģ
Ġìĥ ĺ
ê²½ ê¸°
íĳ ¸ë
Ġë§¤ ìĿ¼
ĠíĬ¸ë ¡ľ
Ġëħ¹ ìĥī
Ġç¾ ©
íĶĦë ¡ľ
Ġëĸ ł
Ġë¶Ħ íķł
ìĿ´ ìĸ¸
ĠìĿ´ ì¤ĳ
Ġìľł ê¸°
Ġê¸ ¸ë
Ġê¸° ëĳ¥
ĠíĿ¬ ìĥĿ
ë§Īë ¥´
íĪ ¬ë
£ ¡
æ Ľ¸
¨¸ ìĬ¤
ĠìłĦë ıĻ
ĠìłĲ ìłĲ
Ġëĭ¨ë ıħ
Ġë¸Ķë £¨
ĠìĿ´ ëĭĿ
Ġìľ¼ë ł¤
ìĿĢ íĸī
S S
ĠëĳĺëŁ¬ ìĭ¸
Ġìľł íĸī
Ġì¢Į ìļ°
ĠíĻĶ ìĦ±
Ġë°Ķë ĳĳ
ĠìĿ´ ì¹ĺ
Ġë¡ľ ë²ĦíĬ¸
ëĭ¤ ë¦¬
ĠëıĻ ê¸°
ìĬ¤ íĭ°ë
Ġë² ¨ë
ĠìĻĦ ê³µ
Ġíķľ ê³Ħ
Ġë Ĥ¬
Ġë¶Ģ ì§Ħ
å ¾
Ħë ıĦ
Ġêµ¬ íĺĦ
ĠìĤ¬ë ĥ¥
Ġì§ķ ìĹŃ
íİ Ļ
Ġì¤ĳ ê¸°
ĠãĢī (
ĠëĮĢ ë²ķ
ì¹ĺ ìķĦ
Ġã Ĥ
Ġëĳĺ ì§¸
Ġë°© ìłķìĭĿ
Ġì¶© ê²©
ĠìłĦ ìĽĲ
ìĹ° íŀĪ
Ġäº ĭ
l d
Ġë°Ŀ íŀĪ
ë² łë¥´
Ġë§ŀ ì¶Ķ
ĠíĬ¸ë Ŀ¼
Ġë¶Ħ ê¸°
Ġ195 5
ç ¾
íķĺ ë§Ī
Ġ193 9
ĠC oun
ĠìłĦ ìĭł
íĭ ĢëŁ¬
Ġæĺ İ
Ġíķ´ ë¦¬
£ ©
Ġíİĺ ë¥´ë
¨ë ĮĢ
ĠíĻĶ ìŀ¬
Ġ195 7
ĠìĪľ ê°Ħ
ĠëĵĿ íĳľ
2 3
Ġì²´ ì½Ķ
Ġìµ ľëĭ¤
ì¹´ ê³ł
Ŀ¼ìĿ´ ìĸ¸
ì§ Ĳ
ĠëĦĵ ìĿ´
ĠìĬ¤ íĮĮ
ĠìĤ¬ íĺķ
Ġëªħ íĻķ
ĠìĿ¼ë³¸ ìĿ¸
ĠíĬ¸ë ŀľ
Ġíŀ Ĳ
B A
I A
Ġç ķ
Ġíļ ¨ë
ĠëĿ Ħ
Ġ17 8
ĠìĥĪ ê²¨
Ġë§Ī ì¹¨ëĤ´
Ġëª¨ ìŀĦ
ĠìľĦ ìĥģ
ĠìĤ´ ìĿ¸
Ġ195 3
Ġì¹ĺ ëłĢ
Ġç Ł³
Ġ8 6
ĠíĮĮ ìĿ´
ĠíĻ ĭ
Ġë¨¹ ìĿ´
ľë ŀĢ
Ġì¶Ķ ì²ľ
Ġë¡ľ ë
ì½ ¤
ĠëıĦ ìĻĢ
ĠëĬĲë ģ¼
Ġë³µ ì§Ģ
Ġëĭ¤ ë©°
Ġíİ¸ ì°¬
Ġìłģ ìłĪ
Ġìķħ íĻĶ
ĠæŃ ¦
Ġë¬´ ê²Į
Ġìľ Į
ĠëıĻ ëĤ¨
Ġë¹Ħ íıī
Ġëĵ± íĮĲ
Ġì¶ľë ²Ķ
å ¹
Ġë¯¼ë ²ķ
ĠìĿĺ ìĭ¬
ĠìĦľë ªħ
Ġëª¨ íĺķ
ĠìĪľ íĻĺ
Ġê°Ī ìĥī
ĠìĥĪë ¡Ń
ĠìĥĿ ê²¨ë
ĠìĤ¬ ìŀĦ
Ġë©Ķ ìĿ¸
i ver
ĠìĿ¸ ìłĳ
ĠM e
Ġíķ¨ë Ŀ½
ĠìŀĲ ìľłë
Ġê°ģ ì§Ģ
Ġì½ĺ ìĬ¤íĥĦ
Ġë¶Ħ íķ´
ĠìłĢ ìĪł
ĠëĿ¼ ìĿ´íĬ¸
ë°© ìĨ¡
Ġíı¬ ìĿ¸íĬ¸
íĪ¬ ìĬ¤
Ġ% )
æ Ń
Ġìķħ ê¸°
Ġæ Ľ
Ġ9 8
Ġêµ¬ ìĽĲ
ĠëĮĢ ê³µ
Ġë°Ķê ¿
ĠìŀĦ ìĿĺ
Ġìľł ì¹ĺ
for mula
it h
íĿ ¡
Ġê¸° ìĥģ
200 5
Ġë²Ķ ì£¼
Ġæľ ´
Ð °
Ġê·¸ë ķĮ
Ġìĸ´ë ıĦ
ĠíĥĢ ìŀĦ
ĠìĦ± ë¶Ħ
ĠíļĮë ĭ´
Ġ8 5
ĠìŀĲ ê·¹
Ġìłķ íķĺ
ĠK BO
Ġìĺģ ìĽħ
Ġìŀħ ëĭĪëĭ¤
ĠìĤ¬ìĭ¤ ìĥģ
Ġíĥľë ıĦ
Ġê°Ģ ìĥģ
Ġì¡° ì¢ħ
ĠëĤ´ ìłĦ
ĠìĤ¬ ìĽĲ
į° ìĬ¤
ĠìĤ¬ ìłķ
Ġìĺ¤ íİĺëĿ¼
Ġè Ń
Ġíķľëĭ¤ ë©´
ëıĻ ìķĪ
Ġë§Īë ²ķ
Ġìĭ¤ íĺĦ
ĠåĮ Ĺ
ĠíĻķ ìĤ°
¹ ł
ĠìĿ¼ ì°į
Ġíķ© ì³Ĳ
¨¼ íĬ¸
ĠçĦ ¡
Ġê¼ ½
Ġë¶Ħ ìľĦê¸°
ĠìŀĦ ê¸°
Ġìķ µ
ĠëĤł ê°ľ
Ġê³łìĨį ëıĦë¡ľ
Ġì ¯
Ġìĥģ ìľĦ
Ġå Ĵ
ĶĶ ìħĺ
Ġê³µ ë¡ľ
Ġë°ľ êµ´
Ġë¬¸ë ªħ
Ġê°Ģ ì§Ħëĭ¤
Ġë³µ ìĪĺ
ë¯¸ ìĬ¤
Ġê¹Ģ ìĺģ
Ġë§Ĳ ëłĪìĿ´
Ķë ĵľ
Ġë¬¼ë¦¬ íķĻ
ë Ĩį
or e
ĠìĹ°êµ¬ ìĽĲ
Ġ194 2
Ġë¬ µ
Ħ¤ ìĬ¤
ĠëĤĺ ìķĦê°Ģ
Ġìłĳ ì´ī
« ëıĻìķĪ
ħ¸ ìĬ¤
ĠêµŃìłľ ê³µíķŃ
Ġ19 19
Ġæ ł¡
ĠìĹĲ ìĸ´
Ġê°ľ ìŀħ
ĠìĪĺ ìĺģ
Ġëį §
ĠëıħìĿ¼ êµ°
Ġëĸ¨ìĸ´ ì§Ģ
Ġë¯¸ë Ĥĺ
ëħ Ķ
ì½Ķ ìĬ¤
Ġë°± ìĦ±
ç Ńī
ĠëĲľëĭ¤ ê³ł
íħĲ ì¸ł
Ġê¸° ê¸°
Ġê¸° ìĺ¨
ĠìĹ¬ë ¡ł
ĠìĹĲìĦľ ë¶ĢíĦ°
Ġëħ¸ë ²¨
ĠL o
¬ ¼ë
Ġìĸĳ ìª½
íģ ´ë¦¬
Ġì§ĳ ê¶Į
Ġë§ĪìĿ´ íģ´
Ġë°ľ ìĿĮ
Ġ7 6
Ġì¹¨ë ŀµ
ì¼Ģ ìĿ´ìħĺ
Ġë²¡ íĦ°
ĠíĻį ë³´
ĠìĿ´ ìŀĲ
ĠíĨµ ìĤ°
Ġê³µ íĹĮ
ĠìĪľ ìĪĺ
ĠìķĦë Ŀ¼
Ġê¹Ģ ìĿ¼
ĠåŃ Ĳ
ĠìĦ¸ë¥´ë ¹ĦìķĦ
Ġê¸° ë³ĳ
ìĤ¬ ìĿ´
ĠìĪĺ ìĦĿ
Ġë¬´ ìĭľ
Ġì¶ľë ł¥
Ġ7 3
ĠD NA
Ġ5 1
Ġë¡ ±
ĠìĹ° ê°Ħ
ĠS e
ê¹ ¥
ĠéĻ ¢
Ġåº ľ
Ġëī´ ì§Īëŀľëĵľ
ìĹĲ ë¥¸
Ġì¶ ¤
Ġìĭ¬ ìĤ¬
Ġìķ ī
ĠêµŃ ë¬´
Ġì¶Ķ ìĤ°
Ġìĸ ¼ë
Ġc om
ĠìĿ¸ ì¦Ŀ
Ġä¸ Ĭ
2 8
Ġå Ŀ
Ġå ł
Ġëĭ¨ íİ¸
Ġëľ ¨
ĠíĥĲ ìĤ¬
Ġê·ł íĺķ
Ħ ĺ
Ġë§¤ ìŀ¥
Ġë³Ģ ìĪĺ
Ġì§Ħ ìłķ
Ġä¸ ĸ
Ġ20 21
Ġìŀħ ë²ķ
Ġë®¤ ì§Ģì»¬
ĠìĽ ħ
ĠíĨ °
ĠíĥĢ ìŀĲ
Ġìĭłë ¢°
19 0
ê±° ìļ´
Ġìĺģ ì§Ģ
ĠíĻĶ ìĤ°
ĠìĦ ŀ
Ġå ³
Ġë¦¬ ê°Ģ
Ġê°ľ ìĭłêµĲ
Ġìŀĳ ìľĦ
ĠíĿĲ ë¦Ħ
Ĳ Ĩ
ĠíĮ ½
Ġë°Ķ ê¹¥
ĠìŀĦ ì§Ħ
Ġë³´ ê±´
ĠíĶĮë ŀĺ
Ġ194 3
Ġìħ ĺ
ĠìĽĲ íĺķ
¬´ ë¦¬
Ġìħ Ķ
įĶ ìĬ¤
Ġë² Īë
Ġ7 7
ĵ Ń
ĠíĮĮë Ŀ¼
Ġìŀħ ëł¥
ìķĦ íĭ°ìķĦ
ŀ Ĺ
Ġíı¬ íĬ¸
Ġìĭłë ¶Ģ
ê¸ ´ëĭ¤
Ġìĺ¬ íķ´
ĠìĽĢì§ģ ìĿ´
ìĬ¤ íĭ°
ìº Ĳ
ĠëıĻ ëªħ
ĠìķĦë ıĻ
ĠB e
Ġì¹¨ ìŀħ
Ġìĺ¤ëŀ «ëıĻìķĪ
ĠìĿĺ íĺ¹
ĠìĬ¹ ë¶Ģ
éģ ĵ
Ġëªħ ëĤĺëĿ¼
Ġë°ľë °ľ
Ġå ´
Ġè ¶Ļ
ĠíĻķ ë¦½
ĠìłĢë ħģ
Ġê²½ ìłĦ
Ġê°Ģ ëŁī
Ġë³µ ìĽĲ
ħ ìĬ¤
ìĿ´ ìĦ¼
ĠìĻķ ìĭ¤
Ġíģ¬ ë¦¬
Ġìķ¡ ìħĺ
Ġë°ĿíĺĢ ì¡Į
Ġìłľ ìĤ¬
ĠíĶĦë¡ľê·¸ë ŀĺ
Ġë°ĽìķĦëĵ¤ ìĹ¬
Ġíİ¼ ì³Ĳ
Ġê¸° ìļ¸
é ĸ
ĠìĪĻ ì¢ħ
Ġë°Ķ ìľĦ
ìĿ Įë
Ġë³´ê³ł ìĦľ
ĠåŃ¸ æł¡
Ġìĭľ ì¡°
ìħ ī
ĠíĨłë §Ī
Ġíıī ë¡ł
ìŀ Ħë
Ġì²ľ ìĹ°
ĠìĬ¹ ê°Ŀ
Ġìŀ¬ ê±´
Ġíıī ëĵ±
Ġëĭ¬ë Ŀ¼
ĠíķľêµŃ ìĿ¸
2 6
Ġìłķ íķ´
ĠS S
ĠëĮĢ ëŁī
Ġë³ĳ íķ©
¡ ¬
2 7
Ġì¼Ģ ìĿ´
Ġëĵ¯ ìĿ´
Ġë²łë ¥´ë
ë¥´ íĬ¸
ĠìĺĪ ìłĦ
in d
Ġíħį ìĤ¬ìĬ¤
æ °
íĶ¼ ìĬ¤
Ġê³¼íķĻ ìŀĲ
Ġë²Į ìĺĢ
² łë
Ġê¶Į ìľĦ
Ġt h
Ġíĺ¼ íķ©
Ġê·¸ëŀĺ íĶ½
ĠìŀĲ ìĭĿ
Ġë¬´ ìĤ¬
Ġì°¸ ê³ł
Ġê¸° ìĨĮ
Ġê¸° ìĹĲ
Ġë§Ī ìĭľ
ĠíĻ© ê¸Ī
§Īë ĭĪìķĦ
Ġè ĭ
è ¨
ĠìķĦ íĭ°
å Łİ
Ġíĥľ ì¡°
Ġì¤Ħ ê¸°
ĠìĪĺ ìĿµ
ĠìĹ¬ ìĻķ
ĠíĽĦ ìĨį
Ġä¸ į
ìĿ¼ ìĬ¤
Ġê°ľë §ī
ì§Ģ ìĸ´
ĠëıĮìķĦ ìĻĶ
ĠíĬ¹ë³Ħ ìĭľ
° į
Ġë£¨ ìĬ¤
ĠëĶĶë ¹Ħ
Ġìĸ´ë ĶĶ
ĠR o
ìĪŃ ìĿ´
ĠìĹ Ħë
íģ¬ë ¡ľ
Ġæµ ·
íķĺ ìĹ¬
Ġé ļ
ë®¤ ëĭĪ
Ġ6 7
Ġê°Ģ ëĭ´
ĠìĿ¼ ìĭľ
Ġìĭł ìŀĲ
Ġëĭ Īë
Ġê² ¹
ĠíķĻ ìĤ´
Ġë² ¼
Ġëĭ¹ êµŃ
Ġ8 4
Ġëı ķ
ĠíĢ ¸
at h
íķĺ ì§Ģë§Į
E C
as t
Ġê¾ ¸ë
Ġê±°ë ĵŃ
Ġë©Ģ ë¦¬
Ġåİ Ł
ĠëĤĺ ìĺ¨ëĭ¤
ĠëłĪ ìĺ¤
ĠëģĿ ëĤ´
ĠìŀĲ ìłĦ
ìĻ ľëŀĢ
Ġë²Ĺ ìĸ´ëĤĺ
Ġìĭľ ìĥģ
ĠìłĲ ìĪĺ
Ġíĸī ëł¬
Ġìĸ´ëł¤ ìļ´
ë ¸Ķë
ĠìĨį íķľ
ìķĦë ¥´
Ġì°½ ìŀĳ
ĠìĿ¼ ìĥģ
Ġé Ĥ
Ġì£¼ë ¦
ìĤ°ë ¬¼
ĠA m
ìľ Ħë
Įë ĳĲ
Ġìĭ¤ ëł¥
Ġíĺ¸ ì£¼
ation al
Ġì§Ģ íĺķ
´ëłĪ ìĺ¹
ì¡° íķ©
Ġë§Īë ¬´ë¦¬
Ġìŀ¬ë °°
Ġê¸ į
ĠëĤĺë ĵ¤
Ġê°Ĳ ìĭľ
Ġë¹Ħ ìĦľ
Ġê¸ī ìłľ
Ġì½Ķë ¡ľëĤĺ
Ġì»¤ ë®¤ëĭĪ
ĠëĶ°ë ¡ľ
ĠêµŃ ëıĦ
ĠÃ Ĺ
ê¶ Ĳ
Ġì£¼ ìµľ
Ġë³µ ìĿĮ
ìĦ¸ íı¬
ĠëĤĺíĥĢë Ĥ¸ëĭ¤
Ġì¢ĭ ìķĦ
Ġë©Ķ ìĿ´ì§Ģ
ìĿĺ ìłķ
Ġë¯¼ ì¤ĳ
Ġìĭľ ìĤ¬
ĠíĶĦ ë¦°
Ġê³ł íĨµ
ì²´ ìĬ¤íĦ°
Ġë£¨ ìĿ´ìĬ¤
ĠìĿ¼ ìĭĿ
Ġå ĭ
V D
ĠêµĲ íĸ¥
Ġ on
ĠíıĲ ìĩĦ
ì¹ ¼
Ġë¶Ģ ì§Ģ
ĠìłĦ ì£¼
Ġè ı
Ġë°± ë§Į
ĠíĽĦ ê³Ħ
Ġê³Ħ ì¸µ
Ġä¹ ĭ
Ġê°Ģ ê³µ
Ġíĺģ ìĭł
Ġæ° ¸
ĠëĮĢ ìĦł
Ġåı ¸
ĠìłĪë °ĺ
Ġìľłíĺķ ë¬¸íĻĶìŀ¬
ì£¼ êµ°
ĠìĿ´ëĿ¼ íģ¬
ĠëıĦ ì¿ł
or y
¬ ¸ë
Ġê°Ģ ëĤĺ
ĠëĪ Īë
Ġí į¼ë
Ġëĭ¤ ìĨĮ
Ġ193 8
Ġê¹ ĥ
Ġë¹Ħ ìĥģ
ĠìĤ¬ ìĿ¸
Ġê°ľ ìĦ¤
Ġä ¾
ê°Ģ ìĬ¤
ĠP ar
Ġìŀł ìĪĺ
æ ³
ĠëĤĺëī ľëĭ¤
200 4
Ġìĥģ ê´Ģ
Ġìĥ Į
Ġê·¸ëłĩ ê²Į
ĠìĤ¬ ìŀĲ
æ ĺ
ł ĺ
Ġëĭ Ľ
ê¹ Ŀ
ĠëĤĺëĵ¤ ëª©
Ġê³ ±
Ġíģ¬ë¡ľ ìķĦíĭ°ìķĦ
ĠíĥĪ íĩ´
Ġë¹Įë ³´ëĵľ
Ð ¾
ĠH e
oc k
Ġã İ
Ĥ ´ë
ĠìĪĺëıĦ ìĽĲ
Ġ195 1
Ġìĭľ ì¹´ê³ł
Ġë°Ķ ëĭ¥
i v
Ġë ł¥
Ġë ±ħ
ĠíıŃ íĥĦ
ĭ ¬ë
ĠìĿ¸ ìļ©
Ġë²Į ìĿ´
Ġê°Ģê¹Į ìĿ´
æ Ī
Ġ17 0
íİĺ ìĿ¸
ĠìķĦ ë¦¬
ĠíĶĦë¦¬ë¯¸ ìĸ´
Įë ł¤
ê°Ģ ëĿ½
ĠìĨĮë ĵĿ
ì¹´ë ¥´
Ġìĺ® ê²¼
Ġç¥ ŀ
ĠëıĻ ìķĦ
Ġì´Ŀ íļĮ
Ġìŀ¬ íķĻ
Ġ17 7
Ġíİĺë¥´ ìĭľìķĦ
¬ë ¹ĦìķĦ
ĠìĬ¤ë§Ī íĬ¸
u g
Ġë³´ ìĥģ
Ġì¡°ë ³Ħ
p er
Ġê°Ģ ìĦ¤
Ġæ ĥ
Ł ¼ë
Ġë¶Ģ ëĭ´
Ġíķľ ê¸Ģ
ì² ´ë¡ľ
ĠêµŃ ìłķ
ê¸ Ģë
Ġë°© ìľĦ
on d
æ Ŀ
Ġå¿ ł
ĠíĽĪ ìŀ¥
ëĤ ¨ë
Ġ7 00
Ġìº Ħ
ìĤ Ń
ĠìĬ¹ ëł¤
ĠçĶ °
Ġì£¼ë ł¥
ĠíĶ¼ íķĺ
Ġë¶Īë §Į
íĨłë ĭĪ
ì²ĺ ëĵľ
Ġ193 6
²ł ìĿ´
us t
ĠéĦ Ń
B M
Ġì´Ŀ ìŀ¥
Ġé Łĵ
ĠìĿĮìķħ ê°Ģ
ĠìĦĿ ìľł
ac k
Ġã Ĩį
Ġìĥģ ìĹŃ
ĠI C
ĠìĨĲ ìĥģ
ĠìĤ¬ ìłľ
ĠìĿ¼ ì»
ĠìĿ¼ì» «
Ġê³ ½
Ġìĸ´ ê¹¨
ĠíĶĦëŀĳ íģ¬
ĠìķĦìĿ´ë ıĮ
íķĦë įĶ
Ġìĥģ ìĭ¤
Ġ9 6
ĠìĦ¤ ëĵĿ
íĢ ´
°Ķ ìĿ´
ĠíħĮ ìĬ¤íĬ¸
Ġì§Ģ íĸ¥
Ġíĥľ ì¢ħ
Ġì°¾ ìķĦ
Ġê³µ ì¤ĳ
ì§ģ ìŀĲ
ĠìĿ¼ë³¸ ìĸ´
Ġì²ĺ ë¶Ħ
Ġå® Ĺ
ĠìĹ¬ ìĦ¯
Ġë¬¸ ìĭł
ĠíĻĶ íķ©
ĠëĮĢ ìĻķ
Ġê¸° ë¦¬
ì¹ ľëĭ¤
Ġ6 9
ë¦¬ ê·¸
Ġê» ĺ
Ġíİĺ ìĿ´
Ġì ĮĢ
íķ´ ìĦľ
ç İ
Ġìŀ¥ ëĤ¨
Ġìŀĳ ëıĻ
ĠA P
ì¿ ¨
Ġê´ĳ ë³µ
è ĩ
ĠìĹĦì²Ń ëĤľ
ĠìĹ° ìĺĪ
Ġìłķ ìĪĺ
ĠìĦł ìŀĦ
Ġìľł íĨµ
ĠìĤ° íĻĶ
Ġì¤ĳ ëł¥
Ġë¯¸ëĵľ íķĦëįĶ
ĠF M
Ġë¡ľë ´ĩ
ĠêµĲ ë¦¬
Ġì°¸ ì¡°
Ġìĭ¬ ìŀ¥
Ġìĵ ¸
ĠS c
Ġê²Ģ íĨł
Ġê³ł ê¸°
ĠìĹ° ìĬµ
Ġìĭ¬ ì§Ģìĸ´
Ġë§ŀ ìĦľ
ĠíĶ¼íķ´ ìŀĲ
©Ķë¦¬ ì¹¸
Ġëħ Ģ
Ġëĭ ī
Ġë Ł°
Ġ193 7
Ġê´Ģ ìĹ¬
íŀ Īë¡ľ
ìº Ĳë
o od
Ġì§Ģ ìĤ¬
ĠëĬĶëĭ¤ ëĬĶ
¥ ¸ëĭ¤
Ġë¹Įë Ķ©
Ġë©Ķìĭľ ì§Ģ
Ġ7 8
ĠëĪĦë ¥´
ìŀĲ ì¹ĺ
ĠìĿ´ ë¥¸ëĭ¤
Ġìĺ¬ëĿ¼ ê°Ģ
Ġìľ Ĺ
Ġ y
ĠìķĦ íħĮëĦ¤
Ġäº º
s h
Ġì§Ħ ì£¼
Ġêµ¬ë §¤
ĠëĮĢ ì§Ģ
ĠëĤ´ ìħĶëĦĲ
ĠìĹ ¼ë
ĠìłĦ ì§ģ
Ġå Ł
Ġëħ¸ ì¶ľ
ìĿ¸ë ¬¼
Įë ¡ľ
ĠìĿ´ íĺ¼
ĠìĦłë °ķ
å ¯
å £
æ Ĺ
Ġìłģ íķ©
Ġê°ľ ì¹Ń
t on
Ġê°ľë °©
Ġëį°ìĿ´ë ¹Ħëĵľ
ĵľë Ŀ¼
íķĺ ìĿ´
Ġìłķ ì°¨
Ġì¡° ì¡°
Ġì½Ķ íĮĮ
Ġìĺ¤ ì§ģ
ìĦ¸ ê³Ħ
Ġìĭł ê³ł
Ġë¹Ħë ¡Ģ
Ġë¶Ħë ħ¸
ĠêµĲ êµ¬
ĠM a
ĠæĹ ¥
ĠíĻĶ ìŀ¥
Ġê°Ģ ìĭľ
Ġë³¸ ì§Ī
ĠëıĮìķĦ ìĻĢ
Ġë°ķìłķ íĿ¬
Ġç §
ĠìĿ´ìĸ´ ì¡Į
ĠìĺĢ ìĿĦ
Ġì¡° ì°¨
ĠìĬ¤ íĨł
ĠëĳĲ ëł¤
Ġë° ¥
ĠìĥĿ ê¸´
Ġé İ
ec t
ĠìĹ¬ê²¨ ì§Ħëĭ¤
Ġëĭ¹ ì´Ī
Ġê²° ìĿĺ
Ġê²°ë ¡ł
Ġè Ļ
ĠE n
Ġì§Ī íĻĺ
íĨ ±
Ġë³ ¸ëĭ¤
ĠëĤĺíı ´ëłĪìĺ¹
Ġíı¬ íķŃ
íĶĦë Ŀ¼
A N
Ġíģ ´ë¦¬
Ġ8 7
ĠìĪĺ ìļĶ
Ġæ Ħ
ĠìłĦíĪ¬ ê¸°
ëĶ °ë
ĠìĿ¸ ìĽĲ
ë¯¸ íĦ°
ĠëıĦ ëįķ
Ĳë ¡ľ
ĠìĥĿë¬¼ íķĻ
ĠìĤ¬ ìľł
Ġì°¸ë ª¨
ĠìķĦë¦Ħëĭ¤ ìļ´
Ġíķĺ ìĽĲ
íĨł ìĬ¤
ë§Ī ìĬ¤
Ġë¹ł ìł¸
é Ģ
Ġê·ľ ìłľ
Ġ9 7
ĠëĮĢ ì±ħ
Ġå¼ µ
Ġìĭ¬ íĮĲ
Ġêµ ³
Ġê·¸ë Ł¬ë
ìĹĲ ëıĦ
Ġíķĺ ìĿ´ë
Ġì¼ Ī
íĭ°ë ħ¸
ĠåĲ Ľ
ì¿ł ìĬ¤
ĠìĹŃ íķĻ
Ġæ´ ŀ
ĠëıĦ ëª¨
ĠíĶ¼ë ¶Ģ
ìĹ¬ ê¸°
ĠìĻķ ë¹Ħ
ìľł ìĤ°
Ġ193 5
ĠìĨĮë ©¸
Ġìĵ° ìĹ¬
ĠìĤ¬ë¬´ ìĭ¤
ĠìĻķ íĽĦ
Ġé ¾į
Ġë°ĶìĿ´ ìĹĲë¥¸
ĠìĤ° ìĨĮ
Ġë°ľ íĥģ
Ġ9 4
Ġë¸ĮëĿ¼ ìļ´
Ġë§¤ ì²´
i z
ìĭ ¬ë
Ġëĭ¹ ëĤĺëĿ¼
Ġì§Ħ ìĺģ
2 9
å ĭ
ç ¥
ĠíĶĦë¡ľ ìĿ´ìĦ¼
ĠëłĪ ìĿ¸
Ġêµ¬ ìŀħ
ĠíĻķ ë¥ł
Ġäº Ķ
Ġè »į
Ġëª¨ íĦ°
ĠI S
ë ĦĪ
ĠëıĻ ìĸĳ
ĠìĿ¸ ìĩĦ
ĠëıĻ íķ´
íı ¼
íħĮë ¥´
Ġê¹Ĭ ìĿ´
Ġé Į
Ġ8 9
ìĸ´ë ıĦ
Ġëį° ìĬ¤
Ġëĸ ¨
Ġì¦ī ìĭľ
ìłľ êµŃ
ar y
Ġê·¼ë ³¸
Ġë¬´ë £Į
Ġìĸ´ëł¤ ìĽĢ
Ġíı¬ ì¼ĵ
Ġë¶Ģ ì¹ľ
ĠìĦ¸ ìŀĲ
ĠëĬĲëĤ Į
ĠçĻ ½
Ġì¡Į ìľ¼ë©°
ĠíĦ ´
Ġæ° ´
ĠìĤ¬ íļĮë
Ġë¹ Īë
Ġë§ī ëĮĢ
ĠíĨµ íĻĶ
Ġíĺ¼ ìĿ¸
³ĳ ëĮĢ
Ġéĥ ½
ĠìĨį íķ´
ĠA T
¸Į ë¦¬
Ġê¹ĢìĿ¼ ìĦ±
ìĤ° íĻĶ
ĠN H
è »į
Ġê·¸ë łĪìĿ´
ĠëĿ¼íĭ´ ìĸ´
ĠìķĶ íĺ¸
ĠíıŃ ê²©
Ġìľ ĦëĮĢ
ĠíĻĭ ì¹´ìĿ´ëıĦ
Ġì°½ ëĭ¹
ĠL a
ĠìĿ¼ ê¸°
Ġ9 3
ĠëıĻ ìĦľ
ĠÂ ²
Ĩ Ģ
ĠêµŃ êµ°
ĠìĽ¨ ìĬ¤íĬ¸
ĠíĮ¨ ìħĺ
ter n
Ġë© ľ
Ġìĭł ìĤ¬
íĶĦë ŀĢ
Ġ16 4
ìĭ ¼
ĠìķĦ ìĽĥ
ĠY ou
ëıħ ë¶Ģ
Ð ¸
ì§Ģ ìĤ¬
Ġê°ľ ìĦ±
ì´Ŀ ë¦¬
Ġì§Ħë ĭ¨
ĠìĬ¤ íĬ¸ë¦¬
å® Ĺ
ĠìĦľìĭĿ ì§Ģ
r ic
ĠíķĻ ìĤ¬
íĮĮë ¥´
ĠìĦ¸ ë¦¬
ê² Įë
ìħ Ģë¡ľ
200 2
ë¦¬ íķĻ
Ġ191 4
ê°Ģ íı¬ë¥´
ê¹ Ķ
Ġíķ´ë °ľ
ĠìĹħ ìłģ
ĠìĬ¤ íĶĦë
Ġê¸ Ģë
Ġåľ °
ĠëĮĢ ìĦ±
ĠëĶĶ ìĬ¤íģ¬
ĠíĻ© íĽĦ
ĠëįĶë ¸Ķ
Ġæ ģ
ĠíĥĢ ìĽĮ
ĠëĪĦ ë¦¬
ĠìĹ° ìĦ¤
Ġë°ľë ªħ
Ġê¸į ìłķ
ìĬ¬ë Ł¬
Ġì°° ìĬ¤
ĠìĤ¬ ëıĦ
ĠìŀĲ ìĿ´ìĸ¸
Ġì¹ ľë
ĠëıĻ ë°©
Ł ¥
êµ¬ ë¦¬
Ġì§Ħ ê²©
ĠA FC
Ġëł Ģëĭ¤
Ġíĥ ±
ĠíĮĮ ìĽĮ
Ġì²ľë §Į
Ġìľ Ī
Ġè ©
Ġëĵľë ŀĺíĶĦíĬ¸
ĥ ı
ĠëĮĢ ì²´ë¡ľ
Ġìłķ ì¡°
Ġì¶ķ êµ¬ëĭ¨
Ġìĭľë Ĥĺ
ĵ ¬
Ġë³´ ìĤ´
ìĿ´ë Ĥĺ
ĠìĽĲ ì£¼ë¯¼
Ġ191 8
Ġì£¼ ìĦĿ
ĠìĻĢ ìĦľ
ĠìĤ¬ ê¸°
ĠC o
ĠJ oh
Įëĭ¤ ê°Ģ
ª °
ë¦¬ ìĸ´
ĠìĿ¼ ì²´
Ġë§ĲëłĪìĿ´ ìĭľìķĦ
Ġìĥģ ìĨį
Ġíŀ Ļ
Ġê°Ģ ìĬ´
ìĪ ¨
Ġë¶Ī ìķĪ
ĠíĽĦì¿ł ìĺ¤ì¹´
ĠíĥĢ ìļ´
ê¸ Īë
Ġíİĺ ìĿ´ì§Ģ
ĠíĤ¬ ë¡ľ
ìĺ¤ ë¥´
Ġ191 0
ë² ¨
ĠìŀĲ ëĬĶ
ĠìķĦë ¬´ë
ĠìĿ´ë Ĥ´
°Ķ ìĿ¼
ĠìŀĦì§Ħ ìĻľëŀĢ
ı Ī
łĪë ĵľ
Ġìľł íķľ
en ce
Ġëł¤ ë©´
p e
íĮ ©
ĠíĶĦëŀĳìĬ¤ ìĸ´
ĭ Ľ
Ġëıħ ìŀ¬
Ġì¶Ķ ë°©
Ġë¹ ļ
Ġìĺģ ì¡°
c k
íķ´ êµ°
ë¦¬ ëĤĺ
Ġ7 9
Ġê¸ī ê²©
Ġë® Į
i al
ĠíĽĦ ìŀĦ
Ġíı¬ ìĬ¤
Ġë¬¼ ê±´
ìĬ¤íĬ¸ë Ŀ¼
ĠìĹ¬ ìļ°
Ġëĺ ĳ
ĠìĻĦë ²½
2 000
ìĭľ ìĬ¤ì½Ķ
į° íĥĢ
Ġë¶ĢìĤ° ê´ĳìĹŃìĭľ
ĠíķĦ ìĪĺ
Ġæ ¥
Ġì±ĶíĶ¼ìĸ¸ ìĭŃ
ê¸° ìĽĲ
Ġëĭ «
ĠìĦľ ìĪł
ĠìĹ°ë Ŀ½
ĠìĦĿ ìĤ¬
Ġ193 3
ĠëĤ´ ìĦ¸
as s
ĠìłĦ ìĨ¡
Ġì§Īë ¬¸
Ġå¾ ·
ìĺ Į
¯¸ë ¥´
ĠëĿ¼ ìĬ¤
ĠìĪĺ ìĹħ
Ġíĸī ë³µ
Ġê¹Ģë ĮĢ
ĠìĽ ĥ
Ķë ĵ¤
ĠìļĶ ê¸Ī
ĠìłĦ ìĪł
ĠìķĦ íĶĦ
ĠëıĮë ł¤
¸ë Ŀ¼
ìĽ °
ìĿ´ë Ł¬
Ġë°° íı¬
Ġ193 2
ĠCoun ty
Ġë¸Įë łĪ
Ġæ ®
ĠíĶĦë¦¬ ëĵľ
ĠìŀĲ êµŃ
ĠìłĦë ĭ¹
ê³łë¦¬ ì¦ĺ
ĠìĿ¸ ìĥĿ
ĠíŀĪ íĭĢëŁ¬
ĠíħĮë §Ī
Ġê³¨ë ĵł
Ġë°Ģ ëł¤
Ġë£¨ë §ĪëĭĪìķĦ
Ġë³Ģ íķĺ
ì´Ŀ ëıħë¶Ģ
r is
Ġê³ł ê¸ī
Ġç µ
Ġë§Įë Ĥ¬
ìĻĢ ìĿ´
Ġê°Ģ ë§Ī
Ġ14 0
ĠìĪĺ íĺ¸
Ġë³´ìĹ¬ ì¤Ģëĭ¤
Ġìĸ¸ë įķ
A M
Ġê°ĳ ìŀĲê¸°
I N
Ġê¶ģ ìłĦ
Ġì°¾ ìķĦë
Ġì¡°ì§Ģ ìķĦ
Ġëĭ¬ë ł¤
Ġë¶Ģ ìľĦ
ĠíĻĶ íıĲ
ĠìĤ¬ íĩ´
ìĹ¬ ìĦľ
Ġæħ ¶
Ġë¶Ģ ëıĻ
íĶ Įë¦¬
äº ĭ
Ġì¡° ìĥģ
Ġì¡° ì¹´
ĠìĿ¸ëĶĶ ìĸ¸
la nd
ë³ ¸ë
Ġê°ľë Łī
Ġíľ ´ëĮĢ
Ġê²Ģ ìĥī
¤ ¾
ĠëıĻ ë¶ģ
ĠìĨĲ ìĭ¤
Ġê²© íĮĮ
Ġë¶Īê°Ģ ë¦¬ìķĦ
ĠíĥĢ ìľ¨
ĠìĤ¬ë¬´ ìĨĮ
ĠìŀĲ ëŀ
ĠìĤ¬ ê²©
Ġìľł íļ¨
Ġìľł ê³ł
Ġ193 4
ĠìĥĿ ê²¼
ĠP h
Ġ= "
Ġë°ľ ê°Ħ
Ġê°ģ êµŃ
Ġâ ĨĴ
Ġê¸° ëıĻ
ìŀ İ
íħ į
Ġê·¸ë¦¬ìĬ¤ ìĸ´
ĠâĦ ĥ
êµ¬ ì¹ĺ
Ġìĥģ ìĿ¸
ĠìĹĲëĵľ ìĽĮëĵľ
Ġëĵľë Ŀ¼
ĠìĽĲ ìĪĺ
i b
Ġì°½ ìĽĲ
ĠëĭĪ ì½ľë
ĠëłĪ ìķĮ
Ġê°Ģ ìļĶ
ĠìĦ¸ ìĿ¸íĬ¸
ĠìĦ¸ë ¶Ģ
ë°Ķ íĤ¤ìķĦ
çİ ĭ
Ġì¿łë į°íĥĢ
Ġë²Įìĸ´ ì§Ħ
Ġëĭ¹ íķ´
ê³µ ìĤ¬
ĠW or
ĠìĦ¸ íĬ¸
ìĤ¬ ìłĦ
Ġì£¼ ì²´
ĠìĤ¬ ìĸĳ
Ġì¤Ħ ìĸ´ëĵ¤
Ġë°© ìĸ¸
ĠíĥĢ ìĿ¸
ĠìķĮ ê³łë¦¬ì¦ĺ
Ġìłĳ íķľëĭ¤
Ġ8 3
ë²ł ìĬ¤
Ġåī į
ĠìķĪë ıĻ
Ġíķ Ħëĵľ
ì Į
Ġë© ´ë
ìĽĲ ê²½
ëĭ¤ ìĪĺ
ĠíĻĶ ëł¤
Ġèģ ĸ
Ġì¶Ķ ê¸°
ĠêµŃ ìłģ
ìĺ¤ ë¦¬
© Ķë
ĠìĦł íı¬
Ġìĭ¤ ì²ľ
ŀĢ ìĥī
ĠìĤ¬ ìļ°ìĬ¤
ìķĦ ìĿ´
Ġê°ľë ªħ
ĠëĬ ĳ
ìķ ĺ
Ġíĺ¸ ìĨĮ
ĠìĦ¤ì¹ĺ ë¥ĺ
łë ĭ¤
ìłĢ ìĬ¤
Ġã ħ
ĠíĥĢìĿ´ ê±°
² ³
ìŀĲ íĤ¤
łë ¡ľ
i re
Ġëĭ¹ ìĽĲ
ĠT e
ìķ¼ ìĬ¤
ĠìĿ´ë ªħ
Ġç ı
²ł íĬ¸
Ġì£¼ ìĨĮ
Ġì§Ħ íķĻ
ìĹ¬ ê¸Ī
Ġëį ľ
Ġì´Ī ìłĲ
Ġë¯¸ ë¦¬
ĠëĤ´ë Ĩĵ
Ġë©Ķ ë¦¬
Ġë¦¬ë ²Ħ
id e
íķ Ħëĵľ
Ġë°ĽìķĦëĵ¤ ìĿ´
s on
Ġê´ĳ ë²Ķ
ĠìĿ¼ë ł¨
Ġê°Ĳ ê°ģ
ĠìĨĮ íĺķ
å Į
ĠíĻĺ ìĬ¹
Ġìł ł
Ġëį ©
Ġìŀ¬ ì¦Ī
Ġ11 0
Ġë ·°
ĠíĪ¬ë ¥´
Ġæ ¢
Ġì°¬ ìĦ±
¬ë ĵľ
ĠC P
Ġë°ĺ ìĤ¬
ĠìķĶ ì»·
ê·¸ë¦¬ ê³ł
Ġê³ł ìĭľ
ìĿ´ë ¨¸
ĠìĨĮ ìľĦ
ĠâĢĻ ,
200 3
ìħĢë¡ľ ëĤĺ
ë° Ķë¡ľ
Ġì ¥
Ġ192 8
Ġì¹Ń íĺ¸
Ġíķĺ ë
Ġæ± Ł
Ġìłķ êµĲíļĮ
Ġ17 5
æ ķ
Ġëĭ¤ ìļ´
ĠíķŃ ìĿĺ
Ġíŀĺ ëĵ¤
Ġéĩ Į
ĠëĬĺ ìĸ´ë
Ġìµľ ìļ°
ĠB o
ë²Ħ ìĬ¤
ĠíķŃê³µ ìĤ¬
Ġê³Ħ ê³¡
ĠíĶĦëŀĳìĬ¤ êµ°
ĠìĬ¤íĥĢë ĶĶ
Ġëĵľë ŀĺ
íİĺ ìĿ´ìĬ¤
ĠíĹĪë Ŀ½
ĠS ch
Ġë¹Ħíĸī ê¸°
ĠíĻĶ ìĿ´íĬ¸
Ġëª¨ íĨł
Ġê±° ì§ĵ
ĠìĺĪë °©
ĠìĬµ ê²©
Ġå° ı
ĠìĿ´ ë¥¸ë
Ġìľł ìĤ°
ĠìĿ´ë¥¸ë °Ķ
Ī Ī
Ł ¿
íĤ ´
Ġì°¨ë ĭ¨
Ġëŀ ©
íģ Ĳë
ĠíĿ° ìĥī
ĠëıĦ ìļĶ
ë¯¼ë ĭ¹
ë° ľë
Ġìĭ± ìĸ´
Ġê¾¸ ì¤Ģ
ĠìĪ ľë
an n
Ġì§ĳ íļĮ
Ġì¶Ķê¸° ê²½
ĠìłĢ ìŀĲ
ĠíĥĦ ìķķ
Ġå´ Ķ
iver s
Ġì¦Ŀ ìĸ¸
Ġ192 4
Ġê¸Ģë¡ľ ë²Į
Ġì§Ī ìĦľ
ĠíĽĦê³Ħ ìŀĲ
ĠìĹ ł
ag e
on t
ĠìłĦëıĻ ì°¨
Ġëª¨ë °ĶìĿ¼
Ġì¤ĳ ì¶Ķ
ĠëĤ¨ ê¸°
Ġê±° ì¹ĺ
Ġê°ľë ³Ħ
ĠíĨłë¡ł íĨł
Ĥ ľë
ĠëĤĺ ì¹´
ĠíĻĶ ìłľ
Ġêµ¬ë ©į
ĠìĨĮë¹Ħ ìŀĲ
Ġìķ½ ì¹Ń
Ġì³ Ĳ
Ġì½ĺ íħĲì¸ł
íĶĦëŀĳ ìĬ¤
Ġíģ¬ë ¡ľìĬ¤
Ġìĸµ ìłľ
ĠìĿ¼ìľ¼ì¼ ľ
ìĸ´ë ¡ľ
ĠìĿĮ ìĦ±
ĠìŀĲë³¸ ì£¼ìĿĺ
ĠìķĦ íĬ¸
ĠìĿ´ë ħĲ
Ġìĵ° ìĺĢ
ĠëĮĢ ìļ°
ĠìĥĿ íĥľ
Ġëħ¸ ë¦¬
ĠíĬ¸ëłĪ ìĿ´ëĵľ
Ġ16 3
Ġê¸° ë¶Ģ
Ġë¹ Įë¦¬
Ġë¯¸ìĪł ê´Ģ
Ġæľ ¬
Ġìĥģ ìĪĺ
Ġì¡°ìĦł ì´Ŀëıħë¶Ģ
ĠæĶ ¿
ĠíĹĪ ë¦¬
ĠíĻĶ ìĦĿ
Ġæľ ĥ
Ġë°± ìĿ¸
Ġë¬´ ë¦
ĠìĤ¬ ë§Ī
ti ve
ĠC ol
Ġìĭ± ê°Ģíı¬ë¥´
Ġìµľ íĽĦ
íıī ê·ł
Ġ la
ĠìĿĺ ë¬¸
ĠìĪĺ ë°±
ê¹ Ģë
Ġë¶Ħ íĻĶ
ĠíļĮë ¡ľ
Ġåħ ¨
Ġì¶©ë¶Ħ íŀĪ
ê³¼ ìĿ´
am p
ĠìĽ Įë
ĠìĨĮ ì§ĳ
Ġê³ł ìľĦ
Ġíķĺ ìĿ¸
íĶĮë łĪìĿ´
Ġê² ī
I D
Ġå ¦
Ġëª¨ ìĿĮ
ê³ł ìĨį
ĠW W
Ġê³ł ê°Ŀ
Ġëª© ìĦ±
A C
ĠíĽ Įë
Ġëĭ¤ ëĭ¤
ĠëıĮìķĦ ìĺ¤
f t
Ġìķ½ íĻĶ
ĠìĿ´ ìĽĥ
Ġê°ľ ì²Ļ
Ġê°Ģ ê¹Ŀ
íĭ° ìĬ¤
ĠìĬ¤ íĥĪ
Ġë²ķ íķĻ
ìĿ¼ë °ĺ
Ġï Ķ
O R
Ġ15 4
Ġì§ Ŀ
íĳ ľë
Ġê°Ħë ¶Ģ
Ġâī «
Ġ13 0
Ġëĵ±ìŀ¥ ìĿ¸ë¬¼
ĠìķĦíĭ° ìĬ¤íĬ¸
Ġë¹Ħ ì¹ĺ
Ġë°ĺ ì§Ģ
Ġì¶ķ ìĨĮ
²¤ íĬ¸
ìĬĪ íĥĢìĿ¸
Ġê³łìĸĳ ìĿ´
ĠìĨĮ íĻĶ
Ġì²ľ ì£¼êµĲ
¬´ë Ŀ¼
ĠíĶĦë¦¬ëĵľ ë¦¬íŀĪ
Ġë ŀľëĵľ
am e
Ġìļ´ ìĨ¡
ĠU S
a h
Ġæ ¯
Ġë§Īë¥´ íģ¬ìĬ¤
Ġìķ½ ë¬¼
êµĲ ìľ¡
§Īë Ĥĺ
Ġìľ Ļ
ĠìĤ´ ìķĦë
Ġìľłë °°
ê·¸ë łĪ
ìĦ¼ íĬ¸
µ ·
Ġìĭ¤ ìĹħ
ë¦¬ ëĭ¤
ĠìĪĺ ì¹ĺ
ê° Ĵ
Ġíĺ¼ ìŀĲ
ĠC ar
ĠìŀĲ ìĤ°
Ġì² ©
Ġìľ¼ë ĭĪ
Ġì¢ħ ìĤ¬
Ġ17 6
Ġê²½ ëĤ¨
ç Ľ
Ġé ¡
Ġê³¡ ìĦł
Ġë°Ķë¥´ ìħĢë¡ľëĤĺ
Ġí ĭĪ
Ġíı¬ ìĬ¤íĬ¸
Ġìĸ¸ ìĬ¤
Ġì§Ģ ë¶Ī
ĠìĬ¤íĥĢëĶĶ ìĽĢ
²Ħ ê·¸
ĠìłĦ íķľ
Ġì¡° íķŃ
ĳ ¤
ĠM S
ĠíĥĦ íķµ
ĠìķĦë ĭ
Ġìĭł ìŀ¥
ĠëĤ¨ ìķĦíĶĦë¦¬ì¹´
Ġìŀħ ëĮĢ
Ġì´ī ì§Ħ
ĠìłĦ ìłģ
ĠìķĦ ìĿ´ìĬ¤
Ġì¤Ħ ìĿ´
Ġìŀ¬ë Ĭ¥
Ġ0 9
Ġë¸Ķë ¡Ŀ
Ġìķ¼ ìĬ¤
Ġëĭ¨ìĪľ íŀĪ
ëĭ¤ ëŀĢ
Ġìļ© ëıĦ
Ġê·¹ ëĭ¨
Ġíģ¬ë £¨
ĠíĢ ĺ
ĠìĪĺ ìĭŃ
Ġì£¼ ìĿ¼
íĬ¸ë ĦĪ
Ġê±¸ ì¹ľ
Ġë¦ ½
Ġìķ¡ ì²´
Ġê² Įëĭ¤ê°Ģ
ê°Ģ ëĭĪ
ìĻ ¸ë
Ġë» Ĺ
Ġëĭ ¥íĦ°
Ġíķĺ ìĹ¬ê¸Ī
Ġì¹ łëłĪ
Ġë¯¸ ìĵ°
Ġìļ´ íķŃ
Ġë¦¬ë ĵľ
Ġ193 1
Ġêµ°ë ¶Ģ
ĠíĨłë ĮĢ
Ġê²½ìłľ íķĻ
Ġê° Ħëĭ¤
ì§ Ŀ
ê³µ ìĹħ
Ġ192 9
Ġ j
Ġæ ĩ
Ġíı¬ì¼ĵ ëª¬
Ġê°Ģ ìĨį
ë ª½
Ġë¬´ ìļ©
Ġì¹ĺ ë¥´
Įë łĪ
Ġíĺķ ìĥģ
ĠW h
ĠëĮĢë²ķ ìĽĲ
ĠìĬ¤ ë¯¸ìĬ¤
Ġêµ¬ ìĥģ
Ġë¯¸ ìĭľ
íĤ¤ ëĤĺ
t t
Ġíĸī íķĺ
I S
ĠìĨĮë ¬¸
Ġëĵ¤ìĸ´ ìĺ¤
Ġë²Ī ì§Ģ
is s
Ġê´ĳë²Ķ ìľĦ
ĠìķĪë ĵľë¡ľ
Ġìļ°íģ¬ë Ŀ¼
ĳ ł
Ġë© Ī
Ġìłķ íĨµ
Ġëª» íķľëĭ¤
Ġæ ¸
Ġë®Į íĹ¨
Ġìŀħ êµ¬
ëħ ķ
ĠìĤ¬ ì°°
Ġê²½ ìĤ¬
Ġê·¸ë Ŀ¼
ĠìĿ´ íĸī
Ġêµ¬ ê¸Ģ
Ġìŀ¬ ê°ľ
ĠìĦ¸ë ¡ľ
ĠìłķíĻķ íŀĪ
¦ ¬ë
íĥ Ħë
Ġì¤ĳ ì§Ģ
Ġë§Ī ìĬ¤íĦ°
Ġæľ ī
Ġíķ´ ìłľ
Ġìĺ¤ íĨł
ĠìĬ¤íħĮ ìĿ´ìħĺ
Ġè ¼
Ġæ¼ ¢
Ġê°ľ ìŀ¥
Ġåĸ Ħ
ĭ µ
Ġë²¼ ìĬ¬
ĠìŀłìĪĺ íķ¨
Į ë¦°
ĠìŀĲ ëŀĳ
Ġìłķ ë©´
²ł ë¦¬ìķĦ
Ġì£¼ìĸ´ ì¡Į
Ġíĸ Ħ
ê² Ķ
Ġë³´ íİ¸
ĠìĹ´ë §¤
ĠëĮĢ ë§Į
Ġì§ģ ë¬´
Ġ15 8
ĠíĿĶ ìłģ
ĠìĦ¸ìĽĮ ì¡Į
Ġ6 2
ĠíĨł ì°©
Ġì½Ķ ë¦¬ìķĦ
Ġë¨¸ë ¬¼ë
íĨł ë¦¬ìķĦ
Ġëĵľë ¬¼
Ġë¬´ë ł¥
ëĮĢ ë¶Ģ
Ġíģ´ëŀĺ ìĭĿ
Ġ192 3
ĠëĮĢ ì¹Ń
ol og
Ġìĺ µ
ĠìĤ° ì§Ģ
Ġë§Ī ì£¼
ë¦ °ë
Ġíķ© ëıĻ
Ġì¹´ë Ŀ¼
Ġìĭľ ìĭł
Ġë¶Ģ ìĦľ
íĺ Ħë
ìĦ± ê¸°
ĠìķĪ ìª½
ĠM y
ĠìķĮë °Ķ
ìłĦ ìŀĲ
ĠìĨ Ĳë
Ġë§Ī ìłĢ
è Ń
Ġìķł íĶĮ
Ġ192 2
ĠìĬ¤íĶĦë §ģ
Ġíİ ¸ë
Ġ> ,
ìĦ¸ë ĮĢ
ĠA d
Ġíķ© ëĭĪëĭ¤
íĦ°ë ²ł
Ġë§Ī ê°Ĳ
ĠëıĻ ì§Ģ
Ġì¾ Į
ìļ° ì¹ĺ
Ġìĺģ ìĸĳ
ìķĪ êµ°
¼ë ĵľ
Ġ19 00
ĠìĬ¤ íĭ°ë
Ġë°° ìĹ´
Ġìĺ¬ ìĬ¤íĥĢ
ìĬ¬ë §ģ
Ġê´Ģ ê°Ŀ
Ġ16 5
íĪ °
ĠíĶĦë¡ľê·¸ëŀĺ ë°į
ĠìŀŃ ìĬ¨
Ġè £
Ġë²ķ ìķĪ
Ġì į
Ġë¬¼ë Ł¬ë
íħĮ ìĬ¤
Ġê°ľ ì°°
Ġì´Ŀ ìŀ¬
Ġê¹Ģ ìĦ±
Ġì»¤ ë²Ħ
Ġì§Ħ ìĭ¤
ĠD VD
Ġ192 1
Ġ192 5
ĠíĴį ìĨį
ĠìĦ± ìĶ¨
ĠìĦł íĺķ
ĠìĦłë ¡ľ
ĠìĹĦ ê²©
ĠìĿ´ë ²¤íĬ¸
Ġë¦¬ ì²ĺëĵľ
Ġë ĩ
Ġç ¿
ĠíĮĲ ìłķ
Ġë³¸ íĨł
ê º
ĠìłĦ ìłľ
Ġê±°ë ĬĲ
Ġìĺģ êµ¬
Ġé ĺ
ĠëĬĳ ëĮĢ
r om
Ġ0 4
Ġë¶Ģ ìĨį
Ġæ Ľ¸
íĹ ¬
Ġìĭłë ıĦ
Ġ> (
ì¼ Ģë
ĠëĤĺ ìĦ°
Ġìŀ¬ ìĥĿ
ĠìĤ¬ ê³¼
Ġê²½ ê³ł
ĠìĦ¸ ìĽĶ
Ġì¡° ê¸°
Ġíĥ ĵ
Ġ25 0
ĠéĻ ½
Ġíİ ĳ
Ġê°ķ ëıĦ
Ġ15 6
Ġc od
ĠìĹ° íĺ¸
Ġ7 2
Ġë°Ģ ë¦¬
Ġê±° ìłĲ
ĠëĪĦ ìĬ¤
Ġìĺģ ìĽĲ
Ġê¹Ģ ì¢ħ
Ġíķ «
ľë ł
ĠìķĦë ©Ķë¦¬ì¹¸
Ġê°ķ ìļĶ
ĠíŀĻ íķ©
ê ¿
íĤ¤ íį¼
Ġ *
Ġê³µ ìĭł
ĠëĶ ĺ
I C
ĠìķĦë §Īë
Ġë²łëĦ¤ ì¹ĺìķĦ
Ġë¹Ħ ìĬ¤
Ġìķ¼ë ĭ¹
ĬĲ ëĭĺ
Ġë§¤ ì¹ĺ
ĠëĮĢ ê°Ģ
łĪ ìĺ¤
Ġíĺ¸ íĿ¡
Ġå ¢
Ġì¤ĳ ì¢ħ
Ġê°ķ ëĤ¨
Ġë¹Ħ ì¤ĳ
íĤ¤ ìĬ¤
ìĩ ł
Ġæĺ Į
Ġì¶Ķ ìłģ
ĠìĿ¸ë¯¼ êµ°
Ġç¶ ĵ
ĠìĪĺ ì»·
Ġìŀ¥ ë¡ľ
Ġê´Ģê³Ħ ìŀĲ
ĠNe w
ĺ ê¸°
Ġìĺ¤ ê°Ģ
ĠëĮĦ ìĬ¤
Ġê²½ì°° ìĦľ
Ġé Ń
ĠìķĦë ¯¸
Ġì Łģ
ĠJ R
Ġëĭ¹ ëĮĢ
ĠíĮ ©
Ġì²´ íĹĺ
ĠìĬ¤ íİĻ
Ġä½ ¿
Ġìĭ¤ ëĤ´
Ġ192 6
ĠíĴ ĭ
ĠêµŃ ê¸°
ĠìĤ¬ ë§ī
Ġëı Ķ
¼ë ĭ¤
ĠìľĦ íĤ¤
Ġë¹Ħ ìŀĶ
ìĺ Īë
ĠëıĻ íĻĶ
Ġì½Ķë ¯
Ġ13 9
Ġêµ¬ ìĤ¬
Ġè Ĳ
Ġê² ¬ë
ìķĦ ë¦¬
ĠëĦ ¥
íİ ł
Ġc h
Ġìĺģ ì£¼
íĭ° ìĺ¤
ĠìĦ¸ ì¡°
m e
Ł¬ ìļ´
Ġê³¨ íĤ¤íį¼
ìĬ¬ë ¡ľ
P S
ĳ Ĳë
ĠìŀĲ ë§¤
ìķĦ ìĬ¤
ĠìĥĪë ģ¼
Ġë©´ ìĹŃ
Ġìļ© ìĿ¸
ĠíķŃ íķ´
Ġë©Ķ ëĭ¬
ëį ĺ
Ġê¾ ¼
ĠìĬ¤íģ¬ ë¦°
ĠíĥĢ ìłĲ
Ġ16 8
ĠíĻĶíķ© ë¬¼
ìĤ¬ ë¥´
íŀ Įëĭ¤
O M
Ġâī ª
Ġíķľ ìĦ±
ĠìĬ¤ íĶ¼ë
Ġíķł ìķĦë²Ħì§Ģ
Ġë° ´
ĠëĮĢ ê²°
Ġì²´ìľ¡ ê´Ģ
Ġê·¸ë¦¬ íķĺìĹ¬
ëį °ë
Ġíľĺ íķĺ
Ġì¯ ¤
ĠìĦ± ì¢ħ
ī ģ
Ġíİ¸ ìĿĺ
Ġë¯¸ ìķ¼
Ġë¶ģ ë¯¸
ĠíĽĮë ¥Ń
Ġìľłë ł¥
ĠJoh n
ľ ¨ë¦¬
íĸī ìĦ±
Ġé ©
Ġë¶Ħ ìĤ°
ìĥĿ ë¬¼
ĠìĬ¤ íĨ¤
ĠìłĦë Ĥ¨
Ġìı ĺ
Ġê°Ģ ëĤľ
Ġì§Ģ ì¤ĳ
íĭ Ģë
ĠíĶĦë ŀŃ
æ³ ķ
ĠìĹ ī
Ġìĺ¤ ë¥ĺ
ì¹ ¼ë
Ġê°Ħ ê²©
Ġìº Ķ
ĠìĦ¸ ìĿ´
ĠêµŃ íĨł
Ġì´Ī ìĥģ
è ª
ŀ Ħ
Ġì§Ģ ì¹Ń
A S
Ġë°Ķë Ŀ¼
Ġê°Ģ ìĻĢ
Ġë¶Ģ íĴĪ
Ġë¹ µ
Ġë¸Įë ¡ľ
Ġê·¼ ìľ¡
ĠíĬ¹ë³Ħ íŀĪ
Ġ192 7
Ġíģ´ë ¡ľ
Ġì²ł íķĻìŀĲ
ĠìŀĲì¹ĺ êµ¬
Ġë¶Ģ íĺ¸
Ġì²ł ê±°
å ł
ĠëĮĢ ìĽĲ
Ġë¶Ģ ì²ĺ
Ġìłĳ ìĨį
ĠìĥĪë ²½
ĠìĦ¸ ê¸Ī
Ġè ī
ĠìĦ± ìĦľ
íģ¬ë ŀĺíĶĦíĬ¸
íģ´ ë¦°
Ġíİ¼ ì³¤
ĠìĦ± ëĤ¨
Ġì´Ī ì²Ń
Ġë§¤ ì£¼
18 9
ĠO S
Ġìĺ¤ ì¼Ģ
ìĤ¬ ê´Ģ
ĠëĨį ìŀ¥
Ġì°© ìļ©
Ġì½ľë ¡
Ġë¬´ íķľ
ĠìĦł íĺ¸
ĠM an
Ŀ¼ìĿ´ë Ĥĺ
Ġíķĺë ĬĲëĭĺ
Ġê°Ģ ìĿ´
ĠíĶ¼ íĬ¸
ëıħ ìĿ¼
Ġíģ Ĳ
Ġç ¯
Ġè ±
Ġëĭ¨ ìŀ¥
Ġìĸĳ êµŃ
Ġëį§ ë¶Ļ
Ġì§Ģ ìĪĺ
Įë ¶Ģ
Ġì¤ĳ ìĦ±
Ġë³µ ìĤ¬
Ġ6 1
ĠíŀĪ ìĸ´ë¡ľ
ĠìĬ¤íĥĪ ë¦°
Ð µ
ë² Ħë
Ġì»¤ ëĭ¤ëŀĢ
Ġì½ľë ¡ľ
ĠëıĻ êµ´
Ġì²Ń ì£¼
Ġëįķ ë¶Ħ
Ġíıīë¡ł ê°Ģ
ĠëıĻ ìĿ¼ë³¸
e b
ìĪĺ ëŁī
Ġê³¤ ì¶©
ĠìļĶì½Ķ íķĺë§Ī
Ġãģ ®
ĠìĽĲìŀĲ ëł¥
Ġå Ĩ
Ġ" "
ëıĦ ë¥´
Ġë¦ ¼
Ġìŀ¥ ë¡Ģ
Ġë´ī íķ´ì¡Į
Ġíĭ°ë ²łíĬ¸
ëĭ ī
ĠíĶ¼ íĦ°
ĠíĪ¬ ìĬ¤
ĠëłĪë ĭĮ
ľëł ·
ĠìĤ¬ ìĿ´ëĵľ
ĠíĨł ë¦¬
Ġíķ¨ ê²½
Ġì§Ģíľĺ ê´Ģ
ëģ Ķ
ìĬ¤ ì¼Ģ
ĠëĮĢ ëĭ¤ìĪĺ
Ġì£¼ ìŀĲ
íĬ¸ë ĭĪ
ì°¨ë ¡ľ
Ġìłķ ë¥ĺ
ìĺģ êµŃ
łĪë Ĥĺ
ì¦Īë ĭĪ
ĠëĬĲë ĥĲ
ĠåĴ Į
Ġë¯¸ ìĬ¤
ì¼ Ħ
Ġì§ĳ íķĦ
ĠèĪ Ī
Ġì½Ķë ĦĪ
ĠíĺĪ ìķ¡
ĠêµŃë°© ë¶Ģ
²Ħ íĬ¸
Ġ17 4
ĠìĽĲ ìŀ¥
Ġëıħ ìłĲ
Ġëļ ľëł·
Ġë¶Ģ ëĵľë
Ġì£¼ë ¬¸
Ġë©¸ ì¢ħ
ĠìĿĺ ìłķë¶Ģ
ĠìĦľë °©
¥´ë §Į
ĠíĮĮë ¥´
Ġå® ¶
Ġìŀ¬íĮĲ ìĨĮ
Ġëª¨ ìŀĲ
Ġë°° ìĽł
Ġë´ī ê¸°
ĠìŀĲìĿ´ìĸ¸ ì¸ł
Ġæ² ³
ĠåĽ Ľ
Ġíİĺ ìĿ´ìĬ¤
Ġë¬´ë Ĭ¬
ì ¾
ĠìĿ¼ ìŀĲ
Ġë¬¼ë ł¤
Ĳë ĵľ
íĬ¸ë ¹Ħ
ĠìĦłë ¬¼
ĠíļĮ ìĥī
Ġíıī ë©´
ĠëıĦì¿ł ê°ĢìĻĢ
Ġíķ© ë¦¬
Ġëĭ¤ìĿ´ë ¬ĺ
ĠíĮĲ íĥĢ
Ġë°ľìłĦ ìĨĮ
u la
Ġê°Ĳ ìĺ¥
ĠE x
ĠS T
ĠìķĪë Ĥ´
Ġë¬¼ ê³łê¸°
ĠìĨĮìĦ¤ ê°Ģ
ìĺģ íĻĶ
ĠëĨį ì´Į
Ġ191 2
Ġëħ¸ëıĻ ëĭ¹
ĠëĨ ĢëĿ¼
ĠíĶĦë¡ľ íĨł
ëĭ¹ ìĭľ
ĠìĦĿ ë°©
ĠìļĶ ìĽĲ
Ġë¹ł ì§Ģ
Ġ0 8
Ġæľ Ŀ
ìĿ´ë įĶ
Ġëª© ìĪ¨
ĠëıħìĿ¼ ìĸ´
ĠíıŃ íĴį
Ġå° ¹
te m
ĠëĮĢ ë³Ģ
ìķ¼ ìĪĺ
Ġ14 5
ìĬ¤íħ Įë
ìļ° ìĬ¹
íĨłë ¥´
ĠìĤ´ìķĦë Ĥ¨
ĠìĿĢ ë©Ķëĭ¬
Ġê³µ ë£¡
Ġë°Ķë Ŀ¼ë
Ġëĭ ®
ĠìĤŃ ìłľ
Ġëĺĳ ê°Ļ
Ġìŀ¥ ìłĲ
Ġë¡ľ ë§¨
ĠìĿ¼ íĻĺ
ĠíŀĪë¡ľ ìĭľë§Ī
Ġìĭľ ê³Ħ
Ġëªħ ìĭľ
Ġç Ľ¸
ìľł íĤ¤
ĠëĤ¨ë ħĢ
ĠìĽ¨ ìĿ´
Ġ15 5
Ġìĸ´ë ĳĲ
ìĹĲ ìĬ¤
ĠìĭĿ ëŁī
Ġê·¹ ë³µ
Ġæī Ģ
Ġíķ´ íĺĳ
ĠëıĻ ë©Ķëĭ¬
Ġìļ´ëıĻ ê°Ģ
Ġë ŀľë
ì¹´ ìĬ¤
Ġë°ľ íľĺ
un g
Ġ al
èĩ £
ì° Į
Ġè¡ Į
ĠìĿ¸ ì¹ĺ
Ġìĺģ íĺ¼
ê°Ģ ìĭľ
it e
ë© ¸
ĠìŀĲ ì±ħ
¯¼ ì£¼ëĭ¹
Ġëĭ¹ ìĭł
Ġê°ķ ë¦ī
Ġìŀ¬ ìŀĦ
Ġíĳľ ì§Ģ
Ġì¦Ŀ ê¶Į
Ġê°ķ ìłĦ
Ġì¡´ ìĬ¤
ĠëłĪë ²¨
ì½Ķ íĶĦ
íĽ Ħë
ĠëĮĢìĤ¬ ê´Ģ
ĠëıĻ êµ¬
Ġìĥģ ì£¼
Ġì£¼ë ĭĪìĸ´
ê³ Ħë
íĨ ¡
ĠíĽĦ íĩ´
Ġê³¨ë ĵľ
Ġìºĺë¦¬íı¬ëĭĪìķĦ ì£¼
ĠìĹ° ìĥģ
Ġë¶ģìĦľ ìª½
Ġì¢Į ìĥģ
ĠêµĲ ëıĦ
Ġè ¾
ëĤ ©
ĠA C
¬´ ê²Į
® ¬ë
E D
Ġê³Ħ ìĪĺ
ĠëĤ¨ ê·¹
ê¸°ìĽĲ ìłĦ
Ġìļ ¸ë
ĠìľłëĮĢ ìĿ¸
ĠìĦ± ëªħ
Ġè Ĭ
Ġëĵľë Ł¬ëĤĺ
ĠìĿ¼ ê³±
Ġì²ľ ìķĪ
ĠW il
ë Ĭ
Ġì¹ Ļ
er e
ĠìļĶ ìĭľë
Ġë²ł ë¦¬
ĠìĿ´ìĸ´ ìĦľ
Ġë¶Ģ ìŀĳ
ĠLo ve
ë ¢°
ĠíĥĢ ìŀħ
ìķłë Ĥĺ
Ġì¡°ë ¬¸
ìĺ ¬ë¦¬
ëĤĺ ê°Ģ
ìĬ Īë
Ġìķ½ íĥĪ
Ġì£¼ ìŀ¬
ìĺģ ìĥģ
ĠìĤ¬ ìĭł
ĠìĦ± ì§ģìŀĲ
Ġë¸Įë £¨
ĠE P
ĠìĿµ ìĬ¤
Ġì¢ħ ìłĦ
ìķĦë ĭĪìķĦ
ıĮ íĶĦ
íĤ ·
Ġíķ´ ìĦ¤
Ġìĭľë §Ī
ic al
ĠìĨĲ íķ´
Ġë§Ī ìĵ°
ĠíĺĦ ì¡´
ĠìĪĺ ë°ĺ
i le
° ĶëĿ¼
ĠíĻĶ ê°Ģ
ĠB l
Ġ190 7
Ġëī ´ë
ê° Īë
Ġë¶Ī íĻĶ
ê·¼ íĺľ
Ġë§¨ ì²´ìĬ¤íĦ°
Ġê°Ģ ëģĶ
Ġê´ĳ ìĤ°
Ġë©Ķ íĥĪ
£ ¬
ĠìĿĺ ìĦĿ
Ġìĺ ¨ë
Ġì¤ĳ ëıĻ
ĠìĿ´ ì¡°
ĠëĨĵ ìĹ¬
¯¸ ìķ¼
Ġì¢Į íĮĮ
ĠìŀĲìľł ì£¼ìĿĺ
Ġë ŀĮ
Ġêµ¬ ë¦Ħ
ë¯¸ë ĭĪ
Ġê³µ ìĦ¸
Ġëª¨ íĹĺ
ëĶ ķ
Ġìĭ¬ë¦¬ íķĻ
ĠUn ivers
ĠíĮĮ ìļ´ëĵľ
Ġ15 7
Ġìŀħ ìĤ¬
ĠìĨĮ ìļĶ
Ġê²° ìĭ¬
ĠëıĮìķĦ ê°Ķ
ľ »
ĠB r
Ġë§Ī íĭ´
ĠìĪĺë¹Ħ ìĪĺ
Ġë¹Ħ íķĺ
ìĭľ ìĬ¤íĬ¸
Ġìŀ¥ ê°ĳ
ĠíĥĢ ìĽĲ
Ġê¹ Įë
Ġìľł ìķĦ
Ġë¶Ģ íĥģ
Ġë¦ Ń
ĠìĽĲ ì¡°
Ġë°° ê¸ī
Ġì§Ħë ıĻ
l es
íĬ ľ
Ġê·¸ëł¤ ìł¸
ĠìĤ¬ ê´Ģ
Ġê°ķ ëĵ±
Ġì¹¼ë¦¬ ì§Ģ
Ġê°Ģ êµ¬
Ġì§Ģ ë¶Ģ
ì§Ģ ëĭĪìķĦ
Ġì¤ĳ ìĭľ
ĠìĦ¸ë ¥´
ĠìķĮ íĮĮ
ĠëıĻ ë°ĺ
Ġìľłë °ľ
Ġê´Ģë¦¬ ìŀĲ
Ġìķķ ëıĦ
Ġë £Į
Ġëį° ë¦¬
Ġì¿łë °Ķ
Ġì§Ħ íĿ¥
Ġ191 7
ĠëĿ¼ìĿ´ íĶĦ
ĠëĮĢ ìĬ¹
ìĸĳ êµ°
ĠæĿ ¾
Ġë³´ ìĬ¤íĦ´
Ġìĺ¤ ìĹ¼
ĠíĹ¤ ë¥´
¨ë ĵľ
Ġë ¼Ī
ĠëĤĺ ìĦľ
ou nd
ìģ ľ
§Īë ¥´
Ġì¡° íĻĶ
ber t
Ġë©Ķ íĬ¸ë¡ľ
Ġì§ĢìĹŃ êµ¬
ĠëĬĶëĭ¤ ê³ł
ĠìĿ¸íĦ° íİĺìĿ´ìĬ¤
ĠëıĦ ë§Īë
Ġé ¤
¸Įë Ŀ¼
Ġì²ł ìłĢ
ì£¼ë ıĦ
ĠíĿĺ ëŁ¬
ë Ĥ¬
Ġêµ¬ë ¡ľ
ĠìĹ° ê³Ħ
ìķĦë ŀĺ
Ġë§Īë £¨
Ġëª¸ë ¬´ê²Į
ĠìĦ¤ ë¹Ħ
Ġ16 6
íŀ Ĳ
Ġíĥ ķ
Ġíģ¬ë Ŀ¼
ë§Ī ìĿ´
Ġ0 5
ĠìĤ¬ ê±°ë¦¬
Ġê²½ ìľł
ê± ´ë
ĠìĽĲ ìĭľ
Ġì½Ķ ìĸ´
ĠìłĦë ¶ģ
ĠëıĮ íĮĮ
Ġë¶ģ ìķĦë©Ķë¦¬ì¹´
Ġìĭ¤ ìłĲ
un d
Ġëŀ Ħ
ĠìĪĺ ìŀ¥
Ġìłľ ìķ½
k e
ĠìĪĺ ì§ģ
Ġå Ĥ
ì¡ ¸
Ġåı ¤
ĠëłĪìĿ´ë ¸Ķ
D P
ìŀ ł
ĠìĿ¼ë ĭ¨
íİĺ ìĿ´ì§Ģ
Ġíİĺ ë¦¬
ĠåĬ ī
íħ ľ
Ġìľ¤ ë¦¬
Ġìĺģ ê°Ĳ
Ġíıī ìĥĿ
Ġê¸° ìĥĿ
ĠëĨĢ ìĿ´
Ġê°ģ ìŀĲ
Ġê¹Ģ êµ¬
ĠìķĦ ê³¼
ĠíĮĮ íĭ°
er n
ĠìĦ¬ ìľł
ĠíĻ Ģë¡ľ
Ġë§Ŀ ìĽĲê²½
a w
ë ¸Ķ
ĠëıĦ ìĸ´
Ġê³µ êµŃ
Ġë§¤ ëĭĪ
Ġíı¬ë ĵľ
Ġê¹ĢëĮĢ ì¤ĳ
Ġì¶Ķë ĮĢ
Ġcod ice
Ġë¬¸ ìĿ¸
Ġë³Ģ ìĭł
Ġê³ł êµĲ
ĠìķĮ ìķĦë
ĠìĿ¼ìĸ´ë Ĥľëĭ¤
ë¬´ë Ŀ¼
Ġì¤ĳ ë¦½
Ġëª¨ ìĭľ
Ġì¢ħ ë¡ľ
Ġìķķ ì¶ķ
ĠìĿ¼ íĸī
Ġ190 5
i es
ĠWW E
Ġ ar
Ġë¡ľ ëłĮ
Ġìĭľ íĬ¸
ĠíĮĮ íĤ¤ìĬ¤íĥĦ
ĠíķŃ ëª©
Ġë°ķ ìĬ¤
Ġë¬´ë¦ İ
ì ©
ĠëłĪ ì§Ģ
ìĹ ¼ë
Ġìľł ìĹŃ
íĥĢ ìļ´
ĠëĤ¨ëıĻ ìª½
ĠìĦłêµĲ ìĤ¬
Ġì§ģ ìľĦ
ĠíĶĦë¡ľìĦ¸ ìĦľ
ĠìĦľ ìłģ
Ġë¬¸ ìŀ¬
Ġp ro
Ġì§Ħ ìĪł
ĠåĲ Į
Ġê¸Ģ ìĶ¨
ĠG r
Ġë¸Ķë ¡ľ
s p
ëł ī
ĠìĬ¤íĬ¸ë Ŀ¼ìĿ´
Ġë¶ģëıĻ ìª½
ĠëĶ ±
Ġìĺ® ê¸°
Ġå ²
ì½ §
200 1
ĠìĽ¨ ìĿ¼ìĬ¤
Ġê³ł ìķĪ
Ġì¹´ ìĬ¤
Ġä¸ »
ì¶Ķ ìĸ´
ĠëıĻìĦ± ìķł
íĶĦëŀĢ ìĭľìĬ¤ì½Ķ
Ġìĭ «
ĠìķĦ ìĿ¸
ĠíĶĮë¡ľ ë¦¬ëĭ¤
íģĲë ©ĺ
Ġìºł íĶĦ
ĠK T
ìĵ °ëĭ¤
Ġê·¸ëŁ¬ë ¯Ģë¡ľ
Ġê° ±
Ġê¸° ê°ĳ
Ġë¹Ħ íĭĢ
ĠíĹ ĺ
Ġê°ĢíĨ¨ë¦Ń êµĲíļĮ
ĠìĬ¤íĭ°ë ¸Ĳ
ĠìĤ¬ ëĭ¹
Ġì§ģ ìĦł
ĦĪë ¨¼íĬ¸
ìĬ¤ íĮħ
ĠíĬ¹ íĹĪ
Ġíĸī íķ´
Ġ15 3
¥ Ļ
Ġì¤ĳ ê³Ħ
ĠU N
Ġëĵľ ë¦¬
¼ ìĨĲ
Ġìĥģ ì²ĺ
Ġíķľë Ĥĺ
Ġê³¼ ìŀ¥
Ġè ĥ
Ġì£¼ë ¥ĺ
ĠìĨ¡ ëĿ¼
Ġå¾ Į
ĠìĹĺë¦¬ ìŀĲ
íģĲë©ĺ íĦ°ë¦¬
Ġìĵ ´ëĭ¤
Ġíģ´ëŀĺ ìĬ¤
Ġë¹ Ĺ
ĠìĥĿ ìķł
Ñ Ģ
Ģë ĵľ
Ġë¦¬ ìĬ¤íĬ¸
Ġì¢ħ ì¡±
Ġìĺ¬ ë¦°
Ġëĵ¤ìĸ´ ìĦľ
Ġê°Ħ ìĦŃ
Ġ16 7
Ġê·¼ë ¡ľ
ħ ķ
Ġ190 8
Ġë³Ħë ¡ľ
Ġëĸ ¼
ĠæĻ Ĥ
ìĭĿ ë¬¼
Ġëģ Ī
Ī ħìĬ¤
ĠêµŃ ë¯¼ëĭ¹
ĠìĤ½ ìŀħ
ĠìĿ´ ìĬ¤íĬ¸
Ġë ±Ģ
ĠìłĦë §Ŀ
Ġëį°ë ł¤
íĨłë ¯¸
ìĿ¸ë ıĦ
Ġê¸° ìķķ
Ġê´Ģ íķĺ
ĠE d
E T
ĠëĮĢ ëıĻ
Ġç Ī
ĠëĿ ¤
ĠíĨµ ë¡ľ
ìļ´ ìĦľ
Ġéĸ Ģ
Ġíķĺ ìĤ¬
Ġìľł ìļ©
Ġì¶ľ íĺĦ
os t
Ġìľł ê°Ģ
ĠíĪ¬ êµ¬
ĠíĨłë ĦĪë¨¼íĬ¸
ì¹ ´ëĵľ
ĠìĹ° ìĨĮ
Ġì¹´ ë¦¬
Ġíĺĳ ìķ½
Ġçļ ĩ
ĠìĿ¸ë ł¥
©Ķ ëĭĪìķĦ
ĠëĤ ¸ëĭ¤
Ġíĭ ´
²łë¥´ íĬ¸
Ġë³µ êµ¬
Ġê¸°ê´Ģ ì°¨
ĠìĨ¡ëĿ¼ ìĿ´íĦ°
Ġë ¤¼
ĠíĮĮ íĬ¸ëĦĪ
ĠãĢĬ ãĢĭ
ĠíĶĦëłĪ ìŀĦ
ĠìĿ´ ìĭľ
in c
Ġê³ł ìĦľ
ì¶ ľë
¬´ë ¥´
ĠìłĦ íĸ¥
Ġë§¤ ê°ģ
I T
ĠìĹŃ ìłĦ
Ġ0 7
ĠåŃ Ŀ
ĠíķĦ ë¦Ħ
as e
íĬ¸ë¹Ħ íŀĪ
Ġì¤ĳ êµ¬
¹Ħ ì¹ĺ
Ġê²½ ë¹Ħ
Ġéĥ ¨
Ġ8 2
Ġì¡´ ìĬ¨
Ġê³µê²© ìĪĺ
ĠìĤ¬ëĿ¼ ì§Ģ
éĻ ½
ì° ¾
ĠêµĲ ìĹŃ
ĠëĦĺ ê²¨
ĠìĦ¸ìĽĮ ì§Ħ
ì¹´ë Ŀ¼
ĠM V
¥ ´ëĵľ
Ġé ½
Ġìº ¡
Ġì°½ ê°Ħ
p s
Ġë¶Ģ ìľł
Ġëªħ ìĤ¬
Ġì§Ģ ë¦Ħ
íĭ° ìĽĢ
Ġìĭľìĥģ ìĭĿ
Ġæķ İ
ĠêµĲ ì°¨ë¡ľ
ì¹´ ìĺ¤
Ġ14 9
ë©Ķ ìĿ¸
ìĺ¬ ë¦°
Ġì§Ģ ìĹ°
ĠíĬ ľë
Ġë¬¸ë ²ķ
ĠëĤ© ì¹ĺ
íļĮ ìĿĺ
ìĬ ¬ë¦¬
ĠëķĮë ¡ľ
Ġì²« ì§¸
Ġíģ¬ë łĪ
Ġíĭ ±
Ġë¥´ë Ħ¤
ĠìķĦë¬´ë Ł°
Ġå ±
Ġê± ·
ĠìłĢë ĦĲ
ĠçĶ Ł
íħĲ ëıĦ
Ġë§ŀ ì¶°
Ġëĭ¤ìĸĳ ì²´
Ġìłģ ìĸ´ëıĦ
ĠìĹ¬ ìĿ¸
ë¹ Ľ
ĠìĤ¬ ì´Į
Ġë³´ ì¢Į
Ġê·ľ ìĬĪ
ic k
Ġìµľ ìĥģ
ĠìĺĪ ìĻ¸
Ġíĥľ ìŀĲ
Ġê³¼ ìĿ¼
Ġìļ° ìĿµ
Ġê±´ì¶ķ ë¬¼
Ð ½
Ġìĥģ ìĺģ
Ġìľłë ĭĽ
Ġè ¿
Ġë¯¼ ìĨį
ĠëĮĢ íĸī
ĠìĻ¸ ê³Ħ
ĠìļĶë ¯¸
ĠìķĦëĤĺ ìļ´ìĦľ
y n
ĠëĮĢíķľ ìłľêµŃ
Ġêµ ½
Ġì¹¨ íķ´
Ġëª¨ë ŀĺ
Ġíĥĳ ìĬ¹
ĠëĤ ¼
ĠìĿ´ë Ĥł
Ġíĳľë ³¸
Ġì¶Ķë Ŀ½
ĠìĹ¬ ìĦľ
©ĺ íĬ¸
199 0
Ġæ· ¸
ĠWor ld
i f
ë¦ ĩ
ĠìĦľ ìĿ¸
ĠH D
íĨłë ²¤
l o
Ġë°° ìĥģ
ìĬ¤íĥĢ ìĿ¸
ĠìłĦ ìĬ¹
ìĤ° êµ°
Ġì¤ ¬
Ġê·¸ëŀĺ íĶĦ
Ġìł ¤
Ġì¹Ń íķĺ
A P
Ġ or
êµ °ë
Ġì½Ķ ë¥´
Ġì±Ħ ê¶Į
Ġå³ ¶
Ġíĺ¸ ì¡°
ĠìĹ°ê³ł ì§Ģ
i er
Ġå Ģ
Ġê·¸ë Ł¼
ĠëĤ¨ ìķĦë©Ķë¦¬ì¹´
ìĿ´ë ĭ¤
Ġë¬¸ íķĺ
Ġìľłë ¹Ħ
ĠìĿĺ ë³ĳ
Ġìłģ ìĿĳ
ĠíĻĪ íİĺìĿ´ì§Ģ
ĠãĢ ģ
ol d
ig n
Ġì§Ģ íĳľ
ê°ĢëĭĪ ìĬ¤íĥĦ
Ġë¬¸ ê³¼
ì¼ Ī
ac e
Ġëĭ¨ íĸī
Ġìĥī ê¹Ķ
ĠìĿ´ë£¨ìĸ´ ì§Ħëĭ¤
Ġìĩł íĩ´
Ġê°Ģ íķ´
ĠíĿ Ļ
ĠíĨłë ²Į
Ġì¡°ë ªħ
Ġëĭ¨ ì¢ħ
ĠìĤ¼ ê°ģ
Ġë´ī ìĤ¬
Ġìĭľ ì§ĳ
ĠìŀĲ ë¬¸
Ġë¸Įë Ŀ¼ë
Ġì¤Ģ ìļ°ìĬ¹
Ġëªħ ë¬¸
Ġê²¨ ìļ°
Ġç ĩ
ĠâĢ ¦
ĠíĮĶ ëłĪ
Ł¬ ë¦¬
ĠíĨł ìĬ¤
ĠíĮ¨ íĦ´
ıĻ ìĥĿ
ĠìŀĦ ìĭł
ĠP r
ì´Ŀ ìŀ¥
ĠëłĪìĿ´ë ĭ¤
Ġæ´ ª
Ġíķĺ ìĻĢìĿ´
ì² ¨
ĠìĻķ ê°Ģ
Ġëļ «
Ġë¶ĢëıĻ ìĤ°
Ġìĺ¤ ë²Ħ
ĠêµĲ ì°¨
Ġëĭ¨ ìĦł
Ġ16 9
Ġë£ ¸
O C
ìĦľ ìĸĳ
Ġìłľ íĽĦ
ĠìĬ¤ ìĬ¹
Ġê´Ģ ì¤ĳ
Ġé» ĥ
ì§Ģ ëĦĲ
Ġë°ķ ê·¼íĺľ
ê²° ìĬ¹
ìĹĺ ëĿ¼
ĠìķĦ ê¸°
Ġíĺĳ ìĿĺíļĮ
ĠíĥĲ íĹĺ
ëĿ¼ë ĭ¹
Ġìľ¡ ìĦ±
Ġê¸ī ìĨį
Ġì¢Į ìĿµ
Ġê³¼ë ıĦ
ĠìĹ ½
ĠìĪĺ ê°Ĳ
Ġê¸° ì¢ħ
Ġê°Ģë¥´ ì¹ĺ
ĠS M
íĬ¸ë Ł¼
Ġë²Ħ ì§ĢëĭĪìķĦ
Ġë¬¸íĻĶ ìľłìĤ°
Ġíĸ¥ íĨł
Ġì¶ľíĮĲ ìĤ¬
Ġìĺ¹ íĺ¸
ĠëĿ¼ìĿ´ë ²Į
Ġìļ°íģ¬ë Ŀ¼ìĿ´ëĤĺ
Ġë¦ ´
Ġëħ¸ë ¬´
ĠíĬ¸ë ŁŃ
ĠìĿ´ìĸ´ ìł¸
ĠíĿ¥ ë¯¸
ì§Ģ ëĭĪ
ĠìķĦ ìĺ¤
Ġê¾¸ì¤Ģ íŀĪ
Ġíķ´ ì§Ħ
ë¦¬ ìķĪ
ĠïĶ ·
m a
ĠìĹŃ ê³¼
Ġëª¨ë ¡ľ
ĠìĦł ìłľ
Ġìľł ìŀħ
ĠìĿ¸ì²ľ ê´ĳìĹŃìĭľ
Ġèĩ ª
ĠëĬĺ ìĸ´ëĤĺ
ĠëŁ¬ë ¸Į
íĦ°ë²ł ìĿ´ìĬ¤
ĠíĬ¸ë Ł¼
Ġì§Ģ ì§Ī
Ġì§Ħ ì§Ģ
ì§Ģ ë§Ī
ĠëĤ´ ìŀ¥
ì£¼ë ¡ľ
Ġê³§ ë°Ķë¡ľ
ĠëĤ¨ìĦľ ìª½
Ġíķĺ ì²ľ
ĠìĤ¬ ë£Į
ë¶Ģ ë¥´íģ¬
Ġíİ¼ ì¹ĺ
ĠëŀŃ íĤ¹
Ġê³ł ê³ł
Ġë¬´ ìĤ°
Ġ0 6
ĠëĤĺ ìĦł
ì¦Ī íĤ¤
Ġìĥī ìĥģ
ĠêµĲíĸ¥ ê³¡
Ġë¬´ ìĿ¸
Ġê¸Ī ê°ķ
Ġë²ł íĥĢ
ĠìłĦíķ´ ì§Ħëĭ¤
Ġä¿ ¡
ĠìĤ¼ ê°ģíĺķ
ĠC l
Ġìĭľ ìĬ¤
ìľ¼ë ¯Ģë¡ľ
Ġëª¨ ì§ĳ
Ġëª© ê²©
ĠëıĮìķĦ ìĺ¨
Ġê¸°ëħĲ ë¬¼
Ġíĺĳ ìĿĺ
ĠìĪĺìĥģ ìŀĲ
in t
Ġë°Ģë Ŀ¼ëħ¸
Ġìĸ´ ìĽĮëĵľ
Ġå ĵ
Ġêµ¬ ë¦¬
Ġê¸Ģ ë¦¬
Ġìĭ¬ íķĺ
ëª¨ë ĵł
ç ī
Ġ0 3
Ġê¸° ìļ©
Ġë¬´ ê´Ģ
íĥĢ ì¹´
íĬľë ¸Į
ĭī ìĬ¤
íĥ ±
ĠëĲĺ ì°¾
Ġê·¸ ì³¤
Ġì£¼ ìĤ¬
ĠìĤ° ìķħ
Ġëħ¸ë ¹Ħ
Ġ190 6
ĠíĿ¬ ê·¹
Ġíķ© ìŀĳ
ĦĪ ìĬ¤
Ġë°ĺ íĻĺ
Ġëª¨ë ĵ
a la
Ġä¸Ń åŃ¸
Ġ ro
ĠìĤ¬ ë¡ľ
ê°Ģ ë¯¸
ĠìĤ´ íİ
Ġê¹ Į
ĠA M
ĠìĹ°ì£¼ ìŀĲ
Ġì§Ģì¤ĳ íķ´
ĠíĤ ¨
Ġìµľìļ° ìĪĺ
Ġë°© ìķĪ
ĠìķĪë ³´
Ġë¶Ļ ìŀ¡
ĠìĹĲ ëĭ¤
ĠìĦ¼ íĬ¸ë
Ġíİĺ ë£¨
ĠìķĦë§Ī ì¶Ķìĸ´
ç «
íĿ ¬ë
T C
Ġì£¼ íĮĮ
ìļ¸ë Ł¬
Ġìľł ìĿ¸
íģ¬ ë¦¬ìĬ¤
ĠS F
ìĬ¬ë Ŀ¼ë¹ĦìķĦ
Ġëĭ¤ íģĲë©ĺíĦ°ë¦¬
íĮ ½
ĠS C
ĠíĤ¬ë¡ľ ë¯¸íĦ°
o ol
²łë¥´ íģ¬
Ġìĥģíķĺ ìĿ´
ĠN A
ìĿ¸ ì§Ģ
Ġìļ´ë ªħ
ìĭ ľëĭ¤
Ġæ ŀĹ
Ġë²Ī ì£¼
Ġìŀħ ë¬¸
Ġì£¼ìĿĺ ìŀĲ
Ġìłķ ìŀĲ
ĠëĿ¼ ìļ°
Ġç Ĩ
Ġíĸ¥ ëħĦ
íİĺ ìĿ´
ë¬´ë ¶Ģ
ëı Ī
Ġê°Ģ íķĺ
Ġå Ħ
Ġå ĩ
ĠL C
Ġì§Ģíľĺ ìŀĲ
ĠìķĦë¥´ë ©ĶëĭĪìķĦ
Ġë§Ī ìĿ¼
Ĥ´ë ²ĦìĬ¤
Ġìķ ¨
ê°Ģ íĥĢ
ĠëıĻ ì¹ĺ
ĠìĿ¼ìľ¼ íĤ¨
ĠëĶ ´
is h
Ġìľ¤ ì¹ĺ
e ar
ĠìĪĺ ì§Ģ
ĠS N
ç¾ ©
Ġìłģ ìĥī
ĠìĬ¤ íĶ¼
íĮ ¬
íĨł ìĭľ
ĠíıĲ ê¸°
å· Ŀ
ĠìĿ´ ìĪĺ
Ġìłľ ì£¼ëıĦ
Ġæ ¿
Ġì£ ł
Ġäº Į
ëıĦ ëĭĪìķĦ
Ġë¶Ħ êµĲ
Ġë¯¼ì¡± ì£¼ìĿĺ
d e
íĥ Īë
ĠìķĦë ıĦ
ĠO r
Ġê´Ģ ìŀ¥
Ġë°Ķ ìĺ¤
å ¿
Ġê¸° ìŀ¬
ìĦ¸ ìĬ¤
Ġíį¼ ìĭľ
Ĥ ©
Ġëĭ Ĳ
Ġêµ¬ ìŀ¥
ĠëĤĺíĥĢë Ĥľ
Ġìļ´ë °ĺ
ĠæĢ §
ĠëıĻ ìĺģìĥģ
Ġëĭ¹ ìĤ¬ìŀĲ
Ġê°ľ ìĪĺ
Ġë°° ìłľ
Ġê´ĳ ìĹŃ
at t
Ġì£¼ ê±°
ĠëĵľëŁ¬ë Ĥ´
Ġì¹ ©
Ġë¦¬ë ĪħìĬ¤
Ġê¸° ìłĲ
ĠìĹ¬ë ıĻìĥĿ
Ġ14 6
Ġê±´ë ĭ´
Ġìłķ ìĦľ
ĠìĹ° ê¸Ī
Ġìŀ¬ë ¬´
Ġíĺ¸ë Ĥ¨
Ġê²½ ë¶ģ
ĠëĿ¼ìĿ´ ìĺ¨
Ġì¹´ë¥ ¼
Ġì²Ń ëıĻ
Ġåħ «
Ġì¡°ìĦł ìĿ¸
ĠëĭĪ ìĭľ
¥ ¼
Ġê³ł ë¶Ħ
ĠìłĲ ìĦ±
Ġë Ń
íĬ¸ë ŀĻ
Ġë¬ĺ ì§Ģ
íĪ¬ ìķĦëĭĪìķĦ
ĠíĮĮ ìĥĿ
an ce
ëª °
Ġë°ľë łĪ
Ġë¦¬ë ĵ¬
Ġ10 5
Ġì¢Į ìĦĿ
¦ ®
Ġìłķ ìĤ¬
Ġê±¸ë ł¤
Ġç ¢
Ġëį°ìĿ´ íĦ°ë²łìĿ´ìĬ¤
ĠìĭŃìŀĲ êµ°
Ġìľł ìĦ±
Ġë¹¨ ê°Ħ
ĠìĿĮë ª¨
Ġìŀ¥ ìĤ¬
ĠìĦľ ìĿ¼ë³¸
ĠíĺĦ ì¢ħ
Ġìĭľë Ĥ´ë²ĦìĬ¤
ĠìĺĪ ìĸ¸
Ġìŀħ ì¦Ŀ
ĠìŀĲ ìĤ¬
ìķĦ ì§Ģ
ĠëıĻ ê²½
Ġì¹´ ìŀĲ
Ġëĭ¤ ëħĶ
in a
ĠíķľëĤĺ ëĿ¼ëĭ¹
ĠìŀĲ íļĮìĤ¬
ĠìĿĺ ê±°
Ġìĺ¤ ë¡ľ
Ġê±° ì¹ľ
ĠìĦłë³´ ìĺĢ
ĠëĶĶìŀĲ ìĿ´ëĦĪ
ĠìĬ¤íħĮ ìĿ´ì§Ģ
Ġë¡ľ ì¦Ī
Ġìľł íĤ¤
Ġë£¨ íĬ¸ë¹ĦíŀĪ
Ġìłķ êµĲ
ë¬´ë Ħ¤
Ġìĭł ìŀĦ
Ġë²ł íĨłë²¤
ĠëĶĶ ì¦ĪëĭĪ
éĥ ¨
íĶĦ ìĬ¤
ĠíĬ¹ ê¸ī
Ġ9 00
ĠìĪĺ ìĪĺ
ëĭ Ĳ
Ġ7 1
ĠìĻķ ì¡±
ĠåĲ ī
ĠëĮĢ ì¡°
Ġê³ °
ĠêµĲ ê³¼
Ġìĭł íķĺ
S P
Ġì¤ĳêµŃ ìĸ´
ĠëĮĢ ëł¹
ê¸° ìķķ
Ġë¶Ģ ìĪĺ
ìĤ´ë łĺ
Ġìŀ¥ íİ¸
Ġ191 1
ĠìĬ¤ì¼Ģ ìĿ´
ìĺ ·
Ġç ©
ĠìĿ´ ìłķ
ĠëĤ¨ ê²¨
ĠìĹ¬ ìĭł
ĠìĺĪìĪł ê°Ģ
Ġìĺ¤ë¦¬ ì§ĢëĦĲ
Ĳ ģ
Ġìľłë ĭĪë
Ġìķķ ë°ķ
Ġë¹Ħíıī ê°Ģ
ĠìĽĲ ìĤ°
Ġìļ© ê¸°
Ġë´ Ĳ
Ġìĩ¼ êµ°
re e
Ġê±¸ ë¦¬
ĠëĮĢ êµĲ
ĠíĻ© íĥľ
ĠëĶĶ ìĺ¤
ĠëĭĮ íħĲëıĦ
· ¯
ĠìĦł ì§Ħ
Ġëı¼ ì§Ģ
ĠëĮĢ ëĭ¨
Ġì»¤ë®¤ëĭĪ íĭ°
Ġ14 4
ĠëĤĺíı ´ë¦¬
£¨ ìĤ´ëłĺ
Ġì°¨ ê´Ģ
ìĮ į
Ġë§Ī ì³¤
Ġëł ī
Ġê¸° ë¦Ħ
ĠåŁ º
ĠëĤĺ ìĿ´íĬ¸
Ġìĺ¤ë ĶĶìħĺ
ë Ł¬ë
Ġì§Ģ ë°Ķ
Ŀ¼ë ¸Į
Ġì¢ĭìķĦ íķĺ
ĠìĦľë ¶ģ
ĠíķĦ ë¦½
ĠìĬ¤íİĺ ìħľ
Ġë²Įìĸ´ ì§Ģ
Ġë°ľë łĮ
ĠíĮĲíĥĢ ì§Ģ
ĠìĻĢ ì¤ĳ
ĠB BC
Ġê¸ī íĸī
æĸ ĩ
íĺ ĦëĮĢ
ĠP D
ĠìłĦ ìŀĳ
íĺģ ëªħ
Ġëĵľëŀĺ ê³¤
ê³ ¼ë
ĠíķŃ ìĿ¼
Ġìĺ¤ ì¹´
Ġëª¨ ìĪľ
ëĭ Īë
ĠìĤ¬ë§Ŀ ìŀĲ
ì¦Īë ¯¸
Ġë¨¸ë ¬¼
è¡ Į
r on
ìĬ¤ íĨł
ĠëĽ°ìĸ´ë Ĥĺ
ê ¾¸
Ġì°¸ íĮĲ
ou s
ê¸¸ ìĿ´
Ġê°Ģ ê²Į
ĠíĶĮë łĪ
Ġì´Īë ŀĺ
Ġå® ĺ
Ġë°ľ íļ¨
ĠíĬ¸ëŀľ ìĬ¤
Ġï ½
a z
ĠìĿ´ ìĻĢ
ĠìĤ¬ ë©´
Ġìľł íĬľë¸Į
¯¸ë ħ¸
é Ľ
ĠìĿ¼ ìļĶìĿ¼
Ġìłľ ìĿ´
Ġìĥģ ìŀĦ
ĠíĴĪ ì§Ī
ĠëĳĲëł¤ ìĽĮ
Ġì¹´ íİĺ
Ġë¯¸ë ¶Ħ
ìĤ°ë ©´
ì¡°ë ¬¼
ĠëĤ ±
Ŀ¼ë ¦¬
Ġìľł ìĭł
ĠêµĲ ìłĦ
Ġì§ģ ìŀ¥
ä½ ¿
ĭ¤ ëĭĪ
ĠìĤ¬ ì§ģ
ĠìĹ°ë ł¹
ìĿ´ ì¦Ī
§ ŀ
ĠíĽ ¼ìĨĲ
ĠG e
ĠéĢ ļ
Ġì£¼ë §Ĳ
Ġê°Ħ ìłĳ
ĠìķĦíĶĦ ê°ĢëĭĪìĬ¤íĥĦ
íı´ ë¦¬ìĬ¤
ĠìĽĲë ¡ľ
Ġ10 3
Ġíĺ¸ íĻĺ
Ġê¹Ģ íķ´
Ġìķ ±
íı ´ë¦¬
ĠëĦ¤ ìĿ´ìħĺ
ì§ĳ íķ©
199 9
łĮ ì²´
Ġê³Ħë ĭ¨
ĠìľĦ ì£¼
Ġë§Ī ìĬ¤
íĨłë ª¨
Ġë¦¬ ì¹ĺ
łĪìĿ´ íģ¬
Ġå° ĩ
ĠìķĮëłīìĤ°ë įĶ
Ġë§Įë Ĥľ
Ġìĭłë ¹Ħ
Ġìĭ¸ ìĽł
ëĦ Ĳëĵľ
ĠëĮĢ ìķĪ
íĶĮë¦¬ ì¼ĢìĿ´ìħĺ
ĠìĤ¬ìļ°ë ĶĶ
ĠíĤ¤ ìĬ¤
Ġì§Ħ ìĥģ
Ġìłķë¥ĺ ìŀ¥
ìĦł ê±°
Ġíĺķ ë²ķ
Ġë§Īì¼Ģ ëıĦëĭĪìķĦ
ĠíĨłë§Ī ìĬ¤
Ġêµ ī
ì¾ Į
íĺ¸ ì¿ł
ĠëĨį ëıĦ
Ġíķ ¸ë
Ġë¯¸ë §Į
ĠëĤ´ë ¥Ļ
Ġë°Ģ ìłĳ
et h
ĠìĨĮìŀ¬ ì§Ģ
ë ¨¼
ĠìŀĲìłĦ ê±°
ìķħ ê¸°
Ġæ° ĳ
Ġë¬´ íļ¨
ĠìķĦìĿ´ë ĶĶ
§ ·
ĠìĻķ ë¦½
Ġì§Ģ ì£¼
êµŃ ìłľ
ĠêµĲ ìĦŃ
ĠI s
ĠìĨĮìĨ¡ ë²ķ
Ġìľłê³ł ìĬ¬ëĿ¼ë¹ĦìķĦ
¥ ľ
Ł° ìĬ¤
Ġë§Ī ê·¸ë
ĠF ran
Ġê¸´ ê¸ī
ĠìŀĲ ë©´
íĥ ľë
Ġì± Įë¦°
Ġë¶Ħë °°
ä¸ »
° ·
Ġç Ł¥
Ġìº Ħë
le y
Ġê°Ģ ëĵĿ
ĠëıĻ ìĤ¬
Ġë¬´ ìĦł
Ġ190 9
ëĶ°ë Ŀ¼
ê· ľë
Ġê¸°íķĺ íķĻ
Ġì¼Ģ ìĿ´ë¸Ķ
Ġë¶Ģ íĮ¨
Ġëª© íı¬
Ġì»¤ íĶ¼
Ġë£¨ ìĪĺ
Ġëįĺ ì§Ģ
Ġë¹Ħ ìłĦ
os e
ìŀ¡ ìĿ´
Ġìħĭ ì§¸
ĠìĬ¤íĥ ł
Ġë ŁŃ
Ġë¹ ¨ë¦¬
ĠíĥĢ ìĿ´ë
ĠìĤ¬ëĿ¼ ì¡Į
Ġë¶ģëıĻ ë¶Ģ
ĠìĬ¤ì¼ĢìĿ´ íĮħ
¬´ë ¶Ģ
ìĸ´ íĬ¸
ì¦Īë ĭĪìĬ¤
ĠëłĮ ì¦Ī
Ġì½ĺìĬ¤íĥĦ íĭ°ëħ¸
ĠìĪĺ ì²ľ
Ġíıī ìĨĮ
Ġëħ¸ ìĿ¸
Ġê¸° ëĭ¨
ë² ¤
Ġì¶ľ êµ¬
Ġê¶Į ê³ł
Ġë°ĶìĿ´ ìĺ¬ë¦°
Ġë¹Ħë ĭ¨
¡¤ ëĿ¼
Ġê´Ģì°° ìĤ¬
ĠëıĦ ë¥´
Ġ8 1
íĨ ¨ë
Ġë³µ ìłľ
Ġíģ¬ ë¦¼
P a
ë ŁŃ
Ġê³ł ë¦½
Ġìĺģ ê´ĳ
Ġì£¼ íķľ
ĠìĦłë ĳĲ
Ġë²Įìĸ´ ì¡Į
ĠìĬ¤ ì¹´ìĿ´
ëį° ìĿ´íĬ¸
< /
ĠìŀĲ ë§Ī
Ġì¡°ë ¥ĺ
ĠìĬ¤íİĻ íĬ¸ëŁ¼
Ġë³´ ìłĦ
ìĨĮ ìĪĺ
Ġê·ľë ªħ
Ġìŀ Ĭ
Ġìĸ´ íķŃ
°Ķ ë¥´
¼ ìļ´
Ġì§Ģì¼ ľ
Ġêµ¬ë ¯¸
Ġìĭ¬ íķľ
Ġëĭ¤ë£ ¬
ìĬ¤íĭ°ë ²Į
M L
å Ĭ
Ġè »
ĠìļĶë¯¸ ìļ°ë¦¬
Ġë ŀ¨
¶ Ħë
Ġë¶ģ ê·¹
ĠìĺĪë Ĭ¥
ĠìĪĺ íķĻìŀĲ
Ġê°ľë°ľ ìŀĲ
ĠíļĮìĽĲ êµŃ
Ġì½ľë¡ ¬ë¹ĦìķĦ
į Ł
Ġæ Ł³
Ġíİ Ħ
Ġíİĺ ìĬ¤íĭ°ë²Į
Ġíķľ íĻĶ
ĠëĤ łë
Ġå¿ ĥ
i el
Ġë¶Ģ íĨµëł¹
Ġëĵ¤ìĸ´ ê°Ħ
Ġå® ļ
ç §
ĠI P
ë£ ¨ë
Ġë¹ĦìŀĶ íĭ°ìĽĢ
Ġìłľ ìĿĺ
ĠìłĦë ¥ĺ
ê·ł ê´Ģ
ĠìĬ¤ë§ĪíĬ¸ íı°
ĠìĭĿ ìĤ¬
Ġ189 6
Ġì°© ë¥Ļ
ĠíĿ¥ íĸī
Ġê¶Į ìľł
Ġìķ¼ ìĥĿ
ĠíĮĮë ıĻ
Ġë¨¸ë¬¼ë łĢ
p p
Ġìĭľ ì²´
Ġëªħ ì¢ħ
Ġë°ľ ì¡±
Ġë¦¬ íĪ¬ìķĦëĭĪìķĦ
ĠM us
Ġì¶© ìĦ±
Ġì°© ìĪĺ
Ġì½© ê³ł
Ł¼ë ¹ĦìķĦ
ìĬ¬ ë¦¼
ĠìķĮë ł¸
ì»¤ ìĬ¤
Ġëĵ¤ìĸ´ ìĻĢ
Ġíĺľ ìĦ±
Ĳ ľ
Ġê³µ ìłĦ
Ġ12 5
199 8
Ġé«ĺ çŃī
Ġìłķ ê³Ħ
Ġë²Ħ ê·¸
ic a
ëª¨ ë¦¬
Ġë³Ģë ıĻ
Ġì¹ľ ìłķ
Ġê¸°íĥĢ ë¦¬ìĬ¤íĬ¸
ìĤ° ë¦¬
ĠëłĪ ìĿ´ìĬ¤
Ġéİ Ń
ĠìĿ´ ë§Ī
Ġìľµ íķ©
ĠëıĦ ìĭ¬
Ġìłķ ë²Į
al e
Ġìĺ¤ì¼Ģ ìĬ¤íĬ¸ëĿ¼
Ġíĸīìłķ ë¶Ģ
Ġíĺ¸ íıī
Ġè ¬
Ġìĭł ìļ©
Ġíİ¸ ê³¡
ĠìĹħ ëį°ìĿ´íĬ¸
Ġ13 5
om e
ĠìŀĲì±ħ ìłĲ
ĠëıĻ ìłĦ
ĠìłĲ ìľł
Ġì¿ ¼
ĠìķĪ íĨłëĭĪ
Ġëħ¸ íĬ¸
Ġíı¬ë §·
Ġìļ°ë £¨
Ġìļ°ë ĵľ
Ġêµ¬ë ıĻ
ĠëĳĲë ĵľë
Ġê·¸ë ŀľëĵľ
ĠA c
Ġê·Ģ íĻĺ
Ġìĺ¤ ìĿ´
Ġìķł êµŃ
ĠíĪ¬ë ªħ
Ġì§ Ļ
Ġëª¨ë ĭĪ
ĠìłĦë ıĦ
íĬ¸ë ¡¤
Ġ15 00
Ġë¯¸ë Ħ¤
Ġë¶Ļ ìĿ´
Ġë§ģ íģ¬
ĠëıĦ ë©ĶìĿ¸
íķŃ ê³µ
ìĻ¸ ìĦł
ĠëĮ Ĳ
Ġê »į
æ ´
Ġìĥģ ìĨĮ
ĠìķĪ ìĸĳ
ìłľë ¥´ë
Ġ le
Ġì°¾ ìķĦê°Ģ
ë©Ķ ìĿ´
Ġíķłë ĭ¹
ĠìĥĮ íĶĦëŀĢìĭľìĬ¤ì½Ķ
Ñ ģ
ĠëĤĺ ì¹´ë
Ġë£ ©
198 0
Ġë¹ħ íĨłë¦¬ìķĦ
ĠìĪĺ ë©´
ĠìłĦ ìŀĦ
Ġìļ© ëŁī
ĠD J
Ġä¾ ¯
i um
Ġìµľ ìĭł
ĠëĶ° ìľĦ
Ġíıī ìķĪë
Ġç ¤¾
ĠíķĻ íĮĮ
å® ¶
Ġìı Ł
Ġ5 000
Ġëģ ¼ë¦¬
op h
Ġì¦Ŀ ê¸°
Ġë¬¼ë Ł¬ëĤĺ
t or
ĠìĿ¸ ìŀĲ
Ġê°ķ ìĹ°
ĠìĦ¼íĬ¸ë Ł´
ëĭ¤ ë¥¸
E S
Ġå¸ Ĥ
Ġë¶Ģ íĿ¥
ĠíļĮ ìĪĺ
Ġì¡´ ê²½
ìĻĢë ĮĢ
Ġìĸ Ģ
Ġë¹Ħ ì¦ĪëĭĪìĬ¤
ĠìĹ¬ë įŁ
¼ ìĭľ
ĠìĬ¤ ìĻĢ
ê·¸ë ŀĺ
Ġê´Ģê´ĳ ê°Ŀ
M S
ĠìĽĶ ê°Ħ
ì£¼ ê³¡
ĠíĨµ ì¹Ń
ĠìĤ¬ ë²Ķ
ìĸ´ ë¦¬
Ġë¯¸ ì¹´
ĠìĺĽ ëĤł
ĠMV P
Ġëħ¸ ì¡°
Ġë©Ķ ë¥´
Ġíķĺëĵľ ìĽ¨ìĸ´
Ġê² ¨ë
į° ìĿ´
ìĭľë ĮĢ
ĠìĿ´ ìĺ¤
łë ĵľ
ê°Ģ ë£¨
ìħ °
ĠíħĮ íģ¬ë
ĵľë ĭĪ
Ġ9 2
ì´ Īë
Ġíķ© ê³Ħ
Ġìĸ¼ë §ĪëĤĺ
Ġìĥģ ë¬´
Ġìļ° ì§Ģ
Ġê²Ģ ì¦Ŀ
ľ ¨ë
ìĽĲ ëŀĺ
ĠìĪĺ ëªħ
Ġíı¬ ìľł
ìĺĪ íĶĦ
C C
ìĪĺ ìĪĺ
ĠíĹ Įë
Ġê·ľ ê²©
Ġë¬ĺ ìĨĮ
Ã ¡
Ġê³ ģ
ĠìĦľìļ¸ ìĭľ
Ġì¤Ģ ê³µ
ĠíĶ¼ë łĮì²´
ĠìĺĪë £¨ìĤ´ëłĺ
Ġì¸¡ ê·¼
ìļ°ë Ŀ¼
Ġì² ¸
Ġå Ķ
Ŀ¼ë į¸
Ġ191 3
Ġå¯ §
ĠìĹĦë §Ī
Ġ190 4
Ġë±ħ íģ¬
è ¦
ĠìĻĦ íĻĶ
ìłľë Ĥĺ
Ġé© Ľ
¨ë ĭ¨
Ġê±° ìĿ¸
Ġë´ ¤
Ġ10 1
ĠìĹĲìĬ¤ íĮĮë
Ġë¬´ ìĬ¬ë¦¼
Ġë§Īì¼Ģ íĮħ
Ġìłģ ëĮĢ
ĠíıŃ ìĬ¤
Ġì§Ģ ë¶Ħ
ĠëĤ´ ì§Ģ
Ġê·¸ëŁ¼ ìĹĲëıĦ
ĠìĤ¬ ëªħ
Ġì¡° êµŃ
éĸ Ģ
Ġê°Ģ ì§Ī
ê¸° ëĭĪ
Ġë¹Ħë ¡ľ
ìļ° ìĺĮ
ĠìĦ± ë²½
a i
è Ģ
ëĮĢ êµ¬
ĠíĿ ©
ĠíĬ¸ ìľĪ
ĠíĶĦë łĪë
Ġë¶Ħ ì§Ģ
ĠUnivers ity
ìĨĮ ìĬ¤
ìĵ°ëĭ¤ ìĿ´ëĿ¼
æ ĥ
or k
Ġëħ¸ë ĵľ
ĠíĮĲë§¤ ëŁī
Ġì²ľë ¬¸ë
Ġëħ¸ë¬´ íĺĦ
Ġëª© ì¡°
ĠëĲĲ ìľ¼ë©°
Ġëħ¸ëıĻ ì¡°íķ©
Ġe x
Ġè¨ ĺ
é Ŀ
ĠíĨ ¨
ê¼ ´
ĠìĦľë ıħ
ĠM C
ĠìŀĲ ë°Ķ
¬´ë Ĭ¬
Ġæ¬ Ĭ
ıĦ ë¥´
Ġ14 7
Ġë²łìĿ´ìĬ¤ ë³¼
I V
Ġëł ¨
Ġìĸ¼ ìĿĮ
ĠìłĢ ê¸°ìķķ
Ŀ¼ë ĶĶë
ĠìĦľ ìĹ´
Ġìķł íĶĮë¦¬ì¼ĢìĿ´ìħĺ
Ġíľ ©
Ġæ¨ Ĥ
Ġìł ĸ
ë¹Ħ ìķĦ
ĠìĬ¤íĬ¸ë¦¬ íĬ¸
ĠìĥĿ ìĤ°ë
Ġì°¨ ì²´
Ġë¬¸ìłľ ìłĲ
§Īë ª¨íĨł
Ġëıħë¦½ìļ´ëıĻ ê°Ģ
¢ °ë
Ġíĩ´ ê°ģ
ç ĲĨ
Ġí ĵ¨
Ġìĭ¤ ìļ©
ĠíŀĪ ìĬ¤
ĠíĮ ħ
ĠëıĻ ìķĦìĭľìķĦ
ª ¬ëĵľ
o la
Ġê³³ ê³³
Ġê³ł ê°ľ
ĠêµŃ ìĸ´
ĠìĹĺë¦¬ìŀĲ ë²łìĬ¤
Ġë°° ìłķ
Ġæľ ¨
çĶ Ł
ĠìĿ´ ìĹĲ
Ġíķ´ ìŀĦ
ĠìŀĲ ìĨĲ
Ġë¶Ģ ë¦¬
Ġê³µ ìļ©
ĠëĿ¼ë §Ī
º «
Ġë¶Ģ ìŀĲ
Ġ3 000
ìłľ íĶĦ
Ġì°© ê³µ
ìĸĢ ë§Ī
° ľë
ì² ´ë
ĠìĥģëĮĢ ìĭĿ
ĠéĿ ĳ
ķ Įë¡ľ
ĠìĤ¬ ìĤ¬
ĠìĹĨ ìķł
Ġìķ¼ ê¸°
ĠìĦĿ íĥĦ
Ġê´Ģ ìĬµ
ĠìĦ±ê³µ íļĮ
Ġë©Ģ íĭ°
Ġê³µ ê³¼
Ġê²½ ìĦł
en n
Ġê²¸ ìŀĦ
Ġìłľ íľ´
Ġìĸ ĩ
Ġåħ §
ĠìĤ´íİ ´ë
êµ¬ ìŀ¥
ĠìĬ¹ ì°¨
ĠìķĦìĿ´ë ĶĶìĸ´
Ķë ıĻ
ì½ ķ
Ġëŀ ´
Ĥĺ ë§Ī
ĠìłĦ ìŀ¥
Ġè ¶
ĠìĿ¸ë ¬¸
ŀĳ ìĿ´
Ġì¢Į íĳľ
ĠìłĦë¬¸ íķĻêµĲ
a u
Ġìĥģ ìĥģ
Ġå» £
on s
ĠíĶĮë Ŀ¼ìĬ¤
Ġì£¼ë¦ ½
Ġë²Ī ìĭĿ
Ġ191 5
ì§Ģ ìĬ¤
ŀĢ íĬ¸
Ġì²Ń ìĻĢëĮĢ
Ġìłķì¹ĺ ê°Ģ
ä¸ Ń
Ġíĳ¸ë ¥¸
ĠìĿ´ ì¢ħ
ìĽĲ ìĪŃìĿ´
íĮ ¡
Ġ z
ĠëĲĺ ëıĮ
Ġê³¼ ìłľ
ĠG re
Ġë¦¬ë ©Ķ
Ġìĩ¼ íķĳ
Ġæī ¿
ìĭľ íĭ°
Ġê¼ ´
ìł Ģë
Ġì¤ĳ ìŀ¥
Ġìĭł ìłĦ
T A
ìĿ¼ë ĵľ
Ġì£¼ìĸ´ ì§Ħ
ĠíļĮ ê²¬
Ġíķ´ ìłĦ
íħĮë ¥´ë
ì¹¸ ìĦ¼
ìł Ħëĵľ
ĠìłĦ ì§Ħ
ĠìĹ° ìĪĺ
Ġìķħ ë§Ī
Ġìļ°ì£¼ ìĦł
íĭ ¸ë
ĠíĿ Ķëĵ¤
Ġê¸Ī ìķ¡
ĠNH K
l l
ĠíĨµ íĸī
ĠìłĢ íĥĿ
ĠëĤ´ë Ĥ´
ì¼Ģ ìĿ¸
ĠìĿ´ëªħ ë°ķ
ê·¸ë ħĢ
Ġ| |
Ĳë ¹Ħ
ĠìĦľ ìĦľ
ĠíħĮë ¥´
Ġì§Ģ ê°ģ
ë¸Į ë¦¬
Ġêµ ¿
ĠìĹ°ë £¨
Ġåį ģ
ĠìķĮë°Ķ ëĭĪìķĦ
ĠìĹ Ķë
Ġëª°ë Ŀ½
íĤ¨ ìĬ¤
ĠìĨĮ ì§Ģ
ĠíĬ¹ ìľł
ĠëĮĢ ëĭµ
Ġæ ©
ĠìłĦë ĳĲ
Ġì¡° ìĸ¸
Ġíķł ë¦¬
Ġå» º
Ġê°ķ ìĤ¬
ĠF or
²ł ë¦¬
Ġì¤ĳ ëıĦ
Ġíħ ľ
Ġìĸ¸ ìłľ
ĠíĨłë ¨¸ìĬ¤
Ŀ¼ëį¸ íĶ¼ìķĦ
Ġìĥģ ë¥ĺ
ìļ° ìłĢ
Ġì°½ ìĹħ
ãĥ ¼
Ġìŀ¥ ìĿ¸
Ġç ·
Ġë¯¿ ìĿĮ
i x
¨ë ²ķ
Ġìľł ê²©
Ġë¹Ħ ê·¹
ëĳ ĺ
Ġä½ Ľ
Ġë§Īë Ŀ¼
Ġíı¬ íģ¬
ĠëĶĶë¹Ħ ìłĦ
ìķ µ
ĠëĤĺ ìĹ´
Ġì¿ł ìĬ¤
Ġë³´íĨµ íķĻêµĲ
ik i
ê³łìĨį ëıĦë¡ľ
ìł¸ ìĦľ
Ġê°ģë³¸ ê°Ģ
Ġë¡ľ ê³ł
Ġìĭľ ìķĦ
Ġæ Ĩ
ĠìĹ° ìķł
íı¬ íĬ¸
Ġê°ķ ìĪĺëŁī
Ġì¢ Įë
ĠëĭĪ ìĬ¤
ys tem
e e
ĠíĽĦ ìŀĲ
ìħ °ë
Ġìĸĳ ìĤ°
Ġëĭ¨ ìĽĲ
ĠíļĮ íĻĶ
Ġíĸī ì§Ħ
Ġì§Ģì§Ģ ìŀĲ
Ġê²Į ìĭľ
Ġë°ĺ ê²©
Ġë³Ħ ê°ľ
Ġå® ĭ
g r
ĠìĦł ìĤ¬
ĠìĨĮ ê´Ģ
ìĤ¬ ê¸°
Ġì±ħ ë´ī
ĠìĹ¼ ìĥī
ëĳ¥ ìĿ´
Ġç ¨
Ġë¶ ĵ
Ġæ ¡
ĠíĮ¨ ìłĦ
Ġëĸ¨ìĸ´ ì¡Į
Ġì¤ĳ ìłĲ
Ġ0 1
ĠìĤ¬ë¡ľ ìŀ¡
íĥĢë Ĥĺ
ĠíĻĺ ìĽĲ
Ġçļ Ħ
¹ Ľ
Ġå ĥ
ĠìĦ± ê·łê´Ģ
ĠíĨłë ¥´
ìĻ ĢëĿ¼
ìĬ ĺ
Ġëŀ ľ
Ġì§Ģ ëª©
Ġ17 3
Ġìķħ ìŀ¥
ĠìĿĳ ëĭµ
ĠIn tern
M A
ĠìĹĲ ë¥´
Ġëª» íķ´
Ġì¶© ì¡±
âĢ »
ê³ł ìķ¼
Ġ14 8
å ĥı
ĠìŀĲ ìľ¨
ëŁŃ ìĭľ
Ġê³¼ë ª©
Ġä¹ Ŀ
Ġå ¡
ĠI t
Ġíķľ ìĸĳ
ë¥ ľ
ĠìĿ´ë ³µ
Ġëĵľ ë¦¼
æľ ĥ
a ch
ì¸ł íĤ¤
Ġé ¦¬
ĠìĹ°êµ¬ ìŀĲ
Ġëª¨ ìľ¼
å® ĺ
Ġì£¼íĮĮ ìĪĺ
Ġê²Į ìŀ¬
Ġ14 3
íĹ¬ ë¦Ħ
Ġë³´ë ¥´
ìħ Ī
ĠëĶĶ ìł¤
Ġê°ģ ê¸°
Ġë²ķ ëł¹
ĠíĶ¼ ìĬ¤
ĠëĳĲëĵľë Ł¬
í ŀĺ
Ġê´ĳ ëħĦ
íĨ °
íĬ¹ íŀĪ
ĠìĿ´ìĤ¬ ìŀ¥
ł Ľ
ìĤ°ë ıĻ
ĠìłĦ ì§Ģ
ĠìķĦ êµ°
Ġíķ´ ìĿ¸
Ġìĺ¤ ëĭ¤
ë² Ħëĵľ
ĠìķĪë ĵľë
Ġì²ľë¬¸ íķĻ
Ġå® Ī
ĠíĮ¨ë Ł¬ë
íĪ ¼
ĠíĶĦë¡ľìĦ¸ ìĬ¤
Ð¾ Ð
ìĥĿ íĻľ
Ġëĸłë Ĥľ
íĿ ĳ
Ġè« ĸ
ë¡ ±
ìķĦë Ŀ¼ë¹ĦìķĦ
Ġì·¨ ìķ½
Ġë° Ń
ĠìŀĲ ê³ł
Ġì¶Ķ ê²©
ë¹Ħ ìĬ¤
Ġ189 5
ud e
¹ Įë
ĠìĹ° ìĿ¸
ot h
å¤ «
E N
Ġê´Ģ íĺĦ
ì» ¬ë
ëĭ¤ ìĿ´
Ġì¡° ìļ©
ĠíĻĺ ìĥģ
Ġì¶ľìŀħ êµ¬
Â ł
ĠëıĦ ë¦¬
Ġç¦ ®
v en
ì ·
Ġì¤ĳ ëıħ
Ġìķ½ íķľ
ĠìĨĮë Ĥĺ
Ġèı ¯
æ ī
ë¬ ¸ë
Ġê°ľ ìĹħ
Ġìĺģ ë¬¸
Ġå° Ļ
Ġìĸ´ëĳĲ ìļ´
Ġê³µ ëŀµ
Ġêµ¬ ìłľ
Ġìļ° ìłķ
ĠëłĪ ìłĦëĵľ
Ġì·¨ ìŀ¬
ëĮĢ ìłĦ
ar e
íĶĮë Ł¬
ĠìĬ¤íĶ¼ë ĵľ
Ġè §
Ġë ¯¼êµŃ
ĠìĿ¼ ê´Ģ
ĠìķĦ ì¹´
Ġè Ĥ
ì¼ Ģëĭ¤
íĮĮ ë¦¬
199 7
Ġì£¼ë ¨¸ëĭĪ
Ġéĩ į
Ġë§¤ ìĤ¬
Ġì» ¸
Ġë²Ħ íĬ¼
Ġ an
Ġì¹ľ ì²Ļ
Ġ Ï
Ġæ İ
is m
Ħ Į
Ġë°ĺ ê²½
Ġ9 1
ĠìĦľìĦľ íŀĪ
Ġë¶Ģ ìĭľ
ë¶Ģ ìĤ°
Ġëª¸ ê¸¸ìĿ´
ĠìĿ¸ íĺķ
ëł Įì§Ģ
ĠìĨĮ ì´Ŀ
ĠìĭĿ ëĭ¹
Ġìłľë Ħ¤
ëª¨ íķ¨
Ġìĥģ ë¶Ģ
Ġë©Ķ ê°Ģ
Ġì¹ľ ìĦł
ë¦ ¼ë
ĠêµĲ ìŀ¥
ĠíĮĮ íĬ¸
ĠëĤ ľëĭ¤
¥´ë ħ¸
Ġíĳ ¼
ĠìĥģëĮĢ ë°©
ë°Ľ ì¹¨
ë¨¸ ë¦¬
â ĸ
ì¶ ¤
ĠìĬ¹ ë¬´ìĽĲ
ĠìĿ´ ìĬĪ
ìł ¸ë
ĠìĿ¸ ê³¼
íķĺ ë¥´íĬ¸
¥ µ
Ġíı¬ ìĪĺ
Ġìĥ Įë
Ġì²Ń ìĤ¬
ĠíŀĪëį° ìļĶìĭľ
Ġê±°ë ĳĶ
ĠíĹ¤ ëĵľ
Ġëĭ´ë °°
Ġë§Ī ì¹ľ
ĠíĶĮë £¨
Ġíķľ ê°ķ
ĠT r
Ġê·¼ ìłĳ
Ġs p
Ġë³Ħ ìŀĲë¦¬
Ġå® ®
Ġìĭ¤ ì¢ħ
Ġê±° ìĬ¬ëŁ¬
ĠM P
į°ë ¥´
oc i
c he
ìĥģ ìĬ¤
Ġ191 6
ĠëĮĢ ì£¼êµĲ
à ¸
Ġëĵ¤ ìĹ¬
ĠìķĦ ìļ¸ëŁ¬
ĠìĨĮë ĭĪ
Ġê°Ģë¥´ ì¹¨
Ġêµī ìŀ¥
Ġê²© ëł¬
Ġê·¸ë ŀĳ
ti s
Ġíį¼ìĭľ íĶ½
ĠìŀĲë§Ī ìŀĲ
ĠìĪľ ì¡°
íĤ¤ëĤĺ ìĻĢ
ĠìłĦ ìĿ´
Ġì£¼ ê¶Į
ë ĩ
Ġë³´ ì¶©
ĠìľĦ ìŀ¥
ĠC O
ĠìĿ´ ìĸ´ë
ĠíļĮ ê³Ħ
Ġê±´ ìĿĺ
Ġìºł íİĺìĿ¸
Ġì¦Ĳ ê¸°
f e
Ġå· ¦
Ġìĵ°ë Ł¬
Ġì§ľ ë¦¬
ê² ģ
Ġíĺ¸ ì¹Ń
I I
íĸī ìľĦ
Ġë¬´ë ł¤
å® ī
Ġë¶ģìĦľ ë¶Ģ
ĠíĶĦë ŀľ
Ġê³ł ë°ľ
ĠìĹ¬ ì§Ħ
Ġìĭł ì¹¸ìĦ¼
ĠìķĪëĵľë¡ľ ìĿ´ëĵľ
Ġê³µ ìĿ¸
ĠìĬ¤ ì¿¨
Ġê·¸ë §
Ġë¬¼ ìŀĲ
ĠCom p
ĠìĿ´ íĨł
Ġíı¬ ìŀ¥
ìļ´ë ĭ¤
Ġê°Ģ ëĿ¼
Ġë¶Ģ ëıĦ
ĠìŀĦ ìĥģ
Ġè Ķ
Ġëª¨ë ħ¸
Ġìµľ ìłģ
ĠìĥĿëªħ ì²´
Ġê¸° ëĭ¤ë¦¬
Ġìĸ´ ë¦´
Ġå ģ
Ġê²Į ìĿ´íĬ¸
ĠëıĻ ëĵ±
ĠìĦł ìĽĲ
ĠìĹ° íıīê·ł
ĠìĤ¬ìļ© ìŀĲ
Ġì§ģ ì±ħ
ìĭľë ¡ľ
ĠëĭĪ ìķĦ
Ġì§Ħë ĤĺëĿ¼
Ġë°Ķ íĭ°
Ġ11 9
ê·¸ë Ŀ¼ëĵľ
ìķħ ëĭ¨
ĠíĮ¨ ìĬ¤
ĠìĦĿ ì¡°
ĠìĹ¬ ìĿĺ
ĠìłĦ íķ¨
Ġ12 7
Ġíķľë į°
ì¡°ë ¶Ģ
ĠíĶĦë¡ľíĨł ì½ľ
Ġìŀ łë
Ġìłķ ë°Ģ
Ġë§¥ ìĬ¤
åº ľ
Ġì§Ħ ë¦¬
ĠìĻ¸ ê³½
Ġë£¨ íĦ°
Ġíıī íĸī
Ġë¹ĦíĭĢ ì¦Ī
Ġìĥģ ìŀ¥
Ġç ħ
íĮ© íĬ¸
ĠìĤ¬ ë¦¬
Ġ12 8
Ġìŀł ìŀ¬
ĠëĪĪë ¬¼
ìĦľ ë¦¬
ìŀĲ ìĬ¤
ìĪĺ ìĹĺëĿ¼
ĠìĿ¼ ì¡±
íĥľ ìļ°
Ġh Pa
Ġê¾ Ģ
Ġæ Į
ĠíĨłë ĭĪ
ĠìºĲ ìĬ¤íĮħ
Ġë°© ì¹¨
ĠíĹĪë ¸Į
Ġìĸĳ ìĥģ
Ġìĥģ ìŀĲ
199 6
Ġì»¨ íĬ¸ë¡¤
ĠìłĦë ¡Ģ
Ġë§¤ ëł¥
ĠD S
Ġì°¨ë Ĥ¨
Ġê³ł ìĽĲ
ĠC E
ĠO n
ĠìĤ¬ ë¬¼
Ġìĸ´ë ĵľë
ĠëķĮë ķĮë¡ľ
Ġê´ĳ íķ´êµ°
ê³łë ł¤
Ġì§ĢëĤĺ ì¹ĺ
éĻ ¢
Ġìľł íķ´
ĠA nd
Ġê±´ì¶ķ ê°Ģ
ëģ Ħë
ĠìĿ¼ë łī
ĠëĤ¨ ê¸´
Ġê¸ī ì§Ħ
ì°½ ê¸°
ìĦłë ĮĢ
Ġê°ľì°° êµ¬
Ķë ĶĶ
ĠG o
ĠíĨł ìļĶìĿ¼
Ġìłľìŀĳ ìŀĲ
ĠíĮ¨ íķĺ
Ġåł Ĥ
ìĭ¬ë ¶Ģ
Ġë§Ī ìĿ´ëĦĪ
Ġíĥľ ìĥĿ
Ġë°ķ íĥĪ
Ġë¦¬ë©Ķ ìĿ´íģ¬
ëĭ ·
ìķĦë ĪĦìĬ¤
Ġë²Ħ ë¦°
ìĿ´ë ĭĪìķĦ
Ġíĺĳ ëıĻ
Ġåĳ ¨
en c
Ġíķ© ë²ķ
Ġê¶ģ ìłķ
ì¹ł ë¦¬ìķĦ
Ġíķ ľëıĻ
§Ī ìĿ´
Ġëĵľë Ł¼
Ġë¦¬ ìķĦ
ĠíķŃê³µ ëª¨íķ¨
ì°¨ë ¡Ģ
Ġë¬¼ëŁ¬ë Ĥ¬
ìĸ´ ìł¸
ĠI T
ê¸Ģ ë¦¬
¶Ļ ìĿ´
ìļ Ķë
å ½
Ġë¶Ģ ì°©
ĠëıĻ ìĿ¸
Ġì¶Ķ ì¦Ŀ
Ġìħ Ī
Ġíı´ ë¦¬ìĬ¤
ĠéĽ ²
íĥ Ĳ
Ġìĭľ ë¦½
ĠìķĦ ìĦ¸
ĠëıĻ ìľĦ
Ġìľł ì¶ľ
ĠíĻĶ ìĤ´
ĠìłĦë ĮĢ
ow n
Ġì±Ħë ¬´
Ġå ķ
Ġëªħ ìĿĺ
ìĹ° íķ©
ĠìĦľë ¸Į
ĠìĿ´ ë¥¸
ëĭ Įëĭ¤
Ġë³´ë ĵľ
łĪìĿ´ íĦ°
ĠìĦĿ íĥĳ
íĨłë ĭĪìķĦ
Ġê¸´ ìŀ¥
ë¬ ¼ë
Ġì¤Ħ ìĹ¬ìĦľ
ĠìĿ´ ë¦¬
ê¸° ìĹħ
ëĶ ĺ
Ġê±´ëĦĪ ê°Ģ
ê ¾
Ŀ¼ìĿ´ë ²Ħ
Ġë¬¸ìŀ¬ ìĿ¸
c tion
íĶĦë łĪ
Ġèĭ ±
Ġì§Ģ ìŀ¥
Ġëĭ¬ ë¦°
Ġë²Īë ĩĮ
ĠëĮĢ êµ°
ĠìĻ¸êµŃ ìĸ´
Ġç¾ ħ
Ġå¥ ³
w ard
ìĸ´ ì§Ħ
íĻĶ ìłĲ
ĠæĻ ¯
ĠCP U
Ġìłľ ê³±
Ġë°ľ íĺĦ
Ġé º
Ġì£½ ìĺĢ
Ġë³Ħ ì¹Ń
ĠìĿ¸ ê²©
ĠìĪĺ ìĭł
ëĤ Ļ
Ġì²ľ ìĤ¬
Ġæĺ ¥
ĠìĦŃ ì·¨
ĠìŀĲ ë°ľ
Ġë°ľ ìĽĲ
ĠêµĲ ëĭ¨
ĠëģĬ ìŀĦ
Ġë ·Ķ
Ġìķ Ķë
Ġì¡´ ì¤ĳ
ì¡° ì§Ģ
íı¬ êµ¬
Ġë§¤ ì¶ľ
ĠT im
ì¿ łë¥´
Ġìĸ¸ë¡ł ìĿ¸
Ġç¾ İ
ĠìĦ¸ ê·ł
ëĤĺ ìĿ´
Ġê°¤ ëŁŃìĭľ
ë³ ´ëĵľ
Ġì´ī êµ¬
ìŀĲ ìĻĢ
Ġì§Ħ êµ°
Ġå® £
¸ Ķë¡ľ
ìĸ´ ì§Ģ
Ġè ĺ
ĠíĮ½ ì°½
Ġìļ© ìĤ°
Ġì·¨ ì§Ģ
ĠèĲ ¬
æ Ķ
Ġè² ŀ
o x
ë¶Ģ ìĿ¸
Ġìĭľì²Ń ìŀĲ
Ġì£¼ ì¶ķ
ĠìĦ± ìłĦ
Ġë§Ī ìĺ¤
Ġì» ¬
Ġì¤ĳêµŃ ìĿ¸
ĠìĨĲ ê°ĢëĿ½
ĠìĿ´ìĬ¬ëŀĮ êµĲ
Ġê¸°ìĥģ ì²Ń
Ġëĭ¤ ì¼Ģ
ĠìĽĲ íķĺ
ĠìĨį ìĦ±
ĠìĪŃ ë°°
ìĿ´ë ¡ľ
Ġíĺĳ ì¡°
ĠìĪł íĥĦ
ĠìĬ¤ íĬľ
ĠíĽĦ ìĿ¼
Ġìĥ ¹
ì¦Ī ì¹´
Ġê°Ĳ ì§Ģ
ĠìĤ¬ ëĭ¤
íĬ¸ë ¥´
íĬ¸ ë¦Ń
ä ¾
Ġì£¼ ì§ĢìĤ¬
ĠìĬ¤íİĺìĿ¸ ìĸ´
ĠìĻľ ìĦ±
ç ¶
Ġë¶Ģ ë¥¸
Ġê´ĳ ë¶Ģ
Ġ13 6
ĠåĽ ½
ĠS te
ìĤ¬ ì¹´
ĠìĪĺ êµ°
Ġìłķ ì°°
Ġìķ¨ë Ł°
ĠìĿ´ìĸ´ë °Ľ
ë²ł ìĿ´
ìĦ¸ë ¥´
ĠìĿ´ë ¸Į
Ġë¬¸ ìĸĳ
Ġë¬´ ì£Ħ
ĠìĬ¤íĥĢ íģ¬ëŀĺíĶĦíĬ¸
ĠìĿ´ ìĪľ
ë¦¬ íģ¬
ĠíĶ¼ ê³ł
ĠíķĻ ëªħ
ê¶ ¤
Ġåī ¯
Ġëĭ ¿
Ġìķ¼ ê°Ħ
ĠìłĦëĳĲ íĻĺ
ĠìķĪ ìŀ¥
ìĦĿ ê¸°
Ġíĸ¥ íķľ
Ġì°¸ê°Ģ ìŀĲ
Ġì²Ń ìŀ¥
Ġê¸Ī ìĦ±
Ġë§Ī ìļ´
Ġè °·
ì¼ ľ
Ġì¹ĺ ìĦ¸
Ġê³¨ íĶĦ
Ġì²¨ ê°Ģ
Ġìľł êµĲ
Ġìĺ¤ë ĶĶìĺ¤
ĠìµľìĨĮ íķľ
Ġë º
Ġíķĺ íĬ¸
ĠëĳĲ ìĤ°
Ġë²Ħë ł¤
ĠéĿ ¢
ĠìĿ´ ê¸Ģ
Ġìĥģ ìĦ¸
Ġëĭ¨ ê¸°
ĠìķĦìĿ´ íħľ
ĠìŀĲìľłë ĭ¹
Ġíĥ Ħë
ĠìłĲ íĶĦ
Ġê°Ģìł¸ ìĻĶ
ìļ¸ë ĮĢ
Ġç« ĭ
ĠëıĻëĤ¨ ìķĦìĭľìķĦ
I M
ĠëĤĺ ë¦¬
Ġë¬´ë ĦĪ
ëĦ¤ ìĬ¤
Ġëªħ ëª©
ë²ł ìĿ´íĦ°
Ġíħį ìĬ¤íĬ¸
Ġíļ¨ë ł¥
c o
Ġé ³
ti t
Ġæ´ ¾
ł Ĳ
ĠìĽ °
ĠëĤ¨ íķľ
Ġäº ¬
Ġåı ²
Ġëª¨ëĵ Ī
Ī Ħë
Ġê³µ ìŀĲ
Ġê¸° ìĬµ
ê²Į ìĿ´ë¨¸
ĠìļĶ íģ¬
Ġëĵł ì§Ģ
è «
ìķĦ íĤ¤
Ġëĭ¨ ìłĲ
ĠìĿĮ ìĽĲ
Ġë²Ħ ë¦°ëĭ¤
Ġë¬´ë Ŀ¼
Ġëĭ¤ ìļ´ë
íĶĦë ¡ľìĬ¤
ĠìľĮ ìĬ¨
Ġë¶Ģ ìŀ¬
ĠìĨ Ķë
ìħ Īë
Ġì´Ī ìĹ°
Ġì¤ Ħë
Ġê³ł ì²´
ou t
ĠìľłëĭĪ íı¼
Ġë°ľ íķ´
Ġë¦¬ ìĺ¤
ì°½ êµ°
Ġê°Ŀ ê´Ģ
ìĻ¸ë ²ĦìĬ¤
ĠìĨĮ ê¸Ī
ĠìĽĲ ì£¼
ĠL P
Ġn ow
Ġê°ĳ ìŀĳ
Ġì¶Ķë ª¨
Ġíı¬ëıĦ ì£¼
Ġê¸° ê¸Ī
ìĿ¸ë ªħ
íģ´ë Ŀ¼
ĠìĪĺ íıī
ĠC or
ĠíĻį ìĪĺ
ĠëĤĻ ìĦł
Ġìĭľë ĵľ
¼ë¦ ¬ë
Ġæĸ ¹
Ġêµ µ
Ġë¯¸ ìĸĢë§Ī
m er
Ġìĥģëĭ¹ ìĪĺ
ak e
ĠëĵľëĿ¼ ìĿ´ë¸Į
Ġíĥľ ìĪĺ
ê·¸ë ¡ľ
Ġì° ¬ë
ìĸ ¸ë
¨¸ ë¦¬
ĠìĽĲë ĤĺëĿ¼
íĮĮë¥´ íĥĢ
ĠìĦ ¹
A L
Ġê³Ħ ìłĪ
Ġê±°ëĬĲ ë¦¬
er v
Ġì°½ ê±´
å¾ ·
Ġíģ´ ë¦°
Ġê³ł ì¡°
ĠìĻĢ ìĿ¸
Ġìĸ´ ìļĶ
êµ¬ ìĬ¤
ëĤĺ ì¹´
ĠíĴĢ ëł¤
Ġê¹Ģìĺģ ìĤ¼
ĠìķĦë ¯¸ëħ¸
Ġë¯¼ ìĤ¬
Ġê°Ģë¥´ ì³¤
ì² ¸
Ġê³ł ë¬´
ĠìĨĮ ìĭ¤
ĠíĥĢ ë§Ī
ĠìĤ °ëĭ¤
ê» ´
en e
Ġìłľ íĬ¸
ì¶Ķ ìĦ¸
Ġëĭ¤ ëħĢ
Ġì°½ ìĭľ
Ġì§Ħë ıĦ
Ñ Ĥ
ĠëĶ°ë ľ»
Ġì´Ŀ ê´Ħ
ĠíĦ ±
Ġë¸Ķ ëłĪ
ë°Ķë ĭ¤
ĠìłĦ íķľëĭ¤
ë¡ľ ìĬ¤
ĠíħĮ ìĿ¼ëŁ¬
Ġìĭľ ìĻ¸ë²ĦìĬ¤
ĠìĪĺ ëł¹
Ġì¤ĳ ìŀ¬
Ġç Ĳ
ĠN o
ĠìĦ¼ ìĦľ
Ġíį¼ ìł¸
ĠíķĦë Ŀ¼ëį¸íĶ¼ìķĦ
Ġë§Ī ì°°
ìĿ´ë ²Ī
ĠëĤł ì§ľ
Ġíŀ ĮëĳĲ
ĠíĬ¸ëŁ¼ íĶĦ
ë Į
Ġìŀħ ì²´
ĠíĥĲ ì§Ģ
íĬ¸ë¦¬ ìĺ¬
G C
Ġë¶Ģ ê³¼
Ġë¶Ħ ê´ĳ
ĠíĮĮ ìĿ´ë
Ġæ³ °
ĠíĥĪ íĻĺ
Ġæ® ¿
ĠìĬ¤ ë¦´ë
Ġë³´ ìŀī
Ġì» ´ë
Ġëĳ¥ ê·¼
ìĪĺ ìķĦ
ĠëıĻ ëıħ
Ŀ¼ë ĬĦ
Ġìĸ¸ ìłľëĤĺ
I P
Ġíķĺ ìĸĢ
Ġê± ±
íıī êµ°
Ġ á
łë Ŀ¼
Ġìµľ ìłĢ
ëª¨ íĨł
Ġéł Ĩ
Ġë©Ī ì¶Ķ
ì¶ĶìĦ¸ ì¸ł
è ³
ĠìĪĺ ìĤ°
ĠìĤ ¿
Ġ13 8
ëĳ Ķ
ĠìĦŃ ìłķ
ĠëıĻ ëĭ¹
Ġ10 4
Ġë¶ģ êµ¬
ĠìĹ°ë ıĦ
Ġëĭ¤ìļ´ë ¡ľëĵľ
Ġíı¬ ê´Ħ
Ġë³ĳ ì¡°
Ġåħ Ń
Ġë¡ľ ë¹Ī
ĠB ar
ĠìĹĺë¦¬ ë²łìĿ´íĦ°
ĠìĦľ ìĤ¬
íģ¬ ë¦¬íĬ¸
Ġ10 6
Ġì¤Ģ ê²°ìĬ¹
Ġë¬¸íķĻ ìĥģ
Ã ¼
Ġê³ł ë²ł
Ġë°ĺ ë°ķ
æ µ·
ĭ «
ĠìĿ´ íĭĢ
O P
ĠíĶĦë¡ľ ê²ĮìĿ´ë¨¸
Ġìłģ ìŀĲ
® ®
ĠA b
ìłľ ë¦¬
Ġìĺ¤ ëłĮì§Ģ
Ġê²© íĪ¬
Ġìį¨ ìĦľ
Ġë¯¸ ì³¤
Ġë£¨ íĬ¸
Ġì£¼ ì°¨
Ġë¶Īë ªħ
ìĬ¤íĬ¸ë ¡ľ
Ġíķĺ ë¶Ģ
Ġê²½ ë¶Ģ
Ġì¦Ŀ íĽĦ
Ġë¸Įë Ŀ¼ìĿ´ìĸ¸
Ġë¿ Ķ
ĠëĤĺ ê³łìķ¼
Ġë¯¸ ìĬ¤íĦ°
ĠìĽĲ ë°ĺ
Ġì¶ľ íĨł
ì¤ĳ ìķĻ
Ġìĺģ ë¦¬
ĠìĽĲ ê³ł
ĠìĹĲ ìĿ´ìĬ¤
ĠìĿ¸ íħĶ
ĠìĤ¼ ì§Ħ
Ġíĸ¥ íĽĦ
Ġì§ĢëĥĪ ìľ¼ë©°
Ġì¤ĳ ìĪľ
ĠëĦĺìĸ´ ê°Ģ
Ġì²ľë¬¸ íķĻìŀĲ
Ġë¡ľë§¨ ìĬ¤
ĠìĬ¤ë¦´ë Ł¬
Ġìĭľ ê³µ
ĠìĹ¬ ê²¼
Ġê³µ ì±Ħ
Ġê·¸ë ł¸
Ġç ĳ
ĠâĢ ¤
Ġì§ĢëĤĺ ê°Ģ
l ic
ĠëıĻ ëł¥
ĠS P
Ġì¢ħ ê²°
Ġ13 7
Ġê·Ģ ì¤ĳ
Ġë¨¸ ìĭł
Ġåľ ĸ
H z
ĠìĭĿ ë³Ħ
Ġ3 60
ĠìĦ± ëª¨
³´ë ĶĶìķĦ
Ġ10 8
Ġìłľ ìĪĺ
íı¬ ìĬ¤
ë§Ī ìĤ¬
Ġê°ķ ê³¼
ìĭ¤ ë¡Ŀ
ìħ ĭ
ĠìĽĲìŀĲ ë¡ľ
Ġì» ¨ë
ĠìŀĲê¸° ìŀ¥
Ġë©Ķë ĶĶ
Ġì¶ľ ìĤ°
Ġíİ¸ ë¦¬
Ġê¼ ¬
£ ¸
Ġê¸° ìĪĺ
ĠìĬ¹ ìłĲ
ĠíĬ¸ ìľĦ
ĠíħĶ ëłĪ
å ¼
ëĭĪ ì¦ĺ
ĠìĻ ľë
ĠìĬ Ĳ
Ġê°ľ ê´Ģ
Ġì¶© ìĭ¤
s k
æ ¥Ń
ĠìĹĲ ë¦Ń
Ġëªħ ë°±
Ġëĳĺ ëłĪ
Ġê³ł ê°Ģ
Ġìļ° ìĹ°íŀĪ
ĠìĿ´ë¯¼ ìŀĲ
Ġë¥´ëĦ¤ ìĥģìĬ¤
Ġìĭ¬ ìĿĺ
Ġë¸Ķë £¨ìĬ¤
Ġê±± ìłķ
ĠçĽ ´
è ģ
Ġìľł ìĨĮëħĦ
íĶĮë ¡ľ
Ġë²łë¥´ íģ¬
ĠìĤ¬ ìĿ´ë
ĠìĦł ì¢ħ
Ġìŀ¥ ëĤľ
ĠíħĮ ìĬ¤
Ġíģ¬ë¦¬ìĬ¤ íĭ°
ĠëĤ± ë§Ĳ
Ġê´Ģ íĨµ
íĤ¤ ì§Ģ
íĬ¸ë ¹ĦìķĦ
ĠD C
Ġì¦Ŀ ì§Ħ
199 5
ĠåĲ ³
Ġìĺ¤ íĤ¤ëĤĺìĻĢ
ë¬´ ê¸°
Ġíģ´ë łĪë
Ġëª°ë ł¤
ìĭľ ìĺ¨
Ġì¹´ìŀĲ íĿĲ
Ġë¶Ī íİ¸
ĠìŀĲëŀ Ĳ
Ġê³ł ìĤ¬
ĠëĮĢ ìĹŃ
Ġì±ħìŀĦ ìŀĲ
Ġíģ¬ë¦¬ìĬ¤ ë§ĪìĬ¤
å¸ Ŀ
Ġê½ ¤
Ġë°Ķê¿ Ķ
Ġì´Īìĥģ íĻĶ
Ġë°± ìĭł
Ġì²ľë ıĦ
t a
ĠëĮĢ ìĻ¸
ĠìĹŃ ëªħ
ĠíķľëıĻ ìķĪ
y l
ìķĦ ìĿ¼ëŀľëĵľ
Ġì´Ŀ ìĤ¬
Ġì¹´ë Ĥĺ
18 8
Ġì¤ĳ ëŁī
Ġê²¸ íķĺ
ł ¬
Ġê°Ģ ë²
ë³´ ìĿ´
Ġìĺ¤ë ¹ł
¬ µ
ĠìĦľ íķ´
Ġë°° ìĭł
ìķĦë ĭĪ
ĠìĿĺ ìĥģ
Ġìĸ´ ìĹħ
Ġê³µ ì§ģ
íĦ° ìĬ¤
Ġìŀ¥ ìĦ±
ĠìĤ° íĥĢ
Ġê»ĺ ìĦľ
Ġë§Į ìĦ¸
Ġëĭ¹ ìĿ¼
ê³µ ìĭł
Ġëª¨ë °©
ç¥ ĸ
Ġì¹¨ë ª°
Ġå¤ «
Ġì¦ĿíĽĦ êµ°
ĠëĮĢ ìłľ
ìłĦ ê¸°
ê¸ ĭ
Ġç ĲĨ
Ġë²ķ ì¡°
ro w
ĠìĿ¸ ìŀ¬
ìĪĺ ë¦¬
ìĤ ¼ë
ĠìĪĺìļ© ìĨĮ
ĠII I
ĠíĥĢ ì¹´
Ġë¹Į íĹ¬ë¦Ħ
ĠëĮĢ ì²ĺ
Ġìĸ ĺê¸°
Ġë³´ìĬ¤ ëĭĪìķĦ
Ġë°ĶëĿ¼ë ³´
ìĹ¼ë ³ĳ
ľ ¨
ìĿ¸ ì²ľ
ĠìĨ¡ ëĤĺëĿ¼
ĠëĳĺëŁ¬ ìĭ¼
Ġì§Ģ ë¥ĺ
Ġìŀ¬ë ¯¸
ìĿ¸ëªħ ìĤ¬ìłĦ
íĶĦë ĭĿ
ĠíĥĪë ĭ¹
ĠíĽĦë ĮĢ
ĠQ u
i i
Ġëĵ± ìŀ¬
Ġíľ´ ìĭĿ
ĠìĦł êµ¬
ĠìĨĮ íĻĺ
Ġç ¬
ìĬ¬ë ŀĢëĵľ
ĠìĻ¸êµĲ ê´Ģ
åı ²
Ġì¡° ë¦¬
ì¦ Ĳ
Ġì´Ŀ ëĮĢ
Ġì½Ķ ë¬´ëĦ¤
ĠìĦĿ ê°Ģ
Ġìļ´ëıĻ ìŀ¥
ĠìĿ¼ìĸ´ë Ĥł
ĠìĭŃìŀĲ ê°Ģ
Ġê¸° ìķĦ
ĠëĤ¨ ìĿ¸
- -
Ġë§Ī ìĤ°
Ġìŀ¥ íķĻ
Ġì¡°ë ĭ¬
ĠíıĲ ìľĦ
Ġë²łëĦ¤ ìĪĺìĹĺëĿ¼
ĠìķĦ ì¢ħ
Ġëĭ¨ ì¸µ
ĠíĮĮ ìŀ¥
Ġìĸĳ ëıĦ
Ġê³µ ë¯¼
Ġíıī ìķ¼
ĠìĻ¸ë ¬´
Ġë³´ ìĻĦ
ìĭ¤ ë²ł
âĢ ĺ
Ġì¹ľìĿ¼ ìĿ¸ëªħìĤ¬ìłĦ
æŃ £
Ġë°Ķ ê·¸ë
Ġíĳľë ªħ
Ġéĸ ĭ
åĲ Ľ
ĠìĿ¼ì°į ìĿ´
Ġë ±
Ġë²Ī ìĺģ
Ġë°Ķ ì¹ĺ
¨ ¼ëĵľ
Ġê° ĵ
Ġìĭľë Ŀ¼
æľ ¬
ĠëĤľë ¯¼
ĠìĪĺ ìĦ±
Ġë¶ģ ë°©
ĠìĨĮë ĭī
ĠìĭľëĤĺ ë¦¬ìĺ¤
ĠìĿ´ ìŀ¬
Ġê³ł ë°±
ª¨ ìĸ´
ħ¸ ìĿ´
T S
Ġê³ł ë¯¼
ìĿĺ ìŀĲ
Ġìľł ìĸ¸
Ġëĵ¤ìĸ´ ìĻĶ
Ġê³Ħë ª½
ĠêµĲ ìĽĲ
ĠìĬ¤ íĭ°
olog y
Ġê»į ì§Ī
ì£¼ìĿĺ ìŀĲ
ĠëĤ¨ëıĻ ë¶Ģ
Ġnow iki
Ĥ Ļ
Ġ10 9
ĠA S
Ġì§ĳ ê³Ħ
t s
į Ķë
Ġê°ķ ê²½
Ġì°¨ ê¸°
Ġìĵ° ìĿ¸
Ġìľ ¨ë¦¬
íķĺ ë£¨
ĠëĤ´ ìĻ¸
am es
Ġì¤ĳ ìĭ¬ë¶Ģ
ĠíĻ Ģë
ĠíĬ ¼
Ħ¤ ëĶĶ
ĠëĪĦ êµ°
Ġë©ľë ¡ľ
ĠìĤ¬ìļ°ëĶĶ ìķĦëĿ¼ë¹ĦìķĦ
ĠìłĦ ìķķ
Ġé ¦
Ġë³ĳ ìĹŃ
Ġìķŀ ë©´
Ġë¬¼ë¦¬ íķĻìŀĲ
Ġ"( "
Ġìī¬ ìļ´
Ġë¦¬ë²Ħ íĴĢ
ê¸° ì§Ģ
Ġìĭł íķĻìŀĲ
Ġíķ´ë ³ĳëĮĢ
ë ģ¼
ìĬ¹ ì§Ģ
ĠëĶĶ ìķĦ
ë°Ķ ìĿ´
å¸ «
ĠìĿ´ ë¥¼
íĻ ī
Ġë³µ ìŀ¥
ĠìķĦ ë¦¬ìĬ¤
ĠìĨĮ íĨµ
Ġê°ľë ¯¸
Ġíķĺ ë²Ħëĵľ
ĠìłĦ ìĦ±ê¸°
Ġìĥģ ìĦľ
ê² ¸
Ġê´Ģ ëŀĮ
Ġë°ķ ìĺģ
ĠëĤĺê°Ģ ìĤ¬íĤ¤
Ġê·¸ë §Į
Ġë£ ¡
íħĮë Ĥĺ
Ġì»¬ë Ł¬
å¹ ´
Ġê¸° ìŀ¥
ĠP S
Ġ he
Ġê³µ ëª¨
ĠíĴį ê²½
ì¹ĺ ìĺ¤
íĶ Ķ
ìĦł ìĬ¤
ì¦ ī
Ġë¬´ ê±°ìļ´
Ġì¹ĺ ìĹ´
Ġc ol
Ġì¦Ī ìĿĮ
ĠìĬ¤ íĮĮë¥´íĥĢ
ëį ´
Ġë¸Ķë Ŀ¼ëĶĶë
Ġìĭľë ĵľëĭĪ
Ġì¶Ķ ìĥģ
ĠT ra
ĠìĹħ ê³Ħ
Ġçİ ī
íĳ¸ ìĬ¤
ĠìĪĺ ëıĻ
Ġíį¼ ìĦ¼íĬ¸
ìķĮë łī
ĠìľĦ ìŀĦ
ĠíħĮë ĭĪìĬ¤
Ġíķ´ ìĹŃ
ì° °ë
Ġë° Ł
ĠëıĦ ìĻĶ
Ġç ģ
ĠP a
ĠN BA
ĠìĨĮìľł ìŀĲ
Ġë©° ì¹ł
ĠìĹ° íĮ¨
Ħ¤ ìĬ¤ì½Ķ
íķĺ ë©´
Ġëħ¸ë ŀĢìĥī
ĠëĶĶìĬ¤ íĶĮëłĪìĿ´
ĠëĲĺ ê²Į
Ġë¹Ħ ìķĦ
Ġìĭł íķĻêµĲ
la ss
ĠìĹĲìĬ¤íĮĮë ĥĲ
íļĮ ìŀ¥
Ġë¬¸íĻĶ ë°©ìĨ¡
Ġì¢Į ìłĪ
Ġë§Īë¦¬ ìĺ¤
¤ ĺ
ĠìĻĢ ì¹´
ì² «
ĠìľĦ íĥģ
Ġë¬´ ìłľ
Ġêµ ´ë
199 4
Ġìłķ ë¬´
Ġë°° êµ¬
ĠìĿ´ê¸Ģ ìĬ¤
Ġì¤ĳì¶Ķ ìĽĲ
ê³ł ì¿ł
Ġë§¤ ì¹´
ĠW e
Ġìŀ ¦
ĠíķŃ ìĨĮ
ĠìĦľ ìļ¸ëĮĢ
ĠíħĮ ìĺ¤
E E
Ġë¹ł ì¡Į
ĠíķľìĦ± ë¶Ģ
ĠìľĦ ìķĪ
Ġìŀħ ì§Ģ
ê³łë ŀĺ
Î ±
ì ĳ¤
ĠìĿĺ ë¢°
ĠìĿ¸ ìĹ°
ĠêµŃ ìĤ¬
ĠíĮĮ ìĹħ
Ġì´Ī ê³¼
Ġëģ Įëł¤
ìĸ¸ ìĬ¤
ì¶ķ êµ¬
ĠëıĦ íĺ¸ì¿ł
Ġë¹Ħë ¬¸
Ġë²Ĺ ìĸ´ë
ĠìĿ¼ íĻĶ
ĠìķĦ ê°Ģ
ĠìĥĿ ìĿ¼
Ġíļ Ł
ĠëłĪìĿ´ ìłĢ
Ġíı¬ ê²©
ĠìĹĶ ì§ĢëĭĪ
199 2
ĠìĪĺ ëł´
ĠåĪ Ŀ
Ġê¹¨ë ĭ¬
ĠìĿ¸ ìĤ°
Ġíķ´ ìĨĮ
Ġë§Īë ¹Ħ
Ġ189 4
Ġë§¤ìĤ¬ ì¶ĶìĦ¸ì¸ł
Ġê³ł ëŀĺ
ĠìķĮë łĪ
Ġì°½ ê³ł
ì¹´ë ¯¸
Ġéĩ İ
ĠìķĮëłīìĤ°ë ĵľë
O L
ìĭ¤ë²ł ìĿ´ëĭĪìķĦ
at a
Ġíķ´ ìĪĺ
ëĵ ¬
ĠìķĦ íĭĢ
Ġë³ĳ íĸī
ĠìłĢë ªħ
ĠéĽ Ĩ
Ġìľł ìĹ°
Ġëī ĺ
å£ «
ĠëĤ´ ë¦°
Ġå¼ ĺ
ĠêµĲ ìĻ¸
ĠìķĮ ì½Ķ
Ġíĥ ¤
Ġìĺģ ìŀ¥
ìľĦ ìĽĲ
Ġíıī ë²Ķ
Ġì²Ń ìĽĲ
ĠO p
Ġë¶Ļ ìĺĢ
Ġåº ·
Ġì§Ģ íĺľ
Ġì§Ħ ì§ľ
Ġíķ© ì°½
ĠE l
ĠìķĦ ìļ°ë
ĠëĶ ©
ê²Į ìŀĦ
íĹ Įë¶Ģ
ĠåĪ ¤
ĠìķĦë§Īë ıĦ
Ġíľ´ ìłĦ
Ħ ¬
Ġê³µ ìĿĺíļĮ
Ġ11 5
Ġì½ĺ íģ¬ë¦¬íĬ¸
Ġëĭ Ń
Ġìĺ¤ íĥĢ
Ġìĺ¤ íĶĦ
Ġíıī ìĿ¼
Ġìľ¡ ì§Ģ
ĠìĹ¬ ì§Ģ
Ġì´ĿìĦł ê±°
Ġ $
Ġì¼Ģ ìĿ´ìĬ¤
Ġìĺ¨ ì²ľ
ĠåŃ «
Ġ189 0
åĮ ĸ
ĠëıĦ ì£¼
Ġë°ĺ ê°Ĳ
ĠëıĮ ë¦¬
Ġìĸ´ ì
Ġê´Ģ ëħĲ
19 60
ĠæĿ ĳ
ĠëĿ¼ìĿ´ ìĦłìĬ¤
ëĦ ĵ
ĠêµĲ ìĸĳ
ĠM o
ĠAl l
é ĩ
į ´ë
Ġìĭł ìĨį
ĠìķĶ ìĦĿ
Ġìĭł íĥģ
ĠP la
ĠH ar
ĠíĶ¼ë Ĥľ
194 5
ĠìºĦë ³´ëĶĶìķĦ
Ġìĭ¤ ëł¤
Ġê°Ħ íĺ¸
Ġê·¹ íŀĪ
Ġíĥ± íģ¬
ĠíķĺìĿ¸ ë¦¬íŀĪ
ĠìĬ¤ íķĢ
ìĬ Ń
Ġìĭ¤ ìłĦ
ĠëĤ¨ ìĸĳ
íĬ¸ë £¨
Ġé¤ ¨
Ġìľł ìĪĺ
Ġìĭł ì¤ĳ
Ġíķĺ ëĿ½
ĠìĹŃ ìĦ¤
Ġìĭ¤ ìŀ¥
Ġê±°ë ¡ł
Ġì³ Ĳë
ĠìĹ° ìĦ¸ëĮĢ
Ġë¦ °ë
Ġê¸īê²© íŀĪ
í īģ
an s
Ġê¸°ìĹħ ìĿ¸
ĠëĤ´ëł¤ ê°Ģ
ĠìľĮë¦¬ìĹĦ ìĬ¤
Ġíĺ¸ ê¸°
ol l
Ġê²© íĩ´
Ġì§Ģ ëĬ¥
ĠëĤĺ ìģľ
íģ °
ĠëĦ ¬
Ġëª¨ë ¥¸ëĭ¤
íĥĢë ¡ľ
Ġìĺ¥ ìĬ¤
ıĻ ìķĪ
ĠíĺĦ ê¸Ī
ëŁ¬ ìĭľìķĦ
íģ¬ë Ŀ¼
ĠP e
ĠëıĮ ìķĦë
ĠìĤ¬ ì§Ģ
ĠìĤ¬ íĹĮë¶Ģ
Ġæ ¹
Ġìŀ¥ ëł¤
Ġë°Ķ ë¦¬
Ġíĺĳ ì£¼ê³¡
Ġìĥģ ëĭ´
å ¥
Ġ #
ĠìĹ¬ ìĪĺ
ìĪĺ ìĨĮ
Ġëģ ĵ
Ġìļ°ë Ŀ¼ëĬĦ
H E
Ġê¸° ìĿ¸
ĠíĽĦë °©
ĠëĤĺíĥĢë Ĥ¼
ìĿ´ ìĥģ
ŀĺ ìĬ¤ì¹´
qu e
ĠìĦ¸ ìĿ´ë
ĠìĦ± ì£¼
ë² ¡
ì¹´ íĥĢ
Ġë¬´ ìĥģ
ë¦´ë Ŀ¼
A D
¯¸ íĦ°
£¨ ìħĺ
ĠìłĦëĿ¼ë ıĦ
£¨ë ¯¸ë
ĠíĺĪ íĨµ
Ġì§Ģ íıĲ
ĠìłĦë ħĲ
ĠìŀĲì¹ĺ ì²´
åľ °
Ġåħ µ
Ġ< /
ë© Ķë
ĠíĮĶëłĪ ìĬ¤íĥĢìĿ¸
ĠìĤ¬ ìĬ¬
ĠåĬ Ł
Ġê°¤ ëŁ¬
ĠIntern ational
Ġë³ Ħëĭ¤
ĠìĪĺ ìĬµ
Ġæ ½
Ġ11 3
ĠêµŃë¬´ ì´Ŀë¦¬
Ġìłķ ëł¬
Ġì¹ĺ ëªħ
Ġìļ°ë Ŀ¼
Ġìŀħ ëĭ¹
æ ¨
łĪ ìķĦ
Ġìłľë ıħ
ĠíĻĺ ìĺģ
Ġìµľ ìķħ
Ġìŀħ ìĥģ
ĠìĹ¬ë ĭ¹
ç ´
ì°¨ ê¸°
Ġíŀĺ ìŀħ
ĠæĨ ²
é «
Ġë© ĭ
Ġì£¼ íĸī
ĠíļŁ ìĪĺ
ĠíĨµ ê·¼
Ġì¤ĳìĦ± ìŀĲ
Ġë§Ī ìķ½
ĠB la
Ġë§Īë ł¥
Ġçľ ŀ
Ġíķ´ ìłģ
ĠíĽĦ íķľ
ĠìĿĳ ìļ°ìĺĮ
ĠëĮĢ ìľĦ
ĠìĨ Ł
Ġë¯¸ ìĥģ
ĠëĨ Ģë
Ġíķ´ë ³Ģ
Ġëĭ¤ìĬ¤ ë¦¬
Ġëĩ Įë
Ġìļ°ë£¨ ê³¼ìĿ´
ĠëĦ ¨
ê°Ī ìĥī
Ġë°± ìĥī
ĠìĹ´ë ĮĢ
Ġ ac
Ġë°Ķ ëĭ·
Ġë°©ìĨ¡ ìĤ¬
ŀĢë ĭ¤
Ð º
ëĮĢ ê¸°
Ġì²Ń íķĺ
197 0
ĠìķĦëŀį ìĸ´
Ġì§Ģì¼ ľë
ĠíĽĦ ìĦ¸
Ġé Ĭ
ĠëıĻ ëħĦ
ĠíĮ¨ íĤ¤ì§Ģ
as h
Ġç¦ ı
ĠìĦľë Ĥ¨
Ġì½Ķ íĬ¸
ĠìĥĪê²¨ ìł¸
ĠìĿ´ ìĽĲ
Ġìĭľ ì´Ī
Ġë¯¸ ìħĺ
Ġëªħ ìłľ
ëĤ ´ë
Ġìĭľ ìĦł
ĠíĶĦë Ŀ¼ìĿ´
ĠëĦ¤ ìĿ´ë²Ħ
Ġë³Ħëĭ¤ ë¥¸
ķ ħ
íķ ¨ë
Ġìķ ĵ
Ġë¶Ģ ìłģ
Ġêµ¬ ì¡°ë¬¼
Ġë¦¬ ìĸ´
Ġê±° íĸī
ìĿ´ì§Ģ ë¦¬ìķĦ
ìĭľ íĶ¼
Ġìļ© ë³ĳ
íĬ¹ë³Ħ ìŀĲì¹ĺ
Ġê°Ģ ëıĻ
Ġê³µ ì²ľ
Ġë´ī ìĩĦ
Ġì¹´ìĿ´ ìĤ¬ë¥´
Ġê¹Ģë ıĻ
Ġëĭ¤ ì¤ĳ
Ġìłģ ëĭ¹
Ġå¤§ å¤«
íĬ¹ë³ĦìŀĲì¹ĺ ëıĦ
ĠëıĻ ëŀĺ
Ġíķł ì§Ģ
Ġìĭł íĿ¥
ĠìĥĿ ìłĦ
ìĬ¹ ë¶Ģ
Ġëª» íķł
ĠìĪľ íļĮ
ĠìłĦ íĸĪ
ë¥ ¼ë
Ġìĺģ ìĿĺìłķ
ĠìłĢ íķĺ
Ġê²°íĺ¼ ìĭĿ
ê¶ Įë
Ġ is
Ġëį ¤
Ġìľłë Ħ¤ìĬ¤ì½Ķ
Ġêµ¬ë ıĦ
§ ĲëĿ¼
Ġìļ° ìĦ¸
Ġì°¨ ì¢ħ
ĠìĦľë ¨¸
Ġ190 2
Ġìĭ¤ìĭľ ê°Ħ
Ġëĥī ê°ģ
ĠìĿĮë £Į
Ġì¼Ģë Ħ¤ëĶĶ
°ĶìĿ´ ìŀĶ
Ġì¢ħë¡ľ êµ¬
ëĿ¼ë ıĦ
Ġìµľìĥģ ìľĦ
ĠìĦ ¬ë
íĭ°ìĺ¤ íĶ¼ìķĦ
ĠìĿ´ìĹĲ ìķ¼ìĬ¤
Ġíķľ ìª½
ëį ¸
ìĤ´ ìĿ´
Ġì¤ĳ ìĨĮ
Ġë¯¸ íĨł
Ġì´Ī ì°½ê¸°
Ġì¹´ íĥĢ
ĠëłĪë ħ¼
ĠìĹ¬ê²¨ ì¡Į
ì§Ģ ë¶ķ
Ġê´Ģ íķ´ìĦľ
ë¯¸ ìĤ¬
Ġæ ı
ĠëĦ Ĳ
199 1
Ġì»´í į¼ë
íĢ ĺ
Ġæº Ĳ
Ġì»´íį¼ë ĭĪ
Ġê²¬ ìłľ
íĭĢë ŀľ
å ĳ
Ġë©´ íĹĪ
Ġä¸ ĭ
ìłľë¥´ë °ĶìĿ´ìŀĶ
Ĥ Ń
ĠëıĦ ìŀ¥
Ġêµ¬ ë¦ī
ĠíĤ ¥
Ġìĸ¸ë įĶ
Ġíİ Ģ
ĠìĹ¬ë ŀĺ
Ġì¦Ŀ ëĮĢ
Ġë¸ĮëĿ¼ ìļ°ìłĢ
Ġ189 9
Ġï¼ Į
ĠìĬ¬ë¡ľ ë°ĶíĤ¤ìķĦ
ĠëĿ¼ íĬ¸ë¹ĦìķĦ
íı¬ë ĵľ
Ġëħ¸ë¶Ģ ëĤĺê°Ģ
¢ ¨
Ġë¡ľ íĶĦ
íĤ ¥
Ġë°ľ íĬ¸
Ġ10 7
ĠCh ar
Ġì¡° ìĹ°
Ġë³´ ìĿ¼
ĠA g
Ġéĺ ¿
Ġê°ľ ìĽĲ
Ġ12 3
ĠìķĪ íĭ°
Ġíıī ìĽĲ
Ġì¶Ķ ìĦ¸
Ġë¶ģ ìľĦ
Ġå¸ Ŀ
ĠìĿĺ ìķ½
ĠëıĻ ìłĲ
ĠJ e
Ġë¡ľ ë²łë¥´
ĠìĦľ ìŀ¬
Ġë°Ķ íĢ´
íķ¨ ìĪĺ
ĠëıĦ ë£¨
Ġìĭľ ìĺ¤
Ġ3 50
Ġê²½ ìĹ°
Ĥ´ ìħĶëĦĲ
ë¦¬ ìĹĲ
ĠìĦ¸ë ¡Ģ
Ġê°Ŀ ì²´
Ġì¶ķ ìłģ
ê·¸ë §Ī
ĠìĿ´ìĤ¬ íļĮ
ĠìĪ¨ ê²¨
ĠE C
Ġíģ¬ë¦¬ìĬ¤ íĨł
ì´ ¨
ë¦¼ íĶ½
ĠH er
ëª¨ë ĭĪ
ĠëĤ¨ìĦľ ë¶Ģ
ĠìķĦìĤ¬ íŀĪ
ĠëĶ ľë
ê¶Į ìŀĲ
Ġ190 1
i us
æ Ľ
ĠíĮĮ ìĬ¤
ë°± ê³¼
ëŀĮ ì¥Ĳ
ì¤Ħ ê¸°
Ġì»¬ë Ł¼ë¹ĦìķĦ
åį Ĺ
ê·ľë ª¨
ĠëĮĢ íı¬
Ġìĥģ ê³µ
Ġì¡´ ìĨį
Ġì¶© ëĤ¨
ì© Įë
Ġì¤ĳ ìľĦ
ĠëĦ Īë¹Ħ
ĠíĴĪ ì¢ħ
ë ĩĮ
ĠíĮĮ ìĿ´íĦ°
ĠìĹĲìĬ¤ íĨłëĭĪìķĦ
Ġêµīìŀ¥ íŀĪ
Ġê° ĩ
°ë ¡ľ
íķĺ ìĭľ
ĠìĦľ ê²½
Ġë¦¬ ìļ°ìĬ¤
Ġ12 4
ĠçĶ º
ĠëĭĽ íı°
ĠìĿ´ ìĭĿ
ĵľ ë¦¬ìķĦ
ĠìĦ¸ ìħĺ
ĠíĺĦ ìłĢ
Ġìĭ¤ ë¦¬
Ġn e
Ġê³ł ì¹ĺ
ĠìĦ± ìĪĻ
Ġì°¨ ìŀ¥
ìķ¼ ìĭľ
ìħ ¸
Ġìļ° íİ¸
ĠS ou
ĠìĿ¼ë Ł¬
Ġìķ½ ìŀĲ
Ġíŀ Ĳë
Ġæľ Ī
Ġê³µìĤ°ì£¼ìĿĺ ìŀĲ
ĠìĿ´ ìĿ´
Ġê· Ģë
ê· ¼ë
Ġíĸī ìłģ
Ġìķ¼êµ¬ ìŀ¥
ĠíĻ©íĥľ ìŀĲ
é ¦¬
ĠìĻ ĵ
Ġíķ¨ ìľł
Ġë³µ ìĦł
Ġê´Ģ íķ´
Ġìĩ¼ íĬ¸
ĠìĹĲë ĶĶ
ìĹĲë ĭ¤
Ġëŀĺ íį¼
ĠìĤ¬ìļ°ë £¨ìĬ¤
Ġê°ĳìŀĳ ìĬ¤
Ġê°Ģ ìĵ°
Ġìļ° ìľĦ
Ġì¶ķ íķĺ
ĠìĮį ëĳ¥ìĿ´
ä ¿
æ Ļ
ĠìĦ± ìĤ¬
Ġìĭł ê¸°
Ġè ĳ
ĠG u
Ġê·¼ êµĲ
Ġï¼ ŀ
H O
Ġë¶Ģ ëĭ¹
Ġê³µ ìĪĺ
Ġê²½ ê´Ģ
ĠìķĦ ìĺĪ
ë° ĶëĿ¼
Ġëª¨ ìķĺ
ĠA R
en er
ĪĦ ìĹĺ
Ĺ ĭ
ìł Īë
Ġê³µ ëĭ¨
Ŀ¼ìĿ´ë įĶ
ìĿĢ ìĿ´
ĠíĥĲ êµ¬
ĠìĹ¼ ê¸°
ìĸĳ íķ¨
ìĺ¬ë Ŀ¼
i ve
ĠëıĦ ëĿ¼
Ġë§Ī íķĺ
Ġë²Į ê¸Ī
ĠëĮĢìłĦ ê´ĳìĹŃìĭľ
Ġb e
ĠåĮ ĸ
Ġê·¸ëŀĳ íĶĦë¦¬
Ġê³ł ë¥´
ĠìŀĦ ìļ©
Ġë°± íĻĶìłĲ
is e
Ġìľ¡ ì²´
ĠìĤ¬ìĹħ ìŀĲ
Ġìĭľ ì¹łë¦¬ìķĦ
Ġë³´ ìĿ¸
Ġë§¤ ìŀħ
Ġê°Ĳ ë¦¬
Ġìĩ ¼ë
¸Įë Ł¬ë¦¬
Ġíķłë¦¬ ìļ°ëĵľ
å ĵ
ìĹ £
Ġë³´ ë¦¬
ëĮĢ êµ°
Ġä ¾į
ĠíĶ¼ ìĹĲë¥´
ĠëĬĺìĸ´ë Ĥ¬
ĠìĹĲ ë¥´ë
Ġìļ° ìļ¸
ĠíħĮ ìĿ´ë¸Ķ
Ġë¶Ħë ĭ¹
Ġëª¬ íĬ¸ë¦¬ìĺ¬
Ġê¹¨ë ĭ«
Ġìĺ Į
ë¶Ģ ìĤ¬
ĠìĬ¤ ìº
Ġíĸ¥ êµĲ
ĠíĹ¤ ë¥´ë
ĠìķĦìĿ´ ìĬ¬ëŀĢëĵľ
Ġë§ģ ì»¨
Ġë Ńī
ĠëıĦ ìĬ¤
Ġê·¸ë ¡ľ
Ġëı ĭ
Ġê³ł ìŀ¥
Ġìĥģ ìłĲ
Ġêµ¬ ì¶ľ
Ġ189 8
198 8
Ġê¹Ģ ìļ©
Ġìľłë ıĻ
Ġíĭ ¸
Ġë°Ģ ìĸĳ
ĠìĻĢ ìĿ´
Ġíİľ ìĭ¤ë²łìĿ´ëĭĪìķĦ
Ġì¹ĺëŁ¬ ì§Ħ
ĠìĦ¸ê³Ħ ê´Ģ
ĠíĨł ìĦ±
± Ģë
ìļ¸ ë¦¬
Ġëªħëł¹ ìĸ´
Ġëª°ë ŀĺ
íĳ¸ë ¥´íĬ¸
Ġì½Ķë¯ ¹ìĬ¤
Į íĶĦ
ĠìĽĲ íĸĪ
Ġì¡°ë °ĺ
Ġê³ł ìĪĺ
êµŃ ê°Ģ
ĠìĬ¤ ì½§
Ġë°Ķ ë¥¸
Ġìĸ´ ìĬ¤
Ġìĥģ ë°ĺ
ĠìķĻ ë¦¬
ĠìĤ¬ ìĿ´ë²Ħ
ĠìĦ± ì²´
ĠìĿ¼ ì¡°
Ġë°° íĦ°ë¦¬
ĠêµĲíĻ© ì²Ń
ĠëĤĺëĪ Į
ç Ł³
Ġìĸ´ ìĽĲ
ĠíĨµ ì¦Ŀ
Ġìĭł ìĥĿ
íİĺ ë¥´
ìĿ¼ë ¶Ģ
Ġì°½ìĽĲ ìĭľ
å İ
Ġê³¡ ìĿ¸
ĠìŀĶ ë¥ĺ
Ŀ¼ë ¹Ħ
Ġë°© íĮ¨
Ġìĩ Ħ
Ġê´ĳ ë¬¼
ĠëıĻìķĦ ìĿ¼ë³´
ĠíĹ ¬ë¦¬
Ġíĺ¸ ìľĦ
Ġ11 7
ĠìĿ¸íĦ°ë Ĥ´ìħĶëĦĲ
Ĩ Ī
ĠìĹ ¿
Ġíĸ ĩ
Ġìĸ´ íľĺ
íı ´ë
ĠëĤ´ë ³´ë
Ġç ½
Ġè į
Ġ11 8
ĠìķĶ ìĭľ
Ġìŀĳ ìĦ¼
Ġë²ķ ë¬´
Ġìĸµ ìķķ
Ġêµ¬ íĺ¸
Ġì¹´ë¥ ¼ë
ĠëĪĦêµ° ê°Ģ
Ġê°Ģ êµ°
Ġë§ µ
ĠR NA
¨ ¸ë
ĠìĤ¬ ë°Ķ
Ġìĺģ ëıĻ
Ġ190 3
Ġìļ´ íķĺ
Ġíķ´ë ªħ
ĠìĹ°íķ© íļĮ
ĠìĿ´ ìĺģ
ĠëĮĢ íıŃ
ĠìĤ¬ ì¹´
Ġë¹Ħ ìĭľ
ĠæĢ Ŀ
Ġíĺĳ ë°ķ
re d
ìĦľ êµ¬
Ġê¸° ìĸ´
Ġì£¼ ìĹŃ
ĠìĦ¤ íĥķ
ãĥ ³
ĠëĿ¼ìĿ´ë ¸ĮëŁ¬ë¦¬
Ġê²Įë ¥´ë§Į
ĠëĮĢíķĻ ìĥĿ
ĠìĨĮë §¤
ĠíĴĭ ë³¼
y e
ê³ łëıĦ
ĠåĶ Ĳ
±Ģë ¶ĻìĿ´
ĠìĥĿ ìĭĿ
Ġë¹ł ì§Ħ
ĠìĿ´ íĻĶ
Ġìĥģ ìļ©
Ġè Į
ê³¡ ë¦¬
Ġì¶ĺ ì¶Ķ
ĠìĪĺ ë²ķ
Ġì£¼ ì£¼
Ġç ®
ĠíĻĶ íķ´
ĠìĨį íĸĪ
ĠìĨ¡ ìĭľ
ĠåŃ Ĺ
Ġìķ¤ ëĵľ
Ġíķľ ì§Ģ
ĠìĹ¬ ì£¼
Ġìĥģ ëĭ¨
Ŀ¼ë į°
Ġìĭł ê·ľ
ĠìĺĪë °°
ĠíŀĪë Ŀ¼
Ġæ »
Ġíĺ¸ë ŀĳìĿ´
ìĤ¬ ë¦¬
ĠìķĦ íĻī
Ġêº ¼ë
ĠëĿ¤ ëĭ¤
ĠìĻķ ë³µ
Ġíĺ¸ë ¥´ë
Ġå¾ ¡
æ° ĳ
íı ´ë¡ľ
ìŀĳ ê°Ģ
ĠAm er
ĠíĬ¸ìľĪ ìĬ¤
b le
Â ·
ĠìĿ´ë ħ¸
Ġê·¸ë ĥ¥
Ġ0 2
ìĭľë ħ¸
Ġë¹Įë ł¤
u te
Ħ ¨
Ġê²½ìĥģ ëıĦ
ŀľ íĬ¸
Ġì³ ¤
ĠìĦ± ìļ´
Ġìľł ì£Ħ
íĥĢ ì£¼
ĠëĪĦ ìĿ´
ê·¸ëłĪ ìĿ´ëĵľ
Ġê·¸ë Ĥł
Ġëĭ¨ë ĭ¨
ĠíĨµ íĭĢ
ê·¸ë £¹
Ġë¬¼ë¦¬ ì¹ĺ
Ġëĭ¤ìĿ´ ìķĦë
íı¬ ìĭľ
ĥĲ íķĺë©´
ĠC C
ĠìĹ´ ìłķ
199 3
in k
re am
ìĬ¬ë¡ľ ë°ĶíĤ¤ìķĦ
ĠëıĦë§Īë ±Ģë¶ĻìĿ´
Ġê·¸ë§ ĮëĳĲ
Ġë¶Ģ ì²ľ
ìµľ ê·¼
ĠëĵľëŁ¬ë Ĥ¬
Ġê°Ģ ì£½
Ġì§Ģ ìĦł
Ġëĭ¨ ìĭĿ
ì£ ¼ë¦¬
ĠëĪĦë Ĥĺ
ĠëĬĲ ê»´
ĠìĿ´ ê¸´
ìĭľ íĥĢ
ĠìĿ¼ë °©
Ġìŀħ ìĽĲ
Ġë§¤ ê°ľ
ìłĢ ì§Ģ
ĠìĥĿê²¨ë Ĥ¬
Ġì°¾ìķĦë ³¼
© ìĿ´
ģ Ķ
ì¹ ¸ë
ĠìĿ¼ ì»¬
Ġêµ¬ ìĬ¤
ìĿ´ë £¨
ë¦° ìĬ¤
Ġê°Ģ ë¯¸
ê¼ ½
ê¿ Ī
ĠìķĦë °Ķ
Ġë°° íĭĢ
18 6
ĠìĺĨ ë©´
æĺ İ
Ġé £
Ġë²Ķ ìĿ¸
ĠìĿ´ ìĿ¸
Ġìĭľ íĿ¥
ĠK e
Ġëĭ ·
Ġë¶Ģ ìłľ
Ġìĭľë ª¨
Ġì¹Ń ì°¬
Ġëľ¨ ê±°ìļ´
r ess
y m
ĠìĪľ êµĲ
Ġì»´ íĮĮ
Ġì°¨ìĿ´ ìłĲ
ĠíĢ ´
Ġê·¹ìŀ¥ íĮĲ
ĠìĿ´ ê´ĳ
ĠìĦ± ì·¨
íĮĮ ìĿ´ìĸ´
ëĶ ª
íģ´ë ŀľëĵľ
ĠëĤ´ëł¤ ìĺ¤
ran s
ĠíĬ¸ìľĦ íĦ°
ĠìĿ¼ ê°Ģ
Ġìĭłë ħĲ
ë¹ Į
Ġë£ ¬
¡ ¯
é ļ
Ġíķľ ìĿ¸
ĠëĴ¤ ì§ĳ
Ġì¡°ìĦł ìĿ¼ë³´
Ġê·¼ ìĽĲ
Ġë¶Ģ ì±Ħ
Ġê²½ ë³´
ĠìĦľ ìłķ
ĠìĤ¬íļĮ íķĻ
Ġ189 7
ĠíĻķ ìĭł
Ġë²łë ĵľ
ë¶Ī êµĲ
ĠëĤŃ ë§Į
Ġë°ĺëıĦ ì²´
ĠíĥĢìĿ´ê±° ì¦Ī
Ġë¸Ķë¡ľ ê·¸
Ġì Ł
ĠíĻ© ìĭ¤
Ġëĭ¤ë£ ¬ëĭ¤
Ġì¹´ë¦¬ ë¸Į
Ġê³µ ìĬµ
ê° Ĳë
Ġì£¼ ê°Ģ
Ġ12 9
Ġìļ°ìĬ¹ ìŀĲ
Ġìĺµ ìħĺ
æ Ģ
Ġìĺ¤ íķ´
Ġë°ķ íķ´
ĠíĹĪ ìľĦ
ĠëĪĦ ê°Ģ
Ġë°ĽìķĦëĵ¤ ìĺĢ
ìĶ Ģ
ëŁ° íĬ¸
Ġìŀ¥ ê±°ë¦¬
Ġâ ĳ
Ġëĭ¹ ì£¼
20 21
Ġëĭ´ ê²¨
ä¸ ĭ
Ġ11 4
Ġëĭ¬ íĸĪ
Ġê·ľë ²Ķ
ĠìĬ¤íİĺ ìĿ´ìĬ¤
°Ģ ë¦¬
ĠëĴ· ë©´
ĠëĤĺëĪ ł
Ġì£¼ë¦ Ħ
w ay
Ħ £
Ġë³´ ì¦Ŀ
Ġ13 4
ĠìĹħ ê·¸ëłĪìĿ´ëĵľ
ãĢ İ
ĠìĬ¤íĬ¸ë łĪìĬ¤
Ġëĭ¤ íķŃ
Ġëĭ Ŀ
łĪ ê¸°
Ġë§Įë Ĥ¨
¼ë¦ ¼
ĠN C
ĠìķĦíĭĢ ëłĪ
ĠìĤ° ë¦¼
ëŀĢ íŀĪ
ĠB C
Ġë°ķ ëŀĮ
ĢëĿ¼ ìĬ¤
ĠíĥĢ ë¥´
Ġì¹ľ ìĻķ
Ġë¦¬ë ¹ĦìķĦ
ĠìĿ´ìĸ´ ì§Ħëĭ¤
ul t
Ġë¬¼ëł¤ ë°Ľ
Ġìłķ ìłĲ
ìĥ ĺ
Ġì²ľ ìŀ¥
Ġë²ł ìĸ´ìĬ¤
Ġì² ¼ìĭľ
Ġìłķ íķľ
Ġìŀ¥ ìķĪ
an c
Ġìº ĺ
Ġê²½ì°° ì²Ń
Ġíľ´ ìĬ¤íĦ´
ĠìĨĮ ìĽĲ
Ġìĭł ì¡°
Ġì²ł íļĮ
ĠíıŃ íĸī
ıĦ ë°Ķ
Ġìłľ ìŀ¬
Ġìĸ ¸ëĭĪ
ĠìĥĿìĤ°ë Łī
g er
ìĿĺ ìŀ¥
Ġê´Ģ êµ¬
Ġë£¨ íĶĦ
Ġíļ¨ ì¢ħ
ĠìĻĶ ìľ¼ë©°
ĠìĿĳ ìĽĲ
ä» £
ĠìĻľë ĥĲíķĺë©´
ì¡° ê±´
Ġìŀ¥ ë¯¸
Ġ13 3
Ġå¥ ī
Ġíķłë ¨¸ëĭĪ
ë²łë ĭĪìķĦ
Ġê²° ì½Ķ
ĠC F
Ġëª© ìŀ¬
Ġëĭ´ ê¸´
Ġë¸Įë ŀĺ
ìĿĢ ìĥī
Ġå£ «
Ġì¹ľìĿ¼ íĮĮ
è Ļ
Ġ li
Ġê² Ķ
Ġì¹ĺ ì¦Ī
Ġíĥľìĸĳ ê³Ħ
Ġëĥ Ħ
ĠíĽĦì¿ł ìĭľë§Ī
Ġì¤ĳ ìĿĺìĽĲ
ĠëĿ¼ íĮĮ
Ġê°ľ êµĲ
ĠìķĦë ²ł
íĥĢ ë¦¬ìĺ¤
ĠìĤ´ ìķĦê°Ģ
ë¥´ë °Ķ
ìģ ĺ
Ġì¶Ķ ì¶ľ
Ġê²° íķ¨
ti v
Ġê·¹ ëıĻ
Ġë§ī ëĤ´
Ġìĸĳ ì£¼
Ġë§Īë ĶĶ
ê·¸ë ŀ¨
ļ Ŀ
ĠìĿĦ ì§Ģ
Ġê¸° ìłģ
ĠìĬ¤ íħ
ĠëģĿ ëĤ
ĠìĪĺ ëł¨
Ġì¢ħ ì°©
Ġê°Ģìŀ¥ ìŀĲë¦¬
Ġê°Ģ ì§ľ
ìĬ¤ ë¶Ģë¥´íģ¬
Ġê´ĳ íķĻ
ĠëĦ¤ ìĬ¤
ë° ¥
ĠéĻ ³
ĠìĻľ ê³¡
Ġíİĳ íģ¬
Ġëĭ¤ ë°ľ
ĠíıŃ ëıĻ
Ġë§¥ ì£¼
Ġê³¤ ëŀĢ
Ġë¶Ħê¸° ìłĲ
Ġ12 6
Ġì£¼ìĸ´ ì§Ģ
å¹ ³
ĠíĥĲìĤ¬ ìĦł
ĠíĮ ľ
ĠìĤ¬ ìľ¡
Ĳë Ł¬ë
ĠìĿ¼ë ¦¬ë
Ġìļ° íĺ¸
ĠìĺĪ ì¡°
Ġìĸĳ íĤ¤ìĬ¤
al d
Ġêµ¬ì¶ķ íķ¨
êµĲ ëıĦ
Ġì¿ ¤
Ã ¶
Ġë²ķ ë¬´ë¶Ģ
ĠíħĮ ìĿ´íĶĦ
ê¼ Ī
Ġë¯¸ëĤĺ ë¯¸
Ø §
ĠëĤĺ ë¯¸
Ġì§Ħ ê¸ī
Ġê±° ì³¤
ĠíŀĪ ê°Ģìĭľ
ë ĪĦ
ĠíĨ Ī
ĭĪ ì¹ĺ
ĠåĪ ©
ĠìķĮì½Ķ ìĺ¬
i tion
Ġë¬¸ êµ¬
Ã ³
Ġíķ´ ê³ł
ģ ¼ë¦¬
ĠìĿ´ ìĤ°íĻĶ
¡ľ ìļ´
ĠìĪĺ ìĥī
Ġê±° ìļ¸
Ġw ith
Ġë¹Ħ ë¦¬
ĠìĽĲ ìĪŃìĿ´
ĠíĬ¹ ì§ĳ
ë§Ī ì¹ĺ
Ġì¹´ë ¥´ë
Ġä» £
Ġìłľì£¼ íĬ¹ë³ĦìŀĲì¹ĺëıĦ
ĠìĹ¬ íĮĮ
Ġæ ¤
Ġìĭľë ®¬ë
ĠëįĶ ëĭĪ
ĠíĮĲë ³¸
Ĥĺ ë¥´
Ġë¶Ģ ëĶª
Ġëĵ¤ìĸ´ ê°Ħëĭ¤
ĠìµľëĮĢ íķľ
ìĹŃ ìĤ¬
ĠìĬ¹ ê³Ħ
ĠìĤ°ë ŀĢ
¿ Ķ
ĠëĤĺ ìĬ¤
ê²½ ìĥģ
Ġë¬´ ìĭł
Ġíŀĺ ëĵł
Ġë§ ĲëĿ¼
Ġìłľ ìķķ
íĻĶ ë¬¼
Ġê·¸ë ıĻìķĪ
or n
ĠìĻ¸ ìķ¼ìĪĺ
ĠëĤĺ ìĿ´ì§Ģë¦¬ìķĦ
ê±° ì§Ħ
ĠìļĶ ê±´
ĠëĮĢíĳľ ìŀĳ
Ġæķ ¬
° °ë
Ġê³ł ì³Ĳ
ì²ĺ ìĿĮ
ĠíĦ° ì¹ĺ
ĠìĪĺìļ© ì²´
u k
íķ į
Ġë¡ľ ë¹Ħ
Ġë¹Ħ ìľł
ĠìĹĲ íĭ°ìĺ¤íĶ¼ìķĦ
ĠíĶ Įë¦¬
ĠíĨł íģ¬
Ġë¬ĺ ìĹŃ
Ġìķ¤ ëĵľë
Ġëį°ìĿ´ë ¹ĦìĬ¤
ê°ľë ¯¸
p t
Ġæ ł
Ġë¦ ī
ĠA ss
Ġs c
æĿ ±
Ġì§Ģ íıī
Ġëª¨ ì¹ľ
Ġë§Ĳ ë¦¬
ĠëıħìĿ¼ ìĿ¸
ĠíĹ¤ ëĿ¼
ĠåĪ Ĩ
å¤ ©
ĠíĽĦ ìĤ¬
ì´Ī ê¸°
Ġë£ ½
ĠíĴį ìŀĲ
ĠêµĲê³¼ ìĦľ
ì į
ĠìķĦ ìłľë¥´ë°ĶìĿ´ìŀĶ
Ġê·¸ë ŀ¨
Ġì²ĺ ëħĢ
Ġì¿ ¨
Ġíı¬ë Ł¼
Ġåħ Ī
ĠìļĶë ıĻ
¡¤ëĿ¼ ìĿ´ëĤĺ
Ġìľ ¼
Ġê³ł ìĨĮ
Ġê·¸ ì¹ĺ
ĠìĬ¤ íħĮë
ëħ ¼
Ġíı¬ë ³ĳ
Ġ%) ,
w e
Ġìĺ ¨ëĭ¤
Ġìĭľ ì¦Ī
Ġê³µ ë°±
Ġëķ Ħ
Ġìĭ¤ ì²´
Ġë¬´ ìĬ¹ë¶Ģ
ĭ¤ ì§Ģ
Ġæ Ł
Ġìľł ìłĢ
Ġë°° íĽĦ
Ġë°Ķ ìĭ¤
Ġì¦ī ê°ģ
Ġå¤§ é
ow er
ĠìĿ¸ íĶĮë
in s
Ġëħ¸ë ¥´ë
ĠI BM
íĹ¤ ìĿ´
Ġê´´ë ¬¼
ĠíĮ Ķë
Ġë°Ķ íĿĲ
ìĸ´ë Ĥ´
ìĦ¸ ê¸°
Ġë¡¤ ë§ģ
Ġì´Ŀëıħ ë¶Ģ
ĠIS O
le x
ĠìĿ¼ë¦¬ë ħ¸ìĿ´
ë ĸ
ĠìĬ¤ íĨ¡
Ġìĸĳ ì¸¡
ĠíĪ¬ ìĺ¥
ĠíĤ¤ ìļ°
Ġê·¹ ìĭ¬
T P
Ġä¿ Ŀ
Ġê°ľ ì¢ħ
Ġë§Ī ìĵ°ëĭ¤ìĿ´ëĿ¼
ëĮĢ ë¡ľ
ë¬¸ ê´Ģ
ar k
ĠìĿ¼ë°ĺ ìĿ¸
Ġëĵ¤ìĸ´ ìĺ¨
ĠèĬ ±
ĠíĥĢ ëĭ¹
Ġíİĺ ìĸ´
E L
Ġ `
Ġìĺ¤ ë¹Ħ
ĠëŁ¬ìĭľìķĦ ìĸ´
Ġåı ĥ
Ġê³¼ë °ĺ
Ġæ¢ ģ
ĠìĬ¤íĬľ ìĸ´íĬ¸
ĠìĨ¡ìĭľ ìĹ´
Ġì§Ħ ê³µ
Ġë¨¼ ì§Ģ
Ġì¡°ì¢ħ ìĤ¬
Ġì¾Į ìĨį
Ġë¸ĮëĿ¼ë įĶìĬ¤
Ġë³´ ìĦĿ
ĠíĽ Ķ
Ġë¶Ļ ìĿ¸
Ġï¼ ľ
Ġè¦ ª
è ©
Ġë¶Ģ ìĦ¤
ĠêµĲ ìłķ
Ġìĭł íķľ
Ġê³ĦìĹ´ ìĤ¬
ĠìľĦíĤ¤ ë°±ê³¼
Ġë°Ķìĺ¤ ë¡ľ
G A
ĠãĢı (
Ġç¯ Ģ
Ġë¯¸ íķĺ
ê²Į ìĿ´
Ġë§Ĳ ìĶĢ
en ti
g h
Ġê·¼ë¡ľ ìŀĲ
ĠíĨµ ë³´
ĠíĻĶìŀ¥ ìĭ¤
Ġë¯¼ íļĮ
Ġìĭłë ¯¼
Ġå¾ Ĳ
M P
ĠëĮĢ íĶ¼
Ġìĭľ ê³¨
Ġê²Į ìĬ¤íĬ¸
ìħ°ë ¹Ħ
ĠëĮĢ ìĿĺìĽĲ
ĠëĶ°ë ¥¸ëĭ¤
198 9
Ġë§¤ëĭĪ ìłĢ
Ġê²Į ìĿ´ì§Ģ
li am
Ġìļķ êµ¬
ĠëĿ¼ìĿ´ìĺ¨ ì¦Ī
Ġìļ° ì¸¡
Ġìĭľë ²łë¦¬ìķĦ
ĠìĹ°íķ© êµŃ
Ġëª¬ ìĬ¤íĦ°
Ġë¦ ¿
Ġê±°ë ¶ģ
Ġê³µ ì¡°
Ġìĥģ ìĤ¬
ĠìłĦìŀĲ ê¸°
Ġæĩ ī
Ġëĭ¤ìĿ´ìķĦë ª¬ëĵľ
ĠìĦ± ëıĦ
Ġìŀ¬ íĺĦ
Ġê¶ģ ê·¹
for m
ĠíĿ¬ìĥĿ ìŀĲ
çī ©
ìł¸ë Ĥĺ
Î ¿
ì¹ ¼ë¦¬
ĠìķĦë łĪëĤĺ
Ġë°Ķ ìĬ¤
Ġíıī ìłķ
Ġëĵľë ¡ľ
ĠN ational
íħĮë¥´ë ¶Ģë¥´íģ¬
ŀ ©
ĠëıĦ ì²Ń
ìŀĲ ëıĻ
ëĳ ĳ
ĠíĶĦëŀŃ íģ¬
y c
Ġê¹Ģ ìĪĺ
åĭ ķ
¹ Ĺ
ĠìĦ¸ ìĿ´ë¸Į
Ġìłľë ĮĢ
Ġì¹¨ íĪ¬
u ro
Ġìĭľ ê²Į
Ġêµ¬ íķ´
ĠíĬ¸ë Ŀ¼ìĿ´
Ġìķł íĭĢëŀľ
Ġìķłë ĭĪ
ĠìĤ¬ìĥģ ìŀĲ
åĲ İ
ĠëĤĺ ìĺ¬
Ġêµ¬ ìłĪ
ĠëĤ´ ì£¼
en ter
ê°ĢìĻĢ íĺĦ
Ġå¦ Ĥ
Ġë©ľë¡ľ ëĶĶ
ĠìĹ° ìĬ¹
Ġå¤ ĸ
Ġê°Ħëĭ¨ íŀĪ
il d
íİľ íķĺ
Ġìĥģ íķ´
ĠìĿ¸ë ªħ
ĠìĨ ľ
Ġë°ĺ íķ´
Ġëĳ Ķëĭ¤
Ġìħ ¨
Ġíĭ° ìĬ¤
Ġë§¥ ëĿ½
Ġê°Ģ ì¦Ī
Ġëĳ¥ ì§Ģ
Ġë§¤ ë§¤
19 50
ĠìĤ´ ë¦¬
ĠëĮĢ ê±°
íĿ ĺ
Ġíĥ¤ ëŁ°íĬ¸
ĠìĽ Įëĵľ
ĠìĦ± ëĭ¨
ĠìķĦë ŀ«
ĠìĦľ ìŀĲ
Ġë¯ ¹ìĬ¤
íĻ© íĽĦ
Ã Ń
Ġê°Ģ ì¶ķ
ĠìŀĲ íĥĿ
ĠëıĮ ê²©
é ł
Ġìŀ¬ ìĦł
Ġìĸĳ íĺ¸
ĠìŀĲìĹ° ìĪĺ
Ġë¹Ħë¡ľ ìĨĮ
ĠíĶĮë ŀĳ
Ġèī ¯
ĠìĤ´íİ´ë ³´
Ġìĭł ì£¼
Ġêµ° ìłķ
Ġì¹ĺ ìķĪ
íı¬ë ¡ľ
ĠíĥĲ ìĥī
Ġå» ¶
ì§Ģ ë°©
Ġìłģ ë¶Ħ
£¨ ìķĦ
ĠìķĦì¹´ëį°ë¯¸ ìĥģ
Ġê¸° ëĭ¤
Ġìĸ´ ê¸ĭ
ĠíĽĦ ê¶ģ
ĠP er
Ġ {
Ġê¹ İ
Ġìŀ¬ ìĥģ
Ġë§Įë £Į
Ġë§Īë ¸Ķ
ĠìĿ¼ ìĥĿ
Ġëª¨ ìĿ´
Ġì´Ŀ ì¹Ń
ĠìĦłë ¹Ħ
Ġ188 4
ìłĦ ìŁģ
Ġç Ĥ
ĠS D
íĥĪ ë¦¬ìķĦ
ĠíĿ¬ ê³¡
Ġè ®
ĠC ON
ĠG P
Ġë¶Ħëªħ íŀĪ
ìĭł ìĦ±
ĠT o
Ġë¶Ģë¥´ íģ¬
Ġê³µ ë°©
© ľ
Ĥĺ ìĬ¤
ĠìĦ¸ ìĨį
Ġíıī ìĿĺíļĮ
ê·¸ë Ł¬
íĹ¤ ë¯¸
ĵľ ë¦¬
ëĶ°ëĿ¼ ìĦľ
R O
Ļ ¨
Ġë¯¸ë £¨
Ġëĭµ ë³Ģ
Ġê°Ģë§Ī ì¿łëĿ¼
ĠëıĻ ìĥģ
ĶĶ ìĬ¤
Ġíĥľ íıī
Ġíķµ ë¬´ê¸°
ĠìĻ Ī
íĸ Ħ
Ġç §Ģ
Ġc on
ĠìĬĪ íĬ¸
Ġçľ ģ
¸Įë¦¬ ì§Ģ
£¨ë¯¸ë ĬĦ
Ġíľ ł
Ŀ¼ëį° ìĭľ
Ġìĭľ ìľĦëĮĢ
Ġë°ĶìĿ´ ìĺ¤
ĠìĤ¼ìĦ± ìłĦìŀĲ
ĠíĹ¬ ê¸°
n er
ĠìĦľë ¯¼
Ġë°©ìĨ¡ ìĿ¸
Ġì§ķ ê³Ħ
Ġì¥ ¬
Ġìĺ¤ íĶĦëĭĿ
Ġëĵľë Ŀ¼ìĿ´ë²Ħ
ĠìĿ¸ ì²´
Ġêµ° ì¤ĳ
ĠA K
Ġëĵľë ¬¸
Ġëł Ģ
ĠìĪľ ì²ľ
ĠëĤł ìĶ¨
ĠO ne
Ġëª° ë¦¬
Ġë¸ĶëŀĻ íĻĢ
ì²ľ ë¦¬
ĠíĬ¸ë ŀĺ
om ys
R A
ìŀ Ī
ĠêµŃ ìĨĮ
Ġìĭ¤ ë§Ŀ
an a
ra d
Ġä¿ ®
ê° Ħë
ĠìŀĲ ìĿĮ
ĠS U
ê·¸ ë¦¬ìĬ¤
Ġì´Īë ¡Ŀ
ì¹´ë ¶Ģ
Ġäº ķ
r ist
ĠëĮĢ ë¶Ģ
Ġêµ¬ ê²½
Ġêµ¬ íķł
ìĨį ê¸°
ĠS o
ìķĦë Ŀ¼
ĠíĺĪ ê´Ģ
íį¼ë Ł°ìĬ¤
Ġê²Ģì°° ì²Ń
ëĭ ¬ë
ĠìĹ° ìĩĦ
Ġë´ī ê±´
Ġë°Ģ ì§ĳ
ĠìĿ´ìĪľ ìĭł
ĠìĤ¬ ìľĦ
ì¹ĺ ê¸°
ĠíĨµ ìĭłë
Ġë¬¸ ìĺĪ
Ġìļ° ìľł
ĠìĿ´ ìľ¤
ĠìĿĢ ëį°
Ġê¸° ê°ģ
ĠëıĻ êµŃ
ëĮĢ ë¶Ģë¶Ħ
ĠìĦľ ì§Ħ
ĠíĶĦë łĪìĬ¤
íĥĢ ìŀĦ
ĠìĺĪ íķĺ
Ġìĸ´ë ¯¸
Ġåı ³
ĠìĬ¹ë¶Ģ ì°¨ê¸°
Ġë°Ŀ ê¸°
Ġë°ķëŀĮ íļĮ
Ä ģ
Ġs h
Ġê¸° ì§Ī
Ġíıī íĥĿ
Ġìļ© ìĿ´
íĥĢë ¯¼
Ġì¼ Īë
Ġë°Ķê ¾
Ġè¦ ĭ
ĠíĥĿ ìĭľ
Ġë°ĺì§Ģ ë¦Ħ
Ġì´ĿìĤ¬ ëł¹
ìĤ¬ ìĹħ
ĠìļĶ ìłķ
ĠíĻķìĭ¤ íŀĪ
ĠìĨĮëĤĺ íĥĢ
ì§Ħ êµ°
Ġìŀ¡ ìķĦë
ĠSch ool
ĠëĦ¤ìĿ´ìħĺ ìĬ¤
Ġê³Ħ ìłķ
Ġì»¨ ìħī
ĠëĿ¼ìĿ´ë ĦĪ
ì¹¼ë Ŀ¼
ĠëĤ´ ìłķ
ĠD av
Ġì¶ķ ì¶ľ
Ġìľłë¡ľ íĮĮ
ìĤ¬ ê³ł
ĠìĨĮ ê·ľëª¨
Ġì§Ħ ìĤ¬
ĠíĶĮë Ł¬ìĬ¤
ê³łë ĮĢ
Ġìĸ´ëł¤ ìĽĮ
n a
ĠíĶ¼ ìķĦ
Ġê²½ì°° ê´Ģ
ìĤ¬ íļĮ
ìķĦ ìĽĥ
ĠíĿĶ íķĺ
ĠèĹ ¤
Ġì»¤ë®¤ëĭĪ ì¼ĢìĿ´ìħĺ
Ġìłķ ìłĦ
ĠìĬ¤ íĭ¸
ĠìĽĲ ì¢ħ
ĠíĶĦë¡ľ ëįķ
ĠìłĢ ì£¼
Ġå¯ ¶
an k
ĠëĶĶ ëłī
ĭ Ń
Ġì´Ī ìĽĶ
it t
Ġì¹´ìŀĲíĿĲ ìĬ¤íĥĦ
Ġë§ ĳ
ìĤ¬ ëŀĳ
Ġìĸ ¹
Ŀ¼ë £¨ìĬ¤
Ġíĺķ ì¡°
Ġìĭľë ĭ¬
Ġì¡°ë ¶Ģ
ĠìĻ¸ë ª¨
ĠCol le
Ġë§ ı
ĠR es
Ġìķħ ëĭ¨
°Ķë ħ¼
ë°©ìĨ¡ ê³µìĤ¬
Ð »
ĠëĶ ķ
Ġë£¨ ìĿ´ì§Ģ
ĠíıŃ ëĦĵ
ç µ
íĶ¼ ìĸ´
Ġíľ ´ë
ĠçĶ ³
ĶĶë Ĥĺ
Ġë§Ĳë ¯¸
ĠìĽĶ ìļĶìĿ¼
Ġç Ĵ
íĨµ ìĿ¼
Ġë³¸ êµŃ
Ġê°Ĳ íĸī
Ġëĭ¬ íķľëĭ¤
ĠìķĦ íģ¬
Ġë§Į ìĿ¼
ĠìĥĿ ëŀµ
ĠìķĮ ìķĦ
ĠW ar
ç¶ ĵ
Ġê³µë¯¼ ìĻķ
ĠëıĻ ë¬¸
Ġê¹ Ķ
ĠìĦľë ĮĢ
©Ķ ë¥´
²Ħ ë¦°
ĠëĩĮë ¬¼
ĠìĹ° ìĿ´
íĶĮë łī
Ġíķĺ ìĽĮëĵľ
ìķ ŀ
Ġëĭ¹ íķľëĭ¤
Ġì½Ķ íĶĦ
Ġé Ĺ
ĠíķĻ ê³Ħ
Ġì»¤ ì§Ģ
ĠëģĮ ìĸ´ëĵ¤
ĠíĹĪë¦¬ ì¼ĢìĿ¸
ĠìŀĲ ìĦł
Ġê³µ ìĿµ
Ġìĺ¤ ë°Ķ
ĠS m
ĠíĮĶ ë¦¬
Ġíķĺ ìļ°
Ġë¶Ģ íĶ¼
Ġìłķ ìĦ¸
ĠíļĮ ê´Ģ
Ġì²´ ìĿ¸
ìĬ¬ë Ŀ¼
Ġë¹Ħ ìŀĲ
Ġê¸°ìĪł ìŀĲ
Ġê³µ ìłģ
ĠíķĻ ê¸°
å »
Ġê³ł ëł¹
Ġìĭľ ê°Ģì§Ģ
Ġå ĺ
Ġê¸Ī ìļĶìĿ¼
a il
£ ½
Ġíķľ ì¡±
ĠS up
Ġëħ¸ë °Ķ
ëłĪ ìĬ¬ë§ģ
ĠìľłëĭĪë ²Ħ
Ġì§Ģ ìĿ¸
ĠìłĦ ìĨį
ĠëĤĺ ì£¼
Ġëį°ë ª¨
Ġíĥľ ê·¸
Ġë¶Ħë ¹Ħ
Ġê¸° ì¦Ŀ
Ġëĭ ¦
Ġë°ľ ê¸ī
Ġíĺ¸ ì¶ľ
ĠìĿĳ ìĭľ
íĨ¨ë łĪë
Ġìĭł ìķ½
Ġìľłë ħĦ
ĠíĻ© ì¡±
ĠìĬ¬ë¡ľ ë²łëĭĪìķĦ
Ġì§Ģ ì¹¨
Ġìĭľ ê°Ģ
ĠìĬĪ íĮħ
Ġëģ¼ ì³¤
ëī´ ìļķ
Ġê¹Ģìłķ ìĿ¼
ì§Ģ ë¦¬
ĠíĽĦ ìķĪ
ĠíĤ¤ ë³´ëĵľ
Ġë´ī ìķĪ
ĠìĿ´ëģ Ī
ĠìĹĶë Ķ©
E M
Ġìĭľ ìłķ
ĠìŀĲ ë¯¼
Ġè §Ģ
Ġìº ī
Ġë¹¨ê°Ħ ìĥī
Ġíķľ íħĮ
ìĸ Ħ
ĠíķŃ ìŁģ
ë¹ ĦëĮĢ
ĠëĮĢ íĮ¨
Ġìłģ íĺĢ
Ġæ ¾
ĠìĿ´ìĸ´ ì§Ħ
ê¸° ëħĲ
Ġê°ģ ëıĦ
Ġíį¼ ì§Ģ
Ġì¤Ħë ¬´ëĬ¬
Ġë¡ľ ìĹ´
ĠëıĻ ìłķ
Ġìĭ¬ íķ´
Ġíĺ¼ë ıĻ
Ġìĭľë °Ķ
Ġê¹Ģ ìĥģ
åĲ Ī
ĠíĶĮëĿ¼ìĬ¤ íĭ±
Ġæ Ĭ
ĠìĹ° ê½ĥ
Ġëķ ĥ
Ġë¬´ ìĸ´
Ġë§ĪìĿ´ íģ¬ë¡ľ
ĠíĤ¤ íĶĦë¡ľìĬ¤
ìĤ¼ ìĦ±
Ġê³łê³ł íķĻ
I L
ĠìŀĲ ìķĦ
Ġìłķ ì£¼
Ġê²° ìĦł
Ġìŀ¬ íĺ¼
Ġì°¸ ìĿĺ
ĠI D
ĠìĦłë °°
et er
Ġìĺ¹ ë¦½
¾ °
ĠëĿ¼ ìĺ¤ìĬ¤
ĠìĬ¹ ìŀĲ
Ġíķ´ë °Ģ
ĠæĻ º
è¨ ĺ
ĠëĮĢë³Ģ ìĿ¸
ìĪĺ ìĽĲ
ĠìĦ± ë¦¬íķĻ
Ġê°ľ ìĨĮ
Ġìµľ ê°ķ
Ġì¹´ ìĭľ
ĠëĶ° ìĺ¨
ì§ĵ ìłĲ
Ġå£ ½
Ġìĺ ³
Ġê²½ ìĭł
ë§Ī ë¦¬
Ġê°Ģê¹Į ìĽĮ
v el
ĠìĹĲ ìĿ´ë
ìłķ ìĽĲ
íĶĦë łĪìĬ¤
u al
Ĵ Ģ
ĠC H
Ġë²½ ëıĮ
Ġë¶Ģ ìĹ¬ë
Ġë¬´ ì§Ģ
ì½Ķë Ķ©
ĠìłĬ ìĿĢìĿ´
Ġæ¥ Ĭ
Ġë¶ĢìĹ¬ë °Ľ
ĠìĹĲ ë°Ģ
Ġì¤ĳ ë³µ
íĦ° íĤ¤
ĠíĻĶ ëł¥
ĠíķĻ ìĹħ
ĠíĶ¼ ìĭł
Ġì²Ń ì£¼ìĭľ
ĠêµŃëĤ´ ìĻ¸
Ġê°ľë§ī ìłĦ
êµŃ ë¯¼
ĠíĹ ¨
ĠE m
Ġë°Ķê¹¥ ìª½
Ġìłķ ë§Ĳ
Ġëĵ± ê¸°
Ġíģ´ëĿ¼ ìļ°ëĵľ
íĥĢ ëĭĪ
ĠìĿ´ ê²¼
ë¦ Ħë
ì² ¼
ĠëıĻ ëĮĢ
in i
Ŀ¼ìĿ´ ìĸ´
Ġì»´ë °±
ìĭľ ê°Ħ
Ŀ¼ë °Ķ
Ġç ¹
Ġì»¤ ëĦĲ
ĠìĽ¹ íĪ°
ìĽħ ìłĦ
ĠìĿ´ë Ĥ¨
Ġè µ
ĠìķĮë £¨ë¯¸ëĬĦ
at er
Ġåı į
íĭ± ìĬ¤
æ ¼
Ġìłģ ëıĦ
Ġì¹ĺ ìķĦ
Ġì¶© ìłĦ
ĠìĪĻ ì²Ń
ç Ī
ĠìĤ¬ ë³¸
ë¥ ´ëĵľ
Ġå¤ ļ
¸Ķ ë¦¬
Ġë¥ Ļ
Ġì° Į
íı¬ íĦ°
Ġê´ĳ ëĳ¥
Ġë¬¼ íĴĪ
ĠíŀĪ ìĤ¬
ĠíĮ¨ë ĦĲ
Ġë§ ĺ
ĠìĤ¬ ê°Ħ
Ġì² łë
Ġè İ
Ġì¢ħ ëŀĺ
Ġì°½ ì¶ľ
íģ´ë łĪ
Ġíĺľ íĥĿ
íĥĢ ë¦¬
ĠM c
Ġë²ł ìĬ¤
Ġë¨¸ë ¬´ë¥´
ë§Į ìķ½
Ġë°© íĻĶ
ĠìĺĪ ìĭľ
Ġì¶ķ ë¬¼
Ġê¸°ìĤ¬ ëĭ¨
ħ¸ë ¶Ģ
Ġìĺ¤ íĨłë
Ġë§¤ ìĪĺ
Ġìĺ¨ íĥĢë¦¬ìĺ¤
¨¼ ìĬ¤
ĠëĴ· ë°Ľì¹¨
æĪ Ĳ
ĠìĹ°ìĺĪ ìĿ¸
ĠíĶĦë¡ľëįķ ìħĺ
ì½ °ë
Ġì§ĢìĭĿ ìĿ¸
ĠìĽĲ ìłĦ
ĠA s
Ġê°Ī ìĪĺë¡Ŀ
ìħ°ë¹Ħ íĤ¤
ĠìĿĺ ìŀĲ
ëŀ ľë
ĠìķĮ ìłľë¦¬
ì¦Īë ²ł
êµŃ ëıĦ
ĠíĮĮ ìĤ°
ĠíĶĦëŀĳ ìĪĺìķĦ
Ġì±Ħ ìĽĮ
ĠíĻĪ êµ¬ìŀ¥
ĠíĿ¬ ê·Ģ
Ġê±¸ë ł¸
Ġë° ¸ë
Ġëĭ ¥
ìĿ¸ ê³µ
Ġì§ģ ë©´
Ġëī´ ìłĢì§Ģ
l or
Ġìĭľ ë¦¬
Ġì¤ĳ íĺķ
Ġìŀħ ê°ģ
Ġìļ°ë ¥´
ir l
Ġê°Ģ ìĭł
ĠìľĦ ìª½
ëıĦ ìĭľ
od e
ĠëĬĲ ê¼Ī
ĠìĬ¤ íĭ°ë¸Į
ê¸ ¸ë
Ġì·¨ ìĹħ
ĠíĶĮëŀ« íı¼
ĠíĶĦëŀĳíģ¬ íĳ¸ë¥´íĬ¸
Ġìĺ¤ë¦¬ ì½ĺ
ĠíĨłì°© ì¢ħ
Ġìŀ¥ë¡Ģ ìĭĿ
Ġê°Ģë² ¼ìļ´
Ġëķĥ ì¥Ĳ
ĠæĽ ¹
Ġëįĺ ìł¸
ìľł íĸī
Ġë¦¬ íĭĢ
ĠìĻķ ìĦ¸
ĠìĨĮë ª¨
Ġì²´ë ¥ĺ
Ġì¤ĳ ëł¹
ìĵ°ë §Ī
Ġê¹ĥ ë°ľ
ĠëģĬìŀĦ ìĹĨìĿ´
ĠëĮĢ ìĨĲ
Ġìłķ ë³Ģ
Ġ188 5
Ġ2 20
ĠìĪĺ ë¶Ħ
Ġì²ľ ìŀ¬
ĠãĢĭ( "
ĠìĮĵ ìķĺ
Ġì²´ì½Ķ ìĬ¬ë¡ľë°ĶíĤ¤ìķĦ
ìļ° íĬ¸
ĠíķĦ ìĤ¬
Ġíģ´ë łĪ
ĠëĳĲë £¨
Ġë¶Ģ íļĮìŀ¥
ìłľ ìĿ´
ĠìĦľë ¥ĺ
ab le
Ġìķ¼ë§Ī íĨł
ĠìºĶ ìŀĲìĬ¤
Ġì§Ģ ì¶ľ
ĠëĮĢ ì¹ĺ
ë¦½ íĬ¸
Ġçİ Ħ
Ġê·¸ë ĭ¤ì§Ģ
ĠìĺĪ ê³ł
Ġì£¼ë ¶Ģ
ĠìĹ°ë ´ī
ĠìĦłë ıĦ
Ġ187 1
Ġë°Ķíĭ° ì¹¸
ĠìĿĺìķ½ íĴĪ
Ĳë ĭ¤
ì¹´ ê°Ģ
Ġíķ¨ ìłķ
ĠíĶĦë¡ľ ëłĪìĬ¬ë§ģ
ĠëĤĺ ê°Ī
Ġé į
Ġíı¬ íļį
ç¾ ħ
ĠåĤ ³
æĶ ¿
I G
ĠìĿ´ë ĵľ
ë¡ľ ë§Ī
Ġê³łìĸĳ ìĭľ
ë Ł½
ìķ ī
ĠìĨĮ ìĥĿ
ĠíĻĶ ìŀĲ
Ġìŀħ ìĦ±
å¤ §
§ĪìĿ´ ìĺ¤ìĬ¤
ĠíĨµì¹ĺ ìŀĲ
ìħĪë ¶Ģë¥´íģ¬
Ġëĭ¨ ìłĪ
Ġê¼Ń ì§ĵìłĲ
ìºĲë ¡¤ëĿ¼ìĿ´ëĤĺ
Ġìľ¤ì¹ĺ íĺ¸
ìĥģ ëĮĢ
Ġì¢ħ ìĨį
ĠíĨł ìĸĳ
ĠãĢĭ( ,
Ġíĩ´ ìŀĦ
ĠëĬĺ ë¦¬
Ġíļ¡ ëĭ¨
M C
Ġì²Ń ì¶ĺ
ë¥´ë ĭ¨
Ġèĩ º
ĠìĿ´ ì§Ħ
ë° Ń
Ġìľłë °©
Ġë°ľë ³ĳ
18 7
ĠìĹ°ê¸° ìŀĲ
Ġè¨ ±
Ġå°ĩ è»į
ĠWil liam
ĠëĤĺ ë¹Ħ
ĠìĨĮ ìħľ
ê·¸ë Ŀ¼
ĠK IA
ĠE U
¸ ë¦¬
Ġé ľ
ĠìłľêµŃ ì£¼ìĿĺ
Ġï¼ ļ
Ġëıħ ìĦľ
ĠëłĪ ìĿ¼
ou p
ëĦ ¬
Ġê´Ģ ìłľ
ĠíĹ ¥
Ġìŀ¡ íĺĢ
ĠìĤ¬ ë¥´
Ġë°ľ ê¸°
Ġì¶ķ ì¡°
Ġë³ĳ ê¸°
Ġê¸° ì°¨
ê³ł ìĬ¤
Ġ10 2
Ġ11 6
Ġê¹Ģ ê¸°
ĠìĬ ¨
Ĥĺ ë¦¬
íĥĢ ë§Ī
Ġëĭ¨ ì¶ķ
Ġê²Ģ ìłķ
ĠíıŃ íı¬
ĠìĹ°ìĤ° ìŀĲ
Ĵ ¤
Ġìłķ ë¦½
ĠìķĦë ¶Ģ
Ġåľ ¨
ìī ½
Ġê°± ìĭł
Ġìĥģ ë²ķ
ĠS E
Ġè© ©
ĠC N
ê´ĳ ì£¼
Ġì¤Ħ ë¦¬
ĠíĮ ¡
Ġë¹ Ķ
ĠìĦ¤ íĻĶ
Ġíĳľë °©
ĠëĵĿíĳľ ìľ¨
L S
ĠíĮ¨ íĸĪ
ĠìĽĲë £Į
ĠìķĦë ¹Ħë
ĠíĮĮ ìĿ´ìĸ´
Ġê¹Ģ ê·ľ
ĠíĮĮë ŀĢìĥī
Ġìĥī ì±Ħ
Ġ188 0
ĠìĻ¼ ìĨĲ
ì½°ë ıĦë¥´
ìļ° ì£¼
ĠìķĦë ĭ´
ĠìĨĲ ê¼½
Ġë§¤ì¹´ íĬ¸ëĭĪ
ê³ °
ìŁģ ìĿ´
Ġí Ĳģ
ìĿ¼ ìľ¼
Ġë°° ìĪĺ
ĠìļĶ íķĺ
Ġìĸ´ë ¥¸
ĠíĨłë ª¨
ĠëıĻ ì¡°
ĠìĬ¤ íı°
Ġì§ģ ê²°
ĠìłĪë ıĦ
ê±°ë ²ķ
Ġíķĺ ì°¨
Ġë¶Ģ ìĿĺìŀ¥
Ġì¡° ë¦½
Ġç ²
ĠíĮ¨ íķľ
ĠíĿĶ íķľ
Ġëĭ¤ ë¦Ħ
Ġì±Ħ ìļ°
ìĹ¬ë ŀĺ
Ġë°©ìĤ¬ ìĦł
ģ Ĺ
Ġê¸° ìĪĻ
ĠìĦľ ìĭł
Ġì²´ ì¤ĳ
ĠìŀĦ ìĽĲ
ĠìĺģêµŃ ìĿ¸
Ġ") ,
Ġë¶ĪëŁ¬ ìĿ¼ìľ¼
ìŀĦë ¸Įë¦¬ì§Ģ
åİ Ł
Ġë¶Ģ ë¥¼
Ġìĸ ½
ĠìĦ¸ ìĿ¸
Ġë°Ķë Ĥĺ
Ġë¦¬ë Ŀ¼
Ġë¡ ¬ë
Ġëĥī ìłĦ
Ġìłķíķ´ ì§Ħ
ĠíĮĮìĿ´ë ĦĲ
ª »
è Ī
Ġìĭł ìĦł
Ġì²´ ì¡°
Ġë¹Ħíĸī ìŀ¥
ìĤ° ìĦ±
Ġíķ¨ ìĦł
ĠS a
Ġìĭľë ²Ķ
Ġíĥľ ê·¹
Ġì§ģ ê²½
ĠD ay
ë³´ ìĤ´
ĠR ec
Ġë¸Įë £¨ë
Ġë¹Ī ê³¤
Ġë¸Įë¦¬ íĬ¼
Ġëª¨ë¡ľ ì½Ķ
ë ĨĢ
Ġë¯¸ ìĨĮ
ê°ľ ìĿ¸
ĠìĹ´ë ıĦ
Ġì² ¨ëĭ¨
Ġæ ²Ī
ĠC an
ĠêµŃ ë³´
Ġì£¼ë Ĳľ
Ġìĸĳ ë°ĺ
ĠíĶ¼ ìĺ¤
æĹ ¥
Ġì±Įë¦° ì§Ģ
l er
Ġìŀħ êµŃ
ĠìĨį íİ¸
ĠIn s
ä¸ Ĭ
Ġê² ģ
ĠëıĻ íĸī
Ġë¯¸ íĤ¤
íŀĪ ì½Ķ
ĠëĳĲ ê»ĺ
ĠìĿ¼ìľ¼ íĤ¬
ĠìĽĲë¡ľ ìĽĲ
ĠìĿĺ ê²°
Ġë©´ ìłľ
ĠíĻĶ ìĥģ
ĠíıŃê²© ê¸°
ĠìĦ¸ìĿ´ë ¶Ģ
j ect
ĠìĿ´ ê´Ģ
ĠìĪĺ ì¶ķ
ìłľ ìĭľ
Ġë§Ī ìķ¼
Ġì¦Ŀ ìĨĲ
Ġë£ °
Ġê·¸ëŀĺ ë¯¸
Ġ un
ìŀ ĩ
ĠìĿ´ìļ© ìŀĲ
Ġì·¨ íķŃ
íħĮë ©´
b e
Ġì§Ģ ìĺ¥
ìłķ ëıĻ
Ġê¸ ´ë
Ġê³łìĨį ëıĦ
ë¦¬ ì¦ĺ
ĠìĬ¤ ëĭĺ
Ġìĥģ íĳľ
ëĭĪ ìĭľ
íĻĺ ê²½
¯¸ë ĵľ
t o
ìłķ ë¦¬
ĠD on
Ġë¶Ħë Łī
ĠíĹĮ ìĭł
ĠëĵľëŁ¬ë ¨¸
åł Ĥ
ĠëĮĢ ëĳĲ
ĠìŀĲ ìŀĳ
Ġë¹Ħ ìĦĿ
ìľ¼ë ¡ľ
Ġëª¨ ìĦľë¦¬
Ġë¯ ¹
Ġì²´ íģ¬
Ġë£¨ íĥĢ
Ġê±°ëŀĺ ìĨĮ
Ġì«ĵ ê²¨ë
ê± Ģ
Ġíİł ë¦¬
Ġç¢ ĳ
Ġê¹Ģ íĥľ
ing s
ĠìĬ¤ìľĦ ì¹ĺ
ë ¼Ī
ìĤ¬ ìĿ´ëĵľ
Ġìĺ¤ ìĦ¸
Ġìĸ´ë ł¸
Ġëĵ¤ìĸ´ ê°Ī
ĠìĽĲë ³¸
ĠíĹ¤ ë¹Ħ
ë¹ ħ
Ġëĭ¹ ìĹ°íŀĪ
Ġíĺ¸ ìĦ¸
Ġëı Īë
Ġíĳľ ìłģ
ê³¡ ëıĻ
¥´ë ıĦ
Ġìŀĥ ìĸ´ë
Ġê´´ë ¡Ń
Ġê²½ìĦ± ë¶Ģ
Ġå§ ľ
Ġê°Ģ ìĺ¥
Ġìłľ ì¹ĺ
ìĸ´ë §ģ
íĮĮ ìĿ´
ĠJ T
Ġì¢Į ì¸¡
ĠëĶ° ìĻĶ
ĠìłĲìĦ± ìĪł
Ġíĺ¸ë¥´ë ª¬
ĠìĿ´ ëĭ¨
ìĭľ ì¦ĺ
ĠìŀĲ íĺķ
ĠI M
æĸ ¹
ĠìĹŃ ëŁī
Ġìļ° ì²´
ĠK or
ĠìĬµ ì§Ģ
ĠíĬ¸ë¡ľ ìĿ´
Ġì²ľë¬¸ë ĮĢ
ĠCE O
ĠìĿ´ ì§Ģ
ĠìķĦ ì¼Ģ
Ġíķ´ ì§Ħëĭ¤
ĠìĦ± íıŃ
ĠA D
ĠìĻ¸ ê´Ģ
ĠëĤ¨ë §¤
éĻ µ
ĠëıĦ ì¹´ìĿ´
ìĺ¤ ëĬĺ
Ġì» ·
íĿ Ķ
ĠìĤ¼ ì´Į
Ġíĥ ĦëıĦ
Ġë³´ë ³µ
Ġìķłë į¤
æķ İ
é ķ·
ìĦ łëıĦ
Ġì¡° ìĦ¸
Ġê¹Ģ ì§Ħ
Ġíĩ´ ìĹŃ
Ġh tt
íģ´ë łĪìĬ¤
ĠèĢ ħ
ĠëĮĢ ëªħ
Ġë¬´ë ĦĪì§Ģ
Ġé³ ³
íĨ¨ëłĪë §ĪìĿ´ìĺ¤ìĬ¤
Ġê·¸ ë¦ĩ
ĠìĬ¤ íĦ°
ìĹŃ íķĻ
Ġì½Ķ ë¥´ë
Ġë®¤ ì§Ģìħĺ
Ġíķĺ ëĭ¨
ĠM ed
íİĺ íħĮë¥´ë¶Ģë¥´íģ¬
ĠìĤ¬ìĹħ ê°Ģ
ĠëĪĦ ìłģ
os s
Ġìĥģ ê¸Ī
Ġì½ °
ĠëłĪ ìĺ¨
Ġë²Į ìĿ¸
²¤ ì²ĺ
¹Ħë Ĥĺ
ë ±ħ
ĠëĮĢ íķ©
ìľĦ ìĦ±
ĠìĦ¤ êµĲ
ĠìŀĦ ê´Ģ
íħĮ ìĿ¸
ĠìĦłë ıĻ
Ġê·¹ íķľ
íķ´ë ıĦ
ĠRo bert
Ġëª «
Ġì¤ĳ ê³µ
íĬ¸ íİĺíħĮë¥´ë¶Ģë¥´íģ¬
ĠìłĦë °©
Ġìĸ´ë ¢°
ĠÎ ±
Ġê³µ ë¦¬
ĠíĻĶ ê°ķ
ë³´ ê¸°
ê¸Ģë Ł¬ìĬ¤
ìľ Ļ
ì´ Įë
Ġë¯¸ë Ŀ¼
ĠëŁ¬ ìĭľ
Ġä¸ ĥ
¥´ë ĭ´
Ġë¦¬ë ·°
r es
u tion
Ġë¡ľ ìļ°
ĠëĤ¨ êµ¬
ĠH T
ĠëĤł ì¹´ë
Ġë°Ŀ íŀĮ
ĠçĽ £
O U
Ġ at
ĠìĿ´ ì¦Ī
ĠìĺĢ ìĿĮ
Ġê³µ ê´Ģ
Ġë¯¼ ê°Ĳ
ĠN or
Ġìĺ¤ìĤ¬ ì¹´ë¶Ģ
ĠìĹ°ìĤ° êµ°
ìķĦë ĵľ
ĠìĨĮë Ĥĺë¬´
ĠìłľëĦ¤ ë°Ķ
Ġê°Ģ ëł¤
ĠíĥĢ ìŀĦìĬ¤
Ġì¶© ì£¼
Ġì¿ łë¥´
Ġëī´ìļķ ì£¼
ĠìĹ¼ ì¦Ŀ
Ġì¥Ĳ ê³¼
Ġë²łëĦ¤ ëĶķ
ĠíĬ¹ ê¶Į
Ġë³Ģ ìĿ´
ĠíĨł ê¸°
ĠìĬ¤íĥĢ ë¦¬ê·¸
âĢ ¢
éĥ ½
F L
Ł ´ëĵľ
Ġëĭ¨ ìĿĺ
Ġê´ĳ ëĮĢ
ìĤ°ë §¥
ĠëĭĪì½ľë Ŀ¼
íķ¨ë §Īë
y d
Ġìĭľ ì½Ķ
ĠìĦł íĸī
Ġê´Ģ ìĦ¸
ĠC J
Ġìłľë ¡ľ
Ġå¯ ¦
194 8
ĠíĺĲ ìĺ¤
Ġì¶ĺ ì²ľ
H D
Ġ18 00
ĠM on
Ġê°Ĳ ìķĪ
ĠìĿ¼ë¶Ģ ë¶Ħ
Ġìŀ¥ê¸° ê°Ħ
Ġë¡ľ ê·¸
Ġë³¸ë ¬¸
ĠíĪ ´
Ġëį§ë¶Ļ ìĹ¬
íĬ ¬
ĠìĽĲ ì²ľ
Ġê°Ĳ ìŀĲ
le ct
ĠëłĪë °Ķëħ¼
Ġíĳľê¸° ë²ķ
ĠìĦ ¼ëĭ¤
Ġë¶Ģ ìĬ¤
ìĽĲ ìĪĺ
ê³µ ì£¼
Ġë°Ķ ë¥´ë
íĥĢë ¯¸
ëıĦ ì¿Ħ
ĠìĦľ ìľłëŁ½
Ġê¶Į ì´Ŀ
íĬ¸ë ¥¨
ħ¸ íĶĦ
ë²ł íĬ¸ëĤ¨
ìĭłë ¬¸
Ġì£¼ìĸ´ ì§Ħëĭ¤
ĠìĿ´ìĦ± ê³Ħ
ĠíŀĪìĸ´ë¡ľ ì¦Ī
Ġì§Ģ ëħĶ
Ġìĭľ íĤ´
Ġë¦¬ íĶĦ
Ġíİĺ ëĦĲ
äº ¬
Ġì¦Ĳ ê²¨
ĠìĹ łë
ĠìłĦ ìľĦ
Ġì£¼ ì¡°
ĠëĮĢìĦ± ëĭ¹
æ ²
ĠëıĦ ë¯¸ëĭĪ
Ġìĭ¤ ë¬´
Ġp h
ë¸Įë Ŀ¼
éĿ ¢
ê°ľ ê³¨
Ġë¹Ħë ī´
Ġë©Ķ íĥĢ
Ġíļ¨ ê³ł
Ġìĺ¬ëĿ¼ ê°Ħëĭ¤
Ġì²´ë ł¥
Ġêµ° íķ¨
ĠëĤ¨ ìĽĲ
ĠS u
Ġê°Ħ íĨł
ĠëıĮ ê¸°
Ġê°Īë ŀĺ
Ġê¼Ń ëĮĢê¸°
ĠìĹ¬ ìļ´
Ġ18 60
©Ķ ìĿ´
Ġê¹Įë ĭŃ
į ìĬ¤
Ġë°ĺ ê³µ
Ġê°ģ ìĥī
Ġì§Ī ìĨĮ
Ġ188 9
ĠêµĲë ĮĢ
íĢĺ ìĸ´
íķĺ ëĤĺ
Ġëĵ± ìļ©
Ġëĭ¹ ìĪĺ
ĠìķĪ ìĦ±
ĠìĨĮë ł¹
Ġìļ´ ìĪĺ
Ġìĸ´ëĵľë ²¤ì²ĺ
Ġê³µ ìĺĪ
ĠìĦ± ë¬¸
Ġëħ¸ íĥľìļ°
Ġì½Ķ ì¹´
Ġä½ Ĳ
Ġæµ ¦
¸ë ¡ľ
Ġê¸° ëħ
ĠìĪĺ íĻķ
Ġëªħ íķĺ
ĠëĤ¨ ìŀĳ
Ġê·¹ ëĮĢ
id ae
Ġì´ī ë§¤
Ġíķľ ì¸µ
Ġê¸° ë¥´
ĠG S
Ġë¯¸ë ¥´
ëıĻ ë¬¼
Ġë¬´ ìĬ¨
ĠíĶ¼ ê²¨
Ġå¹ ´
Ġê·¸ëł¤ ì§Ħ
ĠìĹĲ ìļ°
Ġê³ł ìķĦ
Ġê¸° ìļĶ
íĻĶ íķĻ
ĠìĬ¤ íĦ´
ëĤ Ń
Ġìĺ¤ ë¯¸
Ġì²´ ìĬ¤
ĠëĴ¤ ìª½
ĠëĤ¨ë ¯¸
ĠëĤľ ì§ķ
Ġæľ ±
Ġê´ĳì£¼ ê´ĳìĹŃìĭľ
ĠìĿ´ë£ ¬
U C
Ġë° į
Ġê¸° ìĬŃ
ĠíĺĦ ê°Ĳ
ĠåĪ ¶
åĲ į
Ġë²¨ë Ŀ¼ë£¨ìĬ¤
ĠëıĻ ëĦ¤
ì¹´ ë¦¬
Ġë§Īë ħĢ
Ġì±Ħ ìĨĮ
Ġs e
ë£¨ ìĬ¤
ĠçĶ ²
Ġ"( )
ĠìĿĺ ìĿĺ
Ġâ ħ
ĠíĿ ł
Ġëĭ¬ ìķĦë
ĠìĶ Į
ĠìķĦë¯¸ëħ¸ ìĤ°
ç ķ
Ġë¡ľ ë§Īë
ĠìĤ¬ íĨł
ĠS ystem
ĠíĬ¹ ìĥī
Ġ16 00
ĠìĹ¼ìĥī ì²´
ĠìķĦëĭ Ĳ
Ġì§ ±
ãĢ Į
ĠëĤĺ ê°Ħëĭ¤
Ġìĺģ ëĤ¨
íĮ ¨ë
er m
C D
è ĪĪ
ĠìĤ¬ ìĤ´
Ġì¡° ìĬ¹
Ġm e
ĠëĦĺ ê¸°
Ġêµ¬ íĺķ
Ġìĸ´ë ĳł
Ġëī´ íĦ´
Ġëª° ìķĦëĤ´
Ġê±°ì£¼ ì§Ģ
ĠíĬ¸ë¦¬ íĶĮ
Ġê´Ģê´ĳ ì§Ģ
Ġìĸ´ë ¡ľ
ĠíĶ¼ê³ł ìĿ¸
ª °ë¡ľ
ì į¼
ê°Ģ ìŀ¥
Ġê³µ ê³ł
ìĿ´ë ¹Ħ
ĠM B
Ġê°Ħ ìĭł
Ġë¬¼ ê°Ģ
ĠíĮĮë ³ĳ
Ġê¹¨ë ģĹ
Ġê¸Ģë £¨
ĠëĥĦ ìĥĪ
å ³
Ġì¤ĳ ìĤ°
in o
Ġìĵ° ì´¨
Ġëĳ¥ ê¸Ģ
Ġè³ ¢
ĠíĶĮëŀĺ ìĭľ
Ġì¡° íĺķ
ĠìĨĮ ìĭľ
Ġì¢ħ ìłĲ
Ġë¶Ī ë¦°
Ġì½Ķë ģ¼ë¦¬
ìĥ¤ ë°Ķ
Ġìĺģ ëĵ±
ĠëĶ ľ
Ġê·¸ë ĮĢ
Ġê²° ìłľ
an e
ê·¸ë łĩ
ĠìĥĪê²¨ ì§Ħ
ê³¼ ê±°
ĠíĻį ë¬¸ê´Ģ
Ġå· ¥
Ġre f
ĠíĽĦìĨį ìŀĳ
ļ ´
ĠëĮĢ ë¬¸
Ġê°ľ íĻĶ
Ġë¶Ī ê½ĥ
ì¿łë ²Ħ
ĠíĹĮ ìłķ
ĠíŀĪë¡ľ ìĭľ
ĠëĤ¨ëıĻ ìĥĿ
ł ģ
ĠìŀĲ ìĺ¤
ĠìĿ¼ë ªħ
ë°Ķ ëĭ¥
Ġã Ħ
ĠêµĲíĨµ êµŃ
Ŀ¼ìĿ´ìĸ¸ íĬ¸
Ġê°Ģ ë£¨
íİ ĳ
ì¹´ë Ĥĺ
íħį ì²ĺ
ìĪ łë
ĠìĽ¨ ìĬ¤íĬ¸ë
i ti
ìŀ ĺ
Ġê°Ģ ìĹ´
Ġç Ń
ĠíļĮ ìĥģ
ĠM ag
ĠìĽĲë Ĥ´
Ġì§Ģì§Ģ ìľ¨
Ġìļ¸ìĤ° ê´ĳìĹŃìĭľ
æ° ´
ĠLC K
ê°Ħ ì§Ģ
Ġê°ķ ë³Ģ
Ġíİĺë¥´ë Ĥľë
4 0
ìŀĲ ë¥´
Ġê³µ ëªħ
Ġê²½ ìŀĳ
ĠëıĻ íĺķ
Ġë³´ íĹ¤ë¯¸
Ġë¬´ ìĦ±
Ġë¶Ī íĥĢ
Ġìľ¼ëł¤ ê³ł
Ġíİĺë¥´ë ĶĶë
Ġç į
Ġë°ľë ł¹
Ġë³µíķ© ì²´
ĠìĤ¬íļĮë ĭ¹
Ġê°ķëĤ¨ êµ¬
æ ŀĹ
é ®®
Ġë¯¸ìĭľ ìĭľíĶ¼
Ġè ´
Ġì´ĿëĮĢ ì£¼êµĲ
Ġìłķ ìłģ
Ġì¤ĳ ê³µìĹħ
Ġìļ© ìĦľ
ĠíıŃ ë¡ľ
ç§ ĳ
ĠìĹ ĩ
Ġì§Ģ ë¯¸
ĠìĪĺ ë£Į
ĠìķĦë ²¨
Ġìĭł ìĽĲ
Ġë°Ľ ì¹¨
Ġìŀĺ ëĿ¼
ch n
ĠìĽ¨ ìĬ¤íĦ´
âĢ ľ
ĠìĥĿ ì²´
Ġëª¨ ìĬ¤íģ¬
ì» ¨ëĮĢ
Ġìĭ¬ íĻĶ
ĠëĬ Ĳë¦¬
Ġìķł ì¹Ń
êµĲ íĨµ
íĥĢ ì¼Ģ
Ġì§ĳ ê²°
Ġìłľìŀĳ ìĤ¬
Ġìĭľì¼° ìľ¼ë©°
Ġå¤§ åŃ¸
ĠìķĦë¦ Ħë
ìĺ¬ë ¡ľ
Ã ¤
ì£¼ ìĸ¼
íĥľ íıīìĸĳ
ëħ¸ ìĿ´
ĠìķĦíĤ¤ íħįì²ĺ
Ġê°Ģ ìĹŃ
Ġëª¨ íĭ°ë¸Į
ë°Ķë Ĥĺ
Ġë¯¼ê°Ħ ìĿ¸
ë ĥĲ
ìĹ Ķë
¼ë¦ ¬ë¹ĦìķĦ
ĠëıĮ ìŀħ
Ġì§ĢëıĦ ë¶Ģ
Ġë¥ ľ
ĠêµŃ ìĺģ
Ġì¹¨ ì²´
Ġæº ª
Ġë¶Ģëĵľë Ł¬ìļ´
ħ¸ ë¦¬
ĠíĨłë ģ¼
Ġì¤Ģ ì£¼
Ġìĭ¸ ìĽĮ
Ġë°ĶìĿ´ íĤ¹
ìĵ ¸
ê±°ë ŀĺ
ĠéĮ «
¹ ¨
ç ļ
ĠìĦľ ì´Ī
Ġë¦¬ë °Ķ
el la
Ġê¸°ê´Ģ ì´Ŀ
ĠíĢĺ ë²¡
O V
Ġíķĺ ê³ł
Ġë¶Ģ ê°Ģ
ĠìĿ¼ë ¦¬
ĠìĺĪë ªħ
ĠíŀĮëĳĲ êµĲ
ìķĦ ìĺ¤
Ġì¡° ìĪĺ
Ġë¶Ī ìĭł
Ġëıħ ìĦ±
Ġëĭ¬ ê±Ģ
Ġæĺ Ł
Ġì¶©ì²Ń ëıĦ
Ġë£© ìħĪë¶Ģë¥´íģ¬
ĠìĿ´ ê²½
ĠëĮĢ ìĦľìĸĳ
ĠìĿ´ë ¶ģ
¬¸ íĬ¸
Ġê¹Ģ ìŀ¬
Ġì½Ķ ìĬ¤íĥĢ
Ġê°Ĳ ë§Ī
uc k
íĶĦëŀĳ íģ¬
Ġì½ ķ
ĠìĹ°ëĮĢ ê¸°
ìĭŃ ìŀĲ
ĠìłĦìĭľ íļĮ
ĠìĤ¬ ìłģ
ì£¼ ìļĶ
ĠìĦ± ë³Ħ
Ġê±°ë ĴĢ
ar a
Ġì¹´ë ¡¤
Ġê°Ģìł¸ ìĺ¤
Ġìĭł ì¶ķ
ì¼Ģ ìĿ´
Ġê²Ģ ì¶ľ
Ġìĵ°ë łĪê¸°
ĠìĺĢ ìľ¼ë¯Ģë¡ľ
Ġìļ° íĮĮ
Ġìļ° ì¦Īë²ł
Ġë¶Ħ ìĪĺ
ĠC S
ĠF e
Ġê²Ģ ìĹ´
Ġì²ł íıĲ
Ġê·¹ ìŀĳê°Ģ
ë°ķ ì¥Ĳ
ur n
Ġë°©ìĤ¬ ìĦ±
ĠìĹĲ ì½°ëıĦë¥´
Ġì§Ģë°© ìĤ°
ìĤ¬ ìĥģ
Ġìłķ íĻĶ
ìłľ ìŀĦìĬ¤
Ġìĥģ ê²½
ìľ¼ë ĭĪ
ĠìĤ¬ìĿ´ íģ´
Ġè± Ĭ
ìĽĲ ìŀ¥
ĠìĦ± ì§Ģ
Ġê³¡ ë¬¼
íĬ¸ë¡ľ ìĿ´íĬ¸
Ġìłľ íĶĦ
íķĺ íĤ¤
Ġìĥģ íĬ¸íİĺíħĮë¥´ë¶Ģë¥´íģ¬
Ġìľł ì²´
ĠíķľêµŃ ë°©ìĨ¡ê³µìĤ¬
Ġìłĳ ìĪĺ
ĠìĥĪë¡ľ ìĿ´
ĠêµĲë Łī
Ġì§Ĳ ìŀĳ
ĠìĿ¼ íĮĮ
ĠìĥĿ ê¸´ëĭ¤
Ġê°ķ ëĮĢ
ĠìĹ´ ë¦°ëĭ¤
Ġì¡°ë ¥´
ĠìĿ´ì£¼ íķĺ
Ġä¼ ¯
íķ¨ë§Īë ĵľ
G M
Ġìľ Īë
ìĬ¤ íĭ´
Ġê²½ ê³¼
ĠëłĪ ìĬ¬ë§ģ
ĠL A
Ġë¬´ë ªħ
Ġê°Ī ë¦¬ìķĦ
Ń ĩ
ĠìŀĲ ë¹Ħ
ë¬ µ
Ġë§Į ìĦ±
Ġì²ľ íķĺ
ëª °ë
ë°Ķ ë¥´
Ġê±°ì§ĵ ë§Ĳ
Ġê³µ íĻ©
Ġë°ĺ êµ°
ë¡ľ ëĵľ
Ġì°¨ë ¥´
ĠëĨį ë¶Ģ
Ġëĭ¨ë ©´
ë© ´ë
ĠìĤ´ë ł¤
ĠìķĦë¦Ħë ĭµ
Ġëĭ¤ íĪ¼
ĠìĿĦ ê¹Į
ê¸° íĥĢ
Ġë¶ģ ìķĦíĶĦë¦¬ì¹´
Ġíķ© ëĭ¹
Ġ187 0
ĠìĿ´ë¥¼ íħĮë©´
ë¦¬ íĭ°
Ġë°ľ ë¦¬
Ġë©Ķ ì»¤
ĠìķĦìĭľ ì¹´ê°Ģ
ê³¼ íķĻ
Ġíĺ¸ ìĿĳ
Ġë¯¼ ìłķ
Ġì²Ń ìĥī
íį¼ ìĬ¨
ĠìĽĮ íģ¬
ĠíĦ°ë ³´
198 7
Ġè« ¸
Ġìĭľë®¬ë łĪìĿ´ìħĺ
ìĿĺ ìĤ¬
Ġë§ŀ ë¶Ļ
ro p
Ġì½Ķë¯ ¹
ĠìĤ¿ íı¬ë¡ľ
ìľ Ĺ
ĠìĦľë ¬¸
Ġë°ľë Ŀ¼
ĠìķĦìĿ´ ìĺ¤
Ġíĩ´ ìłģ
ë¦¬ ëĭĪ
ĠìĿ¸ ì§Ī
Ġì²Ń ìĤ°
é ¡
ĠìĹ ®
ë¦¬ ì½Ķ
ê¸° êµ¬
ĠëĤ «
Ġê±° ì²ĺ
Ġìķ½ íķĺ
Ġë¯¸ë ĵ¤
ĠìĬ¬ë Ŀ¼ë¸Į
ĠëĮĢêµ¬ ê´ĳìĹŃìĭľ
Ġëļ ľ
ĠæľĿ é®®
ĠêµĲëıĦ ìĨĮ
Î ¹
Ġëĭ¤ íģ¬
Ġê°Ģ ë³
Ġê¸° ë¶Ħ
ĠëĤĺ ëŀĢíŀĪ
ĠëıĻ íķĻ
Ġë¬´ ê¶ģ
ĠëĨį ìĤ¬
Ġë¶ĻìĹ¬ ì§Ħ
Ġë¶Ģìŀĳ ìļ©
o y
ì§Ģ ìĺ¤
Ġì¶Ķ ì²¨
Ġë³µ ìļ©
ĠíĬ¸ë¡ľ íĶ¼
Ġìłģ êµ°
Ġë³´ ê°ķ
ìĬ Ĳ
ĠíļĮ íĶ¼
ĠíĥĢ ìĦĿ
Ġì¼Ģ ìŀĦë¸Įë¦¬ì§Ģ
ĠëĿ¼ìĿ´ ìĸ¸
Ġéģ ĭ
Ġì»¨ íĬ¸ë¦¬
Ġì³Ĳë ĵ¤
ê° ĸ
ĠìłĦ ê²©
ĠíķĦ íĦ°
Ġë£¨ ìĭľ
Ġì§Ģì¼ °
Ġë²ķìłķ ëıĻ
Ġê°ķ íĿ¬
Ġë³µ ê¶Į
Ġì¼Ģë ĥĲ
ĠìĥĿê²¨ë Ĥĺ
å ±
ĠìĿ¼ ìĤ°
Ġì¶ľ ìĦĿ
en g
ĠëĮĢ ìĽħìłĦ
Ġìĭľ ìķ¼
Ġì°¨ ê°Ģ
ĠëĳĲ êº
ĠëĳĲ ê°ľê³¨
ĠìĽĮ íĦ°
ĠìķĦëĤĺ íĤ¤
Ġìĺ¥ìĬ¤ íį¼ëĵľ
ĠìķĦ ì¦Ī
Ġë´ī íķ´
³´ë ĭ¹
Ġì¹´ë© Ķë
U S
Ġê³µ ìķ½
ĠìĦ¼ íĭ°ë
å® ļ
ĠìłĦ ìĹ¼ë³ĳ
Ġë¹ ĪëıĦ
Ġëª¨ë Ĥĺ
Ġìľłë Ŀ¼
ĠíĥĢ íĺĳ
Ġ24 0
Ġëĭ¤íķŃ ìĭĿ
ìŀ Ń
íĦ ±
ĠíĬ ľ
Ġå° į
Ġ188 3
R T
ä ¹
ĠìĿ´ë °Ķ
it al
íĦ°ë §ģ
ĠìķĦëŀĺ ìª½
ĠéĢ ²
Ġëĵ¤ ëł¤
Ġ4 50
Ġì¶© ë¶ģ
ĠëıĦ ìĦł
ĠêµŃ ìłľë
Ġë°ľëłĮ ìĭľìķĦ
ĠGe or
ĠìĪĺ ì¤ĳ
íķ´ íĬ¼
ëĭ ¨ë
ĠB S
ĠêµĲìľ¡ ë¶Ģ
Ġê·¹ ëıĦ
Ï Ĥ
ĳ ĺ
ĠëĮĢ ë³¸
Ġç Ŀ
Ġê¶Į ìŀ¥
Ġê°¤ëŁ¬ ë¦¬
Ġì§Ģ ìļ°
Ġë³´ ìľĦ
Ġë¯¸ ìĦ¸
ĠâĦ ĵ
ĠëıĦìļĶ íĨłë¯¸
ìĤ¬ê´Ģ íķĻêµĲ
A F
ĠìķĦë ıĮíĶĦ
Ġêµ¬ ìĻĢ
Ġë¬´ ìĪł
ê²° êµŃ
ĠìķĦëĭĪ íķĺ
Ġìĸ¸ìĸ´ íķĻ
Ġë¦¬ëįĶ ìĭŃ
ç ©
Ġìłķ ìĦ±
ìĸ´ ì¡Į
ĠìĨĮ íĸīìĦ±
Ġë²Ī ìĦ±
Ġì¸ łë
ĠI N
Ġìĥ¤ ë¥¼
Ġëį® ìĹ¬
è Ĺ
Ġì ĳ
ĠëĮĢ ì¶ľ
ĠìŀĲ ê²°
Ġìĭľë Ħ¤
Ġìŀħ ìĸĳ
Ġë¸Įë¦¬ ì§Ģ
ĠìķĦë¦¬ìĬ¤ íĨł
Ġåĺ ī
ĩ ´ë
ĠìĨĮë ĮĢ
Ġëģ Ħ
ĠìĹ°ë ª»
ĠR ock
ĠíĤ¤ ë¥´
Ġíŀ Īë©Ķ
ª°ë¡ľ ì§Ģ
M I
Ġëĭ¤ ë
ì¤ĳ íĻĶ
Ġë¸Įë ¡ľëĵľ
ëį° ìĿ´ë
ĠìĿ´ëıĻ íķĺ
ĠëĮĢìĤ¬ íĹĮ
Ġë©Ķì»¤ ëĭĪì¦ĺ
Ġê¸° ìłĢ
Ġê³¼ ìĭ¤
ê¸° ìĬ¤
ĠíĨµ ìĺģ
ĠìĬ Ľ
ĠìłĢ ëł´
Ġê°ĳ ìĺ·
ĠìĨĮìĪĺ ìŀĲ
ì»´ í
å¿ ĥ
Ġìłķ ë¬¸
ĠëıĻ ì°¸
Ġæ ĭ
Ġæ ł¹
Ġìĥģ ê³ł
Ġë³´ ìĿ´ìĬ¤
Ġë°ĺ ìłĦ
ìĦłëĮĢ ìĽĲêµ°
ĠìļĶ ìķ½
ĠìĿĮ íĸ¥
ì¸ł íģ¬
ĠìºĲ ìĭľ
Ġë²¨ íĬ¸
Ġv s
ĠìĤ¬ ëª¨
ĠE X
ĠíĬ¹ë³Ħ ìŀĲì¹ĺ
Ġì¶Ķë ¡ł
ĠëĬĲëĤ Ģ
ĠíĬ¹ë³ĦìŀĲì¹ĺ ìĭľ
L A
ìĦ± ìļ°
ĠN E
Ĥľ ìĦ±
Ġìĺ®ê²¨ ì¡Į
Ġë µ
Ġì¶Ķ ì¢ħ
ĠG l
ĠíķĦë¦¬ íĶĦ
ĠìĬ¤íģ¬ ë¦½íĬ¸
ľ¨ë ł¸
Ķ ľ
ĠìĪĺ ëħĢ
ì° Įë
Ġêµ¬ ìĿ´
ĠëĶ°ë ŀĲ
ĠíĽĦë°ĺ ê¸°
Ġëª° ìķĦë
Ġë¯¸ëĦ¤ ìĨĮ
Ġê°Ģë³ į
ĠìĿ¼ ìŀĲë¦¬
ĠìĨĮ ìŀĲ
íŀĪ íĨł
ĠìķĪ ì¹ĺ
ĠìķĮë Ŀ¼
Ġì¿ Ħ
ĠæŃ Į
ĠìĿµìĬ¤ íĶĦëłĪìĬ¤
ħ Ħë
Ġì ©
ì² ľëıĻ
Ġæ ¦®
he l
Ġê·¸ë¦¬ìĬ¤ ìĿ¸
ĠëĶĶë¹Ħ ìĭľìĺ¨
ĠBla ck
Ġë² µ
Ġë¯¸ ì£¼ë¦¬
Ġì¢ħ íĮĮ
Ġì¹´ ìĬ¤íĭ°
Ġì¤ ĺ
ĠíŀĪ íĥĢ
ģ Ħë
ìľ Įë¦¬ìĹĦ
ĠìĹĲë ĶĶìħĺ
Ġíĩ´ ìŀ¥
ĠìĸĳìĦ± ìŀĲ
Ġä¼ Ĭ
Ġê¸°ëħ Ĳë¹Ħ
ĠìĦł ìŀ¥
ĠíĽĦ ìŀĳ
Ġë§Įì£¼ êµŃ
Ġë°Ģë ŀĢ
æ ±
ê³ł ë¦¬ìĺ¤
ĠT HE
Ġì´Ŀ ë¬´
Ġìķŀ ìŀ¥
Ġë¸ĶëĿ¼ëĶĶë ¯¸ë¥´
Ġíķĺ ë¦¬
Ġê³µ íĳľ
Ġìĭ¤ ìłģ
íĮĮ íģ¬
Ġê´ĳ ìłĢìļ°
Ġê°Ĳë ıĻ
Ġë¹Īë ²Ī
Ġíķĺ íĶĦ
ĠëĮĢ ê´Ģ
Ġì¤ĳ ìĽĲ
Ġìŀ¥ ë²½
ĠìķĪ ìĤ°
Ġk t
Ġë²łë ĭĪ
ĠæĪ °
iel d
Ġë²ķì¡° ìĿ¸
ĠìĿ´ ê±´
Ġíķĺ ìĿ´ëĵľ
Ġê´Ģ ìłĪ
Ġst ation
Ĳ µ
Ġê°ķ íĴį
Ġë¶Ħ ì¶ľ
ĠìĦ¤ë¦½ ìŀĲ
ê¸Ģë Ŀ¼ëį°ìĭľ
Ġë³´ íĬ¸
Ġì§Ħ ìłĦ
Ġ11 1
ĠíĶĮë Ŀ¼ìĿ´
íħĮ ìĿ´ìħĺ
Ġë¡ ¬
£¨ë ĥĲ
Ġì¹¼ë Ŀ¼
ĠìĤ¼êµŃ ì§Ģ
ĠìĬ¤íĬ¸ëĿ¼ìĿ´ íģ¬
r al
ĠìĪĺ ëª©
Ġíģ´ë Ŀ¼ë
ĠìĦ¸ìĽĮ ìł¸
Ġè¡ Ľ
ìĹ°ë ³Ģ
² ĮëłĪ
ĠB ro
Ġìĺ¤ë Ŀ½
Ġê²½ìŁģ ëł¥
ĠìĦłë³´ ìĿ´
Ġë³µìĿĮ ìĦľ
Ġíĺ¸ ì¡±
ĠìķĪ ê²½
Ġé« Ķ
Ġëĭ¤ëĭĪ ìĹĺ
Ġëĵľë łĪìĬ¤
Ġìĺ¬ë °Ķ
Ġä» ¤
ĠçĨ Ļ
ĠìĿ¼ëłī íĬ¸ë¡ľ
Ġëĭ¤ ë¥¼
Ġìĺ ¨ëĮĢ
ĠêµŃ ëĭ¹
Ġëª¨ ìĿ¸
ĠìĹ°ë ıĻ
ĠíĮ¨ë °Ģë¦¬
Ġê²Ĳ ì§Ģ
Ġíĥģ ìĽĶ
Ġæ¿ Ł
ĠíĨµíĭĢ ìĸ´
a el
é º
Ġë§Ī ìĬ¤íģ¬
ĠìĨĮ íĸī
ĠëĲľëĭ¤ ë©´
ou se
ĭ Ĳ
ĠìĦł ê±°ë²ķ
ĠìļĶ ë¥´ëĭ¨
Ġì½ľë Ŀ¼
ĠìĬ¤íĨł ìĸ´
ĠíİĺìĿ´ìĬ¤ ë¶ģ
R I
êµ¬ ìĹŃ
ĠìĿ´ë ĵĿ
Ġíı¬ íĦ°
ĠC BS
ĠW al
Ġ186 8
Ġë¶ĻìĹ¬ ì¡Į
ë »
į ¸ë
Ġê³µ ê°Ĳ
Ġë¬´ ì¡°ê±´
íĹĮ ìĺģ
ĠëĵĢ ìĺ¤
ĠìĨĶë £¨ìħĺ
Ġê¸°ëħĲ ê´Ģ
Ġê¸°ë³ĳ ëĮĢ
Ġê²ī ë³´ê¸°
Ġê³µìļ© ìĸ´
Ġìĭľ ìĹĲë
íķł ìĭľ
ĠëŁ¬ ìħĢ
ì¹´ë §Ī
ĠíĶĦ íĨ¨ëłĪë§ĪìĿ´ìĺ¤ìĬ¤
çĶ °
Ġíı¬ì¼ĵëª¬ ìĬ¤íĦ°
D A
Ġëĵ łëĭ¤
Ġìłľ ìĿ¸
ĠìĦ¸ ìĨĲ
Ġë°ľ ê°ģ
Ġíı¬ ìĬ¤íĦ°
ê¹ ĥ
íĻĢ ë¦Ħ
Ġê°ķ ê°Ħ
Ġë°ĺ ìĹŃ
ĠB er
íĳ¸ë ¥´
ĠìĤ¬ë¬´ ì´Ŀìŀ¥
ĠëĳĺëŁ¬ìĭ¸ ìĹ¬
ìķĮëłī ìĤ°ë
ĠëıĻ ìļĶ
ĠìĦľ ë¦¬
Ġì¹ĺ ë¥¸
Ġëł ĺ
Ġê¶ģ ì¤ĳ
ĠåĲ į
Ġê·¸ë¦¼ ìŀĲ
ĠìķĦë Ĥ
ĠêµĲìľ¡ ì²Ń
ĠëıĦ ìĤ¬
Ġìĥģ ê°Ģ
ëĮĢ íķľ
íħ Ģ
Ġì¤ĳìķĻ ìķĦìĭľìķĦ
ĠëĤ® ì¶Ķ
ĠìłĪë ĭ¨
ĠíĹ¬ë ¥¨
ĠíİĺëĦĲ íĭ°
Ġìĸ´ ë¦¬
ĠìĹ´ ìĭ¬
Ġíĳľ ì°½
Ġì¤ĳìķĻ ë¶Ģ
ĠìĬ¤íĬ¸ëĿ¼ìĿ´ ì»¤
êµŃ ìĤ¬
ĠíĻķ ê³ł
ĠëĨį ë¦¼
ëıħ ë¦½
Ġë¹Ľ ëĤĺ
ç ķĮ
Ġìĺ¤ íĶ¼ìĬ¤
Ġê·¸ë £¨
ĠíĶĦë ¡ł
ì½ ¥íĦ°
Ġd es
ĠìĿ¸ëĶĶ ìķłëĤĺ
ĠëĮĢìŀ¥ êµ°
ĠìŀĲìĦ¸ íŀĪ
Ġì½¤ íĮ©íĬ¸
ì§Ģ ë¥´
ĠìķĦë Ŀ¼ë¹ĦìķĦ
Ġè ĵ
Ġìŀħ ì£¼
Ġë§¤ ëĭ¬
ìĦĿ íĥĳ
Ġ189 2
ĠíĮĮëĿ¼ ê³¼ìĿ´
ê¸°ëħĲ ë¬¼
R E
Ġ' )
Ġìŀ¥ ìłľ
Ġíģ´ë Ŀ¼ìĿ´ìĸ¸íĬ¸
Ġì§Ħíĸī ìŀĲ
Ġë§¥ ëıĦ
Ġå¸ «
p ort
ĠìĿ´ë ¹¨
ĠìĬ¤ íĬ¸
Ġìŀ¥ ìĽĲ
Ġìļ° ìĥģ
ot t
ìĹĲë ¯¸
Ġë§¹ ìĦ¸
ĠèĢ ģ
ĠìĤ¬ ìĬ´
ëĮĢ íĳľ
Ġíĺ¸ ìĿĺ
Ġìŀħ ìĪĺ
ì²ľ ìĤ¬
Ġê¹Ģ ê²½
ĠìĤ´ ìķĦ
Ġìĺ¨ ê°ĸ
ê¼ ¬ë¦¬
ĠìĤ¬ ê°Ģ
Ġè ĸ
Ġìľłë ¶Ģ
ĠíĮĮ ìļ¸
Ġë¸Ķë Ŀ¼
Ġíķľ ìĬ¤
ĠìĬ¤ íĢĺìĸ´
Ġê²© ìŀĲ
ĠìķĦìĿ¸ ìĬĪíĥĢìĿ¸
Ġì½ĺìĬ¤íĥĦíĭ°ëħ¸ íı´ë¦¬ìĬ¤
Ġíķĺ ì¹ĺ
ìĿ´ë ĭĿ
Ġìļ° íļĮ
ĠíĴ Īë
ĠìĦĿ íļĮ
ĠìĹ¼ ìĨĮ
Ġë» Ķ
éĢ ł
ç Ľ¸
Ġìĥģ ìĹ°
Ġìĥģ ìĿĳ
Ġìľłë ł¹
Ġê²© ì°¨
Ġ188 8
ìĿ Ħë
Ġëĵ± ê·¹
ĠíĽĦ ì§Ħ
Ġë§Īë ĭ¹
Ġê²½ìłľ íķĻìŀĲ
Ġì·¨ë ¯¸
Ġìķ¼ë§Ī êµ¬ì¹ĺ
ĠìŀĲëŀ Ģëĭ¤
ĭ ĲëĿ¼
ĠìĥĿ ê²¨
Ġë°° ìĨį
ëį Ķë
Ġìļ°ë ¬¼
Ġíĺ¸ë ª¨
ëĵľë ¥´
Ġæ´ ¥
ç ¨
Ġê°ľ íķŃ
Ġë¬´ ìĬ¤
Ġë¶Ī íĸī
Ġë²Ħ íģ´ë¦¬
Ġì¤Ħ ìĸ´ë
ĠéĿ ŀ
ĠìĨĮë°© ìĦľ
ì° ®
ĠêµŃ ìľł
Ġë°°ìļ° ìŀĲ
Ġë²½ íĻĶ
Ġê³ł ìĦ±
Ġì§Ģ ë¡ľ
ë§ Įë
Ġìłķ ê´Ģ
ĠìķĦ íı´ë¡ľ
Ġëª¨ ìĿĢ
ad e
ì¦Īë §Ī
åº ¦
Ġíķĺ ë¥´
ì¡° ë¦¬
ë°ķ ìĬ¤
ĠëĤĻ íķĺ
ç ¦
ĠìĨį ì£¼
ì²ĺ ìĬ¤
ĠìĹĺë¦¬ íĬ¸
Ġìłķ ëł¤
Ġê°Ĳ ê¸Ī
ĠíĨł ìĭľ
Ġì¤Ħ ê±°ë¦¬
Ġç¦ ª
Ġì¹´ë¥¼ë ¡ľìĬ¤
ìĹ°ë³Ģ ìĿ´
Ġë§Ī íĤ¤
Ġìŀ¬ ì§Ī
in al
Ġì¤Ħ ìĹ¬
Ġíķ¨ë ¶Ģë¥´íģ¬
ĠíĻľë°ľ íŀĪ
Ġ qu
ĠìłĦë ³µ
ĠP ol
Ġë¡ Ģ
ìĤŃ ìĬ¤
ĠìķĪíĨłëĭĪ ìĺ¤
Ġê°ľìĿ¸ ìłĦ
ìĿ´ ìĭľ
ĠíĺĦ ì§ģ
ĠS k
Ġíıī ë¯¼
Ġê´ĳ ë¬´
ì½ ¥
ĠëĤ´ë ©´
at or
ĠìķĮëłīìĤ°ë ĵľë¦¬ìķĦ
æ Ħ
Ġë© ĶëĿ¼
Ġê²½ ì§Ī
Ġìľłë ĭīìĬ¤
ĠìĿĺ ê³¼
ĠìĪĺ êµĲ
Ġê³µ íĮĮ
ĠëĤ´ ìķ¼ìĪĺ
Ġê²¬ ìĿ¸
Ġì£¼ ì§Ģ
Ġë¦¬ ì¡°
ĠìĦ¸ë ¹Ħ
Ġéģ Ķ
ĠMus ic
ĠìĹĲ ë²Ħ
Ġìĺ¤ ìĺ¤
ê¸ Ģë¡ľ
ĠíĹ Ĳ
Ġë¯¼ ìļĶ
Ġìĭ¬ ìķ¼
íħĶ ëłĪìĬ¤
Ġë°Ķë¥´ ìĥ¤ë°Ķ
æī Ģ
Ġë§Īìļ´ íĬ¸
w w
Ġëªħ ë¶Ħ
ĠM ic
Ġëį° ìĬ¤íģ¬
íħĮ ë¦¬ìķĦ
Ġê¼½ íŀĮëĭ¤
Ġì°½ìĭľ ìŀĲ
l ude
ĠìĿ´ ì¤Ģ
Ĥĺ ë¯¸
ĠìľĦ ìĥĿ
ëł Ľ
Ġêµ¬ ìķ½
ĠíĪ¬ íķŃ
Ġê°Ĳ ìĭ¸
Ġë¶Īë Ł¬ë
Ġíľ´ ê°Ģ
©ĺ ìĬ¤
ĠCom m
ĠLi fe
íķĺìĿ´ ìĺ¤
O T
Ġê°Ģ ëıĦ
Ġê°Ģ ìĤ°
Ġìĭľ íķ©
ê¹ Ĳ
ĠíĿī ëħ¸
ç ĩ
Ġë ¢°
Ġå ħ¸
Ġæ ª
on y
ic an
Ġìĭ¸ ìĿ´
Ġë²Ħë §Ī
ĠìĹĶì§ĢëĭĪ ìĸ´
ìĿ¸ ê°Ħ
ĠíĻķ ì§Ħ
ĠìĦ¬ ìĦ¸
Ġì¹ľë ¶Ħ
Ġìĺ¤ë¡ľ ì§Ģ
u ra
¯ ¹ìĬ¤
Ġìĺ¤ íģ¬
Ġë§Ī ìĿ¸
Ġìļ° ìĻķ
Ġêµ° ì²Ń
ĠG DP
Ġìĵ° ìĭľë§Ī
ĠíĤ¤ ìĺĪíĶĦ
ĠìĪĻ ì£¼
ĠìĿ´ë£ ©
ë³¸ë ŀĺ
ĠKor ea
Ġê°Ģ ë
Ġìľł ì§Ħ
Ġìŀ¥ ìŀĲ
Ġëª¨ë ª¨
ĠH igh
ĠìĽĮ ì¹ĺ
Ġê´ ĺ
Ġê°ľ íĹĮ
ìĤ° ìĹħ
ĠíĨµ ìļ©
ë¡ľ ë²ĦíĬ¸
Ġíĭ° ì½Ķ
Ġì§Ħ ìĪĺ
ĠëįĶìļ± ìĿ´
ĠTim e
Ġê°Ģ ìł
ĠëıĻ ìĿ´
ĠìłĦë Ĥł
ìĬ¤íħ Ķ
Ġìĺ¥ ìĪĺìĪĺ
Ġì¥Ĳ ìĨį
Ġãİ Ŀ
o o
Ġë¯¸ ìĥĿë¬¼
ĠìĿ¼ë ĭ¹
ĠíĻ ī
ĠìĦł ìļ°
ĠêµŃ ë¬¸
ë¬´ ìĨĮ
Ġìĸ´ë ¥ĺ
Ġì²Ļ ì¶Ķ
ĠìľłëĮĢ êµĲ
Ġíķĳ íģ¬
ìĦľ ë¦°
ĠëĮĢ íĳľë
Ġìĭľ êµŃ
Ġì°¨ ìļ©
Ġíķ´ë ¶Ģ
ĠíĻľ ì£¼ë¡ľ
Ġìŀ¬ë Ĥľ
ĠíĮĮë ¬¸
ĠåĪ ¥
ĠëıĻìĦ±ìķł ìŀĲ
Ġë³´íĹ¤ë¯¸ ìķĦ
Ġê°Ģ ìĿĺ
Ġìłľ ìĻķ
ĠíĹ Ľ
Ġì²ĺ íķĺ
Ġíİĺ ëĭĪ
ìĭľë Ĥĺ
ĠìĻľ êµ¬
Ġìľłì¹ĺ ìĽĲ
Ġëĭ¤ ì¼Ģëĭ¤
Īë ĩĮ
ĠìĻĢ ìĿ¼ëĵľ
ĠìŀĲ ìĥĿ
Ġë¶ Ĳ
Ġë³µ ìĨĮìĪĺ
ĠI V
ĠG ra
Ġ189 3
Ġìĭľëĭ¬ ë¦¬
Ġì§Ģ ìĦ±
Ġê¸° ìĦ±
ì§Ģ ê¸°
Ġæ ĵ
ĠìĻķ ìłķ
Ġë¶ģ ê²½
ëħ¸ ìĬ¤
198 4
Ġíı¬ëıĦ ëĭ¹
Ġæ¤ į
³ ¸ë
Ġëĭ¤ íĪ¬
Ġë³ ¼ë¦¬ë¹ĦìķĦ
Ġìĭľ ì¤ĳ
Ġìĭł ì¢ħ
ëıĻ êµ°
ĠC la
ĠëıĮ ìĹ°ë³ĢìĿ´
íħĮ ìĵ°
ì¸µ ìĦĿíĥĳ
łī ìħĺ
Ġìĭłë¬¸ ìĤ¬
ĠìĽĮë ĦĪ
ĠëŁ¬ ìĬ¤
ĠëģĿ ëĤ¬
Ġìī Ĳ
ĠíĶ¼ë ¡ľ
Ġ188 2
ĠíĶĦëŀĢ ì¸ł
Ġë§ĪëĿ¼ íĨ¤
ĠëĮĢ ëĭĪ
ĠìĦľ ìŀ¥
ê²½ ìłľ
Ġë² ¨ëĿ¼
Ġì¡° ê³Ħ
ë³´ ìĦł
Ġìķł ë¦¬
å° ĩ
¾° ì¡±
Ġìļ°ì²´ êµŃ
ĠìĿ¸ íĶĦëĿ¼
°ë ¥¸
ê´Ģ ê³Ħ
Ġë¬´ ì²Ļ
Ġë²¤ ì¹ĺ
ĠEn g
ĠAT P
ĠåĬŁ èĩ£
ĩ ¨
ãĢ ī
Ġê²Į ë¦¬
íĥĢ ìĿ´ëĵľ
Ġb y
Ġìĺ¬ëŀĲ ìľ¼ë©°
Ġìłķ ìľł
Ġìłķ ëıĻ
Ġì£¼ ìŀĦ
Ġë§Ī ìļ°ìĬ¤
ìķł íĭĢ
ĠìĿ¼ìľ¼ íĤ¨ëĭ¤
ì§Ģ ëĬ¥
ëĭĪ ê¹Į
ë¹ Ļ
Ĥ ¨ë
ìķ ĪëıĦ
Ġìĭľ ì¢ħ
ĠìłĦ êµ¬
ĠìĿ´ë į°
Ġâ ĸ
Ġëł¤ ëįĺ
¯¸ë Ĥĺ
ë Ĵ¤
Ġë³´ íĺ¸ë
ĠI m
Ġìĭľ ìĸ´
ĠíĶĦë ¡¤
¥´ë Ħ¤
il le
Ġçķ µ
ì©Įë ĳ¥
ìķ ¨ë
Ġì¤ĳ ìĦľ
Ġê³µ ìĨĲ
Ġì£¼ ìĿ´
Ġë¦¬ íĦ°
Ġëª¨ íķĺ
Ġì´Īë ¹Ļ
èŃ °
Ġêµ¬ ì²Ń
Ġê±¸ ë¦°
Ġë°ĺëŀĢ êµ°
ĠíħįìĤ¬ìĬ¤ ì£¼
Ġì¤ĳ ìĥģ
Ġê°ķ ì²ł
Ġë³´ë Ĥ¸ëĭ¤
Ġë¹Ħë Ĭĺ
ĠíĻ© ëıĦ
Ġë¶Ģëĵľë Ł½
Ġìĺ¬ë°Ķ ë¥¸
mu n
Ġìķŀ ìª½
ĠëįĶë ¹Ħ
ĠíħĮë Ħ¤
Ġíİ¸ì§ĳ ìŀĲ
ĠëĦĺìĸ´ ê°Ķ
Ġê¹Ģê·ľ ìĭĿ
Ġë°ĺ íķĺ
ĠëįĶ ê¸ĢëŁ¬ìĬ¤
Ġë¨¸ ìĬ¤
ë§Īë ĵľ
åį ģ
Ġé½ ĭ
Ġíķĺ ë¥ĺ
Ġë§Ī ì²ľë
ëıĻ ê°ķ
Ġê¸ī ìĪĺ
ĵ¨ íĮħ
¨ë²ķ ìĿ¸
Ġìłķ êµŃ
Ŀ¼ë ĭ¤
Ġëĭ¹ ëĤ´
Ġëª¨ ìļ©
ê±° ì§Ģ
Ġì¼ ĢëĿ¼
Ġå¤ ı
Ġëŀ į
Ġå¢ ĵ
Ġëĭ¨íĸī ë³¸
ìľĦìĽĲ íļĮ
è º«
ê° ĦëĮĢ
Ġì§Ģ ì²Ń
ĠìŀĲ ì¹Ń
íı¬ë ¨¼ìĬ¤
ĠìĺĪìłķ ìŀĲ
ĠéĻ µ
Ġê²½ìĺģ ìŀĲ
Ġìľłê²© ìĪĺ
Ġì´ĿìĤ¬ëł¹ ê´Ģ
Ġê°Ģ íĥĢ
ĠìĿ¸ íħĮë¥´
Īë Ŀ¼
Ġê²Į ë¦´ëĿ¼
Ġì¡° ìĿ¸
ĠA N
ĠëĤĺíĥĢë ĥĪ
Ġå¸ ¸
a ve
Ġíķ´ ìł¸
ĠêµŃ ìķħ
Ġë§Į ìŀ¥
Ġë¶Ħ íĮĮ
ĠìĤ° ì¶ľ
Ġì¹´ íĥĪë
Ġì¶© ëł¬
it ed
Ġì½ĺ íħĮ
ĠíĿĺ ëŁ¬ë
Ġì¹´ë¥´ íĥĢ
ĠëĮĢì§Ģ ì§Ħ
Ġì¹Ļ ëł¹
Ġê· łë
ĠìĪĺ ìĭ¬
ìķĦ ìĿ´ë
íŀĪ íĬ¸
ĠìĽĲ ê²©
ĠíĶ¼ ì¹ĺ
êµ¬ë ¥´
Ġì¤Ģê²°ìĬ¹ ìłĦ
ìłľ íĴĪ
Ġì¦Ŀ ìĿ¸
ĠëĬ¥ ìĦł
ê°ĢìĬ¤ ì¹´ë¥´
ĠìĪĺ ëħĦ
ĠS L
ĠS ec
ĠìłĢ ê²©
ĠëĦ¤ ìĿ´
Ġíį¼ íı¬ë¨¼ìĬ¤
ĠëĮĢ ê°ģ
ĠíĿ¥ ìĦłëĮĢìĽĲêµ°
ĠìĪĺìĽĲ ìĭľ
ĠëĿ¼ ìĺ¤
ĠëĬĶëĭ¤ ë©´
ĠìĤ¼êµŃ ìĤ¬ê¸°
ĠíĮ Ł
ìľł ìĤ¬
Ġìĭ¤ ë¦°
Ġëıħ ì°½
ĠM ac
Ġë³µ ìĭĿ
Ġê°Ĳ ìĪĺ
ĠG T
Ġê°Ī ë¦¬
ĠSt ar
ë ĥĪ
Ġí īģ
ìĹ ł
¯¸ íĬ¸
Ġìĥģ íĸī
Ġê´Ģ ì²Ń
Ġìŀ¥ ëĮĢ
ĠìĦ¸ë Ħ¤
Ġë¦¬ë ª¨
Ġìĺ¤ë¥¸ ìĨĲ
Ġì¹¼ë ±ħ
Ġë¶Ħ ê³¼
Ġë°Ķ ìļ°
Ġíģ¬ë ¡¬
Ġìĸ´ëł¤ ìĽł
Ġë İ
ĠìĹĲ ëĵľë
Ġíķĺ íĸī
Ġê°Ģ ìĨĶ
ìķ ĶëıĻ
ĠìĦ± ëł¹
ê´Ģ ë¦¬
Ġì¶ľ ê°Ģ
íķ© ìĦ±
Ġìŀ¬ íķ´
ìĥ Īë
Ġê´ĳ ëªħ
ĠìĤ¬ìĿ´ íĨł
ìĹĲë ª½
Ġë°°ë ł¤
Ġë¬´ê¶ģ íĻĶ
ĠìĪĺ ìĿ¸
łë Ł¬
ĠíĶĦë łĪëĵľ
Ġëĭ¨ ê³¼
Ġì´Ī ìĽĲ
E G
a ir
ĠìĿ¸ ì¹Ń
Ġë¶Ģ ê°ģ
Ġìĭ¤ ìłķ
Ġì´Ŀ ìķł
Ġíĭ° ì¼ĵ
íĮĮë ĭĪìķĦ
Ġì²ľìĹ° ê¸°ëħĲë¬¼
ì»´í ĵ¨íĦ°
ĠëĿ¼ ìĦľ
ĠâĢ ķ
ĠíķĻ ìĦ¤
Ġê°Ī ìķĦ
Ġìļ¸ íĶĦ
ĠìľĦë ĤĺëĿ¼
Ġon ly
ŀ ¬
ĠìľĦ ìĬ¤
Ġìľł ê¶ĮìŀĲ
Ġë³¼ ìħ°ë¹ĦíĤ¤
Ġì§Ħë £Į
ĠëıĮë ³´
¨ë ³ĳ
Ġìłķ ê²½
Ġë°ĺ ìĦ±
íİĺ ë¥´ë
ĠëĨį ê²½
Ġåľ Ł
ĠìķĦìĬ¤ ëĦĲ
ĠìĹĦë °Ģ
r en
Ġâ ĺ
Ġíı¬ ì°©
Ġì¹´ íĶĦ
ìĿ´ ê²ĥ
ê» į
ĠìķĮ íĮĮë
ers on
Ġìĸ´ì ©Ķ
¥ ¼ë
Ġê°Ģ ëĬĺ
Ġë¬´ë ¡ľ
ì¹´ë ĭ¤
Ġê·¸ëłĩ ì§Ģë§Į
Ġìĵ°ìĹ¬ ì§Ħ
ĠìĦ±ëĤ¨ ìĭľ
P C
ĠìĦ ¹ìĬ¤
ĠìĦ± ìĭ¤
ĠC M
Ġìłľë ĭĪ
Ġë§ŀ ëĮĢ
CA F
ĠSc i
èĢ ħ
Ġìł ľëıĻ
ĠìĹ° íķľ
Ġê¹Ģ íĺĦ
Ġë§Īë ĭĪ
ĠëĭĪ ì½Ķ
am b
Ġë¶Ħë¥ĺ êµ°
Ġì¿łë ĭĪ
Ġì°¬ ìĸĳ
Ġëĭ« íŀĮ
l in
è ī
ĠìĿ´ ìŀ¥
ĠëĤ ļ
Ġíİ ´
Ġë§¤ ê±°ì§Ħ
ìŀī ê¸Ģëŀľëĵľ
Ġç§ ĳ
Ġì¢ħ ë§Ĳ
Ġë§¤ ëģĦë
Ġë³¸ ìĦ±
ĠëĶĶ íĬ¸ë¡ľìĿ´íĬ¸
Ġê¶ģ ê¶Ĳ
Ġçī ©
Ġçı ¾
Ġì ª
Ġë ¾°ì¡±
Ġíķĺ ë°ĺ
Ġì°½ ë¬¸
Ġì¦Ĳ ê¸¸
íķ´ë °©
ĠíĪ¬ë¥´ íģ¬
ĠìĦ¼íĭ°ë ¯¸íĦ°
ĠìķĦ ì¹ĺ
ê³µ ìĤ°ëĭ¹
Ġì¤ Ģë
ĠIn d
Ġíķ´ë°Ģ íĦ´
ĠìĤ¬ ê°ģíĺķ
ìħ ¨
Ġíķ© ì¹ľ
Ġìĥī ìĨĮ
ìºĲ ìĬ¬
Ġê°Ģ ëĵľ
Ġì£¼ ìŀħ
Ġì¶ľ ì²ĺ
ĠìłĦë ŀĺ
Ġì°½ ìĿĺ
Ġë¸Įë łĪë
ĠëĤ´ë ¬´ë¶Ģ
ĠíħĮë łĪ
198 6
Ġ+ +
Ġë¸Ķ ë¦¬
²Ħë Ł¬
ç Ł¥
Ġíķĺ ëħ¸ìĿ´
Ġë§Ī ì¹¨
Ġìĥ Ģ
ĠA t
ĠëĤ´ëł¤ ì¡Į
Ġëĥ ĲëĬĶ
ĠëĵĢ ìĸ¼
ĠíıīìķĪë Ĥ¨ëıĦ
Ġì§Ģ ëĭĮëĭ¤
Ġìĸ ķ
Ġæ² »
ĳĲ ë¦¬
Ġë¬´ ìĭ¤
Ġìĸĳ ìľ¡
Ġëª© íĮĲ
ĠìķĶ íĿĳ
Ġ et
Ġë§Ī ê°Ģ
ŀĺ ìĬ¤
ĠëķĮë ł¤
íĨłë ŀĳ
íĿ¥ êµ°
ëŀľë ĵľ
ĠìĬ¤íı° ìĦľ
Ġìĺģ ìĤ°
ĠëĤ¨ ìļ©
Ġë°Ķ ìĿ´íĬ¸
ĠíĮĮ ìĨĲ
ë¬¸ êµ¬
Ġê¹Ģ ì°½
Ġíķ© ìĬ¤ë¶Ģë¥´íģ¬
ĠëĮĢëĮĢ ë¡ľ
Ġìļķ ë§Ŀ
ä¾ Ĩ
¯ ¹
ç ¯
è ·¯
ì µ
Ġëĭ¹ ìĹ°
ĠìłĦë ¬´
ĠA BC
å® ®
Ġ188 6
Ġíĥľë °±
s ch
ëıĻ êµ¬
íĥĢë ¸Į
Ġë°©ìĸ´ ìĦł
ĠDav id
Ġëª¸ íĨµ
ĠíĪ ´ë
Ġìĸ´ëł¤ ìĦľ
ĠéĿ Ī
Ġê¸Ģë¡ľ ë¸Į
o id
ĠìĪĺ íķĦ
Ġå ĭĿ
ìĸ ¼ë¦¬
ĠíĻĶ ê¸°
Ġëª¨ ìĿĺ
Ġì°¬ ìĤ¬
ë§ĪìĿ´ íģ´
Ġå² ©
Ġìŀ¡ìķĦë ¨¹
Ġëį ¸ëĿ¼
ì²´ ê³łë
ìľĦ ìķĪ
ĠêµĲ ìĭ¤
Ġë°Ľ ì¹¨ë
Ġë°ķ íĹĮìĺģ
Ġì²ľ ê±°
Ġìļ¸ ë¦¬
Ġë§ĮíĻĶ ê°Ģ
ĠçĻ ¾
ĠíĬĢ ëĭĪ
ì²´ê³łë ¹ĦëĤĺ
Ġëĭ¤ ëŀĮì¥Ĳ
Ġìĭ £
Ġê´Ģ íĸī
Ġêµ¬ ìĭ¤
Ġìľłë £Į
ĠD D
Ġì£½ ìĿ¸
198 5
ĠëĮ ĵ
å Ł
ĠM or
ìľłë ¡ľ
Ġì§ķ ë³ĳ
ìĭłë ¡ł
ì²ľë ©´
ĠìķłíĭĢëŀľ íĥĢ
ç ľ
Ġë¦¬ ìĸ¼
Ġìŀ¬ ìĻ¸
Ġì´Ŀ íĨµ
Ġê°Ī ë¦´ë
Ġìłľì¡° ìĹħ
ĠìķĦë ¹ł
Ġë§Ī ì¹´ìĺ¤
Ġê²° íķį
Ġê´ĳ ëıĦ
Ġë¹Ħë°Ģ ë¦¬
ĠìľłìķĦ ê¸°
Ġëĭ¤ ìłĢìĬ¤
Ġíı¬ ìĭĿ
is ion
Ġíĸ¥ íĸĪ
Ġ188 7
ĠëĲĺ ëı
Ġíģ Ĳë
ĠíĺĦ íĸī
ĠS A
íĶ¼ ìĸ¸
Ġëĵľë łĪ
Ġì¡°ë ¡Ģ
ĠíĮĮë ıĦ
ĠìĤ¬ëĿ¼ ì§Ħ
ĠåĬ ł
Ġì¼Ī ë¦¬
Ġëª¨íĦ° ìĬ¤
e p
Ġê°Ģ ê³Ħ
ĠìĺĪ ìķ½
ĠM i
ĠíĶ¼ ìķĦëĭĪ
ĠìĶ¨ ìķĹ
Ġë³´ìĪĺ ëĭ¹
é« Ķ
ìĺ¤ëĬĺ ëĤł
ìĿ´ íĥĪë¦¬ìķĦ
ĠìŀĲ ìłľ
Ġìĺģ ìľł
ĠìĨĮ ê·¹
ĠU p
Ġëł¤ ëĭ¤
Ġì°¾ ìķĦëĤ´
ì¶© ë¥ĺ
Ġíĥĳ ìĭł
Ġìł¸ ìĦľ
ĠëłĪìĬ¤ íĨłëŀĳ
æ ħ
ĠìĿ´ íĥĢ
ìľł ìĺĪ
ĠìĻķ ê¶Į
Ġìĺ¬ëĿ¼ ê°Ķ
ĠìĺĪìĪĺ íļĮ
Ġëį¸ íĥĢ
ĠèŃ ·
ĠìĿ´ë °©
Ġë°© ê¸ĢëĿ¼ëį°ìĭľ
¬´ ìĬ¤
ĠìĹŃìĤ¬ ê°Ģ
f er
n g
íķ´ ìĤ´ìĿ´
Ġì§ģ íĨµ
Ġë°ķ ì§Ģ
ĠíĬ¸ ë¦Ń
Ġéģ º
ĠìĿ´ë¤Ħ ì¡Į
ĠëĮĢë²ķ ê´Ģ
ĠìķĦìĿ´ìĬ¤ íķĺíĤ¤
ĠëĮĢíķ© ìĭ¤
â Ĺĭ
ìĿ¸ êµ¬
Ġíķ¨ ìŀĲ
Ġìĭłë °ľ
Ġì¹´ë ¯¸
ëį° ìĬ¤
Ġê·¸ëłĪ ê³łë¦¬ìĺ¤
Ġê·¸ ë¦°ë
Ġì¤ĳ íĩ´
Ġæ Ĥ
Ġë¹ ¼ë
ĠG irl
Ġì±Ħ ì·¨
ĠíĢ ´ë
Ġå¿ Ĺ
ĠìĦłêµ¬ ìŀĲ
Ġê°Ħìĭł íŀĪ
O K
Ġê°Ģ íĻĺ
Ġìĭ¤ ê¶Į
ĠM ich
Ġê±´ë Ħ
Ġw ww
ĠìĻķìĦ¸ ìŀĲ
Ġë¯¼ ìĺģ
Ġìķ¼ ìĭľ
Ġë¦¬ë §Į
L E
ĠíĮĮ ìĿ¼ë
ĠJ ames
¸Įë łĪ
ëĵľë Ŀ¼ë§Ī
ĠìĮį ë°©
Ġì¤ĳ ìĥĿ
ëĮĢ ìĭł
Ġìłľë ¬¼
Ġåĩ º
ç Ļ
Ġë¡ľ ëĿ¼
íİĺ ìĬ¤íĬ¸
ĠG N
ë¥´ë ıĦ
ĠíĶ¼ë Ŀ¼ë
em ent
ĠéĦ ķ
ĠëĤĺ ëħ¸
Ġë³´ íĸī
ĠìķĦë ¹Ħ
ĠëĦ Į
Ġìŀ¬ íĻľ
Ġå¯ Ĩ
ĠìĹ°ê·¹ ë°°ìļ°
Ġë§Īë¥´íģ¬ìĬ¤ ì£¼ìĿĺ
ĠNA SA
Ġê´Ģ ë¬¸
an y
Ġê¹Ģ íı¬
Ġëł Ĳ
Ġæĺ Ń
198 3
Ġëħ¸ë ¡ł
Ġë°Ķë ĶĶ
§Ŀ ëĶĶ
Ġíĳ¸ ìĹĲë¥´
ĠíĹ¤ë¥´ ì²´ê³łë¹ĦëĤĺ
į´ë ¶Ģë¥´íģ¬
Ġìĸ´ êµ°
ĠíĶĦë¡ľ ë¦¬ê·¸
Ġë²¤ ì²ĺ
ëįĶ ìĬ¨
Ġ184 8
ì§Ģ ë¶Ģ
ĠëıĦ ëĳĳ
Ġìłķ ê±°
ĠíĮ °
Ġë§Ī ìĪł
Ġê¹Ģ íĻį
Ġì²ŃëıĻ ê¸°
Ġê°Ģ ë§¹
ĠìĿ´ë ³ĳ
Ġì¡° ê´ĳ
ĠT our
Ġë§Īë ĭĲëĿ¼
Ġê²°ë ³Ħ
T he
Ġë¶Ģ ìĽĲêµ°
Ġìĺ¤ íķĺìĿ´ìĺ¤
ìĿ¼ ìłľ
ĠìķĪ íħĮëĤĺ
Ġëª© ìļĶìĿ¼
Ġìļ©ìĿ¸ ìĭľ
t r
ìĭľ ì¦Į
ëł µ
Ġê°ķ ëł¬
Ġìĭ¤ ë²Ħ
ìĹ¬ ê°Ŀ
ĠëŁ¬ìĭľìķĦ ìĿ¸
íľ´ ìĿ¼
Ġê¹Ģìłķ ìĿĢ
Ġëĺĳê°Ļ ìĿ´
Ġì°¨ ì¶ľ
Ġìĭ¤ ì¡´
íħĮ ìĿ´ëĦĪ
ì§Īë Ł¬
Ġì£¼ì°¨ ìŀ¥
æĢ §
Ġë§Īì²ľë £¨
u x
Ġ" .
Ġìĥģ ê¸ī
Ġìĺ¤ íĤ¤
Ġê·¹ ìļ°
íĶĦë łĪëĵľ
Ġåı ¯
Ġì½ľë łĪ
¶Ģ ìĤ¬
Ġìłķ ìŀĳ
Ġêµ¬ë §Īëª¨íĨł
ĠìĿ´íĥĪë¦¬ìķĦ ìĸ´
§Ĳ ë¦¬ìķĦ
o le
ì¶Ķ ë¶ĢìĤ¬
as ter
ĠëĦĺ ì¹ĺ
Ġìľ¤ ë³´ìĦł
ë¸Ķë ŀľëĵľ
ĠèĻ Ł
ĠìĨĮ ìĿĮ
ĠíĻĶ ìķ½
Ġì± Ļ
Ġë§Īë ķħ
ĠìłķìĿĺ ëĭ¹
ĠLi ve
ĠæĦ Ľ
ĲëŁ¬ë ¯¸
å ¡
ìĹ° êµ¬
ĠìĻķ ê±´
Ġëĵľë ĶĶìĸ´
Ġëį°ë ¥´
Ġë²Ķ ìľłíĸī
Ġë§Ĳë¯¸ ìķĶ
Ġê°Ģìł ¸ëĭ¤
ç ·
Ġê·¸ ìłĢ
ĠãĢ Ĥ
ĠíĥĢìĿ´ê±° ìĬ¤
ĠíĹ¬ë¦¬ ì½¥íĦ°
ĠíĶ¼ìķĦëĭĪ ìĬ¤íĬ¸
O D
Ġìķ Ĺ
Ġì§Ħ íķ´
ĠíĥĢ ìĪĺ
Ġì²ĺ ì§Ģ
Ġê¹Ģ ìĺ¥
íĿ Ĳë
ìĿ¼ë ¡ľ
il la
Ġíĩ´ ì§ģ
Ġë§¨ íķ´íĬ¼
Ġë¯¸êµ° ìłķ
Ġê°ĢëĤĺ ê°ĢìĻĢíĺĦ
Ġê²½ íĺ¸
ìĨĮ íĨµ
ĠíķĻ ëĮĢ
ĠìĦ¸ë °Ķ
ĠíĶĦëĿ¼ íķĺ
ĠíıīìķĪë ¶ģëıĦ
ë¶ Īë
ê°ķ ìĽĲ
ĠìĦ¼ ê³łì¿ł
¸Įë ¡ľ
íĴĢ ìĿ´
ĠìķĦë¦Ħëĭ¤ ìĽĢ
Ġë° ĢëŁ¬
ìļ° ìĹĲ
ë¶Ģ ë¥´
Ġìŀ¥ ëĭ¨
ĠìĥĿ ìĦł
íĭ° ìĭľ
Ġë¶Īë Łī
Ġ189 1
ãģ Ħ
éĥ ŀ
Ġê°ĢìĨĶ ë¦°
ëŀ ľ
Ġìĭ¤ ìŀ¬
Ġë¬´ íĺķ
ĠåĲ Ī
ĠëłĪìĿ´ ìĭ±
Ġíľ´ ê²Į
Ġìĭ¤íĹĺ ìĭ¤
Ġï¼ ī
ĠìķĦíĤ¤ ëĿ¼
âĸ ł
Ġì¡°ë°ĺ ëĭĪ
Ġë¦¬ì¡° íĬ¸
å Ĵ
Ġë¹Ħ ì¶Ķ
ĠìļĶ ì¶©
Ġì¹´ íĦ°
Ġì²ł ì¢ħ
ĠíĮĮë Ĥĺë§Ī
ĠãĢī( )
ĠìĿ´ ìłĲ
ìĿ´ë ķĮ
Ġç ĥĪ
ëĭ¨ ì²´
is c
Ġë³Ħ ìĦ¸
ĠV ol
Ġd i
Ġäº Ń
Ġíķ¨ë Łī
ĠìŀĲì¹ĺ ì£¼
íĺĦë ıĻ
ĠPa ul
į ±
ł ´
Ġìĸ´ ìĭľìĬ¤íĬ¸
íĹ Īë
ĠM TV
Ġíıī íĺķ
Ġìļ© ìķĶ
ĠëĤĺíĥĢë Ĥ¸
ĠëĿ¼ìĿ´ë įĶ
ĠPar k
Ġëĸ¨ ìĸ´ë
ĠìĿ´ ìĻĦ
ĠìĪĺ ìĹ¼
ĠìĺĪ ì»¨ëĮĢ
ĠìłĦë ĭ¨
Ġì¹´ íĥĢë¥´
Ġìķ¼ ìłĦ
ĠìĬ¤íĮĮ ìĿ´
ĠíĶĦëŀŃ íģ´ë¦°
ĠìĪĺ ë³µ
ĠëĤĺ íĬ¸ë¥¨
Ġìľł ìĬ¤
Ġë¯¸ë ¥µ
Ġëģ¼ ì¹ĺ
Ġê²¹ ì³Ĳ
ĠìĹ´ìĭ¬ íŀĪ
Ġê°Ģ ìķ¼
Ġê°ķ ëł¹
Ġìļ° ë¦¼
§Ī ë¦¬
íģ´ë łĪìĺ¤
è¡ Ľ
inc lude
Ġ im
ł Įë
ĠìĿ´ ìĸĳ
Ġìĥģ ê¸°
Ġë¦ ´ë
ĠìĦľ ìŀĦ
ìĨĮë ¬¸
íĭĢ ë¦¬
ĠCh rist
ìĻĢë Ŀ¼ëħ¸
ĠìĹĲ ë¦¬
ĠìĤ¬ ëĤĺ
ìłķ ê´Ģ
Ġëª¨ ê¸Ī
Ġë¬´ íķ¨ë§Īëĵľ
ĠëŁ¬ ìĦľ
ĠëĬ Ļ
ĠO f
Ġíŀĺ ìį¼
Ġê·¸ëŀĺ ëıĦ
Ġìķ¼ë ĵľ
ħ¸ë ¯¸ìķ¼
ĠìķĦë¦¬ìĬ¤íĨł íħĶëłĪìĬ¤
Î ½
ĠìļĶ ì§Ģ
Ġêµ¬ë ĭĪ
ìļ´ë ĮĢ
ĠìķĮíĮĮë ²³
ĠìĪĺ ìĸĳ
ĠëıĻ ë¡ľ
ë³ ¼ë
en a
Ġë¸Įë ¤¼
Ġë¸Įë łĪìĿ´íģ¬
Ġë²Į ìĹ¬
Ġë©Ķë ī´
ĠPh il
Ġë§Īìĺ¤ ì©Įëĳ¥
ìĦľ ê¸°
ĠìŀĦ ìłķ
ĠíĽĦë °°
ĠêµĲíĨµ ë¶Ģ
Ġè» Ĭ
Ġì°¸ ìĤ¬
Ġêµ¬ë Ĥ´
Ġê¸°ê´Ģ ì§Ģ
ĠìłĪë §Ŀ
ĠëĽ°ìĸ´ë Ĥ¬
ç¥ ŀ
ĠìĤ¬ ì¿łëĿ¼
ìĦ± ê²½
Ġë¶Ī ì°¸
Ġì¶Ķ ë¦¬
Ġåį ĥ
ec k
Ġa b
Ġíģ´ëĿ¼ íģ¬
Ġê°Ģ ìĺ¤
Ġê³ł ì³¤
Ġì¤ĳ íķ©
Ġìľł ìłķ
Ġìľł íĺ¹
ĠíĥĢ ìĬ¤
ĠìķĮë ŀĺìĬ¤ì¹´
Ġíķ´ë ıħ
ìĭľë °Ķ
Ġì§Ģë°° ìŀĲ
ëŀĳ ì¹´
âĢ Ļ
ìĽ Ķëĵľ
ĠìĬ¤ ê°Ģ
Ġë¦ ´ë¦¬
Ġìĭł ìĥģ
Ġë¦¬ íĶĦíĬ¸
Ġíĺ¸ ì¿ł
Ġê°Ĳ ìĥģ
ìĭľë ¯¸
Ġì¹¨ë ¬µ
A I
æ µ
ĠëıĦ êµĲ
ĠìĪĺ ë¡ľ
ĠìĪĺ ëĿ½
ĠìĻĢ ìĿ´ë²Ī
Ġë¬¸ ì¢ħ
Ġê°ķ íķ´
ĠìłĦë ĭ´
ĠìĹ´ ê°ķ
ĠD o
ic s
æľ Ī
Ġë°Ķê¿ Ģ
Ġì¯ Ķ
ĠåĴ ¸
Ġê³ł ì¶Ķ
ĠëĤĺ ìķĦ
Ġëª¨ ìĥī
ìµľ ì´Ī
ĠíĮĮë ²Į
å¼ ı
6 6
ìĺ¤ ìĬ¤íĬ¸ëłĪìĿ¼ë¦¬ìķĦ
Ġë¹Ħ íĥĢë¯¼
Ġ11 2
Ġì´Ŀ ê¸°
ĠìķĮ íĶĦìĬ¤
198 2
Ġêµ¬ë ĳĲ
Ġìłķë¶Ģ êµ°
p or
Ġ ad
Ġë Ł¼
ĠëĮĢ ë¶ģ
ĠìĦ¸ íĤ¤
Ġëª¨ íĺ¸
ĠC he
Ġê°Ģìł¸ ìĺ¨
ĠìĥĿì¡´ ìŀĲ
Ġì¤ĳ ìĹ½
Ġë¬¸ ê³ł
ĠâĢ ¢
ì½Ķ íĨł
ĠD i
Ġìĭľì¼ľ ìĦľ
R S
a x
łë įĶ
Ġå ´ĩ
Ġì° Ĳ
ĠíĺĦ íĻ©
Ġìłľë ªħ
ìĽĮ ìĦľ
ĠíıŃ íĮĮ
Ġë´ī ìĿ¸
ĠëıĻë¬¼ ìĽĲ
ĠíĻĶê°ķ ìķĶ
ã Ĩį
Ġë¯¸ ì¦Ī
ĠìĤ¼ ì¸µìĦĿíĥĳ
Ġì·¨ íĸĪ
Ġì¡°ë ³ĳ
ĠY our
ĠëĵľëŁ¬ë ĥĪ
æĹ ı
Ġè ·¯
Ġëª¨ ìħĶ
Ġë°ľë Ŀ¼ëĵľ
Ġë¹ł ìł¸ëĤĺ
ĠìĤ¬ íĥķ
Ġìľłë ª©
Ġíıī íıī
Ġíķ© ì¹ĺ
ĠëĤĺë £¨
Ġæµ ģ
Ġì°° ë¦¬
ĠíĶĦëŀĢ ì²´
ĠëĳĲëł¤ ìĽĢ
z e
Ġê³µ ì¡´
ĠëĤĺ ë¥´
ĠíĶĦëŀĳìĬ¤ ìĿ¸
Ġì¹ľ ìľĦëĮĢ
Ġì§ķ ìĪĺ
ĠèŃ °
ĠêµŃ ìĪĺ
íģ´ë Ł½
ĠìĬ¤ì¹´ ìļ°íĬ¸
Ġê·¸ëłĪ ê³łë¦¬
Ġéį ¾
åĴ Į
Ġë¡ľ ìłĢ
Ġë°© ì¹ĺ
Ġì¹´ ìĤ¬
Ġìķł ìłķ
ĠìĨ¡ ìĭł
ĠëıĦ ëĤĺ
Ġë¹Ħ ì¤Ģ
ĠD es
Ġë©Ķ ìĿ¼
ĠE r
ĠìŁ Ī
Ġê¸°ìĪĻ ìĤ¬
Ġë¥ ¸
ìĽ ¬
Ġì´Ī ê³ł
ë³´ íĨµ
Ġê±´ ìłĦ
ĠN ight
ĠëĲĺëıĮ ìķĦ
Ġìłķ ìłľ
ìĸ´ ìĤ¬
Ġì£¼ ê³Ħ
ĠëıĻ ìľłëŁ½
Ġëª© íļĮ
Ġìŀł ìłķ
åŃ Ĺ
Ġë°ĶëĢ Ĳ
ĠìĺĪìĦł ìłĦ
Ġë°Ķê¿ ¨
Ġëª¨ ìļķ
Ġíİĺ ë¡ľ
°° ìļ°
Ġì»´í ĵ¨íĮħ
ĠíĪ¬ìŀĲ ìŀĲ
Ġë§Ĳë ħĦ
ĠìĿ¸ê³µ ì§ĢëĬ¥
ens is
ĠíĶĮëĿ¼ íĨ¤
Ġê²½ìłĦ ì²ł
ç« ł
ĠëĮĢëĭ¨ íŀĪ
ĠìĻĢìĿ´ë²Ī ìĬ¤
g an
u th
³ »
Ġê²½ ìĭľ
ĠìķĦ ë¦¬ìķĦ
ĠìĬ¤ íĥľ
Ġìļ° ìķĦ
B I
Ġ as
Ġë¶ģ ìķĦìĿ¼ëŀľëĵľ
Ġëĸ ¡
ĠìĹħ ìŀĲ
Ġì¾ °ë¥¸
Ġìĭľ ìķłíĭĢ
Ġíı¬ íĦ¸
Ġì¦ ĺ
Ġì¡Į ìľ¼ëĤĺ
ë¬´ë Ĭ¬
Ġæ¹ ĸ
ĠìĤ¬ ë°©
Ġëıħ ëıĦ
ëłĪ íĥĢ
ĠëıĦë§Īë ±Ģ
Ġìŀ¥íķĻ ê¸Ī
ĠìĤ¬ ë¯¼
Ġìłģ ìĻ¸ìĦł
Ġìłľ ìľĦ
ĠëĦ¤ ìĺ¤
ìĽĮ íķĺ
el f
ĠìĨ¡ ì¶ľ
Ġê¼½ íŀĪ
R C
Ġ ra
ĠìĿ´ íĥľ
Ġê³ł ìĤ°
ê³ ¨ë
ĠìĤ¬ ìļ°
ĠJ o
íĭ°ë Ħĺ
Ġì¹´ë¥ ¼ë¡ľ
Ġæĥ ł
ĠìķĦë¯¸ íĥĢ
Ġë©ĶëĶĶ ì¹ĺ
t ain
Ġí ĵ
ĠìŀĲ íģ¬
ëĭ Ľ
Ġé ¾
Ġë§Įë ħĦ
íĮĮë ĭĪ
ĠìĿĢ ê±°
ĠìĹ° ìłķ
ì°½ íĺ¸
ĠTh om
Ġíķ´ë¦¬ ìĬ¨
ĠìĤ¬ ìĦ¤
Ġìłķ ì¢ħ
ìĪĺ ìĬ¤
ĠëıĻ ìĭľëĮĢ
ĠíĺĦ ìĿĢ
ĠìĬµ ìľ¤
ĠìŀĲ ìĦľ
Ġíĺķ ì§Ī
ĠìĤ ¼ë¦¼
ĠìłĲ íı¬
ĠG ood
Ġì¤Ģ ìĪĺ
ĠìĿĺìĤ¬ ìĨĮíĨµ
³´ë ¥´
Ġê°Ģ ê°Ģ
ë¦¬ ì§Ģ
Ġëª¨ ë¦¬ìĬ¤
Ġëħ¸ë ©´
Ġ21 0
ĠìłĪ ìłķ
ul l
ĠëĦ· ì§¸
ĠìĤ½ íĻĶ
Ġíģ¬ë¦¬ìĬ¤íĨł íį¼
ĠíĮĮ ìĿ¸
ĠìĿĮ ìłĪ
ĠìĺģíĻĶ ìĥģ
ĠìłĪë ²½
Ġ33 0
ĠìĿĺ ë¥ĺ
Ġìľł ìĿĺ
Ġé Ĳµ
ê±° ìĬ¤
Ġìĥ ¬
íĽ Īë
ĠëĨĢëĿ¼ ìļ´
ĠìĦľìŀ¬ íķĦ
Ġìłķê±° ìŀ¥
Ġê¸° ëĭĪ
Ġê³µ ìĸĳ
ĠìĦ± ê³½
ĠN T
Ġä¿ Ĭ
ĠìĬ¬ íĶĶ
ĠìĥĮë ĶĶ
ĠìĤ¬ ìłĪ
ĠìŀĲ ëŀĢ
Ġì²ľ ìĻķ
ĠíĥĦ ìķ½
ĠìĿ´ë¤Ħ ì§Ģ
ĠíĮ¨ëŁ¬ë ĶĶ
Ġê°Ģ ëĦ¤
ì§Ģ êµ¬
Ġë¶Ģ íķ©
Ġìłľ ë¦¬
ĠëĤĺ ê°Ħ
ĠíĨµ ìĹŃ
íģ´ë ¡ľ
ìŀĲ ë£¨
ĠìĬ¤ ë¡ľ
Ġìĺ¤ íģ´ëŀľëĵľ
ĠíĬ¹ ìłĦ
ëħ ¹
Ġç« ¹
ĠAP I
ĠëĮĢìĦ± ìłĦ
Ġìĸ´ê¸ĭ ëĤĺ
Ġì ĳ¤
ìŀĲ ì²´
Ġë² Ķë
Ġì¢ħ ìŀĲ
ĠìĹ°ë §Ĳ
ĠíĻ© ìĨĮ
ĠëĪĦë ł¸
Ġíģ¬ë¦¬ìĬ¤íĭ° ìķĪ
p le
ĠëĮĢ ìĽĲêµ°
Ġê³µ íľ´ìĿ¼
íĻĶ ë¬¸
ĠìĤ° ìĦ±
íĿ Ļ
Ġê°Ĳ ìĦ±
Ġíİľ ìĭ±
Ġç¬ ¬
Ġìĭľ ìĹĲ
Ġì¡° ìĿ´
Ġìĭł ìłķ
ĠìĥĿ ê³Ħ
Ġì¹ĺ ê³¼
ĠíĨłë ¯¸
ĠìłĢì§Ģ ëĮĢ
ê³ł ìĸĳ
êµĲ íĻ©
Ġë°ĺ ê¸°
ëĵľ ë¦¬ìķĦ
ĠìĪľ ì¢ħ
ĠëĨį ìĤ°ë¬¼
Ġë§ī ìĬ¤
Ġë³¼ íĬ¸
Ġì¼Ģ ìĿ¸
Ġéģ ł
Ġ186 1
Ġìĺ¤ë°Ķ ë§Ī
ë©´ë Ŀ¼ìĿ´ëįĶ
ĠìĹŃ ëıĦ
Ġê³Ħ ìĭľ
Ġì¶Ķ ëł¥
ĠìĤ° ìĭľ
Ġì²Ń ìĨĮ
ĠìĿµ ìĪĻ
Ġê³łìĨį ë²ĦìĬ¤
ĠìĭłëıĦ ë¹Ħ
Ġíģ´ë¦° íĦ´
Ġìĭľì½Ķ ì¿ł
ĠëıĦ ëĦĲëĵľ
ĠìĹ¬ ìĤ¬
Ġæ £
ĠìĽĲ íĨµ
it s
Ġê²© ì¶Ķ
Ġë²ķìĽĲ ìŀ¥
ĠëģĮ ìĸ´
íĶĦëĿ¼ ìĿ¸
z a
íĺ Ģë
ĠìļĶ ê²©
ĠA V
ĠD M
Ġä» »
ĠÎ ²
Ġì¼Ģë ¹Ī
Ġì½ĺíħĮ ìĬ¤íĬ¸
æ ¯
è §
Ġíķĺ íĤ¤
ĠìłĦ ìłĦ
Ġìłķ ìĦł
Ł¬ íĶ¼ìĸ¸
¸Į ìĬ¤
ĠK n
ĠíħĮ ìĿ¼
Ġê²© ë¦¬
Ġê¸´ íħĮìĵ°
Ġì¹¸ êµŃ
ãĤ ĵ
ĠëĬĲ ë¦°
ĠíĶĮëŀĺ íĭ°ëĦĺ
å ¦
è Ĥ
Ġê°Ģ íĺ¹
ê³ł ìĭľë§Ī
Ġìĸ´ ì°Į
Ġì¤ĳ ìĪĺ
Ġì¢ħ ìĭĿ
ê» ı
Ġë°± ê³¼
Ġê¸ī ìĹ¬
ĠíĮĮë Ĥĺ
íĶĮë Ŀ¼
Ġíķ´ìĥģ ëıĦ
ĠëĮĢë¦¬ ìĿ¸
Ġíķ¨ê²½ ëĤ¨ëıĦ
ĠCl ub
ìĹĲë¯¸ ë¦¬íĬ¸
A E
P G
Ġì£¼ ìĭ¬
Ġìĺģ ìĺĪ
Ġê°Ħ ì²©
at ch
Ġë¬¸ë ĭ¨
ĠìĬ¤íĨ¡ íĻĢë¦Ħ
ĠëĮĢ ìĺģ
ìŀĲ ìľł
Ġìĭ¤ ë¡Ŀ
Ġìŀ¬ íİ¸
¬´ë Ĥĺ
ĠìļĶë ²ķ
Į Ħ
Ķ °
Ġê°Ģ ëĿ½
Ġìĭľ ê²Įë
Ġíģ´ë Ł¬
Ġë²łë ¥¸
Ġä» ²
197 2
Ġèĩ £
ë¦´ë ŀľëĵľ
ĠìĿ´ ìĿĺ
ĠìĿ´ ìĨ¡
ĠìĤ¬ ìĹŃ
ĠìŀĲ ëªħ
Ġë² ¨ë¦¬
Ġìĺ¤ ëħ¸
ìĿ´ë Ł°
Ġë¬´ ê³¼
Ġì¢ħ êµ°
ĠìłĪ ê°Ĳ
ĠìĪĻ ë¶Ģ
ìĹĲë ¡ľ
Ġë©ĶìĿ´ ì»¤
Ġê¿ Ģ
Ġìłķ íĺķ
íĻĶ ìĤ°
ĠìĽĲ êµ°
Ġë¦¬ íŀĪ
ĠíĬ¹ íĻĶ
ìĿµ ìĬ¤
ĠíĥĢìĿ´ ìĸ´
Ġä» ¥
Ġ188 1
ĠëĽ°ìĸ´ë ĵ¤
ä¸ Ģ
194 0
íģ´ë¦¬ ëĵľ
Ġ u
ĠëıĦ íĶ¼
Ġíķ´ ìłĢ
Ġë¹Ħ ìłķ
ĠëĤ´ ìĦ±
ĠC al
Ġê±°ë ŀĢ
Ġì´Ī ìĭłìĦ±
ĠG B
Ġê²Ģ ê±°
ĠSN S
ĠìĹ ¥
ìĿ´ë ¯¸
íŀĪ ìĤ¬
Ġìłķì¹ĺ íķĻ
ĠìĦłë ´ī
Ġé Ĩ
Ġë§¤ ì§ģ
ĠìĦłë ªħ
Ġ186 6
Ġëĭ¬ëĿ¼ ì§Ģ
Ġë§Įë Ĥľëĭ¤
Ġë¦¬ë ¹Ħ
Ġê·Ģ ìĭł
§ģ íĦ´
ation s
ĠíĿĲ ë¥¸ëĭ¤
ëĶ Ķë
ìľµ íķ©
Ġê´ĳë³µ êµ°
ìĬ¤ íİĺìĿ¸
Ġì£¼ íĻĶ
Ġë§Ī ì¼ĵ
Ġé ħ
ĠëĤ´ ê±¸
ĠíķŃ ë§Į
ĠìĦ¼ íĬ¸
Ġì¤Ģ ìŀ¥
Ġê±¸ì³Ĳ ìĦľ
Ġë¶Ģ ì´Ŀë¦¬
ĠêµŃ êµĲ
ĠíħĮ íģ¬
ou gh
18 5
ne y
íĥĦë ¶Ī
ĠIns tit
Ġìĭľ ê°ĦëĮĢ
Ġë³´ ìĦ±
Ġìĸĳ ìĭ¬
ĠìĻ¸ ì¹ĺ
ĠíħĮëĦ¤ ìĭľ
L G
ĠìĿ´ ê²¨
Ġê³ł ìĿ´
Ġë°© ëĮĢ
Ġíĺķ ë²Į
Ġëĸ¨ìĸ´ ì§Ħëĭ¤
Ġíį¼ ìĬ¤
ĠìľĦë ¡ľ
r id
w ork
ĠìĦ °
Ġê°Ģ ì¤ĳ
Ġê³ł ìĥĿ
íĮ Ĳë
Ġì§Ħë ¡ľ
ìĦ¼ ìĬ¤
Ġì³Ĳëĵ¤ ìĸ´
Ġëĭ¤ ëĵ¬
Ġë© į
ĠìĨĮ ì¤ĳ
ĠíĥĢ ì§Ģ
19 20
ĠìĹ¬ë °°ìļ°
Ġìļ© ìķ¡
Ġìłĳ íķľ
Ġì»¤ ìĦľ
ĠëªħíĻķ íŀĪ
ë©ĶìĿ´ ì¹´
Ġê°ľ êµ¬ë¦¬
Ġë¦¬ ìĺ¹
Ġê°ģ ìĦ±
ìĺĪ ìĪł
ĠëĦĪë ¨¸
ëħ¸ë ²Ħ
Ġë§Īë²ķ ìĤ¬
Ġ3 20
Ġìļ° ì¹ĺ
Ġ28 0
ĠìĬ¬ íķĺ
ä½ Ľ
Ġç© º
ĠëıĦ ëŀĺ
Ġíĺ Ģ
ĠíĮ ĶëĿ¼
ì²ľ ìĻķ
Ġå¯ Į
Ġë¹Įë Ŀ¼
Ġì½ĺìĬ¤íĥĦ íĭ°ë
ĠíĽĦì¿łìĺ¤ì¹´ íĺĦ
B L
c ess
Ñ ĥ
Ġê¸° ëŁī
Ġì¹ĺ íĻĺ
Ġìĭłë ıĻ
ĠE BS
ĠV er
Ġë¡ľë§Ī ìĿ¸
ec tion
ĠëĦĪë ¬´ëĤĺ
CA CAF
ĠëŀŃ íģ¬
Ġë¹ĦìĦľ ê´Ģ
D S
Ġìĭł ì§Ģ
ĠëĤ¨ êµ°
Ġë¸Įë £©
ĠO B
ĠíıĲ ëł´
Ġ159 2
ĠìĬ¤íħ Ŀ
çļ ĩ
Ġ ti
ĠìĹ¬ ê¶Į
Ġé ī
ĠíĻĶ ìĹĦ
ĠS er
Ġì¢ħ ìĺģ
ĠC ent
Ġíıī íĮĲ
et y
ìķĪë ¶Ģ
ĠíĬĢ ë¥´íģ¬
Ġç· ļ
Ġíļ¨ê³ł íĺĦ
ĠìĹ¬ ìľł
ĠìĿ´ë ¸Ĳ
ë° ¤
ĠêµĲ ìĿĺ
ĠëĮĢíĳľ ìŀĲ
ĠR ed
ĠíĻ© ìĥī
ĠëŁŃ ë¹Ħ
Ġì ħ¸
ìĭ ¯
ĠìĿ´ë °ĺ
ĠëĿ¼ ê¸°
Ġë¯¸ ìķ¼ê¸°
ĠìĹ¬ë ıĦ
íĭ°ë ª¨ìĸ´
ĠO ST
Ġêµ°ë į°
Ġë§Īëĭ¤ ê°ĢìĬ¤ì¹´ë¥´
ĠìľĦë ł¥
Ġìĭľì¼ľ ìķ¼
ĠìķĦë§Ī ì¡´
ĠìķĦìļ° êµ¬
ĠëĤ´ìĦ¸ ìļ°
ĠíĶ¼ëĿ¼ë ¯¸ëĵľ
ĠìĦł ì²ľ
Ġë°ľ ìĥģ
ĠR ich
ĠìĹĶ íĬ¸ë¦¬
Ġìļ°ì¦Īë²ł íĤ¤ìĬ¤íĥĦ
F F
Ġì§Ģ ê·¹
ĠìŀĲ ë¥´
ìĪĺ ëıĦ
ìĦ± ìłĦ
ĠìĨĮ íĶ¼ìķĦ
ìĿ´ë ıĻ
Ġê°Ħ ìĤ¬
Ġìķ½ íķ´
Ġp ar
ì¿łë §Ī
Ġ186 4
ìĤ¬ ìļ°ë
ìĽ Įë
ìĪ ľë
Ġìľłë Ł¬íĶ¼ìĸ¸
Ġì²Ń ë£¡
íİĺ ëŀĢ
Ġä¸ ģ
Ġê´Ģê³Ħ ìĹĨìĿ´
Ġìļ°ë £¨ìĬ¤
ìĹĺ ë¦¬
Ġê°Ħë ŀµ
Ġë°©ìĤ¬ ëĬ¥
åĳ ½
Ġì¹´ìĬ¤íĭ° ìķ¼
Ġë³ ¼ë¡ľ
Ġìĭľ ìĨį
ĠìĻĢ ëĿ¼
Ġíķ´ ì¹ĺ
Ġë°Ķ ì³¤
Ġíĺ¸ íĶĦ
íĬ¸ë łĪ
ĠìĤ¼ ì¤ĳ
ĠìĤ°ë ĳ¥
Ġå° ĳ
Ġë³´ìĪĺ ì£¼ìĿĺ
ĠíĥĢë Ŀ½
Ġëĭ¬ìķĦë Ĥ¬
ĠìĭľëĦ¤ ë§Ī
ê³ ¨ëĿ¼
Ġìĭľë ¶Ģ
Ġ187 6
sp an
ĠéĹ ľ
Ġë¡ľ íİĺ
ĠêµĲ ë¶Ģ
Ġìŀĳ ë¬¼
Ġìĭľë ©ĺíĬ¸
ĠM er
íĬ¸ë Ħĺ
Ġë´ī ìĪĺ
ĠìĤ¬ìļ´ëĵľ íĬ¸ëŀĻ
Ġìĸ´ ìļ¸ë¦¬
Ġ4 000
Ġë³´ë ¡ľ
Ġìķħ ë³´
ĠíĨµìĭł ìĤ¬
Ġì¼Ī íĬ¸
ĠëĭĪì½ľë Ŀ¼ìĿ´
ĠìķĮìķĦë ³´
íĮ¡ ìĿ´
§ Ĳë¡ľ
ĠìĿ´ë ª¨
Ġì§ģ ìĨį
Ġë¦¬ë ³¸
ìĬ¤íħĮë ¥´ëĭ´
éº Ĺ
Ġìłķ ìĽĶ
Ġê³µ ìĨĮ
Ġìľł ê³µ
Ġë§ŀ ì¶ĺ
ĠìĪĺ ìľĦ
ĠìĬ¤ íģ¬ë
Ġë£¨ íģ¬
Ġë§¡ ê¸°
Ġê¸Ģ ê¼´
197 9
ĠíĮĲë ¡Ģ
æķ ¸
ĠíĥĢìĿ´ë ²łìĿ´
Ġå į°
Ġì¡° êµĲ
Ġìĭ¤ ì¦Ŀ
Ġëª¨ ìĸ´
ĠëĤ¨ íķ´
Ġê¹Ģ ì§Ģ
Ġë¬´ë Ħ¤
Ġì¿ ¡
Ġ187 3
Ġë² ¼ë
Ġìľł ìĥĿ
ĠìĺĪ ì¢ħ
Ġì§Ģìĥģ íĮĮ
ĠíĹ¬ ìĭ±
ĠìĺģìĽĲ íŀĪ
ç ¤¾
Ġìłķ ë°ĺ
Ġíķ´ ë¦¬ìĬ¤
Ġë³´ ìķĪë
ĠM Hz
ìĨĮë ł¨
Ġìŀł ê¹Ĳ
Ġçķ °
ĠìĤ¬ ë¶Ģ
Ġìĸ´ íĮĮ
ĠìĬ¤ ì¦ĪíĤ¤
Ġëĭ¨ ìĨį
Ġê±° ìĦ±
ëĵ± ìĭĿ
Ġå¾ Ĺ
Ġéĥ ŀ
Ġë¶Ģìĥģ ìŀĲ
Ġìĺ¤ë¦¬ ìĺ¨
ĠìķĦíĤ¤ íĥĢ
Ġë°Ķê¾ ¼
Ġê²½ ì£¼ìĭľ
ĠìĬ¤ íĬ¸ë¡ľ
Ġëªħ ìĨĮ
ĠìĨį ëł¥
Ġê°Ħ ìĦł
ub lic
ik e
ĠìĭľíĬ¸ ì½¤
ìĿ´ ìłĦ
Ġê¸° ë»
ìľ ħ
¯¸ íĬ¸ë¦¬
Ġì´Ŀ ê²©
íĺĳ íļĮ
íİľíķĺ ê²Ĳ
® Į
Ġ en
Ġìłģ ë£Į
ĠìĦ± ìķħ
Ġê´Ģ ëª©
Ġìĭł ê³¡
Ġëª¨ë ²Ķ
Ġì²ľ êµŃ
Ġê³¨ ê²©
ro s
ĠíĹĪë ĵľ
Ġæ² Ļ
ĠAmer ican
Ġê¸° ìĻĢ
Ġë°ľ ì¹¸
ĠíĪ¬ ìĹ¬
Ġì»¤ ìĬ¤
åĭ Ļ
Ġê·¸ëłĪìĿ´ íĬ¸
ì¹ĺ íŀĪ
ĠìĬ¤ ë¯¸
ĠI OC
Ġëĭ¬ë ŀĲ
ë ĪĦë
ĠìĪĺ ìĭĿ
ĠìĨĮ ìļ¸
Ġíĳľ ìłķ
ĠìĿ´ìļ© ê°Ŀ
ê¹Ģ ìĺģ
ĠìĿĳ ê¸ī
ĠCh ris
ĠëĬĲëĤ Ħ
åħ ¬
łë¡ľ ê·¸
Ġëŀ¨ íĶĦ
Ù Ħ
Ġìķĺ ìĹĪ
Ġì°¨ ìĦł
Ġì¢ħ ìĸĳ
Ġê°Ĳ ì°°
Ġíŀ Į
íħĮë §ĲëĿ¼
§¥ ìĬ¤
ĠëłĪëĵľ ìĤŃìĬ¤
ĠéĮ Ħ
Ġë¬´ìĭ¤ ìłĲ
ĠêµŃ ê³µ
Ġíı¬ ê³ł
²ł ìĬ¤
Ġëĸłë Ĥľëĭ¤
Ġë¹Ħíķ´ ìĦľ
Ġìĥĺ íĶĮ
ê°Īë Łī
ĠìĹ¬ìĿĺ ëıĦ
h a
l ing
Ġëª ¹
Ġê³µ ìĺģ
Ġë°Ŀ íĺĢë
ìĿ¸ë ıĮ
Ġìĺ® ê¸´
ĠëĮĦ ìĦľ
Ġì¤Ħê¸° ìĦ¸íı¬
i or
ìĭ łëıĦ
Ġíķľ ìĭł
Įë Ŀ½
Ġë¶Ģ êµĲ
Ġê²° ìĤ¬
³´ ìĤ´
ĠëłĪ ìĿ´íĬ¸
ĠíĶĮë ŀľ
Ġç« ł
ĠìĦ¸ ìĬµ
ĠìĦ± ìĽĲ
ĠìĨĮ ìĻ¸
Ġìļ° ìĿĺìłķ
ê²½ ì°°
Ġìķ½ íĺ¼
ĠìĹ°êµ¬ íļĮ
Ġìłĳ ìĸ´ëĵ¤
ì¶© ì²Ń
íķĦ ë¦¬
ìķ¼ë§Ī íĺĦ
Ġ187 2
í Ĳģ
ìĦľ ìĬ¤
Ġë¬¸ ì§ĳ
Ġíĺķ íİ¸
Ġíİ¸ ê²¬
ĠìĮį ëĮĢ
ìķłë ¯¸
Ġê³ł ëĶķ
ĠëĮĢ ì¢Į
ĠìĤ¬ ìķĪ
ĠìĤ¬ ë¦¼
Ġì£¼ ìĦł
Ŀ¼ë ¥´
ĠìļĶ ìłľíĶĦ
Ł¬ë ĵľ
Ġê·¼ ìĤ¬
íĮĮë ¥´íĬ¸
íĺ¸ë ŀĢ
Ġå½ ¦
ì· Ħ
g y
Ġë°© ì½ķ
ĠìłĦë ³´
Ġf rom
ĠW ind
Ġìķķ ëĳĺ
196 8
ĠCON CACAF
ë¦¬ ìĸ¸
ê¸° ë³¸
ĠìľĦ íķ¨
Ģë £
Ł¬ë ¸Į
ĠíķŃ ìļ°
Ġì¹ľ ì¡±
Ġìłķë³´ ìĽĲ
Ġë§Īë¥´ íĭ´
Ġåº ¦
194 6
ĠìĽĲìĤ° ì§Ģ
Ð ²
é Ł³
Ġíķĺ ë¹Ħ
ĠìĤ¬ íķĻ
ĠëıĦ ë°ķ
Ġë¯¸ ì¹ľ
Ġê´Ģ ë¡Ģ
Ġå® ĩ
ĠíĮĶ ëł¸
Ġêµ°ìĤ¬ ëł¥
Ġw h
Ġìĭ¬ë ¶Ģ
Ġëª¨ëĭĪ íĦ°
ĠOp en
Ġì¹´íĥĪë £¨ëĥĲ
Ġê²½ ìľĦ
Ġìĺ¤ ëĿ¼
Ġì¶ľ ìŀĲ
ĠìķĪ ê°ľ
ĠA ir
ì½Ķ ë¥´
ĠìłĢ ì¡°
ĠëĴ¤ ìĿ´
ĠëĨĵ ìĿ¸
ìĽ¨ ìĿ´íĬ¸
ĠëĤĻ ëıĻê°ķ
Ġìķ¤ ëįĶìĬ¨
Ġï¼ į
æ ¬
Ġë¡ľ ìĿ´
Ġë¶Ģ ë¦Ħ
ĠìķĦ ìĤ°
Ġê³Ħ ì£¼
ĠP ri
Ġë³ĳ ìŀĲ
ĠíĶĦëŀĳìĬ¤ ëł¹
Ġë²Ķ íĸī
ì½ĺ ëĵľë¦¬ìķĦ
ìģ ¨
íħĮëĦ¤ ê·¸ë¡ľ
ê°Ĳë ıħ
ĠíĨĪ ì§Ħ
Ġê³ł ìĿĺ
ĠëıĻ íı¬
Ġç ĸ
Ġê°ķ íĸī
Ġëĭ¨ ìłķ
Ġë¶ģ êµ°
ĠìķĪë ħķ
Ġìłľ ìļ°ìĬ¤
Ġìłľ íį¼ìĬ¨
ì¡° ìĤ¬
Ġë£¨ ì¹´
Ġìĺ¬ë ĵľ
ĠíĹĪ ìłķ
ìĿ¸ë ĵľ
ie w
ëłĪë ĵľ
Ġë²łë¥´ë Ĥĺ
Ġonly include
Ġëĭ¤ ë§Ī
Ġé Ł³
Ġë°Ľ ëĵ¤
Ġë¹Ħë ĮĢ
Ġëī´ íģ´ëłĪìĺ¤
Ġê±¸ ìĸ´
Ġd el
ĠëĿ¼ ê·¸ë
ë³ Ħë
ĠC enter
us s
ĠìķĪë °©
Ġë£¨ë ¹Ħ
Ġíķ´ìķĪ ìĦł
ĠêµŃìłľë ²ķ
Ï ģ
ĠìĿ¼ ê´Ħ
ĠíĽĦ ìĺĪ
ĠëĿ¼ë ¦¬
ìĹħ ìŀĲ
Ġë³´ë Ŀ¼
ì¼ Īë
Ġì²´ ìĿ¸ì§Ģ
ĠìĥĿê²¨ë Ĥľ
Ġê¾Ģ íķĺ
ĠìķĦì¼Ģ ìĿ´ëĵľ
ĠíĮĮìĿ¼ë Ł¿
ì ¸°
Ġë¡ľ ë¦¬
ra g
Ġ186 3
Ġê²Įë ģĶ
Ġê¸īìĨį íŀĪ
ê³¼ë ¬¼
ìĥģ ìĭľ
Ġëĭ¹ íķł
Ġê¹Ģ ìĽĲ
ĠìĦłë ĮĢ
ë°Ķ ìĭľ
Ġëĭ´ë ³´
²Ħë ¥¸
Ġëĸł ìĺ¤ë¥´
ĠìĹ¼ë ł¤
L B
ŀ ĭ
ĠìĹ° ë¦½
Ġëĭ¨ ê²°
19 30
³´ ìĿ´
ĠìķĪë ¬´
od y
ĠìļĶì¶© ì§Ģ
ĠìĤ¬ ì¹´ìĿ´
Ġì£¼ ì°½
ìĸ´ë Ħ£
ì°¨ ìĿ´ì¦Ī
ĠV al
ĠìĽĮ ì»¤
Ġä½ ľ
Ġç¸ ½
ĠìŀĲìľłë ¯¼ì£¼ëĭ¹
ë¸Įë¦¬ ìĹĺ
ì¹¸ë ĶĶëĤĺ
æ ı
Ġë¶Ģ ëĭ¤
Ġì° ¢
Ġ187 8
Ġëŀ´ ìĺ¤
y pe
Ġíķ´ íĥľ
Ġë¹Ħ ì£¼ìĸ¼
ë§Ī ìĿ´íģ¬
ĠëĮĢìĥģ ìŀĲ
ĠìĹ°ìŀ¥ ìłĦ
ĠíĺĦë ıĦ
ëį°ìĿ´ë ¹Ħëĵľ
ĠêµŃ ìĻ¸
Ġê±° ì§Ģ
íĥľ ìĸĳ
Ġë§¤ íĬ¸
ìĽĮ ìĬ¤
Ġê·ľ íĥĦ
Ġì¿ł íį¼
åĵ ¡
Ġëħ¸ë¥´ë §ĿëĶĶ
Ġë¡ľ íĤ¤
Ġíİ łë¡ľ
Ġíİ ĮíĶĦ
Ġìŀ¬ íĮ¬
Ġë°°ë ¶Ħ
ë§Īë¥´ íģ¬
ì Ńī
Ġìĺ ´
Ġê°ľ ê·¸
íģ¬ ë¦¬
Ġëª¨ ìĦ¸
ìĦ¸ íĤ¤
ĠE uro
Ġc o
Ġì¢Į ìĿĺìłķ
Ġëĭ¨ë §Ĳ
ow s
ĠìķĦë¬´ ê²ĥ
ê²½ê¸° ëıĦ
ĠêµŃìłķ ìĽĲ
Ġë° ľëıĻ
ìĿ´ë łĩ
ĠP o
ĠíĴ Ģë
ìĭľë ª¨
Ġì¼Ģ íĶĮëŁ¬
Ġìŀ¬ë ŀĺ
Ġëħ¹ íĻĶ
Ġê¿Ī ê¾¸
Ġë¡ľëłĮ ìĬ¤
ë Ĩĵ
ĠìĹĪ ìĹĪ
ìłĦ ì²´
Ġê²½ ìĿ¸
ĠìļĶ ìłĪ
ĠìĤ° ìļĶ
ĠíĨł ìļĶ
Ġë¶Ģë¥´ ì£¼
ä¸ ĸ
æ º
Ġê° ļ
ìĤ¬ ëŀĮ
ĠìĦ¸ë ¸Ĳ
Ġê¼ ¬ë
íĶĮë łĪ
Ġê·¸ëĿ¼ ìļ´ëĵľ
U N
Ġíķĺ ë§Ī
Ġë¡ľ ë²Ħ
Ġë¯¸ ìĪĺ
Ġë¬´ ìŀĳ
ĠëĤ¨ íķĺ
Ġë°Ķ ì§Ģ
ĠíĶ¼ íķł
Ġìķ¼ ìĻ¸
ìĹ´ ì°¨
Ġìĩ łë
ĠìĨ¡ ëıĦ
Ġ26 0
ìĬ¤íģ¬ ë¦¬íĬ¸
íıŃ íĥĦ
Ġê°Ŀ ì°¨
Ġë°´ ì¿łë²Ħ
ĠColle ge
ĠMich ael
ľë ¡ľ
ê³ §
Ġë¡ľ ìĸĦ
ĠìĬ¤ íı¬ë¥´
ìĸ´ë ĸ
ti f
Ġ186 5
ĠAn g
ĠìľĦ ì´ī
ĠìļĶ ìĸĳ
ĠA ward
Ġë¬» íĺĶ
Ġìĺ¨ë Ĥľ
b ur
r uc
Ġê³ł ëĵł
ê²½ ì£¼
ĠíĮĮ ìļ°
Ġíıī ì§Ģ
ĠìĥĪ ê¸´
Ġì¡± ë³´
ĠíĶĦëŀľ ì°¨ìĿ´ì¦Ī
ĠìĿ´ë°Ķ ì§Ģ
Ġå ±ħ
ĠëıĻ ì§Ħ
ĠS an
ì½Ķ íĥĢ
ë¶ģ êµ¬
Ġåı £
b o
ìĿ Ģë
ĠìłĦ íķĻ
Ġíķ´ ìļ´
ĠíķĻ ìŀ¥
Ġìĸ´ë ĬĶ
Ġì§ģ íĸī
ê·¸ë §¨
Ġì¦Ŀ ìĺ¤
ĠëģĿ ëĤł
ĠìĶ¨ ì¡±
ĠìĬ¤ë Ł°
ĠìĿĢ íĺľ
ìŀĲ ëĭĪìķĦ
Ġ18 50
Ġëħ¸ë ³´
Ġê³łëł¤ ëĮĢ
Ġì½ĺ ìĨĶ
ĠíĶĦë¡ľê·¸ëŀĺ ë¨¸
åĮ Ĺ
x t
Ġìļ ±
ĠìĦ± íĻĶ
Ġë¦¬ ìļ°ë
Ġ12 00
Ġ23 0
Ġì¹Ń ìĨ¡
ĠRe g
Ġå¤« äºº
ĠìĿ´ íĺĦ
ĠìĿĢ ìĭł
ĠêµŃ ì²ł
íİ «
la y
ĠD ream
Ġì¦Ŀ íıŃ
ĠìĺĪë ¬¸
ìķĪë ıĻ
Ġå§ ĭ
Ġìķ¨ ë¦¬ìĬ¤
Ġê´ĢíĺĦ ìķħëĭ¨
ĠìĹ £
Ġíķł ìĿ¸
íĶĦ íĦ´
ìĥ ¹
Ġì´Ī ìķĪ
Ġê¸ī ì¦Ŀ
at es
ĠíħĮë Ŀ¼
ĠçĽ Ĭ
ĠìĬ¤ë¦¬ ëŀĳì¹´
Ġì§Ģë¶ķ ëıĮ
ĠíĶĦëŀĢ ì¹ĺ
íĬ Ģ
Ġìłķ ëł¹
Ġëĵ± ëĵ±
ìľĦ ì¹ĺ
ĠêµĲ ì§ģ
Ġç Ĺ
ĠíĻĶ ëŀĳ
Ġè µ·
ëĿ¼ íĬ¸
Ġë²ķ ê´Ģ
Ġì¹´ íĬ¸
Ġì¹ĺ íķĺ
Ġë³´ìĹ¬ ì¤Ģ
Ġçĳ ŀ
Ġìľł ìĦľ
ĠíĶĦë łĪìĿ´
Ġìļ° ìĽĶ
ĠíļĮ ê³ł
Ġê±° ìĦ¸
ĠL ED
198 1
Ġèª ª
ĠìľĹ ë¶Ģë¶Ħ
ì¹¸ëĶĶëĤĺ ë¹ĦìķĦ
ĠíķŃ ë¡ľ
ìĹĲë ĵľ
ber g
Ġì§Ģ ì¿ł
Ġìłķ íĸĪ
Ġë²Ī ì°½
Ġì°¨ ì¸°
ĠA G
ĠG O
ìĭľë Ĥ´
Ġ27 0
§Īë £¨
ì¿łë¥´ íĬ¸
Ġë¯¸ìĬ¤íĦ° ë¦¬
Ġë°Ķê·¸ë ĦĪ
ĠìĦľì´Ī êµ¬
ĠìĪĺ ëĭ¤
Ġ- )
ĠìĤ¬ìĿ´ íĥĢë§Ī
Ġë¬ĺ ë¹Ħ
íĶĮë §ģ
ĠíĿ¡ ìĤ¬
Ġì¹ĺëŁ¬ ì¡Į
ëĬ ¦
Ġê²Įìĭľ íĮĲ
ë Ķ©
êµ °ëĭ¤
Ġë© §
Ġë¶Ģ ìĻķ
ĠìĦ¸ íı¬ë
Ġê²° ê³¼ë¬¼
Ġë³µ ì¢ħ
ĠëĭĪ ì½ľ
Ġêµ°ë ²Į
Ġë´ ĩ
ĠìĹĲìĿ´ ìłĦ
Ġì£¼ê³Ħ ìĹ´
Ġê³ ¶
ìŀĲ ìĭł
Ġë² Ħëĵľ
ì§Ħ ìļ°
ĠìĽĲ íĻľ
ĠS ong
Ġê±°ë ¯¸
Ġì¹ĺ ìľł
ĠìĻ¸ íĺķ
Ġå½ ¢
Ġê³ł ìĺ¨
Ġìĥģ ë¡Ŀ
ĠìĦ¤ ë¬¸
Ġê¶Į ìĹŃ
ĠK ing
ë§Īë £¨
ëĶ ±
ĠíŀĪë ¸Įë¦¬
Ġæģ Ń
Ġèī ²
ĠíĨłë¦¬ ëħ¸
Ġê°ĢëĿ¼ ìķī
ĠìŀĲìĦľ ìłĦ
Ġíķľë ²Ī
ê³łë ī´
Ġì»¨ íħĮìĿ´ëĦĪ
ĠæĶ ¯
ìĥģëĮĢ ìĭĿ
é ĩĮ
ì ¯
Ġ }
íĽĦ ì¿ł
ìĸ´ë ¨¸ëĭĪ
Ġì²ľ ì²ľ
ëĵľë ¡ľ
ê±¸ ìĿ´
Ġèª ŀ
Ġì²łìłĢ íŀĪ
ĠìĦłì§Ħ êµŃ
Ġì§Ģë°Ķ íĺĦ
ĠëĮĢ ëĤĺë¬´
ìĹ ´ë
ìĸ ¼ë
Ġíıī ì°½
ì¹´ë ª¨íĨł
Ġë°ľìłĦ ê¸°
ĠìĻĶ ìľ¼ëĤĺ
ĠíĽĦì§Ģ ìĻĢëĿ¼ëħ¸
ĠAss oci
ë ¨¹
Ġê³ł ì§ĳ
Ġìŀ¥ ëįķ
ĠíĥĢ ìļ°
ĠT BS
Ġê¸Ī ìłĦ
ĠSup er
ĳ ¡
Ŀ ł
ĠìĤ¬ ë¥´ë
Ġìľł ìĦł
Ġìĭł ìŀħ
Ġ7 50
ĠìłĦë Ŀ½
ĠìĻķ ê¶ģ
Ġíĥľ ê¶Į
ë¹Ħ ì¹ĺ
Ġíģ¬ë Ŀ¼ìĿ´
Ġíķµ ìľµíķ©
197 6
Ġî İ
Ġë¹Ļ íķĺ
Ġíģ´ë¦¬ ë¸Ķëŀľëĵľ
« ¼
å Ĥ
Ġê³ł ìĿ¸ëıĮ
Ġíĺ¸ ë¦¬
ĠëĨĴ ìĺĢ
Ġì²ł ê°ķ
Ġíį¼ ìĬ¤íĬ¸
ĠìĻ¸ë ŀĺ
ĠëıĻë§¹ êµŃ
ĠìĪ¨ ê¸°
Ġê²¹ ì¹ĺ
Ġì»¨íĬ¸ë¡¤ ëŁ¬
Ġì¡°ìĬ¹ ìļ°
Ġìª ¼
ĠìŀĲ ìĪĺ
Ġê³µ ëĮĢ
ë° °ë
ìĦ¸ ìľł
Ġì¶Ķ ìĦľ
Ġì¹´ ì§Ģ
Ġt v
Ġê·¹ ëĿ½
197 4
ĠëĿ¼ìĿ¸ ìĹħ
ĥ ī
ĠìĪĺ ëŁī
ĠíķĻ ëł¥
ĠP re
Ġë©Ķ ë¦´ëŀľëĵľ
Ġë¡ľë§Ī ìŀĲ
êµ¬ë ¶Ģ
194 9
ĠìĦľìĤ¬ ìĭľ
L C
ĠìĹ Ķëĵľ
Ġìľł íķĻìŀĲ
Ġì¹´ íħĮ
ìĬ¤íĬ¸ ë¦¬
ra c
ĠíĮ¨ë Ł´
Ġç¥ Ń
ĠìłĦë°ĺ ê¸°
Ġì§Ģì¼ľë ³´
r am
ĠìĿ´ ìĸ¸
Ġëĭ¤ ìľĪ
Ġíķĺ ëħ¸ë²Ħ
ĠìĤ¬ ì¹ĺ
ìľ ĪëıĦ
Ġê´Ģ ìķħ
ĠìĤ° íĺ¸
Ġê°ģ ë£Į
ĠëĦ¤ìĿ´ìħĺìĬ¤ ì»µ
Ġì²ľì²ľ íŀĪ
d uc
ê° ±
Ġè º«
ĠëĤ´ ë¦°ëĭ¤
Ġë°° ìĹŃ
Ġë¬´ ìĸ¸
ĠìºĲ ë¦¬
ĠíĥĪ ì·¨
Ġì¿¼ íģ¬
ĠëıĦ ë¯¸
ĠíĮĮ ìĭľì¦ĺ
Ġë§ŀ ì¶¤
Ġëĭ¤ìĿ´ ìĸ´
ìłĦë ıĦ
ìħĶ ì£¼
Ġæ± ł
Ġä¸» ç¾©
ĠíģĲë ¸Į
ë¡ ¤
Ġìĸĳ ë³´
ìĭľë ĵľ
Ġç¥ ĸ
Ġìŀ¥ë¡ľ êµĲ
Ġ @
ĠH ol
ĠêµĲìľ¡ ìŀĲ
Ġíķ´ìķĪ ê°Ģ
Ġìĺ¬ë¦¬ ë¸Į
Ġé¡ ¯
Ġì¤ĳìĨĮ ê¸°ìĹħ
Ġê¸°ë» Ĳ
ìŀĲ ëĦ¤
ĠìłĦ ìĦ¸
ĠëıĻ íĸ¥
íĽĦ ì§Ģ
Ġë°° ìĸĳ
ĠìłĲ ê±°
ĠìłĪ ìłľ
Ġäº ¤
ĠìŀĶ ìĿ¸
Ġì¡°ì§Ģ íĶĦ
ì½ľë Ŀ¼
S C
ĠìĿ´ íļĮ
Ġëĭ¤ ì¹ĺ
Ġíķĺ ìĿĺ
Ġìľł íĿ¬
ĠS w
Ġíķ© íķĺ
ĠëĨį ì§Ģ
ĠìĦľê¸° ê´Ģ
Ġìĥģê´Ģ ìĹĨìĿ´
ĠíĶĮë¡ľë¦¬ëĭ¤ ì£¼
Ġê°Ģ íĸĪ
Ħë Ŀ¼
Ġê¸° íķ´
ĠëıĦ ì¶ľ
Ġìµľ ìĦł
Ġê°Ħ ì§ģ
ĠíĬ¸ë łĪìĿ´
Ġë¶Ħë ĭ¨
ĠìĨ¡ íĮĮ
E P
á »
Ġìĥģ ìłķ
Ł¬ ê·¸
Ġì´ Ľ
Ġë¬´ ìĦľ
Ġë³ĳ ë§Ī
Ġë§ī íĮĲ
Ġì»¨ ìĦ¤
ìłĦë Ŀ¼ë
Ġìķ¼ë§Ī ê°ĢíĥĢ
ĠìĤ¬íļĮë ¯¼ì£¼ëĭ¹
ĠìķĦëĤ łë¡ľê·¸
íİĺëŀĢ íĨł
å Ģ
ĭ¤ ëĵľ
ìĹ ĳ
ĠëıĦ ì¹´ìĿ´ëıĦ
íĨł íĶĦ
Ġì£¼ë ĳ¥
ĠëĨĴ ìĹ¬
Ġìĺ¨ íĻĶ
Ġê²© ëł¤
ìķĶ ë¦¬
ĠìĬ¬ë ŀ¨
íŀĪë ĵľ
ĠìĨĶë¡ľ ëª¬
ĠíĬĢëĭĪ ì§Ģ
Ġê³¼ ìĭľ
Ġì¶ ľëıĻ
Ġé ¢¨
ĠíĮĮ íİ¸
ĠM in
ĠíĶĦë¡ľ ëª¨
Ġë¯ Ģ
ĠíĮĲ ìĨĮë¦¬
íĹ¤ ëĵľ
ĠìĿ´ìĬ¤ íĥĦë¶Ī
Ġë¯¼ë ³ĳëĮĢ
Ġê²¬ë ĶĶ
Ġë¯¸ìķ¼ ìŀĲíĤ¤
ĠìķĮëłīìĤ°ëĵľë ¥´
å³ ¶
ĠìľĦ ìķĪë¶Ģ
Ġì° Įë
Ġê²½ ë³µ
ìłľ ì£¼
ĠìĬ¤ ë£¨
ëıĦ ë¦¬
ĠìĦľ íĥľ
Ġë¶Ħ ìĤ¬
ĠíĶ¼ íķĢ
ĠìĬµ ê´Ģ
íĺ¸ë §Ī
ea e
ĠìķĦëŀį ìĹĲë¯¸ë¦¬íĬ¸
ĠåĦ Ģ
Ġì¹´ë©Ķë £¬
ĠëıĦ ìŀĲê¸°
Ŀ¼ë ¯¸
Ġëĭ¨ êµ°
ĠC ity
ĠM et
Ġë°ľë ª©
Ġë¯¸ë ħ¸
ĠìĪľ ì°¨
ĠìķĦìĿ´ íı°
Ġì¼Ģ ìĿ´íĶĦ
ĠíĶĦë¦° ìĬ¤
ĠêµĲíĸ¥ ìķħëĭ¨
Ġê·¸ë§Į íģ¼
9 9
a ti
è ı
Ġê³ł ë§Ī
Ġìļ° íķľ
Ġë¶Ī ê²½
ĠA I
ìĨĮë ĭĪ
íĻį ìĥī
íĨłë¦¬ ì½Ķ
Ġì°¸ëª¨ ì´Ŀìŀ¥
Ġê¸´ë °Ģ
ĠìĪĺ ìļĶìĿ¼
ĠìĬ¤ ì¹¼ëĿ¼
Ġìµľ ì§Ħ
ĠëĤĺíĥĢë Ĥł
ì²ł ìĪĺ
ĠíĹĮ ìŀ¥
Ġëĭ¤ìĬ¤ ëł¸
èĻ Ł
ĵ łëĭ¤
Ġìļ° ìĹ°
Ġìĭľë ĭ¬ë
ĠB re
íĶ¼ ìĹĲë¥´
íļ ¡
ĠìĻĦ ê²°
Ġìŀ¬ë ĭ
ìĬĪ íĥĢ
Ġ186 7
è¨ Ģ
¹Įë Ŀ¼ìĿ´
ìĿµìĬ¤ íĶ¼ìĸ´
Ġë° ¸ë¦¬
ıĻ ìŀĲ
êµŃ ë¦½
Ġ12 1
ĠìłĦë ħĦ
Ġì·¨ íķľ
Ġt e
Ġë°ĿíĺĢ ì§Ħ
ĠíĿ© ìĸ´ìł¸
Ġåķ Ĩ
c i
Ġê°Ģ ê³łìĭľë§Ī
Ŀ¼ ê³ł
Ġê³µ ë¬´
ê· Ħ
Ġìŀ¥ ë³ĳ
Ġëª¨ ì°¨ë
ĠìĬ¤ìº Ķëĵ¤
Ġìŀĥìĸ´ë ²Ħë¦°
ĠJT BC
Ġê°ķ ëĭ¹
ĠæĪ ĳ
ì½ľ ë¦¿
Ġì±Įë¦° ìłĢ
Ġå¡ Ķ
§ Ľ
Ġë ¤
Ġê¸° ìĦ¸
ĠëıĦ ìĥģ
Ġìłľ ê°ĪëŁī
Ġë³´ë Ĥ¼
Ġì¹´ ì¹´ìĺ¤
ĠìĤ¬ìĥģ ê°Ģ
Ġë£¨ë ıĮíĶĦ
Ġëħ¸ìĬ¤ ìºĲë¡¤ëĿ¼ìĿ´ëĤĺ
Ġìĺ Ĳ
Ġìŀ¥ ëħĢ
Ġç º
Ġìŀ¬ ìĿ¼
Ġìŀ¬ ì°¨
ìĹĲ ê³ł
¥´ë ª¨
ì¹´ë Ŀ½
Ġíķľë ¬¸
ĠíĿ¥ ë¶Ħ
ĠìĤ¬ëĭ¨ ìŀ¥
Ġç¾ ¤
Ġì§Ģ ë¥´
Ġê³µ ìķĪ
Ġæ ļ
Ġë§¤ íĤ¨
Ġì¹ĺ ë£
Ġì¹´ë °Ķ
ĠêµŃìłľ ìĦł
ĠìĽĮ ì¦Ī
197 3
Ġì§Ĳ ìĬ¹
ĠëĳĺëŁ¬ìĭ¸ ìĿ¸
Ġëĭ¬ëĿ¼ ì§Ħëĭ¤
Ġëį© ìĸ´ë¦¬
ìĹĲìĬ¤ ê¸°
Ġìĭľì¦Ī ìĺ¤ì¹´
Ġì§Ģ ë²ķ
ĠìĤ¬ ìĦľ
Ġìĸ´ ìĿĺ
ĠìłĦ ìĪĺ
Ġêµ° ìĤ°
Ġë©Ķ ìĨĮ
u ch
ĠëĮĢ ì£¼
ĠìŀĲ ìŀ¬
ĠìŀĲ ëĿ¼ë
ĠìĬ¹ ìļ©
Ġíĥľ íĽĦ
Ġë©Ķ ìĬ¤
Ġë²ł íĬ¸
Ġíĺĳ ìĹħ
ĠëĬ ª
Ġê·Ģ ìĨį
Ġìŀ¬ë ¹
ëħ¸ ë¦¬
Ġìĭ¬ë ¬¸
Ġê³µíĻĶ ìłķ
ĠìĦľíķ´ ìķĪ
Ġìľ¨ë¦¬ ìļ°ìĬ¤
ĠìĹĲ ë¯¸
Ġê³ł ë¡ľ
Ġìĸ´ ìĽ¨ìĿ´
Ġìłľ ì°½
ëıĦ ìĤ¬
Ġíķ´ë Ĥ¨
Ġê¸°ìĹħ ê°Ģ
ĠìºĲ ìĦľë¦°
Ġë¡ľìĬ¤ ì¿¨
k a
Ã ¨
Ġíĺ¸ íģ¬
ĠíķŃ ìĽĲ
ar i
ĠU SS
ĠíĦ° ì§Ģ
Ġcol span
ĠëıĦ ëĦ¤
ĠìĿ´ë ©Ķ
ĠíĬ¹ ìĤ¬
Ġìķ½ ìĤ¬
Ġì½Ķ íİľíķĺê²Ĳ
Ġë³µ ìľĦ
Ġìłľë ĭ¨
Ġíĺĳ ìĹ°
Ġìłĳ íķ´
Ġv on
Ġìľ¼ëł¤ ëĬĶ
Ġë£¨ìĿ´ì§Ģ ìķłëĤĺ
4 8
ìĬ¤ íħĮ
ì§Ģ ê¸Ī
Ġìłķ ìłķ
Ġíİ ´ë
Ġì¢ħ ìĭł
Ġì²ľ ìĪĺ
ĠìĪľ ìĸĳíķ¨
Ġì½Ķë Ĥľ
Ġëĵ¤ìĸ´ ìĦ°
ĠëŁ¬ìĭľìķĦ êµ°
ĠåŃ ¦
Ġì¤ĳê³µ êµ°
Ġêµ ¶
ì° ¸ë
¥´ íĥĢë
ĠíĮĮë ŀĳ
ĠMar k
çĽ £
Ġê¸° ìģ¨
ĠìĦ¸ ìļĶ
ĠêµŃ íķľ
Ġê´Ģ ìļ°
Ġìľł ì¡±
íİ ľë
ĠëĤ¨ ìĤ°
ĠëĦ¤ íĭ°
ĠëģĿ ëĥĪ
ĠO ut
Ġë§ĪìĿ´ ìĸ´
Ġë¥´ë ħ¸
ĠíĻĶìŀ¥ íĴĪ
ĠìĤ¬ê°Ħ ìĽĲ
è ĥ
ëĿ¼ ìĿ´
ìħ ĢëŁ¬
Ġëħ¸ë ŀĳ
íıī ë¦¬
Ġë§Īë¥´ ì½Ķ
ĠëıĻë§¹ êµ°
ĠëıĮìķĦë ĭ¤ëĭĪ
ê³ łë¥´
ĠìĿ¼ ê°ģ
ĠìĪĺ ì°¨ë¡Ģ
ĠëıĻ ìĤ°
ĠìĤ° ìĬ¤íģ¬ë¦¬íĬ¸
Ġì§ĳ ì°©
ëĭĪ ìĬ¤
ĠR h
Ġì¡°ë ¡±
Ġì§ĳíĸī ìľłìĺĪ
Ġì»¬ë łīìħĺ
ĠìľłëĭĪë²Ħ ìĦ¤
ê ½
ĠìĤ¬ ìĪĺ
Ġìĭł ìĦ¸ê³Ħ
or s
ĠëĨ Ī
Ġì¶Ķ ìĸµ
ĠT w
ĠìĻ¸ ê³¼
Ġìķł ìĿ¸
Ġìķµ ê¸Ģ
t in
Ġêµ¬ ê¸Ī
Ġìĸĳ ëĮĢ
19 19
ĠìĦľë ©´
ëį ¤
ĠíħĮ ë¦¬
êµ¬ë ¯¸
Ġê¹Ģë ³ĳ
Ġìľłìłģ ì§Ģ
Ġì²ľìķĪ ìĭľ
ĠìłĪëıĦ ìĤ¬
Ĭ ħ
Ġì§Ģ ìĺ¤
ìĪĺ ëĭ¨
Ġê²½ ìĥī
Ĳë Ł¬
Ġì§Ħ íķľ
Ġ186 9
Ġí ĩ´ë
Ġëĭ¹ ëĩ
ì§ģ ê²½
Ġìŀ¬ ìķĻ
ĠT ri
ĠìłĲ ê²Ģ
Ġêµ¬ë ıħ
Ġëī´ ìºĲìĬ¬
Ġë©´ë ª¨
Ġë¯¸íĨł ì½ĺëĵľë¦¬ìķĦ
æ ®
Ġ20 3
ĠìłĦ íĪ¬ë
Ġ" >
ĠíĽĦ ìľł
ª¨ ìĬ¤
ë¶Ħ ìĹ´
ĠF ri
ĠB M
Ġìķķ ë¡Ŀ
Ġê¸°ëħĲ ìĿ¼
Ġëĭ¹ìĦł ìŀĲ
Ġëħ ķ
Ġëĭ¹ íĻ©
ĠC ap
Ġëħ¸ íĽĦ
Ġê²¬ ê³ł
ĠìķĦëĿ¼ ê³¤
Ġë³µìĿĮ ì£¼ìĿĺ
E ST
Ġë¡ľ ëŁ°
ĠìŀĲ ë©ĶìĿ´ì¹´
¯¼ ìĬ¤íĦ°
ĠìĬ¤ íĶĦ
ĠëĿ¼ë ĶĶ
ĠM A
íĮĮ ìĬ¤
Ġë£¨ íĤ¤
ĠíĨłë§Ī íĨł
Ġê°Ģ ë©´ëĿ¼ìĿ´ëįĶ
Ġë°ķ íħĮë¦¬ìķĦ
Ġì°½ ëħķ
Ġíĺ¸ë ĮĢ
ì½ĺ ìĭł
íį¼ë łĪìĿ´ìħĺ
ä½ į
íģ´ëĿ¼ íĺ¸ë§Ī
ĠëĮĢ ìłĳ
ê±´ ìĦ¤
Ġìļ´ ìŀĦ
ìĻķ ì¡°
Ġåį ļ
ĠSt ud
ë°Ķë ¸Į
Ġë³´ìķĪë ²ķ
ĠëĮĢ ê¸Ī
Ġê¸° ìĿ´
ĠìĽ ¨ë
íĦ ¸ë
Ġìĸĳ ìĪĺ
ĠìĦĿ ë¶Ī
íĳ ¼
¹ Įë¡ľ
ĠìŀĲ ì§Ħ
ĠëĿ¼ ì¹´
Ġìĭľë ª¬
Ġíıī ìķĪëıĦ
Ġë°± ìķħ
Ġë¸Įë £¨ìĬ¤
Ġê³łëł¤ ìĤ¬
ĠíĻĪ ê²½ê¸°
ĠëĤĻ ìĸĳ
Ġ187 5
ĠçĽ §
Ġê²Įë ¥´
Ġê½ Ĥ
Ġëį§ë¶Ļ ìĺĢ
Ġæ© Ł
ç ¦®
ĠëĮĢ ì²Ń
Ġê³¼ ìĹ°
êµŃ ìłģ
Ġìľł ìĭĿ
ĠA U
Ġêµ¬ë §Ī
Ġë§Ī ìħľ
íģ¬ ë¦¼
Ġíķ¨ íĿ¥
Ġìĸĳ ëł¥
ëª ¸
Ġì¸¡ ëŁī
Ġê´ Ħ
ĠëĤ© ë¶Ģ
196 3
ĠìĪĺ ìĹ´
Ġë¬¸ ê²½
Ġë°ĺ ëıĻ
ĠìĨĮë ıĻ
mu s
Ġíİĺ ìĬ¤
ìłĪë ĭ¨
Ġê¹Ģìĺ¥ ê·ł
ĠA E
la s
Ġëħ¸ ìĤ¬
ĠíĻľëıĻ ê°Ģ
Ġë¦¬ë ¯¹ìĬ¤
Ġë¥ĺ íģĲ
Ġë¨¸ë¦¬ ì¹´ëĿ½
ĠìĶ »
ĠèĹ ı
Ġcom p
Ġèĺ ĩ
ç Ń
Ġìłķ ëª½
Ġìĺ¤ ë§Į
Ġê´Ģ ìĥģ
ìŀ¬ íĮĲ
Ġë³´ë £¨
Ġêµ¬ë ¶Ģ
Ġíİĺ íĬ¸ë¡ľ
łĪë Ŀ¼
Ġëĸłë ıĮ
Ġì²Ļ ëıĦ
Ġé½ Ĭ
ì¯ Ķ
ë ļ
Ġíķľ íģĲ
Ġì² ¼ë¡ľ
ìļ° íļĮ
Ġç °
Ġë°ĺ ì£¼
§Ī ê·Ģ
Ġìļ© íĴĪ
ĠæĻ ī
ê¿Ī ì¹ĺ
ĠëĿ¼ë °Ķ
Ġê²° íķµ
Ġè ĩ´
Ġë¶ģ ìľłëŁ½
ĠB est
ĠíĶ¼ ì¸łë
Ġì¹´ íĶ¼
Ġê´ĳ ìĸĳ
Ġì·¨ íķ´
ë§¤ ë§¤
ĠíĮĮë ŀĢ
ĠíĮĮë ¥´ë
ĠIn c
ħ¸ë °Ķ
í į
ĠìĥĿ ëª¨
Ġíı¬ íĥĦ
Ġëª¨ ê±´
ì§ľ ê¸°
ĠìĹ°ì¶ľ ê°Ģ
Ġæı Ĳ
H C
ĠìĿ´ íĻ©
ĠH en
Ġê±´ë ¥Ń
Ġëª¬ íħĮëĦ¤ê·¸ë¡ľ
Ġì¹¼ ìĬĺ
ĠíħĶëłĪ ì½¤
Ġê³¼ íħĮë§ĲëĿ¼
ìĤ¬ íĥľ
Ġ20 22
Ġë°ľ ìĿĺ
Ġìŀ¥ ëŀĺ
íĥĢ ìĬ¤
ëŀ Ħ
ĠëĤľ ìĿ´ëıĦ
Ġë¶Ģë¥´ ê³łëī´
Ġë°ľìĤ¬ ì²´
Ġæķ ħ
ĠRe v
èª ŀ
ĠAK B
æ² »
Ġíľ´ê²Į ìĨĮ
ĠìķĦ ìĨĮ
Ġíķ´ ìĻķ
ĠíķŃ ì²´
Ġíİ¸ íĸ¥
ĠëıĮ ì¶ľ
Ġê²½ê³Ħ ìĦł
Ġëª°ë ĳĲ
Ġë°ĶëŀĮ ì§ģ
éĸ ĵ
Ġê²©íĪ¬ ê¸°
ĠìĤ¬ ìĺģ
Ġê³µ ë²ķ
Ŀ¼ë Ĥĺ
ĠìķĦë ª©
ĠìĦľ ìĬ¤
Ġìŀħ íĹĮ
Ġê±°ë ĳ
Ġê¹Ģ ìľł
ĠìķĮ ìķĦëĤ´
ĠìĿ¸íķ´ ìĦľ
ë©Ķ ë¥´
íŀ Īë©Ķ
Ġíį¼ ì¡Į
Ġ187 4
ìļ¸ë £¨
ĠíĽĦìĽĲ ìŀĲ
ĠëĮĢê³µ êµŃ
Ġë³´ì¢Į ê´Ģ
Ġë¯¸íķĺ ìĿ¼
¥´íĥĢë ī´
y p
ê¸° ìķĦ
Ġíĥ Ģë¡ľ
ĠìĬ¤ ì¹¸ëĶĶëĤĺë¹ĦìķĦ
ĠìķĦë į°ë
Ġìĭ¬ ê·¼
at ed
Ġê·¼ê±° ì§Ģ
ĠìĿ¸ê³µ ìľĦìĦ±
ĠìĽĥ ìĿĮ
Ġíķ¨ê²½ ë¶ģëıĦ
Ġë¯¸ ì¹ľëĭ¤
ĠëĳĲ ê°ģ
Ġíıī íĸĪ
Ł° íĬ¸
Ġê¸ī íŀĪ
Ġì½Ķë Ħ¤
Ġì§ĢëĤĺ ê°Ħëĭ¤
ëĶĶ ì§Ģ
Ġëª° íĥĢ
ĠìĪľë ¡Ģ
æ ¿
Ġë¶Ģ íıī
ĠìĥĿ ë¦¬
Ġëĭ¬ ìķĦëĤĺ
ti an
ĠëĤĺë Ńĩ
ìĨĮë ³´
ìĵ° ê¸°
ĠêµĲêµ¬ ìŀ¥
ĠèĻ ķ
Ġçģ «
Ġìĭľ ì§ģê²½
Ġë¶Ģ ë¥ĺ
ĠëıĻ ìłģ
ĠíļĮ ê·Ģ
Ġë¶Ī ìĤ¬
Ġì§ģ ê³Ħ
Ġìķ½ ìłĲ
ĠE v
ĠëĤ¨ë °©
ĠìĿ´ìĸ´ ì£¼
Ġæº «
Ġèĥ ½
Ġíķĺ ê¸ī
ĠìľĦ ê³Ħ
Ġìĥģ êµŃ
Ġì£¼ë ¨¹
Ġíĸī ë°©
Ġì½ ¥
ìłľë ¹Ħ
ĠìĽ¨ ìĿ¸
Ġ186 2
196 4
O W
Ġëªħ ìĿ¸
ìĿĮ ìķħ
er o
Ġì¶ķ ìĦ±
Ġì¸ Ħ
ëłĪ ìĿ¸
ĠëĨĵ ìĿ´
ĠëłĪìĿ´ íģ¬
Ġì¹¼ë Ł¼
Ġè§ £
ĠèĶ ¡
ĠìĦł ìĿ¸
Ġé ¼
Ġëį° ìĿ¼ë¦¬
ĠD an
íĶ¼ íĦ°
ĠìĤ¼ ì¡´
Ġê´ ´ë¡ľ
ĠìķĮëłī ìĬ¤
§ Īëĭ¤
ĠìľĦ ì¡°
Ġìĺģ ìłķ
ì§Ħ êµ¬
Ġ6 50
ĠT om
Ġìĺ¤ë ĶĶ
Ġíĸīìłķ ëıĻ
Ġë¬¸ìŀĲ ìĹ´
Ġì£Ħ ìĪĺ
Ġì§Ģ ë©´
ĠìķĦ ì¿ł
Ŀ¼ë ĭĪ
ì¦ Ĳë¦¬
ĠìĨĮ ìļ©
Ġíİ Ģëĵľ
Ġë¦¬ ì¦Ī
Ġ18 30
Ġë²Ħ íĦ°
Ġì¶ķêµ¬ íĮĢ
ĠíĴį ìĬµ
ë³Ģ ìĨįê¸°
Ġê²½ìĺģ íķĻ
Ġë¡ľëĵľ ë¦¬
ĠìĬ¤íĥ łëĵľ
Ġìŀ¥ëĤľ ê°Ĳ
Ġíķĺ êµ¬
Ġê°Ģ ëĭ¥
ĠëĤĺ ë¦Ħ
Ġìĥ ¬ë
Ġëĵľë £¨
Ġíį¼ ì¦Ĳ
Ġéĥ İ
ãģ Ĩ
sh ip
Ġìĭľ íģ¬
Ŀ¼ë ĶĶ
ĠíĥĢ ìĿ¼
ĠíĬ¸ ë¦¬ìĺ¤
Ġå® Į
ìĨĮë ħĢ
ĠìĬµ ëĵĿ
ĠíĶ½ ì²ĺìĬ¤
ĠëłĪìĿ¸ ìłĢìĬ¤
¶ ´
ĠëĮĢ ì¢ħ
ĠìľĦ íĮ¨
ìĺ¤ ë¥´íģ¬
Ġêµ° ê´Ģ
Ġë°° ì²Ļ
ĠL ou
íĨłë ħ¸
ĠìĤ¬ìĹħ ìĨĮ
Ġêµ´ ìłĪ
Ġê´ĢíĺĦ ìķħ
ĠìĿ¼ë¦¬ëħ¸ìĿ´ ì£¼
Ġë¶ĪëŁ¬ë ĵ¤
N G
Ġê°Ģ ì¿ł
ĠìĹ¬ ê±´
ĠìľĦ êµ¬ë¥´
Ġë¦¬ë ³´
Ġíı¬ë ¥´ëħ¸
Ġìŀ¬ë ²Į
ĠëĮĢìłĦ ì°¨
ĠëıĦë¡ľ ëĬĶ
ĠëłĪìĿ´ë įĶ
²łë¥´ íĨł
ìĦłë ĭ¤
ĠéŁĵ åľĭ
ìĦľ ëĭĪ
ĠìĦľ ê·Ģ
Ġìĭľë ¬¸
ĭ¨ ìľĦ
ĠìĭĿ ìĬ¤
ê´ĳ ìĦ±
ĠìĬ¤íĥĢ íĬ¸
g in
Ġì£¼ë ĭĪì¹ĺ
Ġê²Ģ ìĿĢìĥī
Ġì¹´ë Ħ¤
Ġê°ĸ ì¶°
Ġìĺ¨ ê±´
Ġíľ´ ìĸĳ
Ġëĥ ¥
ĠíķĦë¦½ ìĬ¤
Ġë± ĥ
íķ´ìĤ´ìĿ´ íĴĢ
ë ĪĪ
Ġê·¸ë ŀľíĬ¸
Ġê°Ħ íĺ¹
Ġì´Ī ì½ľë¦¿
Ġíķ´ë ĥĪ
Ġë³¼ íĶĦ
Ġê°ķíĻĶ ëıĦ
ver y
Ġï¼ Ī
ĠíķĦë ªħ
ĠëģĿëĤ ľëĭ¤
ĳ ĺê¸°
Ġå įĶ
ĠC G
ĠF l
ĠK ar
ëį ©ìĿ´
Ġë¶Ģë¶Ħ êµ°
ĠìĤ°ë ¬¼
ìĨĶ ë¦¬ëĭĪ
ĠíĹ¤ìĿ´ ìķĪ
ĠíĶĦëŀľ ìĭľìĬ¤
Ġê³µë°© ìłĦ
ĠRec ord
Ġíķľ ë¦¼
ĠìŀĲ ë¦½
ĠìĿ´ë °ĶëĿ¼
Ġë§Į ìłĲ
ĠíĮĮ ì§ģ
Ġíĺ¸ ìĬ¤íĬ¸
Ġì£½ ìŀĦ
ìĭľë ĭĪ
ëįķ ìĻķ
íĨ¨ ë¦¬ìķĦ
ĠëĽ°ìĸ´ë Ħĺ
ĠìĥĿìĦ± ë¬¼
Ġê°ľìłķ ìķĪ
Ġëĭ¤ìĿ´ë ¹Ļ
ula r
ĠChar les
Ġìĭłì£¼ ì¿ł
Q L
o ot
ìĹ ī
Ŀ¼ë ĬĶ
ĠìĥĿ ë¦¬íķĻ
ì¼ °
íı¬ íķŃ
ĠìĦ¸ë Ŀ¼
ëłĪ ìĺ¤
ĠëĨį ì¶ķ
íı¬ë ĭĪ
Ġåľ ĵ
¼ ìĿ´
Ġìĭ ¹
ìĭľ ìķĪ
Ġ5 50
Ġç ĭ
ĠíĶĦë łĮ
Ġë¦¬ ì¹´
ĠA pp
Ġì¹ĺ ì¹´
Ġë¹Ħë ¥´
Ġì¦Ŀ ìĦ¸
ĠíĹ¤ ìĸ´
Ġìľ¡êµ° ìĤ¬ê´ĢíķĻêµĲ
åĪ ¶
ĠíĶĦëŀĢì²´ ìĬ¤ì½Ķ
Ġê°Ģ ëĳĲ
ĠìĤ¬ ìłĪëĭ¨
ĠìĹ¬ íĥĢ
Ġê³µ ìĭľ
Ġç ´Ģ
ĠíĤ¤ ìĽĮ
Ġê°Ŀ ìĽĲ
Ġíĳ¸ë ¥´
ĠìĦŀ ìĹ¬
ĠéŃ ı
Ġë§Ī ì°¨
ĠíĨµ íıĲ
Ġë¦¬ ìĸ¼ë¦¬
Ġìľłë Ĭ¥
Ġë°° ìļ´
ĠG ener
Ġëıħë¦½ êµ°
Ġì¦Ĳ ê±°
Ġê°Ģë¡ľ ì§Ģë¥´
Ģë£ °ë
Ġëĭ¤ ëĤĺì¹´
ĠìķĦ ì¸ł
ĠìĦľ ìĺĪ
ĠìĽĲ ìĥģ
Ġìº ħ
Ġìłľë ĦĪë
Ġìłĳ ì¢ħ
íĶĦë łĪë
²ł íĬ¸ëĤ¨
ĠëĪĪ ì¹ĺ
ĠìķĦë¬´ ë¦¬
Ġì§Ģë¦¬ íķĻ
ĠìĿ¼ ì§Ħ
ĠìĦł ìĸĳ
Ġëħ¸ íĬ¸ë
ĠB us
ĠB ab
ĠìķĮë §ŀ
ĠJ ose
Ġë³Ħ ìŀ¥
ĠìĹ´ë ł¤
íĥĢ ìŀħ
Ġëª¨ë įĺ
Ġêµ° ìĦ¸
ĠíĮĮ íĳ¸
Ġëıħ ìĪĺë¦¬
ĠíĶ¼ ìļ°
Ġë³¸ ì²´
íĶĮ ë¦°
ĠIn ter
Ġëħ¼ë¦¬ íķĻ
Ġåĳ ½
Ġì¢Įíĳľ ê³Ħ
è ¼
Ġê¹Ģ íĺķ
ĠìĭĿ ìļ©
ĠìķĶ ìĬ¤íħĮë¥´ëĭ´
Ġë²łìĿ´ ìĭľìĬ¤íĬ¸
tic al
Ġì¼Ħ íĦ°íĤ¤
9 0
Ġë°ľ íĨ±
Ġëĭ¨ ê±°ë¦¬
ĠìĦľë °Ķ
es e
ĠìĨ¡ íĻĺ
Ġp er
Ġíĺ¼ íĺĪ
ëĶĶ ìĸ¸
æľ Ŀ
ĠíĨ° ìĬ¨
ĠíĶĦë¦° ìĬ¤íĦ´
ĠìłĦ ì£¼ìĭľ
Ġê²½ ë§¤
ĠíĻĶ ìĪľ
Ġè ¢
Ġì¶ľ íĺĪ
ĵ¤ ëŁ¬
Ġì¹´ ìļ°
Ġì¼Ģ ìĿ´íģ¬
łĪë ¥´
ì¿łë ĭĪ
Ġ187 9
ĠìĦłìłľ ê³¨
Ġìŀ¥ìłľ ìĬ¤
à ¤
Ġê³ł ìĬ¤
ĠëĮĢ ìĿ¸
ĠëıĦ ìłľ
ĠëıĦ íĤ¤
Ġìĭľ ìķĪ
ìłķ ìĤ¬
ĠìĹ° íļĮ
ĠìĽĲ ìľł
ĠìļĶ ê´´
ĠíĻĺ ê´Ģ
íı¬ë ıĻ
op e
ĠìłĦíķ´ ì¡Į
ĠTe chn
ĠëŃ Ĳ
Ġëª¨ì°¨ë ¥´íĬ¸
T E
g u
ĠìĤ¬ ëĵ¤
Ġìłľ ì²ł
ĠíĥĢ ë¦¬
ĠìļĶ ìĭľëĭ¤
ĠM od
ĠìĨĮë §Ĳë¦¬ìķĦ
Ġíİ¸ ìķĪ
ìĻķ íĽĦ
ìĺ¬ ë¦¼íĶ½
Ġé» ¨
Ġë¦¼ íĶĦ
ĠëĤ´ë³´ë Ĥ´
ĠìĪĺ íķĺ
Ġì¡° ìĭ¬
íĹ ¬ë
Ġë§Įë Ĥł
Ġë§¤ ì§Ħ
Ġì¶Ķ ìĿ´
Ġê´ĳ ìĦł
Ġì½Ķ ë¦¬
ĠìŀĳíĴĪ ìĥģ
Ġì±Ħ ìĥī
ra ph
Ġëĭī ìĬ¨
n et
ê°Ģ ë¥´
ĠìķĦë ĵľ
ĠíĿ ĺë¦¬
ê»ĺ ëģ¼
Ġë°ķ ì¢ħ
Ġìŀ¬ë °ľ
am m
ê¹Ģ ìłķ
Ġíĩ´ ìľĦ
Ġë§Īë¥´ ìĦ¸ìľł
Ġì»¨ íħĲì¸ł
Ġìħ° ìĿµìĬ¤íĶ¼ìĸ´
Ġê¹ĥ íĦ¸
ĠíĹĮë Ĥ©
é Ĥ
Ġê²½ ìĿĺ
Ġë§Ī ì¸ł
ìĿ´ë ²Į
ĠíĻĶ ìļĶìĿ¼
íİ Ħë
íħ Ĳë
Ġê±° ì¹ł
ĠL et
ĠG M
Ġc ont
Ġåį Ĭ
ĠíĶĦë¦¬ë¯¸ ìĹĦ
Ġåĳ Ĥ
Ġê³ł íĬ¸
Ġë²Ī ê°Ī
Ġë¬» íĺĢ
ìĦłê±° êµ¬
b y
å Ŀ
Ġìĥģ ìĸ´
Ġìļ° ìĭľ
Ġì§ĳ ìłķê´Ģ
Ġì½Ķ ìĭľ
ĠëĨį ìĸ´
Ġìķħ ê³¡
as on
Ġë¬¼ë ¥ĺ
Ġë§ĪìĿ´ ìķłë¯¸
Ġë§Īë¥´ íģ¬
ĠëĤĺëĪ Ī
Ġæģ ©
ĠíĨµíıĲ íķ©
ĠìŀĲ ë¦¿
ê³µ ìĭĿ
ê¸° ì¡´
Ġì£¼ ìĦ±
Ġëª¨ êµŃ
ĠíĮĮ ìĿ´íĶĦ
Ġíĺ¸ ìĬ¤
Ġì¶Ķ ì¡´
ĠD F
íĥĢë ħ¸
Ġê³µìĹ° ìŀ¥
ë²¨ íĬ¸
ĠéŃ ļ
æ ·
é ¾į
Ġë¡ľ íģ¬
Ġì²ĺ íķ´
íĬ¸ë ¬¸íĬ¸
ĠR ad
ìĽĮ ì¦Ī
ìĤ°ë ĮĢ
łĪë ĭĪ
ap p
ìķłë ¬¼
ĠëıĦë§Ŀ ì¹ĺ
ĠåĿ Ĳ
Ġë³´ìĤ´ ìĥģ
Ġìĺ¨íĥĢë¦¬ìĺ¤ ì£¼
ìµ ľë
8 8
Ĳ ê¸°
ê³µ íĻĶ
íİ Ħ
Ġë§Ĳ ëĭ¨
ĠìĻķ ìĦ±
Ġê°Ħ ìĤ¬ìĿ´
ĠíĽ Ļ
Ġë§Īë ĪĦìĹĺ
ĠìĻ¸ íĻĺ
Ġë©Ķ ì¹´
un ction
Ġê¸°íļį ìĤ¬
i la
è ĸ
Ġê³¼ ìŀī
Ġë¯¸ ìĦ±
ĠëĭĪ íĤ¤
íħĮ ìĺ¤
Ġëħ¹ìĥī ëĭ¹
íķĺ ìŀĦ
Ġêµ¬ íļį
Ġì°¨ ìĦ¸ëĮĢ
ĠA p
ĠëĴ¤ ëĬ¦
Ġê°Ĳ ì¶Ķ
ĠìĦ¸ë ¶Ħ
ĠìĿĮìķħ ìĽĲ
ac t
Ġë²Ħë Ł¬
Ġì¿łë ¹ĮëĿ¼ìĿ´
Ġî ĳ
Ġê°ĢìĻĢ ìĤ¬íĤ¤
Ġë¡ľë§¨ íĭ±
ĠëĳĲëł¤ìĽĮ íķĺ
ĠëĮĢëªħ ìĤ¬
ĠìĬ¤ íĤ¬
ĠíĥĢ êµ¬
ĠìķĪ íĭ°ìĺ¤
Ġìŀ¬ ê²°
Ġìļ© ìĿĺìŀĲ
Ġë¬¼ ê²°
Ġì¡°ë ĤĺëĿ¼
Ġëĭ¤ìĿ´ ìĩ¼
Ġë°°ë ĭ¬
ª¬ íĬ¸
Ġì½ĶìĬ¤íĥĢ ë¦¬ì¹´
ìł ľëıĻ
ĠãĢ Ģ
ê²Į ìĬ¤
ë§Ī íģ¬
Ġëĭ¤ìĭľ ê¸Ī
ĠíĥĦ ìŀĲëĭĪìķĦ
Ġê´ Į
Ġê°Ķ ìľ¼ë©°
ĠæĻ ®
ĠëĮĢ ì°¨
ĠìĨĮ ìĤ¬
Ġìľł ìļ°
ë¶ Ħë
Ġë°° ê¸°
Ġë§Ĳ ëł¤
Ġì§ģ ìĤ¬
ĠìĦ¸ë ł¨
ĠìĿĳ íķĺ
íĭ°ìķĦ ê³ł
ĠëĶľë Ł°
ìł ĪëıĦ
ĠëĮĢ ìĿĺ
Ġìľł íģ´ë¦¬ëĵľ
ĠíĻĶ íķĻìŀĲ
Ġìĭ¤ ê°ģ
ĠM il
Ġíĥľ ìļ°
ĠT C
ĠìĤ´ ì§Ŀ
Ġíİĺ ìĺ¤
Ġê±¸ ë¦°ëĭ¤
Ġíķľë ¯¸
Ġíķ©ì°½ ëĭ¨
Ġì¹´ë¥´íĥĢ ê³ł
Ġ" -
ê·¸ ë¦¼
ĠìĬ¹ ëĭ¨
ĠíķĦ ìĹ°
Ġë¬´ë ĭ¨
Ġê´Ģëł¨ ìŀĲ
ĠéĽ »
Ġæ· ĳ
Ġë³¼ë¡ľ ëĥĲ
å Ļ¨
Ġê³ł ëħ¸
ĠìŀĲ íĮĲ
ĠëĿ¼ íĬ¸
Ġê´Ģ ìĦ±
Ġë¹Ħ ìĬ¤íĥĢ
ĠÂ »
Ġê°ķ ìĦľêµ¬
ì¹´ë ¥´íĬ¸
Ġåħ ±
Ġìķł ì´Ī
ĠìĥĪ ìļ°
ĠìķĦëĭĮ ê°Ģ
Ġì¹¨ë ¡Ģ
Ġå³ °
ĠìľłëĭĪë ²ĦìĬ¤
ĠëĦ¤íĭ° ì¦Į
X X
Ġëĭ¤ íĸī
Ġìļ° ìĹĲìĬ¤ê¸°
Ġì°¨ ìĪĺ
ĠN et
ĠíĤ¤ ë¡ľ
ĠéĻ ¸
Ġê³Ħë Łī
Ġê³ĦìĬ¹ ìŀĲ
Ġìĩł ê³łê¸°
Ġë½ĳ íĺĶ
íĿ¬ë ĮĢ
ìľĪëıĦ ìļ°
ĠìĹ¬ íķĻìĥĿ
Ġì¡° ìĨĮ
Ġê´Ģ ìļ©
ĠìĦľ íı¬íĦ°
Ġíķ¨ ìĸĳ
ĠP at
ë£¨ ìĿ´
ĠíĪ °
ĠìĿµ ëªħ
ŀŃ íģ¬
Ġíľ© ìĭ¸
Ġë§¤ëģĦë Ł¬ìļ´
ĠëĮĵ ê¸Ģ
a tive
ĠìĪĺ ëł¥
Ġíķ´ë ³ĳ
Ġë§ī ìĭľë
Ġê°Ģë¦¬ ì¼ľ
ĠíĹĮ íĦ°
Ġå¼ ı
ĠíĻĶìĦ± ìĭľ
Ġíı¬íķŃ ìĭľ
ĠìĤ¼ê°ģ ì£¼
Ġìļ°ìļ¸ ì¦Ŀ
Ï Ħ
Ġì§Ģ ê²½
ĠëĤĺ ìļ°
Ġìľł íı¬
Ġìļ° ìĹĲ
Ġë°° íĸ¥
Ġì¢ħ ìĹħ
Ġê¹Ģ ì¤Ģ
ĠíĪ¬ íķĺ
Ġìķł ìĻĦ
Ġæ³ ī
Ġì¹¨ë ĮĢ
ëħ¸ë ¥´
Ġì²ŃëħĦ íļĮ
ìĸ´ëĸ ¤
r u
Ġíķĺ ìĿ´ë¸Į
êµ ¿
Ġê³ł íĨł
íĶĦ ë¦¬ëĵľ
Ġë³´ë ĦĪìĬ¤
ë§Ī ë¦¬ìķĦ
Ġëª© ìļķ
Ġì¹ĺ ìļ°
Ġë³ĳ ê³¼
ĠíĻ© íķ´ëıĦ
ĠìķĦìĿ´ ì¦Ī
Ġìĥ¤ íĶĦ
íĺ¸ë ª°ë¡ľì§Ģ
4 5
å ĸ
ĭ ¨ë
ĠëĿ¼ ê°Ģ
Ġë³´ ìłķ
Ġêµ¬ ìĬ¬
Ġë¸Įë ¥´íĥĢëī´
ìłľë ł¥
ëĳĲ ìĤ°
Ġê¸´ íĤ¤
ãĥ «
Ġìŀ¬íĮĲ ê´Ģ
Ġê³Ħë ³´
Ġíİł íĬ¸
ĠíĶĦëŀĢì¹ĺ ìĬ¤ì½Ķ
ĠìĤ¬ ìĵ°ë§Ī
Ġë§Ī ìĿ´ë
ĠíĮĶ ìŀĳ
Ġåº µ
ĠíķĦë ĳĲ
ìĹ°ë °©
Ġë³¼ë Ħ·
Ġëª¸ë ıĮ
Ġì´Īë¡Ŀ ìĥī
Ġë¸Įë¤¼ ìħĢ
å §
Ġê¸° ë°Ģ
ĠëıĻ ì°½
íĸī ìłķ
ĠC a
ĠíĶ¼ ìĤ¬
Ġìŀ¡ íŀĪ
Ġ70 5
Ġëĸł ìĺ¬ë
Ġëį°ìĬ¤íģ¬ íĨ±
L L
ì§Ģ ë¡ľ
Ġë¶Ģ ì¡°
Ġíķ´ ìļ´ëĮĢ
Ġëªħ ë¶Ģ
Ġíı¬ íĻĶ
ĠS erv
ìĭľë ª¨íĨł
Ġìķŀ ìĦł
Ġíı¬ë ĮĢ
Ġë¸Į ë¦¿
ĠìĪĺ ëĤĺëĿ¼
íģ °ë
ĠA f
Ġìĸĳ íĺĦ
ĠíĨłë ª©
Ġëħ¸ëıĻ ëł¥
ĠìĿ´ë¤Ħ ì§Ħ
ëĤ¨ë ¶Ģ
ĠëĤļ ìĭľ
Ġíķĺ ëĤ¨
ĠëıĦ ìĦ±
ĠìłĦ ê³¼
ĠëĿ¼ ê³łëıĦ
Ġë§Ī ìĿĮë
Ġìŀ¥ ìķłë¬¼
ĠíĮĮ ì¶©ë¥ĺ
Ġìĭľë ¹Ħ
ĠìķĪ ìĤ°ìĭľ
Ġë³µ ì§ģ
ĠëĤ¨ë ²łíĬ¸ëĤ¨
Ġë§¡ ê²¼
ĠëĬ¥ ëıĻ
Ġë°ĺëĮĢ íĮĮ
íĽĪ ìŀ¥
åĪ Ĩ
Ġê°ľì²´ êµ°
Ġë©ľë ²Ħë¥¸
Ġë¶Ģë¥´ì£¼ ìķĦ
s y
Ġê·¸ ë¦´
er t
ĠíĬ¸ë £¨
ĠHe art
ì¹´ë¥´ íĥĢ
ĠìľĦìĬ¤ ì½ĺìĭł
c us
ç Ķ¨
Ġë² ĮëłĪ
Ġìĺ¤ íķĺ
Ġë¬´ ìŀĲ
ĠìĻķ ê´Ģ
ĠK O
le t
ĠìĻ¸ë ¬´ë¶Ģ
ir st
Ġ187 7
ĠìķĦìĿ´ëĶĶ ìĸ¼
ĠëĮĢíĳľë ĭ¨
Ġë§ ·
Ġê³µ íĮĲ
ìłĦ ìĦł
ĠìĦ± ê¸°
Ġê·¸ë Ĥĺë§Ī
Ġ12 2
Ġëħ¸ íĶĦ
ĠìĹŃìĤ¬ íķĻ
Ġæ¬ ¡
Ġæ© ĭ
ìĿ´ëłĩ ê²Į
Ġê²½ ì¢ħ
Ġìŀ¥ ìĳ¤
ĠíĮĮ ê¸°
ì» ¬ë¦¬
¸Į ë¦¬ìķĦ
Ġíİ¸ ìłľ
Ġë²ł íĴĢ
Ġìķ¼ë §Ŀ
194 4
ì°¸ ì°¬
ĠìĿ¸íĶĮë łĪìĿ´ìħĺ
Ð ¹
ĠìĤ¬ ëĤ´
Ġê´Ģ ëĤ´
Ġë°ĺ ì£½
ĠëĳĲ ìĸ´
Ġíĺ¸ íģ¬ìĬ¤
Ġê±°ë £©
Ġì¶© ëĭ¹
²Ī ìĹĲ
ĠêµĲíĨµ ìĤ¬ê³ł
Ġè² ´
ìĿĮë ³´ìĤ´
ĠGr oup
Ġë¡ľë¹Ī ìĬ¨
ĠìĺĢìĿĮ ìĿĦ
Ġì¶©ëł¬ ìĻķ
ĠìĦ¸ëĦ¤ ê°Ī
¹ Įë¦¬
Ġìŀ ĶëĶĶ
ĠìĤ¬ ë³Ģ
ĠëıĦ íķĺ
ê°Ģ ëĤĺ
Ġìłķ íĻ©
ìļ© ìĤ¬
Ġìĥģ íķľ
Ġë¹Ħ ìĭ¼
ĠíĨµ ì§Ģ
Ġè ½
ĠëŁ¬ ìĿ¼
Ġä¸ ¹
ĠìľłìłĦ íķĻ
Ġì¼Ħ íĬ¸
ĠëįĶë¸Ķ ë¦°
ĠìĹĲ ë¡ľ
ìĦ ¸ëĭ¤
Ġê¸° ê³ł
ĠìĿ´ë ¡Ģ
Ġìĺ¤ ìķĦ
Ġê³Ħ ì¢Į
ìľł ë¦¬
íĿ ł
ĠíĻ© ìŀĲ
ĠìķĻ ê³¨ëĿ¼
ê±°ë Ĥĺ
Ġê³ģ ëĵ¤
ĠíĻĢë Ķ©
ĠëĦ¬ ìĬ¨
Ŀ¼ìĿ´ìĸ´ íĭ°
Ġâĺ Ĩ
I ON
è ĳ
ĠìłĦ ê¶Į
Ġë§Ī êµ¬
į° ìŀĲëĦ¤
Ġëħ¸ë ¥´ëĵľ
Ġë³µ ìĹŃ
Ġìķ¼ ì¿łë¥´íĬ¸
Ġìłĳ íķ©
Ġèı ©
Ġìŀ¬ëĭ ¨ë²ķìĿ¸
į°ìŀĲëĦ¤ ìĿ´ë£¨
ì «ĵ
Ġê°Ģ ë¶Ģ
ĠìłĦ ìĹ¼
Ġì¤ĳ ëŀĳ
Ġë°ĺ íı¬
Ġë°± ìĹħ
Ġë¦¬ë §Ī
Ġëį°ë ¯¸
Ġë¶Īë ³Ģ
ĠëłĪë ²Ħ
Ġëĭ¨ì²´ ìłĦ
Ġê¹Ģë ¯¼
Ġå» ³
tic s
íİĻ íĬ¸
Ġé¦ Ļ
ĠìĦľ ì£¼
ĠìĿ¼ë³¸ ìĭĿ
Ġë³¸ ìŀĳ
Ġì²ľ ì£¼
Ġíķ© ê¸Ī
ĠãĢı ,
ĠíĶĦëłĪìŀĦ ìĽĮíģ¬
ĠìĪĺìĪĺ ê»ĺëģ¼
ĠíĶĮëŀĳ íģ¬
Ķë Ł¬
Ġêµ¬ ì¹ĺ
ĠìĨĮ ìŀĳ
Ġìŀħ ìĭľ
ĠìĬ¹ ìłķìĽĲ
ìĬ¬ë łĪ
ĠUS B
l us
ĠìĿ´ ìĦ¸
ĠìĦ Ģ
ĠìłĦ êµĲ
ĠìĹ° íĿ¬
Ġë¯¸ë ¯¸
íļ¨ ìĨĮ
Ġìĭ ¼
ĠëĤ´ íı¬
ĠìĬ¹ ì§Ģ
ĠëĶ°ëĿ¼ ê°Ģ
Ġë°Ģ ê°Ģë£¨
Ġê¸°ìĽĲ íĽĦ
Ġè³ ĩ
ĠìĨĲë ħĢ
ĠëıĦë¥´ íĬ¸ë¬¸íĬ¸
ĠëĤĺì¹´ë ¬´ëĿ¼
ĠíĹĪëĵľ ìĬ¨
å ¢
ĠìĿ´ ëł¥
ĠìĿĺ ë¡Ģ
ĠëĮĢ ê°ķ
ĠìľĦ ìĭľ
Ġìĭł ìĦ¸
Ġë¬´ ìĪĺ
Ġë¶ģ ì¡°ìĦł
ĠìĻĦ ìĪĺ
ĠíĹ¤ ìĿ´ë
êµ¬ë ĭĪ
è¡ ĵ
Ġê¹Įë §Īê·Ģ
Ġê°Ģíķ´ ìŀĲ
Ġì»´íĮĮ ìĿ¼ëŁ¬
ĠìĬ¹ìļ© ì°¨
Ķ §
Ġå ¨
ĠìĦł ìľ¨
ĠíĮĮ ìĹ´
Ġëł Ľ
Ġìķŀ ìĦ¸
Ġåı Ĺ
ĠëĬĺ ëł¤
AT O
ìºĲë Ĥĺëĭ¤
Ġê¸Ģë ŀĺìĬ¤
Ġçµ ±
ê¾ ¸ë¡ľ
Ġèį ī
ĠëıĦ ìķ½
ìĿ¸ íĦ°
ê³Ħ ìķ½
ĠêµĲ ìłľ
ìľ¼ë ©´
Ġìĥ Įëĵľ
ĠS V
ĠìĹ´ ë¦´
ĠU C
Ġê±°ì³Ĳ ìĦľ
Ġë¬¸ë ¬´
Ġëª°ë ŀĲ
Ġì¹ľë °Ģ
íĭ¸ë Ł¬ìĬ¤
Ġë¬´ìĸ¸ ê°Ģ
ìĿ´ë ĵ¬íķ´
ĠíĺĦ íĮĲ
ĠíĬ¹ ê¸°
ĠíĥĢ ëıĦ
ĠëłĪ ì¦Ī
ìļ¸ ìĤ°
Ġë³ĳ ëĭ¨
Ġê·¹ ì°¬
ìĬ¤ì½Ķ íĬ¸
ĠìĹĲìĬ¤ íİĺëŀĢíĨł
ĠíĥĲíĹĺ ê°Ģ
ĠëıĦëĿ¼ ìĹĲëª½
Ġç½ ²
Ġìķķë¡Ŀ ê°ķ
v in
Ġíķĺ ìŀĦ
Ġë§Ī ìĵ°ë
Ġë°ľ íı¬
ĠìĽĲ ìĭ¬
ĵ¤ ë¦¬
ĠìĬ¹ ìĥģ
Ġëħ¸ë ¯¸ìķ¼
ĠìĹ´ë ł¬
ĠSt re
Ġë²Ķì£Ħ ìŀĲ
ĠìĤŃ ìĬ¤
Ġêº¼ë Ĥ´
Ġë°Ľì¹¨ë ıĮ
ĠêµŃ íĺ¸
Ġë¯¸ ìĭĿ
Ġìľłë ¬´
Ġë¬´ ê³ł
íķ© ì¤ĳêµŃ
Ġë°± ìķħê¸°
Ġì¤ĳìķĻ ìĿĢíĸī
ĠëŀĢ ìĬ¤
ĠêµŃë¯¼ íļĮ
ëĳ Ĳë
ëĿ¼ë ¦¬
ê°ľë °ľ
Ġêµ´ë ³µ
ĠìĦ± ë§¤ë§¤
Ġë§¤ ë¦½
Ġê°Ħ íĮĲ
Ġê³¡ ë©´
ĠíĺĪ ìķķ
197 1
ìĿĮë ł¥
Ġë²Ĺìĸ´ë Ĥľ
ĠëĳĲêº ¼ìļ´
n ing
ê¸° ìĪł
Ġëı Ĺ
ĠG er
Ġëł Įë
ĠçĶ ·
ĠìĽĢì§ģ ìĿ¼
ĠíĻĢ ë¦¬
ĠíĬ¸ëłĪ ìĿ´ëĭĿ
ĨĴ ìĿ´
ë³¸ë ¶Ģ
ĠíıĲê¸° ë¬¼
G B
Ġ É
ĠìĿ´ íķŃ
Ġìľ ¨ë
ìŀĲ ìĽĲ
Ġìłģ ë°ľ
Ġê²½ ì§Ģ
Ġë¶Ħ ê²½
Ġìľłë ĭ¤
ĠíĮĮ ì»¤
ìĦ¸ ì¢ħ
ĠíĮ¨ ê¶Į
ìĬ¤íĥĢ íĶĦ
ì§Īë Łī
Ġ184 0
Ġìķ¤ëĵľë £¨
Ġë°ľê¸° ìĿ¸
ĠëĤłì¹´ë ¡ľìļ´
ĠìĿ´ ìĤ°
ĠëĤĺ ìĤ¬
ĠëĿ¼ ì¹ĺìĺ¤
ĠíĨ ¡
Ġë°ľ ê°ĢëĿ½
Ġíİ Ń
Ġë°° ìķĦ
ĠìłĢ ì¶ķ
ë²Ħ ê·¸
ë§¤ ê¹Ģ
op s
o ve
Ġíķ ı
ĠëĶ ¥
Ġë¯¼ ìĺģíĻĶ
Ġì²Ń ë¬¸
Ġë¨ ¸ëĭĪ
ĠN P
ĠìĨĲ ìŀ¡ìĿ´
Ġíģ´ë łĪìĿ´
ĠëĤĺë ¹ł
Ġì»¤ ì¡Į
Ġê¹Ģë ªħ
Ġìĺ¤ìĬ¤íĬ¸ ë¦¬
Ġíķ´ê²° ì±ħ
ĠThom as
ĠìĿĺ ìļ©
ĠëĮĢ ëįķ
ĠìĽĶ íĬ¸
Ġì¡° ìĬĪ
ĠëıĻ ìŀĲ
ĠëĿ¼ ìŀĲ
Ġìµľ ìŀ¥
ĠìĤ° ê¸°
°Ķ ëıĦë¥´
Ġë²Ħ ìĦ¯
ĠìĦ¬ ê¸°
Ġíģ¬ë łĪìĿ´
ĠëįĶë Ł¬
êµ¬ë Ĥĺ
ìĤ¼ êµŃ
Ġìŀ¬íĮĲ ë¶Ģ
Ġêº ¼
Ġï½ ŀ
¶Ħë ªħ
ĠìĿ¼ëŁ¬ ìĬ¤íĬ¸
ĠGeor ge
Ġíĳ¸ìĹĲë¥´ íĨłë¦¬ì½Ķ
ĠìĿ´ë©Ķ ìĿ¼
Ġíİ ©
Ġë¬´ ìĨĶë¦¬ëĭĪ
ĠíķĦ íķĺ
ĠW ii
ë°Ķ ì§Ģ
Ġë¶Īë ¶Ħëªħ
ĠíĨłë ¡Ŀ
ĠíĹ¤ ë¡ľ
Ġì¿ł ìĽ¨ìĿ´íĬ¸
ĠëĮĢì¤ĳ êµĲíĨµ
Ġê³± ìħĪ
ĠAssoci ation
°ë ĬĲ
ìĤ¬ íĻĶ
ìŀ¥ êµ°
Ġìĺ¤ ëĮĢ
Ġìļ° ìĤ°
ìŀħ ìŀĲ
Ġê¹Ģ ê´ĳ
Ġì¹´ ì¦Ī
ĠìĹ°ë ĭ¬
Ġê±¸ ìŀĳ
Ġë²łìĿ´ ì»¤
ĠíĶĦëłĪë į°
Ġë¡¬ë °Ķ
r ich
Ġê°Ģ ë¸Įë¦¬ìĹĺ
Ġå ¶
Ġì§Ħ íĿĻ
ëĭ¤ ìļ´
ëª¨ ìĬ¤
Ġìłĳ ìłĦ
ĠìŀĲë¦¬ ë§¤ê¹Ģ
Ġë²Ħë Ŀ¼ìĿ´ìĸ´íĭ°
Ġä¹ Ļ
196 2
Ġë¸Įë£¨ íģ´ë¦°
ĠìĹ¬ì§Ħ ì¡±
ëĮ Ħ
g o
Ġê³ł ë°Ķ
ĠìĿ¸ ìľĦ
Ġê²½ ëıĦ
ĠìĹ° íĸī
ê·¸ë Ł°ëį°
Ġë¹ħ ë±ħ
íģĲ ìĸ´
Ġê°ĪëĿ¼ ìł¸
Ġåĵ ²
Ġê°Ĳë¦¬ êµĲ
ĠìĽ¨ìĬ¤íĬ¸ë ¯¼ìĬ¤íĦ°
Ġì ī´
êµ ½
ìļ ĺ
ĠìĪĺ ìĭľë¡ľ
ëĮĢ íķĻ
Ġë°ľ ìĤ°
ĠíĺĦ ê³¼
ì¤ĳ ì¶Ķë¶ĢìĤ¬
ĠíĮĲ ê´Ģ
Ġë©Ķ íĭ¸
íĥĢë Ŀ¼
ì¹ľ ìĻķ
ed er
ìĽ¨ ìĬ¤íĬ¸
ĠåĲ ı
Ġì¢ħìĹħ ìĽĲ
ĠìĤ¬ ì»¤
Ġê³¼ ê²©
ĠìĿ¼ ì§Ģ
Ġëĵ± ëĭ¨
Ġìĺ¤ íģ´ëĿ¼íĺ¸ë§Ī
§Ī ìĬ¤
ĠìłĦë ©¸
ĠB as
Ġì½Ķ ìĤ¬
ĠìĻ¸ ìĥģ
Ġì¡°ìĦł ìĨĮ
Ġì·¨ íĸ¥
Ġë¬´ìĤ¬ íŀĪ
iz ation
Ġìį ¬
ĠåĪĿ çŃī
åŁ Ł
ĠíĮĶìŀĳ ì§Ģë¶ķ
°ëĬĲ ë¦¬
Ġìĸ´ ì´Į
Ġì²Ń ëŁī
Ġë³¼ íĭ°ëª¨ìĸ´
Ġp o
Ġê³µíĨµ ìłĲ
Ġèµ ¤
ĠìĦ¸ìĿ¸ íĬ¸ë£¨
Ġë¬´ìŀĳ ìľĦ
ĠìłĦ ë¦¬
ĠëĤ¨ ì¡°
Ġìŀ¬ ê³ł
Ġì§ģ ê´Ģ
Ġì²´ íķĺ
ĠëĭĪ íĺ¼
Ġìķŀ ëĳĶ
Ġìĺ¹ ì£¼
ĭĪë °ľ
ĠìĬ¬ë¡ľ ê±´
ĠíĹĮë ³ĳ
ìłĪëıĦ ìĤ¬
k s
Ġì¡° ê³µ
Ġìŀ¥ ìłĦ
Ġíİ «
ol f
Ġë°Ķë¡ľ íģ¬
196 1
ĠìĿ´ì¹ĺ íĺĦ
Ġë¶Ģëĭ¤ íİĺìĬ¤íĬ¸
Ġ it
Ġì§Ģ íĥ±
Ġê²½ ê±´
ë¦° íĬ¸
Ġìĸĳ ì¡°
ĠH ot
Ġìĺ¤ë ©Ķ
íĮĮë ħ¸
um an
Ġëª¬ íħĮ
Ġë°ķìĺģ íļ¨
ĠëĤŃë§Į ì£¼ìĿĺ
ĠíĶĦë¡ľëª¨ ìħĺ
3 3
Ġ Ø
Ġê³ł ìĦ±êµ°
Ġê¸° ìļ´
Ġëĵ¤ ë¦¬
Ġíĺ Īë
Ġë¶Ģ ìĭ¤
ĠëĤĺ ìĿ¸
ĠìķĦ íİ¸
ĠìĥĿ ëıĦ
ĠS un
ĠA lex
¯¸ë ĶĶìĸ´
197 5
Ġæ· ³
æŃ ¦
ĠëĳĲëĵľëŁ¬ ì§Ģ
Ġíİłë¦¬ íİĺ
å ĩ
ëıĦ ìĬ¤
ìĿ´ë °į
ĠëĿ¼ë ĭĪ
ìĸĳ êµ¬
ëĤ ®
ĠF re
ĠìĹ´ ìĩł
ëłĪ ìĿ´ìħĺ
ì¿łë ĭ¤
ìĭłë £Į
Ġê³¼ë ĭ¤
íŀĪë į°
Ġì¢ħì°© ìĹŃ
Ġíķĺë°ĺ ê¸°
ë¦¬ ì¿ł
Ġê¸° ìłĦ
Ġë¶Ģ ì¶Ķ
¹Ħ íģ¬
Ġê°ķ ìĦ¸
Ġìŀħ ìĪł
Ġë§¤ ëıĦ
Ġê´ĳ ìŀĲ
Ġìĭłë ´ī
ĠíĨł ìľł
įĶ ì§Ģ
Ġê·¼ë ŀĺ
ĠìĹ°ì£¼ íļĮ
ĠéĬ Ģ
ĠIM F
Ġ Ë
Ġê°Ģ ë°©
Ġì¹ ¸ë
ĠêµĲ ì§Ģ
Ġë¦¬ íĬ¬
Ġë©Ķ ì¸ł
ĠíĨł íĬ¸ëĦĺ
Ġì·¨ ë¦¬íŀĪ
Ġì´ī ë°ľ
Ġìĺ¤ìĬ¤ íĭ´
ĠëĦĪ ìĬ¤
Ġê¸Īë ĤĺëĿ¼
ìĿĦë ²ĦìĬ¤
Ġíķľ ì¤ĳ
Ġê¸° íĨµ
ĠìĬ¤ íħĶ
Ġìĥģ íĮĮ
ĠìĦľ ìľĦ
Ġëĭ¨ ìĦľ
Ġì»¤ íĶĮ
196 9
Ġê°ĪëĿ¼ ì§Ģ
Ġì´Ľ ë¶Ī
Ġ q
ĠìĿ¸ ìĬ¹
ĠìŀĲ ìĻ¸ìĦł
íİ łëŁ¬
ĠëĤ´ ìĿ¼
Ġì²ĺ ìŀ¥
Ġìĸĳ ë©´
Ġë¸Įë łĪìĿ´
ĠìĽĲë ıĻ
ìĤ°ë ¶Ģ
Ġä¹ ħ
Ġë¹ħ íĨłë¥´
Ġê³łë¶Ħ êµ°
Ġ am
ìķ Ķë
ĠëĤ¨ ìĨ¡
ĠB ea
Ġì²ľ ì§Ģ
ĠíĶĦëŀĳ ì½Ķ
Ġê¸Ī ê³ł
194 7
ĠëłĪìĿ¸ ìłĢ
ĠëĮĢêµĲ êµ¬
ëłĪíĥĢ ë¦¬ìķĦ
ĠìĤ¬ìĿ´íĥĢë§Ī íĺĦ
Ġ Ä
ĠìĹ¬ ê³ł
Ġê²½ ëŁī
ĠìĬ¤ íĤ´
Ġëįĺ ì¡Į
ìŀĳ ìłĦ
Ġ6 000
Ġê°ķ ìĦ±
Ġê±° ê¾¸ë¡ľ
ĠìĺĪ ìĿĺ
ĠìĪ Ģ
Ġì¦Ŀ ê°ķ
ĠíĻ© íıĲ
Ġê¸Ī íĺ¸
Ġíĭ° ìłĢ
åŃ «
ĠíĿĳ ë°±
Ġ38 0
ĠéĢ £
Ġìļ©ìĤ° êµ¬
Ġë²łëĦ¤ëĶķ íĨł
íĻĶ ê²½
Ġë¦¬ ìĤ¬
Ġë°ĺ íķŃ
ĠíĥĢ ì¼Ģ
ĠP art
Ġì¦Ŀ ìĭĿ
Ġì²ľë §Ī
Ġìĸ¸ë¡ł ìĤ¬
Ġé«ĺ éºĹ
Ġë³Ģë ª¨
ĠíĬ¼ íĬ¼
Ġìķłëį¤ ìĬ¤
å Ľ
Ġë³´ ì§ģ
ĠìĤ° ìĪĺ
íĻ© ìłľ
Ġíİĺ ëłĪ
ìĹĲë ħ¸
ìĹ¬ë Ł¬
Ġi OS
ĠëĮĢìĬ¹ ë¶ĪêµĲ
enc y
ĠìĦ¸ ê°Ħ
Ġì¡° ì¤Ģ
Ġë¬´ ìķĪ
Ġê±° ìĬ¤
ĠìĦ¸ê³Ħ ìľłìĤ°
ëª¨ íĨłëħ¸
ĠÂł ĠĊ
ĠìłĪ ìķ½
Ġëħ¼ íķĺ
Ġéł ĺ
Ġë§Īê·¸ë Ħ¤
Ġìľ¼ë ¦¬ë
Ġíķľ ì°½
ìĭľ íĹĺ
ìŀĲ ìĹ°
ĠìķĦë ĭ¤
Ġëª¨ë °ĺ
Ġë°ķ ìŀĲ
Ġë°ķ ìĪĺ
Ġì½Ķ íĺ¸ëª°ë¡ľì§Ģ
Ġëĩ ¨
ĳĲë Ŀ¼ìĬ¤
ĠæŁ ±
Ġë¦´ë łĪìĿ´
u le
ĠëıĦ ë°ľ
ê² °ë
ìŀ¥ ìĤ¬
ĠìłĦ ìĤ°
Ġìĺ¤ ë¦Ħ
ĠêµŃ ëł¥
Ġë¦¬ ìĹĲ
ĠS al
Ġå· ĸ
Ġæ³ ¢
Ġíİ¸ì§ĳ ìŀ¥
ĠëĿ¼ë©´ ìĦľ
è« ĸ
Ġíİľìĭ¤ë²łìĿ´ëĭĪìķĦ ì£¼
èĤ ²
ĠInstit ute
ĠëĮĢ ëĭ´
Ġì£¼ ìłĢ
ĠS H
íĭ° ì»·
Ġë¬´ë ĦĪë
¯¸ë ĭĪ
Ġå® ¹
ĠìľĦë ĦĪìĬ¤
ĠéĻ °
ĠæĹ ı
Ġè¼ ī
Ġíľ© ìĵ¸
Ġìĭľ ì§Ħ
ĠìĿ´ë ²Ķ
ìĺ¤ ìĦ¸
Ġëĭ¹ ê³¼
ëĤĺ ìĺ¤
Ġíĸī íķ´ì¡Į
ê³¡ ë©´
ĠW in
Ġë´ī ìļ°ë¦¬
ë¹ Ħëĵľ
ê¶ Įë²ķ
åħ ī
e y
ìłĦ êµŃ
ĠëĤĺ ë§Ī
ìĦ¸ ìļ°ìĬ¤
ĠA A
Ġìļ© ìĤ¬
Ġìļ© ê°Ĳ
Ġìĭłë ĮĢ
ĠìĥĪ ê²¼
ĠìľĦë ²ķ
ĠX P
ĠAr m
ĠMS L
ì¶ľë ł¥
ľ¨ë ł¤
© ĭ
è ²
Ġå ±Ģ
Ġì¡° ìĦľ
Ġì¡° ìŀ¥
Ġë³´ë Ĥĺ
Ġì²ĺ ë°©
Ġì¹´ ìķ¼
ĠìĪľ íķŃ
at us
Ġëĸłë Ĥł
ur ch
Ġì¶ľìŀħ ë¬¸
ĠìĹĲ ê²Ĳ
Ġë¡ľ ìĿ´ëĵľ
Ġê³¼ ìŀĲ
ĠìĨĮ íĶĦ
ĠìĽĲ íķľ
Ġì°¸ íĮ¨
ĠëłĪ íĶĦ
Ġê¹Ģ ìľ¤
łĪìĿ´ íĬ¸
ĠW HO
ĠíĨłë ¡ľ
ì°¬ ìĦ±
ac eae
um p
Ġì°© ì·¨
ĠâĢĻ( )
Ġç§ ¦
èª ª
Ġíĸĩ ë¹Ľ
ĠìĦ¸ë¹Ħ ìķ¼
ĠGN U
ĠìĿ´ë°ĶëĿ¼ íĤ¤
ĠìĿ´ ê·ľ
ĠëıĦ ìļ°
Ġê²½ ë¬´
ĠìķĦ ìī¬
Ġì£¼ ê³łë
Ġì°¨ ë¦¼
Ġê³µìĭĿ ìłĦ
ĠìĬ¬ë Ŀ¼
Ġíķ´ìĦĿ íķĻ
Ġê°Ģë¥´ ì³Ĳ
Ġì£¼ê³łë °Ľ
Ġí Ĥ´
ĠìĬ¤ ìľĻ
Ġëĭ¹ ëĭ¹
Ġëª¨ë ©ĺíĬ¸
Ġëª¨ ìĭł
Ġëģ Ķ
Ġìĭ¬ ìłķ
ãģ ®
ë© ľ
ãĤ ¹
ĠëłĪìĿ´ë ĶĶ
Ġë¸Įë¦¬ íĭ°ìĭľ
Ġíģ´ëłĪë ©ĺìĬ¤
Ġì© Ĳ
ĠëĤ ¡
ĠìķĦ ìŀĲ
Ġíķ´ ì§Ģ
ëĮĢ ìĦľìĸĳ
Ġíıī íĥĦ
Ġíĸ¥ ê¸°
®¤ ìĸ¼
ĠíĻĪ ì¦Ī
Ġ185 9
ĠìĬ¤íĬ¸ë¦¬ ë°į
Ġíķĺ ìķ¼
ĠëĮĢ êµŃ
Įë Ł¬
Ġìĭľ ìĽĲ
ĠìĬ¹ íķĺ
íĬ¸ë §¨
ĠìĿĮ ì£¼
Ġë³Ģ íķľëĭ¤
Ġíĳľ ì¶ľ
Ġì½Ķë ®Į
ĠíĮ¨ íķ´
ol ution
ĠéĿ ĸ
Ġíļ¡ ëł¹
Ġë£¨ìĬ¤ ë²¨íĬ¸
Ġè¾ ²
I R
Ġìĺ ´ë
Ġìłķ ë°ķ
ìĪĺ ì§Ģ
ìĦł êµĲ
Ġë§Ī ìĿĦë²ĦìĬ¤
Ġë³Ģ ì¢ħ
ĠíĶ¼ ì²ĺ
ĠíĮ¨ íĬ¸ë¦Ń
íĻľ ìķ½
ìĬĪ íį¼
ì¦Īë ħ¸
Ġë°ĶìĿ´ ìĸ´
Ġìĭľíĭ° ì¦Į
Ġíı¬ë¥´íĪ¬ê°Ī ìĸ´
ëłĪë Ĥĺ
ĠGre at
Ķ ¸
ĠìĿ´ ìķĦ
Ġê°Ģ íĨł
ĠëĮĢ ëª©
Ġìĥģ ìĿĺ
Ġìĥģ ê³¼
Ġëĭ¹ íĮĮ
Ġë°ĺ ìłĲ
ĠS oci
ĠC ro
Ġëħ¸ ìķĦ
ĠW ay
ìĭľë ¸Į
Ġìŀł ìĭ¤
¸Įë ¥´
197 8
å¯ Ł
ĠëıĦë¯¸ëĭĪ ì¹´
r it
ĠìĽ °ë
ìľ ½
ĠìĪĺ ê¸ī
ĠâĢ Ķ
ĠíĶ¼ ì§Ģ
ĠíķŃ ìķĦë¦¬
Ġë²Ħ íĭ°
ag ue
íı° ìĨĮ
ĠUn ited
ĠíĥĢìŀĦ ì¦Ī
ç ®
Ġëĭ¤ ëª©
ìķ ¨
Ġë¶Ģ ëŁ¬
ĠìĦ± ê°Ģ
ìĿ¼ ì¹ĺ
ĠS im
Ġëıħ ì£¼
Ġëĭ¤ê°Ģ ìĺ¤
ìĿ´ìĬ¤ ì¼Ģ
ĠíĥĲ ìłķ
ìĥ¤ ìĺ¤
Ġë¶Īê°Ģ íĶ¼
ĠëĤłë ł¤
ĠìĪ¨ê²¨ ì§Ħ
Ġèĵ ®
ĠíĶĦë¡¤ ëłĪíĥĢë¦¬ìķĦ
Ĩ Ģë¡ľ
ìĪĺ íķĻ
ĠìķĦ ìĸ´
Ġìĺģ ìĤ¬
Ġëĭ¨ ìŀĲ
ĠS am
Ġíĸī êµ°
Ġì°¸ ìĿĺìĽĲ
Ġìĩ¼ íģ¬
ur al
Ġéĥ Ń
Ġì²´ë Ĥ´
ĠìłĢì§Ģ ë¥¸
ĠìĶ ¬
æ¼ ¢
Ġë¦¬ìļ°ë į°ìŀĲëĦ¤ìĿ´ë£¨
Ġìĥ ¨
Ġë§¤ ìĬ¤
Ġë³Ģ ì§Ī
ĠíĪ¬ ìĭł
ĠëĤ´ë ¬´
Ġê³¨ ì§ľê¸°
ĠíĥĦ ìĤ°
ĠìºĲ ìĬ¤íĬ¸
ĠëĦ¥ ìĦ¼
ĠìĿ´ëį° ìĺ¬ë¡ľ
ĠìŀĲë¦¿ ìĪĺ
y a
Ġì§Ģ ìŀĲì²´
Ġì¡° ìĸ´
Ġê±° ìĤ¬
ĠìłĦë ¯¸
ëĭ¤ ë§Į
ĠìĬ Į
ì¿ł ìĤ¬
om an
Ġê°Ģë¥´ ìĭľìķĦ
Ġë§¹ íĻľìķ½
Ġèĩ ¨
ìĭľëĤ´ íĭ°
c on
Ġê³ł ì°°
ĠìŀĲ ì²ĺ
ì§ ĸ
ĠìĹ¬ íĺ¸
Ġì¤ĳ ìļ©
ìĦ± ìŀ¥
Ġë¯¸ ì¹ł
ĠíļĮ ìľł
Ġê°Ħ ê²°
Ġë²ķ ìłĦ
ìĹĲ ìĸ´
ĠëĦ¤ ìŀĦ
ĠR T
Ġíİĺ ë¯¸ëĭĪ
ĠëĤł ìķĦ
Ġìłľì¡° ìĤ¬
ĠåĨ ħ
ĠçĪ ¶
ĠJe an
ĠëĿ¼íĮĮ ìĹĺ
Ġì¢ħ ë¬ĺ
íķł ë¦°
Ġì·¨ íķł
ĠìķĦìĿ´ ì½ĺ
ĠìĹ¬ìĦ± ì£¼ìĿĺ
18 0
ë²Ķ ì£Ħ
ĠíĹĪë ª©
ĠìĽĲìŀĲ íķµ
Ġë¯¸ëĦ¤ìĨĮ íĥĢ
V A
ĠìĿ´ ìĨĮ
Ġìĺ¤ ìĿ¼ëŁ¬
ĠíĶĦë Ŀ¼ìĿ´ë
ë©´ ì²´
Ġì¦Ŀ ë°ľ
ĠìłĪ ì¹ľ
ĠíħĶëł Īë
Ġíı¼ íİĺìĿ´
ĠìķĮëłīìĤ°ëĵľë ¡ľìĬ¤
a j
´ Ĳ
ĠëĮĢ íĥĢ
¬ë Ŀ¼
ĠìĬ¤ ëª¨
Ġë³µ ìĭ±
Ġêµ¬ë ¬¸
Ġìŀł ìŀħ
Ġíģ´ ë¦Ń
ĠìķĪëıĻ ìĭľ
Ġçļĩ å¸Ŀ
att le
íĥĢëĤĺ ë²ł
ĠìŀĲ íĸī
Ġë°ľ ìŀĲ
ĠìĥĿ ê¸¸
Ġìľłë §Ŀ
Ġíĺ¸ ìķĦ
Ġë¯¼ ìĭ¬
ī´ ê¸°ëĭĪ
ìĦ¼ íĦ°
Ġëĭ¤ìĿ´ë ħ¸ìĬ¤
Ġr es
ĠëĮĢë¦¬ ìĦĿ
Ġìŀħë²ķ ë¶Ģ
Ġìĺģìľł ê¶Į
Ġì¤ĳ ê°ľ
ì§Ħ ìĺģ
£¨ ìĹĶ
ĠìĦľ ê±°
ĠÂ «
ĠìĤ° ì±ħ
Ġì¤ Į
íķł ìķĦë²Ħì§Ģ
he m
ou l
ì§Īë łĢ
Ġè¿ ĳ
Ġê°Ģ ë©´
ìĤ¬ ìļ°ìĬ¤
Ġë¯¸ ìħ¸
Ġìľł ìĺģ
Ġë¹Ħ ìĹĶë
ĠS ing
Ġìķ¼ ìĭ¬
ĠìĨĲ ëĭĺ
Ġìµ ¸
Ġëª©ìłģ ì§Ģ
Ġåį ¿
Ġì¹Ń íĸĪ
Ġê²½ìŁģ ìŀĲ
ĠìĻĦë §Į
ĠèĢ Į
Ġìĸ¼ë £©
Ġê²¨ë £¨
Ġê°Ģ ëªħ
ìĿ´ ìĿ¸
ĠëıĦ ìĤ°
Ġê¹ ģ
Ġë³´ë ¥ĺ
Ġì²ĺ íķľ
ĠT R
Ġëł Īë¹Ħ
ĠìķĪë Ĥĺ
ĠëĤ© ìŀĳ
Ġë²łìĬ¤íĬ¸ ìħĢëŁ¬
ĠìĿ´ëį°ìĺ¬ë¡ľ ê¸°
ĠìĿ´ ì¦Īë¯¸
ìĦł ìĸ¸
Ġë°ľ ì°©
ĠëłĪ íĬ¸
ĠìĹ¬ë Ł¬ë
Ġì¶ķ ìĿ¼
°© ìĨ¡
Ġíİĺ ìĿ¸
Ġì£½ ìĹ¬
Ġåħ ģ
om a
Ġç¥ ł
Ġê¸¸ë ĵľ
ĠìĿ´ ì¼Ģ
ê² ¬ë
ĠìĿ´ë ´ī
łĪ ìĬ¤íĬ¸
Ġì§Ħ ìĸ¸
ĠíħĲ ìĦľ
Ġìķµ ì»¤
ĠëĤ´ìĦ¸ ìĽł
ìĤ¬ìļ°ë £¨ìĬ¤
Ġëª¹ ìĭľ
ë°Ķë¸Į ìĽ¨
Ġëĭ¤ ëŁī
ĠìĤ¬ ê·Ģ
ĠìĿ¼ ìĦł
íĺ Īë
Ġìĥģ ìĦł
Ġë°© ê³µ
ìĿ´ë §Į
Ġë°Ķ ìĬ¤íģ¬
Ġì¶Ķ íĽĦ
ĠìłĲ ì§Ħ
Ġì¹´ ìĿ´ë¡ľ
ĠìĦ¸ë ¯¸
Ġë¬´ë ¹Ħ
ë³¸ ê´Ģ
ĠëĦĺ ê²¼
Ġê´ ľ
ìł¤ ë¡ľ
ĠìĿ¸ì§Ģ ëıĦ
Ġê½ĥ ìŀİ
ĠíĺĦë ¯¸
ĠìĿ´ìĦ± ì§Ī
ĠìĹĲìĿ´ ì¦Ī
æĺ Ł
Ġë°±ìķħ ê´Ģ
Ġíķĺ ì¤ĳ
Ġê°Ģ ëıħ
Ġì§Ģ ë¬¸
Ġìłķ ìĿį
Ġë©´ ì§ģ
ĠêµŃ ìĿ¸
ĠC R
Ġë§¤ ë¦¬
Ġê¹Ģ ì¹ĺ
ê¹ ¨ë
Ġìļ´ëıĻ ëŁī
ĠO ff
Ġìĺ¬ë¦¼ íĶ¼ìķĦ
Ġê·¼ë °©
Ġë°ĿíĺĢ ìł¸
Ġìį ©
Ġê³¼ë°ĺ ìĪĺ
Ġë°±ê³¼ ìĤ¬ìłĦ
ĠíĮ¨ëŁ´ ë¦¼íĶ½
Ġì§Ģ ì²´
íķĺ ëĬĺ
Ġê·¸ë ŀ¬
Ġë°Ķ íĬ¸
ìĸ´ë ¥ĺ
ĠìłĢ ê·¸
Ġê¸Ī ìĤ°
ìļ°ë Ł¬
ur us
ĠíĦ°ë ¹Ī
ĠìļĶë¦¬ íĨłëª¨
Ġåĸ ľ
ĠìķĶë ª¨ë
ĠíĶĦëĿ¼ìĿ´ ì¦Ī
ĠíĹ¤ëĿ¼ íģ´ëłĪìĬ¤
èĸ ©
Ġì§Ģ ë¦°
Ġë§Ī ë¦°
Ġìĭł ìĿĺ
ĠëĤ´ ìŀ¬
Ġìĭľë ħ¸
íĺķ ìłľ
Ġì½ §
Ġíĳľ ìłĪ
Ġì½Ķ ìĨĮë³´
Ĥľ íĬ¸
ĠíĻľ ìŀĲ
Ġçī ¹
ĠéĻ¢ åĲĽ
ĠìĤ¬ êµĲ
Ġê³µ ë³ĳ
ĠêµĲ ìĦľ
Ġè Ĵ
ìĹ¬ ìĦ±
ĠB u
ĠB ig
ĠëĤ´ë ŀĢ
ĠíĮ¨ë §Ŀ
ĠìŀĶ íķ´
Ġãģ Ħ
193 9
Ġåł ´
Ġç¿ ¼
íīģ ìĿ´
é ½
ĠìĹĲ ë°ĺ
Ġë² Įë
Ġêµ¬ ê°ķ
Ġìµľ ìĺģ
ĠìłĢ íķ´
Ġë¬´ë ıĦ
ĠëĭĪ ê¹Į
Ġê²¸ ì§ģ
ĠìĹ°ìĺĪ ê³Ħ
ĠìĿ´ë ³Ħ
Ġæ ¶
ë¯¼ ì£¼ëĭ¹
ĠìĿ¼ë¶Ģ ëŁ¬
et t
ëĵľë Ŀ¼
ë¬´ë Ŀ¼ìĿ´
ĠìĺĪë¹Ħ ìĹŃ
ĠìĿ´ë¸Į ìĬ¤
Ġë¡ľ ë¸Į
ê» ĳ
ĠìĤ¼ ì²Ļ
Ġc c
ĠíĻĺ ìľ¨
ĠU SA
Ġì¤Ħ ìĿ¼
Ġëĭ´ëĭ¹ ìŀĲ
Ġìķ¤ ëĶĶ
Ġêµ¬ëĭ¨ ì£¼
Ġì¹ĺë£Į ìłľ
Ġè¡ ¨
Ġè¨ Ģ
ĠëŁ¬ë ĭĿ
ĠíĥĢë Ĥĺ
ĠíķĺìĸĢ ìĥī
Ġç® ¡
Ġì»´íĮĮ ìĿ¼
íĥĢë¯¸ ìķĦ
ĠìľłëĿ¼ ìĭľìķĦ
d er
¥ ł
Īë Ł¬ìĬ¤
ĠìŀĲ ê¶ģ
Ġì¡° ìłľ
Ġê°ľ ê·¸ë§¨
19 10
Ġëħ¸ë ¥´ë§Į
Ġì§ģ ë¬¼
Ġê´ĳ ìĹħ
Ġê°ķëł¥ íŀĪ
ĠíĿ¡ ìĹ°
ĠåĽ ł
ĠìĤ¼êµŃ ìľłìĤ¬
ĠìĻĵ ìĬ¨
3 6
y r
Ġê³ł êµŃ
Ġì§Ģ êµ¬ë
Ġíķ´ íĶ¼
ĠìĽĲ ìłľ
ĠíĮĮ ì£¼ìĭľ
Ġì°¸ ìĪĺ
ĠD r
Ġì²Ń ê³Ħ
Ġë´ī íķĺ
ĠíĶĦ ë¦¬ìĬ¤
ĠìĻ¸ë ©´
Ġçı į
ëĨĢ ìĿ´
H L
h am
Ġê² Ł
Ġê¸° ë¬ĺ
ĠìĪĺ ë¹ĦëĮĢ
Ġê²½ íĿ¬ëĮĢ
ì£¼ ìĦĿ
ĠìĬ¤ íĨ°
Ġìµľ íķĺ
Ġíĸī ë³´
Ġë³Ģ ì¦Ŀ
Ġê³łëĵ± íķĻìĥĿ
ëĵľë łĪ
ĠíĹĪë ¸Ķ
Ġå°Ļ æĽ¸
ĠìĿ¼ëłīíĬ¸ë¡ľ ëĭī
ï ¼
íķ łë
ìŀĲ ëĵľ
Ġë§Ī íı¬êµ¬
Ġìľł íĥľ
Ġé §
íı¬ íĥĢë¯¸ìķĦ
ĠU TC
Ġìļ¸ ë¦ī
ĠìŀĶ ì¡´
íķĦë łĪìĿ´ìħĺ
ear ch
ĠFran c
Ġë¶Ģ ê´Ģ
ĠëĿ¼ë ¥´
ĠìłĦë Ŀ¼
íĭ° ìĹĲ
ĠD is
Ġë¶Īë ł¤
ĠìĻĦë ¹Ħ
197 7
ĠèĪ Ĭ
ìĹĲìĿ´ ê³ł
ĠëĤ´ìĦ¸ ìĽĮ
æ¿ Ł
Î µ
ĠìĹ ¡
Ġìłľ ê°Ī
Ġê°ľ ê¸°
Ġíĺķ ì£¼
ĠíĬ¹ ë³Ħë
ĠìŀĦ íķĺ
Ġìłľìŀĳ ì§Ħ
Ġì±Ħ êµ´
Ġëª°ë ıĦë°Ķ
ĠèĻ İ
Ġë¹Īë ¯¼
ë¦°ë įĶ
Ġì±Ħê¶Į ìŀĲ
Ġì¹ľìĦł ê²½ê¸°
G O
© ëĭĪëĭ¤
Ġë¶Ģ íĴĢ
Ġì¡° ìĺģ
Ġë¯¸ íķĻ
19 00
ĠíħĮ ìĿ´
íĶĮë¡ľ ëŁ¬
a f
Ġìĸ´ ìĦł
Ġë§Ī íĬ¸
Ġêµ° ìŀĲ
Ġë³Ģ ê´ĳìĦ±
Ġì¹´ íĪ°
Ġìķ¼ êµ¬ëĭ¨
Ġã Ī
ĠìĪĺëıĦ íļĮ
ĠíĪ¬ë ĭĪ
Ġì°¾ìķĦ ìĻĢ
Ġë¨¸ë¬¼ë Ł¬
ĠEx p
Ġíķ´ë¶Ģ íķĻ
ĠìĿĦ ìĤ¬
ĠìŀĲ ìłķ
ĠíĶ ¼ë¦¬
Ġìĸĳ êµ°
ëĭ¤ ë¥´
íģ¬ë ¡ľìĬ¤
ĠíĮĶ ê¿Īì¹ĺ
ãĤ ¤
ĠìĹ¬ê°Ŀ ê¸°
Ġë¯¼ë ¬¼
ìķ¼ë §Ĳë¡ľ
ĠìķĦëĤĺ íĨ¨ë¦¬ìķĦ
Ġë°©ìľĦ êµ°
ĠëĤ¨ìĸĳ ì£¼ìĭľ
Ġê²½ë³µ ê¶ģ
E A
° ´
ĠìĿ´ ëĭĪ
ìĿ´ ìĹĲ
Ŀ¼ë °°ë
Ġìŀ¥ ìĭł
Ġëĭ¨ ìĹŃ
Ġëĭ¨ ì¡°
ìĸ´ë ĵľ
ìĭ¤ íĹĺ
Ġd er
Ġëĭ¤ë©´ ìĦľ
ĠâĪ Ĵ
ë²łë ¥´ë
ĠëĭĮ ìŀĲ
ĠìĹĳìĬ¤ ë°ķìĬ¤
ĠìĤ¬ìĿ´ë ¨¼
Ġë°Ķëĭ· ë¬¼
ĠíĻĢëĶ© ìĬ¤
Ŀ¼ë°°ë §Ī
Ġëį ±
Ĳë Ĥĺ
Ġ8 000
Ġë°° ë¦¬
Ġë§Īë Ĥĺ
ĠE ar
ëį ®
Ġì§ĳëĭ¨ êµ°
Ġin t
íĢ ¸
Ġæ· µ
ĦĪë ĵľ
ĠìľłìĹĶ êµ°
3 5
Ġìľ Įë
ìĭľ ê²Į
Ġì¹ łë
ĠêµŃ ë¶Ģ
ĠìĹ° íķ´
íİ Ģ
ĠìĪ łë
Ġì»´ íķĦëłĪìĿ´ìħĺ
Ġì°© ê°ģ
ĠëĤ´ëł¤ ìĻĢ
åħ ĥ
ĠëıĦë§Ŀ ì³¤
éĢ ļ
ĠBl ue
ĠìķĪëĵľë łĪ
Ġìĭłê¸° ë¡Ŀ
ĠìĿ´ íĦ°
Ġê°Ģ ëĵł
ĠìĻĢ ìĿ´ëĵľ
ëłĪ ìļ°
ĠíĽĦë ĵľ
Ġå¾ ŀ
Ġìłķíķ´ ìł¸
Ġë©´ë ĭ´
Ġìĭ« ìĸ´
Ġê´ĳëĳ¥ ìĦ±
ĠíķĺìĿ´ë¸Į ë¦¬ëĵľ
Ġëĭ¤ ë§ĪìĬ¤
ĠìĿĺ ë³µ
ĠëıĦ ë´ī
ĠëĿ¼ íĿĲ
Ġì¢ħ ìĤ¬ìŀĲ
Ġëł Ļ
Ġìķħ ëªħ
Ġì§ĢëĤĺ ì¹ľ
ë© Ķëĭ¤
Ġë¶ĢìĹ¬ êµ°
ë¹Ħë ¡Ŀ
ìĿ´ì¹ĺ ë¡ľ
æĽ ¹
Ġå¦Ĥ ä¾Ĩ
Ġê³ł ìĿ¸
ì§Ģ ìĥģ
ĠìĤ¬ ì£¼
ĠìĤ¬ ëĮĢë¶Ģ
Ġìłķ ìĿ¸
ìĿĺ ìĭĿ
ìĦ¸ ìĦľ
Ġì²Ń ê°ģ
Ġê·ľ ìľ¨
ĠìŀĲìľł íĺķ
ĠìĪĻ ìĨĮ
Ġíİ¼ ì¹ľ
ê²¨ë łĪ
Ġíķ©ìĦ± ìĸ´
Ð ¼
å Ħ
łë ²¨
Ġì¤ĳ ê²¬
Ġë¯¸ ìķĦ
Ġç Ģ
Ġì£¼ë ĤĺëĿ¼
Ġì¦Ŀ ì¡°ë¶Ģ
Ġë´ī íĻĶ
Ġì§Ģíķĺ ìĹŃ
ĠìĻľ êµ°
Ġì°½ë¦½ ìŀĲ
Ġé¡ ŀ
å½ ¢
èī ²
3 7
Ġìķ °
Ġìľł íĻĶ
Ġìŀĳ ëħĦ
Ġíı¬ íĥĳ
ĠìļĶ ì¦ĺ
Ġìŀħ íŀĪ
Ľ° ê¸°
Ġìĺ¬ëĿ¼ ìĺ¤
ĠìĤŃ ê°Ĳ
íĶĮëłī ìĬ¤
Ġì°¨ê°Ģ ìļ´
² ¨ëĿ¼
ìŀ łë
ĠìĬ¤ íĮ
ĠëĿ¼ë ĵľ
ĠíļĮ ê³łë
an ge
ĠW est
ĠíŀĪ íĨł
Ġëª¸ ì²´
Ġä» Ļ
ì¡°ë ¥ĺ
Ġë²łë¥´ íĥĢ
ĠëĥĲ ê³ł
v es
ìĹ ´ëĮĢ
ê¸° ëıħ
Ġå ĥı
Ġë¯¸ ìĿ¸
Ġì½Ķ íį¼ëłĪìĿ´ìħĺ
Ġê²© íķĺ
ĠìĽĮ íĤ¹
ĠìĤ¬ëĿ¼ ìł¸
Ġì¤Ģëĭ¤ ëĬĶ
Ġìŀ¥ë¡ľ íļĮ
åł ´
Ġíķ¨ê²½ ëıĦ
ĠRich ard
ìĿ´ ìĤ¬
Ġê¸° íĮĲ
ĠìĿ¸ ì½ĶëĶ©
Ġë¶Ģ ëĳĲ
ĠìĿ´ë ª©
Ġìĥģ ìĭĿ
ĠH o
ŀĢë į´ë¶Ģë¥´íģ¬
it a
it ch
ĠíĮĶ ë¦°
Ġä½ į
for d
ĠìļĶê¸Ī ìĨĮ
íģ¬ëĿ¼ íħĮìĬ¤
Ġëª¨ëĤĺ ì½Ķ
Ġ und
Ġê°Ģ ìļ°
Ġìľł íĥĢ
Ġìĥ µ
ĠìĹ´ ìĦ¸
Ġê´ĳ ë°°
Ġë²ł ìĿ¼
å® Ī
ĠìĤ¬ë¬´ êµŃ
ìłĦë ł¥
ĠìŀĲìľłë ¯¼
Ġê¾¸ë ©°
íģ°ë ¡¤
ìĤ¬ ìľł
Ġå ©
ìĭĿ ê°Ħ
ª½ ê³¨
ĠìĻķ ëŀĺ
Ġíĥľ ìķĦ
ìķĦë įĶ
ĠB el
Ġë§ī ê°ķ
Ġíķµ ë¶ĦìĹ´
Ġì¿łë ¥´ëĵľ
Ġê°Ŀ ìĭ¤
Ġë°ĺê°Ĳ ê¸°
B N
ë Ħ·
ĠìĿ´ ìļ°
ĠìŀĲ ì·¨
Ġíķ´ ìĭľ
Ġìĺ¤ ì§Ģ
ĠìķĦë ¢°
ĠíĻĶ ìĬ¹
Ġëĭ¨ êµŃ
Ġë³´ë ł¹
Ġì¹ĺ ìĤ¬
Ġë°ķ ìĦ±
ĠëĤł ë¦¬
Ġìķħ ëĭ¹
Ġë´ Ħë
Ġë³´ìľł ìŀĲ
ä» ¤
8 2
Ð ´
ĠëĲĺ íĴĢìĿ´
ĠìŀĲ ë¶Ģ
íķĺ ìļ°ìĬ¤
Ġë¯¸ ì§Ģ
Ġëª¨ë ĭĿ
íĬ¸ë ĶĶ
ĠìĹ¬ë ĮĢ
ĠJ ack
ĠìĹĺ ëŁ°
Ġì§ķ ì§ĳ
ĠCh amp
ĠìĻ¸êµĲ ë¶Ģ
Ġê¹ĢìĦ± ìĪĺ
ĠìĿµìĬ¤ íĶĮë¡ľëŁ¬
if ic
ĠìĺĪìĸ¸ ìŀĲ
Ġíķ¸ë ĵľ
æĥ ³
Ġhtt p
Ġé¾ ľ
Ġê° ¯
ë§ Ĳë
Ġìĭ¤ ëªħ
ĠS he
ĠíĥĢ ìĭľ
Ġë³Ģ íķ´
ĠP P
ĠK h
ĠíĽĦë ¯¸
ĠíĶ¼ë ĭīìĬ¤
Ġíİĺë¥´ ìĭľ
ĠìĬ¤íĮĮ ìĿ´ëįĶ
Ġëłī ìĬ¤
ĠíĴĢëł¤ ëĤ¬
ĠíĽĦìĦ¸ ìĿ¸
ĠìĬ¤íĬ¸ ë¦¼
ĠíĬ¹ë³Ħë ²ķ
Ġëĭ¤ êµŃìłģ
ĠëĮĢ ì§Ħ
Ġìłķ ìĺĪ
Ġíķ´ íĬ¸
ë¶Ģ ë¦¬
íĮ Ŀ
ìĿ´ë ĭĪ
Ġç Ķ¨
Ġì¶ľ ìĦ¸
ìķĦë §Ī
íıī ë©´
ĠìĹħ ë¡ľëĵľ
¸Ķ ë¦¿
Ġë°ĶëĢ Ĳëĭ¤
K BS
R NA
Ġì Ĳ
Ĥĺ ëĵľ
ĠìĪĺ ë§Į
Ġìĺ¤ ë¥´ë
Ġé ¨
ĠM r
ĠB en
ĠìĹ¬ë Ł¿
Ġë³¸ ê±°ì§Ģ
Ġìĭ¬ ìĥģ
ĠíĶĮë Ł¬ê·¸
ì°½ ìĽĲ
ĠìľĦë ıĦ
194 1
ĠëĤĺì¹ĺ ìĺ¤
ĠíĬ¸ë¡ľ íĬ¸
ĠëĿ¼ìĿ´íĶĦ ì¹ĺíŀĪ
D I
ĠìĽ įìĬ¤
ĠìĽĶ íĦ°
ĠìĪĺ ì¦Ŀ
ĠT rans
ĠF ree
Ġê¸Ī ìĥī
Ġê³łëĵ± êµĲìľ¡
ter s
ĠìĬ¤ì½Ķ ìĸ´
196 5
Ð¾Ð ²
ĠìĨ¡íĮĮ êµ¬
© Ģ
Ġê¸° ë¯¸
Ġìłģ ìłķ
ĠìĻĢ ìĦ¸ëĭ¤
ĠëĤĺ ìģĺ
ĠìĦ± íĴĪ
ĠìĨĮ íķĻêµĲ
ìĹ° íıīê·ł
ĠA ct
Ġê±°ë ¨¸
ĠìĻ¸ ì²Ļ
Ġì°¨ë ªħ
ä½ ľ
Ġíĥģ êµ¬
åĬ Ľ
å¥ ³
ĠìķĦëĤĺíĤ¤ ìĬ¤íĬ¸
ĠìĹĲ íİĺ
Ġë§Ī ìĬ¤ì½ĶíĬ¸
ĠC IA
Ġëª© íĳľë
ĠD u
Ġì¹ľ íķľ
ĠìķĦìļ° êµ¬ìĬ¤
Ġy ou
Ġëī´ë Ł°
ĠìĬ¤íĥł ë¦¬
ĠíĺĳëıĻ ì¡°íķ©
ìľ½ ê³ł
å ī
ç Ħ
ç Ŀ
ĠìĿ´ ìŀ¬ë
Ġëĭ¤ íħĮ
ê°Ģ ë¥´íĬ¸
ë§ Īëĭ¤
ĠìķĦ íħĮ
Ġíķ´ íĤ¹
ĠìĦľ íķľ
ìĸ´ë ĬĲ
ĠB ack
íĶ¼ ì¹´
ëį ´ë
Ġì¹´ë ĭĪ
Ġì»¤ ë¦¬ìĸ´
Ġì¼Ģ ë¥´
Ġìħ ľ
ëĶ ¸
Ġë¶ķ ìĸ´
ĠìķĦëĭ ĺ
Ġè¶ Ĭ
ë¡ľìĬ¤ ìķ¤ìł¤ëłĪìĬ¤
Ġë¬´ë¡ľ ë§Īì¹ĺ
F S
¡ Ģë
ĠìĿĺ ëł¹
ê°Ģ ìļĶ
ĠìĦ± ìĤ°
íģ Ĳë¦¬
Ġë¯¸ íķ©ì¤ĳêµŃ
Ġì§Ħ ì£¼ìĭľ
ëĭ¨ ì§Ģ
Ħ¤ íĬ¸
ĠåĿ ĩ
Ġèİ Ĭ
8 9
Ġë¡ľ ëĭĪ
ĠìĪĺ ìĹŃ
Ġë°Ķ ìĭľ
Ġëį° ìĿ´ë¸Į
Ġëħ¸ íĺĦ
íİĺ ë¦¬
Ġìļ°ë ĳĲë
Ġê½ĥ ì°¨ë¡Ģ
²¤ ìħĺ
Ġæħ §
Ġå± ¬
Ġì±Ħë¬´ ìŀĲ
ë ĥ¥
ĠìŀĲ ì§Ī
ĠìŀĲ ë£¨
ìĨĮ ìĦ¤
Ġì¶ľ íĴĪ
Ġìŀ¬ íĻĶ
ĠíĶ¼ ìħĶ
Ġ17 00
ĠìĦ¸ë ¯¸ëĤĺ
ĠìłĪ ì¶©
Ġíħį ìĬ¤
ĠçĻ ¼
ìĹ°ë £Į
Ġëĭ¤ë£ °
ë¥¸ë ²łë¥´íģ¬
ìĬ¬ëĿ¼ íĶĦ
¬ ª
ìĿ¸ íĦ°ë
Ġê°ķ ìĬµ
ĠíĶ¼ ìĿĺìŀĲ
ĠìĤ¬ìĿ´ ì¦Ī
Ġíı¬ë ĭĪ
Ġíļ¨ ìŀĲ
ĠíıĲ íĹĪ
íĨłë °Ķ
íħĮë ŀĳ
Ġìķ¼ë §Īëª¨íĨł
ĠìĬĪíį¼ ì»µ
íĺĪ êµ¬
Ġê³µêµ° ê¸°ì§Ģ
Ġç² ¾
Ġì¤Ģë ıĻ
ìĹ Ħë
ĠìĤ¬ íĤ¤
ê°Ģ ìķ¼
ĠêµŃ ìĦ¸
Ġìľł ê³¨
ĠìĿ¼ë³¸ êµŃ
íĹ Įë
Ġì²Ń ì·¨
ĠëĨį ìĦ±
ĠíĴĢ ë¦¬
ĠLe e
ĠíķĻìĪł ì§Ģ
íĥĦë ĳĲ
Ġìĥģë°ĺ ê¸°
å ĥ
Ġì²ĺ ì¹ĺ
ĠíĤ ¹ìĬ¤
ĠìĽĲë įĶ
Ġì¡°ë ĭĪ
ĠëıĮìķĦ ê°Ī
Ġëħ¸ë²¨ ìĥģ
ĠæĦ ı
ĠíĶ¼ì¸łë ²Ħê·¸
å ħ¸
ĠìĤ¬ ìĥĿíĻľ
Ġìĸ´ ìĤ¬
ĠíĥĢ íĥĢë¥´
ĠìĤ° íĭ°ìķĦê³ł
ĠìĨĮë °ķ
Ġì½Ķ ìĬ¤íĬ¸
Ġìļ© ìĪĺ
ĠìłĢ ìļ°
íĻ© ìĥī
ra tion
Ġì§Ī íĪ¬
ĠìĮį ìĦ±
Ġ70 8
Ġìį¼ ìľ¼ë©°
Ġíģ¬ë£¨ ì¦Ī
Ġçħ ¥
Ġìĺģëĵ± íı¬êµ¬
ĠíļĮê³łë ¡Ŀ
è ±
ł Ĳë¦¬
Ġë¡ľ íģ°ë¡¤
ĠëıĻ ì¢ħ
ĠêµĲ íĮĮ
Ġç §ģ
Ġë²Ī ê°ľ
ĠíķŃ ìĥĿ
ĠíĶĦëŀĳìĬ¤ ìĻĢ
ĠëĬ¥ ê°Ģ
Ġì¹¨ ìĭĿ
íĶĮ ë¦ŃìĬ¤
Ġë°°ë °ĺ
196 6
ĠæĹ¥ æľ¬
Ġê¸Ģë Ł¬ë¸Į
Ġíķ¸ë ĵľë
ĠìĦ¼ëĭ¤ ìĿ´
èı ¯
ĠëıĦ ìłģ
Ġìĭľ ìĿĺ
Ġë¶Ģ ë¥´ë
íģ ĺ
Ġìľł ë¦¼
ëħ Ħë
íĥľ íĴį
Ġê²ĮìŀĦ ê¸°
ĠìºĲ íĶ¼
ì¿łë ¡ľ
th er
ì§Ħë ³´ëĭ¹
ĠíĬľë ¸Į
ĠìļĶíķĺ ëĦ¤ìĬ¤
ĠHT ML
Ġê°Ģ ë¹Ħ
Ġê³ł ìĿĦ
ìĬ¤ íĨ¤
Ġì§Ģ ìĦĿ
Ġê³µ ìĥģ
ĠëıĻ íĥģ
Ġê¹ Ķë
Ġìĺ¤ ìĿ¼
Ġç ª
ĠìĥĿ íĻĶíķĻ
ĠS O
ë¥¸ ìĬ¤íĬ¸
ĠB ra
Ġíİĺë¥´ë ¯¸
Ġëĭī ìĬ¤
Ġì½ĶëĦ¤ íĭ°ì»·
ĠëıĦ ìĿ´
Ġ20 5
ĠìĨĮ ìķĦ
Ġìŀ¬ íļĮ
in ess
Ġë²Ħ íİĦë
ĠìĪľ ìĭĿê°Ħ
Ġì¹´ë §Ī
į°ë Ŀ¼
ĠíĿ¥ ìĽĲ
íģ´ë ¡ł
ãĤ ĭ
Ġ34 0
196 7
Ġìļ°ëĳĲë ¨¸ë¦¬
© ķìĭľì½Ķ
´ Ħ
Ġê¹ ľ
Ġìĺ¤ ë³´
Ġìĭ¤ ëł¸
Ġê¹Ģ ìĹ°
Ġ13 2
ĠíĹĪë ²łìĿ´
Ġç´ Ķ
ĠíĮĮëĿ¼ ìĺ¤
ĠéĤ ĳ
ĠìĤ¬ íķĺ
ĠìĦ± íĸī
Ġìĺģ ìĽĶ
Ġìĺģ ëįķ
Ġê´Ģ ìľĦ
ĠìĽĲ ëĭ¨
Ġë°ĺ ë¡ł
Ġë°ĺ ìłķë¶Ģ
Ġìĸ´ë ¶Ģ
Ġë£¨ íĶ¼
Ġì·¨ ì§ģ
ìĿ¸ë ³´
Ġìĺ¨ë ĳĲëĿ¼ìĬ¤
ĠìĬ¤íĶ¼ ì»¤
Ġê°ķëĮĢ êµŃ
ĠìĿ¸ ìłľ
ìŀ¥ ìĦ±
ĠìķĦ íĥĢ
ĠêµĲ íĽĪ
Ġìļ° ê°Ħëĭ¤
ëĭ¤ ëĭĪ
Ġì²Ń ìŀĲ
Ġë¹Ħë £Į
Ġì¶© ì¹Ń
Ġë¦¬ë ¸Į
Ġt rans
re t
íĦ¸ ì¥Ĳ
Ġä¹ Ł
ĠíĺĦë ¬´
ëıĦë¥´ íĶĦ
ì¹´ëĿ¼ ì¦Īì¹´
ĠìķĦë¹Ħë ĭ¬ë
Ġìĺ¤ ìļ°
Ġâ Ĥ¬
Ġëª¨ë ¹Į
Ġìľłë ¨¸
ĠM at
Ġê¶Į ìĿµ
°Ķ ìĺ¤
Ġìľ¡ ìĭĿ
ĠíĮ¨ ì¹ĺ
Ġíĺ¼ ìŀ¡
os a
Ġåį Ģ
Ġë© °ëĬĲë¦¬
ĠìĿ´ë ŀľëĵľ
Ġì¡° íĺĦ
ĠìĦł ìĥģ
ĠêµĲ ê´Ģ
íĨł ì¿ł
ĠP et
Ġìĺ¬ ë¦´
ĠëĨį ê°Ģ
Ġs ub
Ġì²ł ìŀĲ
Ġì¤ĳìķĻ ìĦł
íģĲ ìĬĪ
Î »
Ġìľ ¨ë²ķ
Ġê°Ģ ìĿ´ëĵľ
Ġë¶ Īë¡ľ
ëıĦ ëĿ¼
Ġìĺ¤ íĶĦëĿ¼ìĿ¸
Ġë¬¸ ê´Ģ
íĪ¬ ë¦¬
ĠL u
ãģ Ĺ
Ġë¹¼ìķĹ ê¸°
ĠìĹ¼ë ĳĲ
Ġìĺ¤íĨłë °ĶìĿ´
£¨ìĹĶ ìŀĲ
Ġì¡° ìħī
Ġë¬¸ ì¤ĳ
Ġê²° ìłĦ
Ġëıħ ìĤ´
ĠíĶĦë¡ľ íħĮ
ĠíĶ¼ íģ¬
Ġìķ¼ ìĪĺ
Ġk W
Ġì¶© ìĭł
íĭ°ë ĭĪ
Ġê±¸ ìĿĮ
íĽ ¤
Ġìĭ¸ ìļ¸
ĶĶë ĦĲ
Ġå¥ İ
Ġî Ĩ
man n
Ġíİ¼ì³Ĳ ìł¸
ĠëłĪì§Ģ ìĬ¤íĦ°
Ġë¹Ħëĭ¨ íĦ¸ì¥Ĳ
G S
b s
Ġìłģ ìĭŃìŀĲ
ì£¼ íģ¬
Ġíķ´ ì¤Ģëĭ¤
Ġé ĽĦ
Ġë°° ìĽĮ
°ĺ êµ¬
ê¸Ī ìĨį
Ġm od
ĠN ATO
¥´ë ĭĪ
ë¶ģ íķľ
Ġëį°ë·Ķ ìŀĳ
ìļķ ìŀ¥
ĠìĤ¬ë¬´ ê´Ģ
Ġê´Ģìĭ¬ ìĤ¬
ĠëªħìĦ± íĻ©íĽĦ
Ġë¬¶ ìĹ¬
ĠéŃ ¯
Ġë©ĭ ì§Ħ
ĠìĦ¸ìĿ¸íĬ¸ë£¨ ìĿ´ìĬ¤
3 8
Ġì¡° ê²½
ĠìĥĿ ìĽĲ
Ġì§ĳ ìłĦ
Ġë³Ģ íĺģ
Ġìļ© ì§Ģ
ĠëĶĶ ë°Ķ
ĠG old
ĠJ on
Ġë¶Īë ³µ
Ġìŀī íģ¬
Ġê²°ë §Ĳ
oun g
ëĬ ĲëŁ¬ë¯¸
row n
ĠSou l
ĠíĨµìĭłë §Ŀ
Ġë©ĶìĨĮ íı¬íĥĢë¯¸ìķĦ
Ġê´Ħ íĺ¸
ĠìłľëĦĪë Ł´
r ing
ìĤ¬ ìĻĢ
Ġë¶Ģ êµ°
ë¶Ģ ìķĦë¥´
ĠëĿ¼ ìĿ´ìĬ¤
ì½Ķ ë°Ķ
Ġì§ģ êµĲ
ĠíĬ¸ë £¨ë
Ġì¹´ë ¡ľ
įĶ ë§ģ
Ġì»µ ìĬ¤
ì¡°ë ĮĢ
oc ial
Ġæ´ Ļ
ĠÎ ¼
ĠìĿ´ë£ °
Ġéĸ Ķ
ĠAl b
iss ion
b all
Ñ ı
Ġìĺģ ìĪĺ
Ġëª¨ íķ¨
Ġìķ¼ ê¶Į
ĠìĬĪ íĪ¬
Ġìľ¤ íľ´
ĠíħĮë ĳĲë¦¬
ëį° ìĿ´
Ġíļį ê¸°
Ġì¿łë ¡ľ
Ġíľĺ ë°ľ
ĠìłĦíķ´ ìł¸
Ġì§Ĳ ë°Ķë¸ĮìĽ¨
ĠíĶ½ ìħĢ
Ġì³Ĳ ìĦľ
T F
ĵ Ĳ
Ġë¡ľ íĥĢë¥´
ê³ł ìĤ¬
Ġå ļ´
Ġ" ãĢĭ
ĠìĬ¤ ì¿
Ġé ¶´
Ġìĭľë ĭĪìĸ´
ĠT S
Ġì¤Ħ ê³§
Ġì¹¨ë ²Ķ
Ġæµ ©
ĠíĶĦëŀĢ ìĭľìĬ¤ì½Ķ
Ġìĳ ¨
íĬ¸ëĶĶ ë¶ĢìķĦë¥´
ª ¸
ī ´ë
Ġë° §
Ġìĭ ¯
Ġëĵ¤ ìĿ´
ìĨ Ĳë
ìłľ ì²ł
Ġë¹ ¨ëĿ¼
ĠA B
Ġíıī ë°©
ìĭ¬ ìĽĲ
Ġëĭ¬ ë¦°ëĭ¤
Ġ25 6
ĠëĲĲ ìľ¼ëĤĺ
ĠìĤ°ë ¬¸
ì¡°ë Ĥĺ
Ġê°Ģì¡Į ìľ¼ë©°
ìŀ¬ë ĭ¨
ëī´ ìĬ¤
Ġéł Ń
èŃ ĺ
Ġèı© èĸ©
ĠìĿ¼ ê°Ħ
Ġìĺ¤ ë¥¼
íĮ İ
ĠP lan
ĠìĦ¸ë ¬´
Ġë°ĺëĮĢ íİ¸
Ġíĺ¸ë ¥¸
ĠéĢ ł
Ġìĵ°ë Ł¬ë
Ġìļ´ìłĦ ìŀĲ
Ġíİł ë¦ŃìĬ¤
Ġìĩ¼íķĳ ëª°
ìŀĲëıĻ ì°¨
Ġë³´íĺ¸ë ²ķ
ê³łìĸĳ ìĿ´
g a
z y
Ġëªħ ìĥģ
Ġ7 000
Ġì§Ħ ìĿ´
Ġìĭ¤ ìĥģ
Ġìµľ ìĦ±ê¸°
ĠíĶ¼ ìĤ´
Ġê¹Ģ ìĿ¸
Ġìĭ¬ë¦¬ íķĻìŀĲ
ĠAr t
ĠìĹ¬ìļ° ìĽĲìĪŃìĿ´
ĠìĨľ ìĶ¨
ĠEuro pe
ľ ¸
ĠìĿ¼ ìĤ¼
Ġìĭľë ¯¸
Ġë°Ķë ³´
ĠêµĲìľ¡ íķĻ
ĠíĮ¨ íĤ·
Ġíķľë ¯¼
ëĶĶ ìĬ¨
ĠìĬ¤íħĮ ìĿ´íĬ¸
Ġëĭ¤ëħĢ ìĻĶ
ĠìľłëħĦ ê¸°
å¡ Ķ
¼ë ¯¸
Ġê°Ģ ê³¡
ĠìĤ¬ ëĤĺìĿ´
ĠìĦ± ëĮĢ
íĸī íĮĮ
ĠëĿ¼ë ĭ¤
ìĥĿ ìĤ°
Ġëª¨ íĶ¼
ĠëĤ´ ë¦´
ar m
ĠíĨłë Ŀ¼
Ġì¡°ë ¹Ħ
ĠíķŃê³µ ëĮĢ
Ġæ° £
ĠêµĲë ıĻ
195 2
195 6
Ł¼ë ²ĦìĬ¤
ĠìĻ¸ê³Ħ ìĿ¸
Ġor g
ĠìĨĲê¼½ íŀĪ
¹Įë¡ľ ëĭĪìķĦ
ĠìĿĺ ì£¼
ĠìĹ¬ íı¬
ìļ° ìĸ´
ĠìķĦë ģ¼
ì§Ħ ì£¼
Ġë°ľ íĮĲ
Ġíķ¨ ìŀ¥
ĠìĺĪ ìĭĿ
ĠìķĪ íĮİ
Ġì¶Ķ ì¶ķ
ĠíĻķ ì¶©
Ġë²Ħ íģ¬
Ġìĺ¨ ìĭ¤
Ġë¯¸ëĤĺ ëª¨íĨłëħ¸
ĠëĤ¨ê·¹ ìłĲ
ĠëĲ ©ëĭĪëĭ¤
Ġê²Į ìĺ¤ë¥´íģ¬
Ġì¡° ìĦĿ
ĠìĹ° ì¤ĳ
íĥĢ ê³łë
ĠíĤ ·
ĠG i
ĠíĤ¤ ë¦¬
ĠíĬ¸ë ŀĢ
Ġìļ°ë §Ī
Ġëĸ¨ ì³¤
ĠíĿĶëĵ¤ ë¦¬
Ġå¥³ åŃĲ
Ġê¸Ģë¡ľë¸Į ìĥģ
Ń Ħ
Ġìĭľ ìĹŃ
ĠëĤ ¯
Ġì§Ħ ìĽĲ
Ġì¶ľ êµŃ
ì´ Įë¦¬
ĠìļĶ ì§ģ
íĺĦ ìĭ¤
Ġë²ķ ìłľ
Īë¡ľ ê·¸
Ġê¸Ī íĻĺ
Ġìłķì¹ĺ êµŃ
ĠëĤ¨ë ĮĢ
Ġçį »
ĠíĶĦë¡ł íĬ¸
Ġê´ľ ì°®
ĠìĿĢ ë°Ģ
Ġê³ł ëĤľ
ê°Ģ ëĿ¼
Ġå ľĺ
ĠS il
Ġë¬´ë Ĭ¥
ĠëĤ´ë ¶Ħ
ìĿ¼ë Ŀ¼
ĠíĨł íĤ¤
Ġåħ ¥
ĠìķĶ ìĪĺ
ĠíĥĢìĿ´ íĥĦ
Ġå§ ĵ
Ġèĭ ¥
ĠìĹĲìĿ´ìłĦ íĬ¸
í ĵ
Ġæ Ĵ
Ġë°ķ ìĥģ
Ġë²ł ìĺ¤
Ġì¡°ìĦł ìĻķì¡°
ĠíĤ¤ ì¦Ī
ĠëĨĵ ì¹ĺ
Ġn m
åľ ĸ
Ġì²ľëıĦ êµĲ
Ġë¶Ģ ëģĦë
Ġêµ¬ ìĬ¤íĥĢíĶĦ
Ġìŀ¥ ìĭľ
ĠìĦľ ìłĲ
Ġë¬¸ ì²´
Ġì´Ī ìĿĮ
ëĭ¤ ì¹´
©Ķ ëĭĪ
²Ħ ë¦¬
Ġ14 00
ĠN BC
ĠìºĲ ìĬ¤íĦ°
Ġë°°ë ĭ¹
Ġê¸¸ë Ł¬
ĠìłĢëĦĲ ë¦¬ìĬ¤íĬ¸
ĠëĮĢ ë¥ĺ
Ġê¸° ìĬ¤
Ġë¶Ģ ìĸĳ
ĠìĿ´ë ĪĦ
ĠìķĪ ì°½íĺ¸
ìķĦë ī´ê¸°ëĭĪ
Ġíĳ ¹
us h
ëĦ ¥
Ġê°Ģë¡ľ ì§ĪëŁ¬
Ġë§¤ìĤ¬ì¶ĶìĦ¸ì¸ł ì£¼
ĠãĪ ľ
Ġì¤ĳ ê³ł
ìĭł ìłķ
Ġë¹ ¨ë
Ġì¶ľ ê²©
íĬ¸ë ¡ł
Ġì°½ êµ¬
ĠíĻľ ê¸°
íı¬ë ıĦ
ĠìľłìłĦ ì²´
ĠæĪ ¦
15 9
ĠìŀĲê²© ì¦Ŀ
ĠìĹĳìĬ¤ íı¬
ĠCo A
Ġë¬¼ëł¤ ì£¼
Ġìŀ¥ê°ĳ ì°¨
Ġëĭ¹ëĩ ¨ë³ĳ
Ġê³ł ì¿ł
Ġê¸° íķľ
ì§Ģ ëıĦ
ĠìĤ¬ ë¬´ëĿ¼ìĿ´
¬ë ĶĶ
Ġë°Ľ ì¹ĺ
Ġì¹ľ íĻĶ
ì¹´ë ħ¸
Ġìħ °ë
Ġëŀ Ļ
ap an
Ġë³¼ë ¡Ŀ
Ġì°¸ìłĦ íķĺ
Ġë¹¨ ê°ķ
ê·¸ëĿ¼ ìļ´ëĵľ
ĠíŀĪíĥĢ ì¹ĺ
I X
Ħ ¬ë¦¬
ìĥģ ìĸ´
ĠëıĻ êµ°
ĠìķĦë ĶĶ
ĠÂ ±
ìĸ´ë Ĥľ
ĠìĹ´ ìķħ
ĠíĴĢ ë°±
ìĭłë Ŀ¼
Ġ185 8
ĠëıĻëĤ¨ ìª½
Ġë¹ĦìĬ¤ ë§Īë¥´íģ¬
ì»¬ë¦¬ ìĬ¤íĬ¸
ê¸°ëıħ êµĲ
7 5
¬ë įĶ
Ġìłķ ìĸ¸
ë¡Ŀ ëĮĢë¶Ģ
Ġê²° ìŀ¥
ìļ´ ìĪĺ
Ġ18 12
ĠíĿ Ĳë
ĠìĬ¹ ë¥ł
ĠíĶ¼ ìĹĲ
ĠD B
ĠD ie
ĠP op
Ġìĭłë ³ĳ
ĠãĢĭ, ãĢĬ
Ġ185 6
Ġì§Ģì§Ī íķĻ
íķ´ë°© êµ°
n ess
ŀ ´
ë¦¬ ìļ°ìĬ¤
ìłĦ íĨµ
Ġêµ¬ íĥĢ
Ġì¢ħ ê°Ģ
Ġë¶Ī íĥľ
ĠA re
ĠE lect
Ġì¹´ë ĶĶëĦĲ
ìľłë ĮĢ
Ġëª»íĸĪ ìľ¼ë©°
ĠëĮĢíķŃ ìłĦ
ì ¥
ê°Ģ ìĿ´
Ġê³µ ë¬¸
Ġê³µ íķĻìŀĲ
ìĸ´ ë¦°
Ġìĥģ íĻĺ
Ġë§Ī íĥĢ
Ġìŀĳ ì¤ĳ
Ġê¹Ģ ìĬ¹
Ġf t
Ġëľ °
Ġìĵ ¸ë
Ġìĺ¬ëĿ¼ ìĻĢ
Ġìĺ¤ë¥´ ê°Ħ
ëĦ Į
åł ±
Ġê¹Ģíķ´ ìĭľ
ì»¬ë łĪìĿ´íĦ°
ĠëıĦ íĺķ
ĠìľĦ íģ¬
Ġìĭ¤ ìĿĢ
íĹ ¨ë¦¬
Ġëį° ì¹´ë¥´íĬ¸
ĠìĨĮë ¡ł
Ġìĵ° ìĿ¼
ĠN GC
Ġìķ¡ ìĦ¸ìĬ¤
Ġì¹¼ë ¥¨
Ġë¶Ģìłģ ìłĪ
Ġì¹ĺë£ Įë²ķ
ĠìķĦë¹Ħëĭ¬ë §Ī
c a
ĠìĤ¬ ëĵľ
ĠìĬ¤ íĭ¸ëŁ¬ìĬ¤
Ġë³´ ì»¬ë¦¬ìĬ¤íĬ¸
ĠìķĦë ĭĪë
Ġì¹ĺ ë
Ġë§¡ ê²¨
Ġìķ¨ë Ŀ¼ë°°ë§Ī
Ġìĸµ ìļ¸
Ġë¬¼ë Ł¬
íħĲ ìħľ
ĠKT X
ĠSou th
ĠNor th
é ĮĦ
Ġë° ĭ
ĠìĦł ì²´
ĠíĨµ ìĨĶ
Ġé ı
Ġëª¨ ì²´
ĠD OS
ìĹĲ ìĵ°
ĠìŀĦ ê³Ħ
ê³łë ©Ķë¦¬
ĠëĮĢìĤ¬ ê°Ħ
ìĹ½ ìĪĺ
ip p
é »
ĠëĮĢ ëıĦ
ĠìĤ¬ ê°ģ
ĠìĦľ íģ´
Ġë¦¬ íĤ¤
ìĦ¸ ìĿ¸íĬ¸
ë§Ī ì§Ģë§ī
Ġì²Ń ìĨ¡
ĠìŀĦ ì¢ħ
ĠíıŃ ë°ľë
Ġê·ł ìĿ¼
Ġíķ ¸
ĠìĿĢ íıĲ
Ġíķ´ ì§Ī
ĠìĦľ ìķ½
ĠêµĲ íĻĶ
Ġë³µ ìĨį
Ġíģ´ë Ŀ¼ìĿ´ë
il ity
ëĦ¤ ìŀĦ
Ġì¡°ê°ģ ìĥģ
ĠíĮĲë ªħ
ĠìĨĲë ª©
I F
ê· ¤
Ġìĺģ ìķĶ
ì¡ ´ë
Ġë¹Ħ ìĺ¥
ĠìĥĿ ìĥĿ
ìķħ ìĤ°
Ġê²ĮìŀĦ ì¦Ī
ĠìĽ¨ ìĿ´ë¸Į
Ġå¥ ĩ
ìĹ°ë §¹
Ġçī §
Ġë¦¬ìĬ¤ ë³¸
ĠëıĻìķĦ ë¦¬
ĠæĽ¸ éĻ¢
IV E
Ġì»¨ë ²¤ìħĺ
ĠíĽĦì¿łìĭľë§Ī íĺĦ
Ġìĭľëĭ¬ë ł¸
4 4
N T
ĠìĿ´ ì§Ī
Ġì§Ģ ëł¹
ĠëıĦ ëıĦ
ìĽĲ êµ¬
ł¤ ìĦľ
Ġê°ķ ì¢Į
Ġìĭľë §Īë
ìķĦë ©Ķë¦¬ì¹¸
ĠíĶ¼ ìĸ´
ĠìĦĿ ê¶Į
ĠëįĶë ¹Ļ
Ġê±°ì£¼ ìŀĲ
193 6
ĠRo ad
Ġíĺ¸íĿ¡ ê¸°
Ġê¸Īê°ķ ìĤ°
ĠëĤĺë¦¬ íĥĢ
ĠíİĺëĦĲíĭ° íĤ¥
ë¦¬ ì²ĺëĵľ
Ġìłķ ìĹĲ
ĠìľĦ íĹĮ
Ġê³µ ì£¼ìĭľ
ĠìĬ¤ íĥĿ
ĠíĶĦë £¨
Ġìĭ¤ íļ¨
Ġíı¬ íĨł
Ġëª¨ ìĤ¬
Ġìĥ ´
Ġë¶Ī ë¦´
Ġíĺ¸ ê·¸
ĠìĬ¹ ëĤĻ
an o
Ġì¡°ìĦł ê³µìĤ°ëĭ¹
Ġì¼ ľ
Ġë§Ŀ ì¹ĺ
Ġê°Ģìł¸ ê°Ģ
ìľĦë ²ķ
ĠëĭĪì½ľë Ŀ¼ìĬ¤
ĠìķĦìļ°ë ¥´
ĠìĦ±íıŃ íĸī
3 9
ĠìĦ± ìĪĺ
Ġìľł ìĿ´
Ġìķŀ ë°Ķëĭ¤
Ġì±ħìŀĦ ì§Ģ
Ġíı¬ìĭĿ ìŀĲ
° Ķë¡ľ
Ġë «¼
ìĿ´ ìłľ
ĠìĤ¬ íķĻìŀĲ
Ġë°Ķ ì³Ĳ
Ġëį° ìĿ´íĬ¸
Ġëħ¸ë ¸Į
Ġì²Ń ëıĦ
ĠëĴ¤ ëį®
Ġë´ī íĻ©
Ġë§¥ ìķĦëįĶ
Ġì§Ģíķĺì²ł ìĹŃ
ìĹ°ë ĮĢ
íı´ë¦¬ íĥĦ
Ġè® Ĭ
ĠìĹĲ ì¹ĺ
ë¦¬ ì¼Ģ
ĠíĸĪ ìľ¼ë¯Ģë¡ľ
Ġì¤ĳ ê±°ë¦¬
Ġìĺ¤ ìŀĲ
ĠêµŃ íĻĶ
Ġë¶ģ ì¸¡
ĠP A
ë°ĺ ë©´
ĠíĨł ìĿ´
Ġíģ´ë ŀľ
ĠJ ul
Ġåħ ¶
Ġê³¨ ìłĪ
Ġê²© ìłĦ
Ġì¡°ê°ģ ê°Ģ
ĠëĦ· íĶĮë¦ŃìĬ¤
ĠìºĦ íĮĮëĭĪìķĦ
Ġì°¾ìķĦ ìĺ¤
ĠëıĮëł¤ ë³´ë
ĠìĿ´ ìľłë¡ľ
ĠìĿ¼ ì°¨
ĠìĹ¬ ìłķ
ĠëĿ¼ ì¦Ī
Ġìĺ¤ ë¦ŃìĬ¤
ìĹ¬ ìŀĲ
íĭ°ë ¯¸ëĶĶìĸ´
ĠO N
Ġêµ°ë ³µ
Ġëª° ìĪĺ
ì°¨ë ĵľ
ĠëıĮë ł¸
Ġì¹´ìļ´ íĬ¸
Ġê¸Īë ıĻ
ĠëĮĢìłľ íķĻ
Ġë³ĳìŀĲ íĺ¸ëŀĢ
ĠJose ph
Ġë§ ¬
ĠìĤ¬ ë³ĳ
ĠìĽĶ íĻĶ
Ġê²½ ìĪľ
Ġë§Ī ì²ľ
Ġë¬¸ ìłķ
Ġìĭ¤ ìĤ¬
Ġë¬´ ì°Įë
ĠS um
ìĸ´ë ĥĪ
Ġìĸĳ ê·¹
Ġ23 5
ĠíķŃê³µ íİ¸
Ġäº ŀ
Ġ31 0
ĠìĪĻ ë°ķ
ĠíĶĦëłĪ ìĬ¬ë¦¬
Ġìŀ¬ë¯¸ ìŀĪ
ĠíķĦìĤ¬ ë³¸
ĠíĴĪë ª©
Ġë§¤íĤ¨ íĨłìĭľ
Ġê°Ģ ìĦ¸
ĠíĻĶ ìĨĮ
Ġìĭľë °ľ
ĠC V
ĠíĥĢ ìĦł
er a
Ġìĸĳ ìĦľ
Ġìĸĳ íĮĮ
Ġëħ¸ ìĿ´
ìĬ¤íħ Ĳ
ĠìĬĪ ê³ł
ain t
ĠìĤ´ë Ŀ¼
Ġë¬¼ëŁ¬ë Ĥľ
Ġëª¨ìŀĲ ìĿ´íģ¬
Ġë°¸ë ¸Į
ĠìĿ¼ ìĦ¤
Ġíĥ Ķ
ĠìķĦë ¸Įë
Ġê·¸ë Ł´
Ġìľł ì¶©
Ġìĭł ìĭľëĤ´íĭ°
Ġíı¬ ì¸łë
Ġë²ķ ê·ľ
ë¦¼ ìĤ¬
Ġê°Ĳ ì¶ķ
Ġë°Ķë ¹Ħ
al ity
Ġë¸Įë ŀĢëį´ë¶Ģë¥´íģ¬
ìĭľë ¯¼
Ġëį°ë ĵľ
Ġb l
Ġë£¨ë Ĥĺ
íŀĪë Ŀ¼
Ġìľłê°Ģ íĸīíĮĮ
ĠìķĦìĺ¤ ëª¨ë¦¬
ĠíŀĲë ²łë¥´íĬ¸
Ġìĭłíķľ ìĿĢíĸī
éł Ń
Ġíİĺë¥´ëĤľë ıĦ
Ġ Ê
Ġíķľ ê²¨ëłĪ
ĠëıĦ ìĿį
ĠìĽĲ ë¬¸
Ġë§Įë ¥ĺ
Ġëħ¸ë ŀĢ
ìĥ ¨
Ġì§ģ ëł¬
Ġê³¡ ìĭĿ
ëĤ¨ ìŀĲ
ĠLe ague
Ġë³´ì¡° ê¸Ī
Ġëīĺ ë¥¸ë²łë¥´íģ¬
Ġíİĺë¥´ëĶĶë ĤľíĬ¸
ĠStre et
ĠìĤ¬ ìĨĮ
Ġë² Ļ
Ġå ¸Į
ìĭł ìłĢ
ĠìĹ° íĻĶ
ĠìĦľ ì²´
Ġì¶ľ ìĤ¬
Ġë³ĳ íĴį
íĨłë ĬĦ
ê¹Ģ ìĦ±
Ġíį¼ íħĲìħľ
ìĭłë ³´
Ġê²Įë ĨĪ
ĠíĬĢ ìĸ´ëĤĺ
ë³´ë ¶Ģ
ĠìĿ¼ëłī íĬ¸ë¦Ń
M E
t ra
ë Ł°ëįĺ
Ĩ Ģëĵľ
ı Įë¦¬
ĠìĪĺ ëĭ¹
Ġê°ķ ìĿ¸
Ġì§Ħ ìĭ¬
ĠìĻĦ ìŀ¥
Ġì¡°ë ´ī
ìķł íĶĮ
ĠìĬĪ íĥĢ
Ġë¸Ķë ŀĳ
ĠAP G
Ġè´ Ĭ
Ġì²Ńë¬¸ íļĮ
y er
¹ µ
ë¦ ´ë¦¬
Ġç ³»
Ġë¬´ë ¥´
Ġì¼Ģ ìĿ´ëĵľ
Ġíĩ´ ì¹ĺ
Ġë¬¸ë ¬¼
ĠìĪĺë°± ë§Į
ĠìĿ´ ê¸¸
Ġìķ Īëĭ¤
Ġë¹Ħ ìĭ¸
Ġè ¥
ìļĶ íķľ
Ġíĺ¸ íĪ¬
ì¤ĳ ìĦ¸
ĠìĦľë ĭ¹
ĠH el
ì°° ìĬ¤
ĠíĹ¤ ê²Ķ
Ġì¡± ìŀ¥
Ġåı ĭ
195 4
ĠíĥĦë ĳĲ
H T
Ġìľ Įë¦¬
ĠìĨĮ ìķĦìĭľìķĦ
ĠìĦľ íĴĪ
ĠíĻĶ ìĿĮ
Ġëª© ìŀ¥
íĶ¼ íģ¬
Ġì²ľ ìĥģ
ĠëĤ¨ë ĭ¨
ĠìĿ¸ë¯¼ íķ´ë°©êµ°
Ġì½ĺ íį¼ëŁ°ìĬ¤
ĠìĹĲìĬ¤ ì»¬ëłĪìĿ´íĦ°
Ġë§¹ ëł¬
193 2
ĠæĽ ²
Ġë§Įìŀ¥ ìĿ¼ì¹ĺ
ĠìĦľìĬ¤ íİľ
Ġìľ¼ë Ł¬
Ġëĭ¨ ìĪĺ
ĠìĺĪ ê¸Ī
ĠD R
Ġë³µ ë¶Ģ
íĺ¸ë ¥´
Ġìĺ¬ë¦¬ ë²Ħ
Ġíĳ¸ë ĵľ
ĠéĸĢ ä¸ĭ
ıĦ ë¦¬
ĠìĦľ ì§Ģ
ĠìĦľ ìķĪ
ìĿ´ë ĶĶ
Ġë¬´ ìĥī
Ġë§Īë łĪ
Ġêµ¬ë ¥´
íĶĦë §Į
ĠëŀĢ íĬ¸
Ġæĸ Ĺ
łĮ íĬ¸
Ġìĵ°ë £¨
195 8
Ġì²© ë³´
ĠìĺĪë¬¸ ê´Ģ
Ġíķĺ ì¸µ
ĠìĦľ ìĤ°
ĠìĤ° ìŀ¬
ëĵ Ń
ë°© íĸ¥
ĠëĦ¤ ìĿ´íĬ¸
Ġëĵľë ¯¸íĬ¸ë¦¬
ĠíĻ© ìĤ°
ri m
Ġin ter
ĠëĤŃ ë¹Ħ
ĠíĽĦì§Ģ ìĻĢëĿ¼
ĠìĬ¤ì¼Ģ ì¹ĺ
Ñģ Ðº
Ġì²ľë¬¸ë ĭ¨ìľĦ
Ġæ¡ Ĥ
itt le
Ġìĵ°ì´¨ ìĦ±
b or
Ġìłľ ì§Ģ
Ġê²½ íķ©
Ġìĺ¤ ëıĦ
Ġê°ķ ëıĻ
ìŀĦ ìĿĺ
ĠM ad
ĠB L
ĠìĹ´ ìłĦ
ar s
ĠìľłëĭĪ ìĸ¸
Ġåĭ ³
ĠìĥĮëĶĶ ìĹĲìĿ´ê³ł
Ġíģ´ëŁ¬ ìĬ¤íĦ°
Ġë¯¸ìķ¼ê¸° íĺĦ
Ġtv N
ĠìĽ ¨ìĸ´
Ġìłľ ì²ľ
Ġê³µ ìĦĿ
Ġë°ľ ìŀĳ
Ġìĥ ·
Ġë¶Ī ì¾Į
er y
ĠìķĪ ìĭĿ
Ġì¶Ķ ìļ´
Ġë¹Ħë ĳĺê¸°
ĠG od
ĠëĭĪ ì¼Ģ
ĠìĦĿ ê¸°
íĭ°ë Ħ¨
ê³łë ĵ±
all y
Ġãİ Ĵ
ĠìĹ¬ìĪĺ ìĭľ
Ġê°ĳìŀĳìĬ¤ ëŁ½
Ġê°ķíĿ¬ ìłľ
P A
Ġíķĺ ìĬ¤
ìĿ´ ìĬ¹
ĠìĤ¬ ë³´ìĿ´
Ġìĭľ ìłľ
Ġì¤ĳ ê±´
Ġì° °ë
ĠìĽĲ ì£¼ìĭľ
ĠT op
it z
ĠìĦ¸ìĽł ìľ¼ë©°
Ġ37 0
ĠëĮĢìĪĺ íķĻ
Ġíģ´ëĿ¼ ìļ°ë
åĪ ¥
Ġéļ Ĩ
Ġê°ĢìļĶ ìłľ
ĠëłĪëĭĮ ì£¼ìĿĺ
Ġê°ĩ íĺĢ
æ ł¹
ĠìĿ´ ê±°
ĠìĹĲ ë¥¸ìĬ¤íĬ¸
ĠìľĦ ì¦Ī
íı °ë
ĠìķĪ ê¸°
Ġë§¤ ëĭĪìķĦ
íĭ° ì§Ģ
ë°© ìĬ¤
ĠìĦ¸ë łĪ
Ġíĩ´ ì§Ħ
ĠìĹ°ë°© êµ°
ul ti
ĠìĻĦë ıĦ
ĠìĬ¤íħĮ ìĿ¸
Ġ185 5
íĬ¸ëĿ¼ ìļ°ìĬ¤
Ġê°Ħíĺ¸ ìĤ¬
Ġë¸Įë¡ľëĵľ ìĽ¨ìĿ´
ìĤ¬ ê±´
ĠìŀĲ ëĦ¤
Ġì¤ĳ ëĵ±
íĬ¸ ê°Ģë¥´íĬ¸
Ġìĺ¤ íĶ¼
ĠìķĦë ¸ĮëĿ¼
ê³Ħ ìĤ¬
ĠëĿ¼ë ²¨
Ġíĸ¥ ìĪĺ
Ġë¶Īë ¬¸
Ġêµ°ë ıĦ
Ġd is
ĠìĹ°ìĨį ê·¹
ir d
ĠìķĻ íĪ¬
åľ Ĵ
ìĺ¬ë¦¬ ìĸ¸ìĬ¤
Ġè¬ Ļ
ìĤ¼ë ¬¸
ľ¨ ë¦°
Ġë¦¬ë°Ķ ìļ´ëĵľ
å ķ
Ġ up
Ġë³ ¶
Ġë§Ĳ ëłĪ
Ġ15 1
ĭ¨ ì²´
ĠK B
Ġíİĺ ëįĶ
Ġíĺĳ ê³¡
Ġì¹ľ íĻĺê²½
éĽ Ĩ
Ġé¦ ĸ
ĮĢ ìĭł
Ġëĵ¤ ìĿ´ë
Ġë¶Ģ ëĿ½
ĠìĦł ê³¼
Ġìĺģ ëĿ½
Ġë°© íķĻ
Ġì½Ķ ì½Ķ
°Ķ íĿĲ
ĠE nd
ĠëĭĪ ê°ĢíĥĢ
¥´ë ĶĶ
Ġì¼Ģ ìĿ´íĬ¸
Ġn et
Ġíľ´ ìĿ¼
17 9
ĠêµŃë°© êµ°
å° ī
ĠèĹ ©
ĠíĻĺìĬ¹ ìĹŃ
Ġëī´ë ©ķìĭľì½Ķ
Ġâħ ¡
Ġëĸłìĺ¬ë ŀĲ
ĵ ê°Ĵ
ł Īë¹Ħ
ĠìĿ¼ ìĸ´
ĠìŀĲ ë°±
Ġìłķ ìŀ¬
Ġê°ľ ê²½
Ġìĭł ìĭľ
Ġìĭł íķ´
ĠìĽĲ ìłĲ
Ġíĺ¸ ìłģ
ê°ľ íĺģ
ĠL ight
Ġìłĳ ëĳĲ
ĠíıĲ ì°¨
ìłľë ¥´
Ġì¹¸ íĬ¸
ĠìŀĲë³¸ ê°Ģ
ĠìķĦíĤ¤ íħĲ
ell o
Ġì»¨ìĦ¤ íĮħ
g en
ĠìĪĺ ë¬¸
Ġìĭł ìĦĿê¸°
ĠíĪ¬ ìĤ¬
ĠëıĮ ê³łëŀĺ
Ġìī ¬ë
ĠçĽ Ľ
ëļ ±
Ġëª©íĳľë ¬¼
é ¤
ìĿ¼ ì²´
ĠíĽĦ ê²¬
Ġìĭł ì§Ħ
Ġë¦¬ ìŀĲ
ĠC up
ĠìłĦë ²Ķ
Ġíĸī ìĦł
ĠT er
Ġì§ĳ ìĤ¬
Ġë°ķ ìĽĲ
Ġìº £
Ġëī´ ê¸°ëĭĪ
Ġë§Īë¥´ ì¿łìĬ¤
ĠíĴĢ ìĿ´
Ġå¾ ©
ĠìŀĶ íĺ¹
ë¯¸ë ħ¸
Ġè¨ ĵ
®¬ë Ł¬
Ġê·¸ë¦°ë ŀĢëĵľ
Ġìµľì§Ħ ìĭ¤
² ¨ë
Ġë¶Ģ ìĭĿ
Ġì¡° ê°ľ
Ġê´Ģ ìĿĮ
ìĿ¼ ê¸°
ĠìĻķ ëªħ
Ġíıī íķĺ
Ġë³µ ìĨĮ
le d
Ġìĺ¥ ìĤ¬
ri e
Ġê°ķíĻĶ êµ°
Ġíĺ¼íķ© ë¬¼
C O
å ®¤
Ġê³ł ìĬ¹
Ġê³ł ì¸µ
Ġë§Ī ì¹´
Ġm an
ĠR S
ĠíĬ¸ ë¦¼
ëĶĶ ìĬ¤
Ġåľ Ĵ
ĠìĹĦ ì§Ģ
Ġ185 4
ĠåŁ ·
ª Ħ
Ġ Å
Ġ em
ĠëıĻ ê¸ī
Ġìĥģ ì¸µ
ĭĪ ìĬ¤íĬ¸
Ġê°ķ êµŃ
Ġê²° ìĹ¬
Ġë°ĺ ìŀħ
ĠìłĢ ì§ĪëłĢ
Ġë°± ì¡°
Ġêµ¬ë ¹Ħ
ê·¹ ìŀ¥
Ġíģ¬ë ©Ķë¥´
Ġíĳ¸ ìłł
Ġë³Ģë ¡ł
Ġê°Ģë ŃĦ
Ġì¹´ëĶĶëĦĲ ìĬ¤
ì§Ģ ë
Ġìĸ´ ì§Ģ
Ġìłķ ëªħ
ĠìķĦ íĭ
ĠìķĦ ìĹ°
íĶ ¼ë¦¬
Ŀ¼ë ²ł
Ġë§Ī ìļ°
ĠíĬ¹ ê³µ
Ġìļ© ìĹŃ
íĨłë ¶Ģ
ĠëĦĵ íŀĪ
ĠêµŃëĤ´ ìĦł
ìłĦë ıĻ
Ġ'( )
Ġë® ĲëŁ¬
ìĤ¬ìĿ´ íģ´
Ġíģ¬ëĿ¼ ìļ´
Ġê³ ¨ëĿ¼
Ġì§Ģ ëĤł
Ġìłķ ìĭłë
Ġë¬¸ ê±´
ĠíĮĮ ìĭľìĬ¤íĬ¸
ĠM LB
Ġëĳ ł
ĠëĦĵ íĺĢ
te in
ĠíĹĮ ì¢ħ
Ġìķ¼ë §ĪëĤĺ
£¨ë ¸Į
ĠíĿ¬ë ¯¸
ĠMa x
4 6
Ġêµ° ê¸°
Ġíı¬ ìŀĲ
íĥľ ìŀĲ
íĬ¸ë ¨¼
³´ ë¦¬
ĠëłĪ ìķĦ
Ġë³ĳ ëł¬
ĠíĻĺ ìĤ°
el s
Ġìłķì°© ì§Ģ
ĠìħĢ ì£¼íģ¬
Ġçī Ľ
ĠìĹĦì²Ń ëĤĺ
ê·¼ë ĮĢ
ä ¼
ìĺ Ľ
ìĿ¸ ìĤ°
Ġæ ¥Ń
ĠêµĲ ìŀ¬
ìķĪ íĨłëĭĪ
Ġì°¨ ìĹŃ
ì²ľ êµ¬
ê·¸ë Ł¬ë
Ġì½Ķ ë§Ī
ĠN at
Ġìĺ¬ë łĪ
ĠêµĲìľ¡ ê°Ĳ
Ġê·¼ ê°Ħ
Ġåħ ¼
Ġìŀ¬ë ¬¼
ĠìĬĪ íħĮ
Ġë©Ķë ª¨
Ġæĸĩ åĮĸ
ĠíĶĦëĿ¼ ìŀĦ
ĠIC BM
íĮ© ìĬ¤
ĠíĿ¬ê·¹ ìĿ¸
ì°°ë ł¥
Ġê°ľíĻĶ íĮĮ
ĠåĿĲ åĥı
4 7
Ĥ łëłĪ
ĠìĿ´ ì£¼ë¯¼
ì§Ģ ìķĦ
ìĪĺ ìĤ¬
Ġ4 20
ĠíķĻ ëĭ¹
íĭ° íĶĦ
ì²Ń ì£¼
ìĿĢ ìĤ¬
ĠíĹ¤ ìĦ¼
ĠìĿ´ëģ ¼
Ġëħ¼ ì¦Ŀ
Ġê¸°ëħĲ ìŀ¥
Ġëį® ê°ľ
ĠìĹĲ ìĿ´ì§Ģ
ĠìĿĺ ìłķ
Ġíķľ íķĺ
Ġê¸° ì¡°
Ġê´Ģ êµ°
Ġìľł ìŀĲ
ĠM M
Ġíĳľ ìłľ
Ġìļ© ë§¹
ĠH ist
Ġë¯¸ë ģĦë
íĥĦ ìĺ¬
Ġìŀ¡ íĺĶ
Ġìŀ¡ íŀĮ
ìī Ĳ
ĠëĦĪ íĿ¬
ĠëĳĲë ĩĮ
ĠAn n
íĪ¬ë ¥´
ĠëĶ± ëĶ±
ç« ĭ
4 9
ĠìŀĲ ìŀ¥
Ġê²½ íĻĶ
ìĹĲ ìĿ´íĦ°
ĠK N
°Ķ ìĿ´íĬ¸
ìĨĮë ĵĿ
194 2
å¯ º
ĠìķĪìĸĳ ìĭľ
3 2
Ġê³ł ê´Ģ
ĠìĤ¬ íķłë¦°
Ġê³¼ ìĦ¸
ĠìĪĺ ëłĪ
ĠëıĻ ê±°
Ġìľł ì¹´
Ġëª¨ êµĲ
ĠìĻķ ëĭ¹
íĿ ī
Ġ25 00
Ġë©Ģ íĭ°ë¯¸ëĶĶìĸ´
Ġèª ł
ĠéĮ ¦
ĠìĹ¬ìļ´ íĺķ
ìĤ¬ ëĿ¼
Ġìłģ ë²ķ
Ġìĸ´ ìļ°ëŁ¬
Ġìłķ ìĭ¤
Ġìłķ ì¹Ļ
Ġâ Ĩ
Ġìļ° íĳľ
Ġê±° ìĭľ
Ġì¶Ķ ìŀ¥
Ġë°Ķë ¹Įë¡ľëĭĪìķĦ
Ġìļ°ë ¥´ë
Ġ22 5
íĮĮë Ŀ¼
ãģ ĭ
ĠìĿµ íŀĪ
ĠìĽĲìłķ ëĮĢ
Ġ180 1
Ġíľ´ëĮĢ íı°
Ġìĩ¼íĬ¸ íĬ¸ëŀĻ
ĠìĤ¬ ìĥĿ
Ġê²Į ìĺ¤ë¥´
ìĻ Ħëĭ¤
ĠìķĮ íı°ìĨĮ
Ġì¶ķ ìĤ°
ĠL S
Ġë°Ķë Ĭĺ
íĥĪ ë¦¬
Ġë²łë Ŀ¼
ê³łë ¡ľëĵľ
ĠìĽĮ ìĬ¤
Ġì¿łë Ŀ¼
ĠëĿ¼ìĿ´ë ²łë¦¬ìķĦ
åħ µ
ĠIs land
Ġëī´íģ´ëłĪìĺ¤ íĥĢìĿ´ëĵľ
ĠìĹĲ íĶĦ
ĠìłĦ ìĦľ
ĠìĬ¤ ëħ¸
Ġìĥģ íļĮ
ìĥĿ ëªħ
Ġê±° ìłľ
ĠëĮĢíķľ íķŃê³µ
Ġì½Ķ íĬ¸ëĶĶë¶ĢìķĦë¥´
Ġì¶ķ ë³µ
Ġë²Ħ ì§Ħ
Ġs ystem
Ġìķł ê¸°
ìĬ¤ì½Ķ ë¦¬ìķĦ
ĠëĮ ĪëŁ¬ìĬ¤
ĠìĬ¤ëŁ¬ ìĽĮ
Ġê²°ìĿĺ ìķĪ
Ġèĺ Ń
ĠèĮ Ĥ
ĠìķĦìļ°êµ¬ìĬ¤ íĪ¬ìĬ¤
W C
n y
á º
Ġì ¥ĺ
ì§Ģ ìĹŃ
ìłľ ìĤ¬
Ġì¡° íļĮ
Ġæ §
Ġë¬´ ê°Ģ
ĠS ub
ĠìķĪ ì¤ĳ
Ġì´Ŀ ëıĻ
Ġëª© ëıĻ
ĠìĬ ¬ë¦¬
Ġê¸¸ ê±°ë¦¬
ĠíĥĦ ìĪĺ
ent al
íĻį ì½©
ãĥ ĥ
ĠæĶ ¹
ë¨¸ ìĬ¤
ĠComp any
Ġne w
ĠìĦ±íıŃ ëł¥
ĠëģĶ ì°į
ĠëıĻ ì°¨
ĠìĬ¤ íĪ¬
Ġê´Ģ ëıĻ
ĠíĻĶ íĴį
Ġë¦¬ íĬ¸
Ġê±°ë ³ĳ
ĠëĶĶ ìķĦë
ĠíĨłë °Ķ
Ġê·ľ ìķ½
ĠìĿĮìĭĿ ìłĲ
ë³¸ë ²ķ
Ġë¹ĦìŀĶ íĭ´
Ġëļľ ê»ĳ
Ġì§ģìĤ¬ ê°ģ
ĠìķĦëĭĪë ©´
U I
ĠìĿĺ ëħ¼
Ġë¶Ģ ëĵ±ìĭĿ
ì£¼ ìĤ¬
Ġëĭ¹ ìĥģ
Ġìĭľë ª¨ë
ĠìĤ¬ìĿ´ ìĸ¸ìĬ¤
Ġì£½ ìĿ¼
Ġë¶Ħë ³Ħ
ĠÂł ĠÂł
Ġëį°ë ĭĪìĬ¤
êµ¬ë ¡ľ
ĠëĿ¼ìĿ´ ìĦ¼ìĬ¤
ì¡°ë °ĺ
ĠæĪ ¶
íĢ ´ë
ath er
ê²½ìĥģ ë¶ģëıĦ
ê³µíĻĶ ëĭ¹
ĠíİŃ ê·Ħ
W S
Ġìłķ íķ´ì¡Į
ĠS i
ëĤ łëĵľ
al th
Ġë§ŀ ë°°
ĠëĨĵ ìĺĢ
Ġåı °
Ġê³§ ìĿ´ìĸ´
ĠèĪ į
ĠEn ter
ĠìĿ´ìĻĢ íħĮ
o ok
ĠìķĦ ìĻĢ
Ġìŀ¥ ìłķ
Ġì¶Ķ ê³Ħ
ĠíķľêµŃ êµ°
ĠëĭĪ ì¼Ī
ĠìĬĪ íĥĢìĿ¸
ĠìĹĺ ë¹ĦìĬ¤
Ġ44 0
ĠëıĦë§Ŀ ì³Ĳ
Ġê°ľì²Ļ ìŀĲ
Ġè¼ Ķ
íı´ë ŀĢëĵľ
ç© º
5 5
s c
ì ĮĢ
ĠëĮĢ íĺģëªħ
ĠëıĻ íĺ¸
ë² ¨ëĿ¼
Ġé ¹
Ġè ħ
Ġíĺķ ìļ©ìĤ¬
Ġ18 15
ĠìķĪ ê²¨
ì¿ ¤
Ġì½Ķ ë°Ķ
Ġm y
íĦ°ë ¸Ķ
ìķĶ ìĤ¬
§Īë ĶĶ
and er
ĠéĽ Ļ
ĠëĮĢëĮĢ ìŀ¥
Ġê¸°ìļ¸ ìĿ´
Ġê²½ë¶Ģ ìĦł
ĠìĿ´ê´ĳ ìĪĺ
Ġ ver
Ġê°Ģ ëł¹
ìĤ¬ ìĭ¤
íĽĦ ìĿ´
ĠëĳĲ íĦ°
ìĤ ´ë¡ľ
ĠìĪľ ì²ľìĭľ
ĠíĤ¤ íĬ¸
ĠëĨį ëĭ´
Ġì¤ĳìķĻ ìĿ¼ë³´
Ġíĩ´ ì¶ľ
Ġê¾¸ë ªĦ
æĹ ¨
ĠìĹĲëĭ¤ ê°Ģ
Ġç© Ĩ
Ġè¶ ³
ĠëĳĲëĵľëŁ¬ ì§Ħ
ĠëģĮëł¤ ê°Ģ
ĠëĮĢê´Ģ ìĭĿ
² ĪëĩĮ
ç ģ
ł ĲëĿ¼
Ġëĭ¤ ìŀĲ
Ġì§Ģ ì¹ĺ
ĠëĮĢ ìŀħ
Ġì² ´ë¡ľ
ĠìĦ¸ ìłľ
Ĳë ª©
ì²´ ìĬ¤
ĠíĽĦ íļĮ
ĠìĺĪ íĶĦ
ë§Ī ìĵ°ëĭ¤ìĿ´ëĿ¼
íĭ° ìļ°ìĬ¤
ì´Ī íĶĦ
ĠL ong
Ġë²Ħ ìĬ¤íĦ°
ĠH y
ĠH ow
ĠíĬ¸ë łĪë
ĠV ir
Ġë¬¼ë¦¬ ì³¤
Ġê°Ģì¹ĺ ê´Ģ
Ġg r
Ġ185 7
íĶĦë¡ľ ìĦ¸ìĦľ
ĠRo y
Ġë©ĶíĬ¸ë¡ľ íı´ë¦¬íĥĦ
ĠåĦ Ĵ
³¸ë ²ĪëĩĮ
Ġëĭ¨ë§Ĳ ê¸°
² ¡
Ġì «
Ġê¸° ë³¸ë²ķ
ĠìĤ¬ ìĹ°
ĠëıĦ ë§¤
Ġ20 2
ĠìķĦ ìī½
ĠìĿ´ë ¶Ģ
ĠìĿ¼ë ©´
Ġíķł êµ¬
ê²Į ìĿ´íĬ¸
Ġíĺ¸ íĻĶ
Ġë¶ģ ë²Į
Ġíĸ¥ ìĭłë£Į
re w
íģ¬ë łĪ
ĠìĬĪ íĬ¸ëĿ¼ìļ°ìĬ¤
Ġìŀī ì¹´
ĠìĹ°ëĮĢ ìŀ¥
Ġìŀ¬íĮĲ ìŀ¥
Ġë¶Ļìŀ¡ íĺĢ
ĠèĤ ħ
è Ĭ
ë ¨¼ëĵľ
ĠìĿ´ íĺ¸
Ġíķĺ ê°ķ
ĠìĪĺ ìĿ´
Ġìłķ ìĺ¤
ĠìķĦ íĤ¬
ĠìĦ¸ íĨł
Ġë¯¸ íĬ¸ëĿ¼
ĠìĦ¤ ë¦¬
ĠìĺĪ íİ¸
Ġíķµ íĥĦëĳĲ
ĠåŃ Ķ
ĠåŃ Ł
Ġë°ĶìĿ´ë §Īë¥´
Ġ184 9
Ġë°Ķê·¸ë ĭ¤ëĵľ
ĠSoci ety
ĠìĿ´ ìľ½ê³ł
ĠìĹĲ ë°Ķ
Ġìĸ´ íķĻ
Ġê²½ ëĤ´
Ġìĺģ ìĤ¬ê´Ģ
Ġìĺ¤ ìĤ°
ĠíĺĦ ìķħ
Ġë¬´ íĮ¨
Ġìĸĳ ìĤ°ìĭľ
ĠëłĪ ìĬ¤íĦ°
Ġë³Ģ íķ¨
Ġì¹ĺ ë§Ī
ĠR A
ĠíĤ¤ ë¦´
Ġìĭ¸ ìļ´
ĠìłĦìĭľ ê´Ģ
ĠAr ch
ĠèŃ ¦
Ġéļ ¨
ĠçĪ ²
ĠíĶĮë£¨ íĨłëĬĦ
ë¦¬ ì¹ĺ
ĠëĮĢ ëĵ±
ĠìĪĺ ìĿĢ
Ġç Į
ĠëłĪ ì½ĶëĶ©
Ġë¶Īë Ĭ¥
ĠíĹ¤ ëįĶ
Ġíķľë ³µ
ĠëłĪë ª¬
Ġn o
um b
ĠíĹĪë ¬¼
ìĦ¸ë Ŀ¼
Ġì»¨ íį¼ëŁ°ìĬ¤
ì°¸ ê³ł
íĭ¸ ë¦¬íĭ°
é Ń
Ġìĭľ íİ¸
Ġè ķ
ĠìĤ° ì¡°
íĬ¸ë §Į
ĠëĪ ĮëŁ¬
Ġìķŀ ëĴ¤
Ġê·ľ íķ©
am a
ĠY G
Ġèĩ ³
Ġ185 1
ĠíĮĮíĳ¸ ìķĦëī´ê¸°ëĭĪ
æ ĵ
Ġìłģ íŀĮ
Ġì² ¨ë
Ġìłķ ìĬ¹
ĠìĥĿ ì¥Ĳ
ĠìĨĮë Łī
Ġìļ© íķ´
Ġt ra
Ġìļ¸ ì£¼êµ°
ãģ ª
Ġë¹Įë °Ķìĺ¤
ĠPro ject
Ġíİ¼ì³Ĳ ì§Ħ
Ġë¯¸ì¹´ ìĹĺ
Ġìķłë¦¬ ì¡°
ĠìĬĪíĪ¬ íĬ¸ê°Ģë¥´íĬ¸
è £
ĠìĿ´ ê°ķ
Ġëį ¸ë
ĠëĤĺ ë°Ķ
Ġìĥģ ìĿ´
Ġ- -
Ġë°ľ ê´ĳ
ìĪ į
ĠëĳĲ ë¥´
ĠF la
Ġìķ¼ êµ¬ë¶Ģ
ĠR C
ĠìĦłë ĭ¨
Ġê±¸ íĶĦ
ĠíıĲ íķĺ
ëĵľë £¨
ìķ¼ë ĪĦìĬ¤
ĠTh is
ĠìĿį ìĦ±
ord er
ĠíĨ± ëĭĪ
Ġæħ¶ å·ŀ
ì¹´ëĿ¼ ê³¼
è¦ ĭ
ĠëĲĺëı Įëł¤
Ġìŀ ¼
ìĿ´ íķĺ
Ġê³¼ ê°Ĳ
ĠìĽĶ ëĤ¨
ĠíĨ ¨ë
Ġëªħ ìĻķ
łĪ ìĿ´ëĵľ
Ġê°ķ íĺ¸
ĠìłĲ íĨł
Ġìłľë °©
il y
ĠìĹ´ë ŀĮ
ĠêµĲíĻ© ëł¹
Ġë¬¸ë §¥
ìº Ħ
Ġê±´êµŃ íĽĪìŀ¥
ĠìĿ¸íĶĮë £¨ìĹĶìŀĲ
Ġë¸ĮëłĪë ©ĺ
é ¢¨
Ġìŀ Ķë
ĠìĿĦ ìĪĺë¡Ŀ
ìĭĿ ìĬ¤
Ġç į¨
Ġë¦¬ ì½Ķ
ĠìķĪ ìĭ¬
Ġë¯¼ ìĽĲ
ĠP eter
ĠìĦ¸ë ĭ¨
Ġ13 1
ĠìķĦìĿ´ ì¹ĺ
ĠíĮĮë ¹Ħ
Ġê·¼ë ³¸ë²ĪëĩĮ
ĠëĶ° ì§Ģ
Ġì¶ľíĮĲ ë¬¼
Ġç¾ ½
ĠëĵľëŁ¬ë Ĥľëĭ¤
ê¼ ¬
ìĬ¬ëłĪ íĭ±ìĬ¤
v i
Ġëĭ¤ ëĭĲ
Ġì§Ģ íĤ¬
Ġë© ķ
Ġì£¼ ìĦ¸
ĠêµĲ ìĿ¸
ë¡ Ń
Ġìŀħ ì°°
ĠP L
Ġëľ ¯
un k
Ġë¹Įë ĵľ
ĠìĹ¼ íĻĶ
ĠíĢ Ħ
Ġéĸ ĵ
195 9
ĠìĦŀ ìĿ¸
ĠæĦ ¼
ĠëĤłë ł¸
ĠìĪľêµĲ ìŀĲ
E X
N S
v ent
ĭ ¥
êµ ´ë
Ġ20 6
ĠìłĦ ìĹ´
Ġìłķ ì²Ń
Ġìĺ¤ ìĿ¸
Ġëª¨ ìħĺ
ĠíļĮ ì°¨
Ġë²ķ ìĥģ
en se
Ġì²ľ ìŀĲ
ê´ĳ ë³µ
ĠW C
Ġì¹´ë łĪ
ĠëĤł ìķĦê°Ģ
ĠJ apan
Ġo p
ĠëĬ¥ ìĪĻ
oun t
Ġê³łë¬¸ ìĦľ
ĠíĥĿ íķĺ
Ġìľłê¸° ì²´
Ġê¸°ìļ¸ ìĺĢ
Ġì£¼ê±° ì§Ģ
Ġì¡°ìĹ° ìĥģ
v is
ë Ī
ê¸° ëĳ¥
ĠìŀĲ ìĦ±
ìłķ ìĭł
Ġ20 9
ëł ģ
ĠìĨĮ ìĦľ
ìĿ´ë ħ¸
íı¬ ë¦¬
ĠT or
ĠêµŃê°Ģ ìĽĲìĪĺ
íĥĢë ¶Ī
ad a
Ġìĺ¬ëĿ¼ ìĻĶ
ãĥ ª
Ġëĭ¹íĸĪ ìľ¼ë©°
Ġæ± Ŀ
Ġ183 9
ĠìĬĪë ¯¸íĬ¸
Ġåĥ §
ĠíĺĦë¯¸ ê²½
ã ĥĪ
ŀ ı
ìĬ¤ ì¹´ìĿ´
ìĽĲ íĺķ
ĠêµĲ ê°Ĳ
ĠíĨµ ê°Ĳ
Ġç ±
Ġíħ ħ
ĠíĮĲë§¤ ê³ł
ìĹĲë ħ¸ìĬ¤
ëħ¸ë ¶Ģ
ĠíĻĢ ìĪĺ
ĠíķĺìĿ´ íį¼
ĠLa w
Ġê·łë ĵ±
ĨĢë¡ľ ì§Ģ
v a
² ¨ë¦¬
ĠìĤ¬ ì¤ĳ
ĠìĤ¬ ë¹Ħ
ĠìĿ¸ ê³Ħ
ĠëĤĺ íĨł
Ġê´Ģ ìķĦ
Ġê·¸ë Ĭĺ
ĠìĽĲ ë§Į
Ġëª¨ë Ŀ¼
Ġë°° íĥĢ
Ġë¬´ ê²ģ
ĠT re
Ġì´Ī ìĭĿ
ĠR ob
ĠìĦ¸ë °Ģ
us e
Ġëĭ´ ìŀĦ
ĠìĬ¤íħĮ íĮĲ
ĠëĵĢ ìĬ¤
ë¸Ķë ŀĻ
Ġê¸°ëıĻ ìłĦ
ê³ł íĬ¸
Ġë¶Ģ íĻĶ
Ġëĭ¹ ìŀ¥
ìĿ´ë ¥´
Ġè Ħ
ëĬĶ ìłĲ
Ġë³Ģ íķľ
íħĮ ìĿ¼
Ġíĥľìĸ´ë Ĥł
Ġìķķ ìĪĺ
ì½Ķë ¹Ħì¹ĺ
ad y
op le
Ġì½ľ ë¦°ìĬ¤
ĠGr and
ìķĦìĿ´ë łĪìĬ¤
H A
ç ½
Ġê°Ģ ê²°
ĠìľĦ ì¶ķ
Ġê³µ ê²½
Ġê·¸ë ¬¼
Ġn ame
ĠíĦ°ë ĦĪ
ãģ Ł
Ġìĺ¤ìĬ¤ ì¹´
ĠìĬĪíį¼ ìĬ¤íĥĢ
ĠëĶĶë Ĥĺ
ĠëĤĺëĪ Īëĭ¤
ĠìĦłìłľ íĽĦ
¹Įë ¡ł
ìĹĲëħ¸ìĬ¤ ìķĦìĿ´ëłĪìĬ¤
ĠìĿĺ ìłľ
Ġë¡ľ ë§Ŀ
ĠìŀĲ ê°ģ
Ġë³´ ë¦Ħ
Ġêµ¬ ìłĦ
ëŀ Ń
Ġë³´ë ĭĪ
Ġì¶Ķ ë°Ģ
Ġì´Ŀ ìĺģ
ĠíĻ© ìľĦ
ĠIn t
Ġë¹Ľ ê¹Ķ
Ġì£¼ìłľ ê°Ģ
Ġæħ Ī
ĠæĻĤ ä»£
ê·¸ëŀĺ íĶĦ
Ġë²Ķë ŀĮ
Ġìĺ¤ìķĦ ìĭľìĬ¤
ĠìĹ¬ëŁ¬ë ¶Ħ
Ġê³ł ëª¨
ĠìŀĲ íĤ¤
ĠìĨĮ ìĸĳ
Ġë°Ķ ìł¤
la tion
ìķĦë ¥´ë
ĠìĺģíĻĶ ê´Ģ
Ġì¶© ëıĻ
Ġëħ¼ íıī
ëĵľë ŀĺ
Ġëıħìŀ¬ ìŀĲ
Ġë¶ĪëŁ¬ìĿ¼ìľ¼ ì¼°
łĪëĭĪ ì¦ĺ
Ñ Į
ìĦľ ê²½
ĠìĤ¬ ì²´
êµŃ ëĤ´
Ġë² ³
ĠëĤĺ íĪ¬
Ġê°ľ ê°ľìĿ¸
is ter
ëĦ¤ ëįľëŀĢëĵľ
ê¹Ģ ì¢ħ
ĠìĿ´ë¡ł ê°Ģ
id a
Ġ36 5
ĠìĨĶ ì§ģ
ĠìĬ¤ì¼Ģ ìĿ´íĬ¸
ĠBe at
ĠìŀĲìĺ¤ ìĦł
ìļ° ì§Ģ
Ġìľł êµ¬
Ġë°© íĺ¸
ìĨĮ íĶĦíĬ¸
Ġëª¨ íĥľ
ĠíĮĮ ì£¼
ĠM em
ĠM IT
19 24
ĠìĦľë ĳĺ
ĠH ouse
ĠN a
ĠìĦłë ³Ħ
ì²ĺ ëŁ¼
Ġì¤ĳìķĻ ìķĦë©Ķë¦¬ì¹´
om b
Ġd u
ĠëıĮìķĦ ê°Ħëĭ¤
194 3
Ġíĺ¼ë ĭ¤
Ġìĭłíĺ¸ ìŀ¥
ì½ľë ¡ľ
195 3
ê±´ë ¶Ģ
ĠìĽĲì¢ħ ê³µìĭł
Ġíķĺ ì§Ģ
Ġë¡ľ ì»¬
Ġë¡ľ ìłĢìĬ¤
Ġë³´ êµŃ
Ġë¯¸ ì¸ł
Ġê¶Į íĪ¬
ĠìĨĮë Ŀ¼
Ġæĸ ¼
ĠæŃ »
ìķĪë ĵľë
Ġ185 2
Ġê¹¨ ì§Ģ
ä» ¶
Ġæ¸ ħ
Ġìĭľë§Ī ì¦Ī
Ġå¤§é Łĵ
Ġë¡ľëĵľë¦¬ ê²ĮìĬ¤
ĠìĹ İ
ìĬ¤ ëłĪ
Ġë² ļ
ĠìķĦ ì¹¸
Ġ4 30
ëĮĢ ìĤ¬
Ġë°© ìļ¸
ĠíĬ¹ ëªħ
ĠìķĪ ì£¼
ĠìĨĲ ìĪĺ
Ġìķł ìĬ¬ëłĪíĭ±ìĬ¤
ĠìĪĻ ëªħ
ìķ¼ë ¥´
ĠéĤ £
UC N
ĠSci ence
ĠChamp ion
Ġê³ł ëĬĶ
Ġì£¼ êµ°
ëĮĢ ìĦ±
Ġë¹Ħ íĨł
ĠëĤ´ ê¸°
or m
Ġì£¼ë ĭĪ
ĠìĨį êµŃ
ĠD iv
Ġì¦Ŀ ì¶ķ
al k
Ġíİĺ ìĬ¤íĬ¸
Ġìłĳ ëª©
¶Ħ íĪ¬
ê¸¸ ì¤Ģ
ĠëĵĿ ìĭ¤
Ġå¼ ¼
Ġì¦Ĳ ê²¼
Ġë¡¤ ëŁ¬
Ġå¤© çļĩ
ĠCon s
å£ ĩ
ĠWh ite
Ġë¸Įëŀĺ ëĵľ
Ġë¬´íĺķ ë¬¸íĻĶìŀ¬
Ġì§Ģê·¹ íŀĪ
ĠìĿ¸ ìĦ±
Ġìľł íĭ¸ë¦¬íĭ°
ìĺ¤ ëĵľ
£¨ ì¦Ī
ĠìķĪ ì²łìĪĺ
Ġìĸĳ ì§Ģ
ëĭĪ ì½Ķ
Ġì¹ĺ ë¥¸ëĭ¤
Ġìłĳ ë¯¸ìĤ¬
Ġì½ĺ ìĬ¤
ĠìĺĪë ³´
Ġìħ° íį¼ëĵľ
Ġå§ Ķ
íĽĪë ł¨
Ġìĭľ ê·¸ë§Ī
ê°Ģ íĤ¤
Ġìłķ ì§Ħ
ĠìĦ¸ ìļ¸
ĠìĿ¼ë ³´
ĠëĤ´ ë¦¼
Ġìŀħ íĺĶ
Ġì¶ķ ìłĦ
Ġê°Ĳ ëĭ¹
§Īë ħ¸
ĠìĹĺ ëĿ¼
ãĥ ©
Ġê¹Ĭ ìĪĻ
Ġë¶Īë²ķ íĸīìľĦ
Ġåħ¨ å·ŀ
Ġæ¯ Ľ
ĠìĿ´ìĭľ ì¹´ìĻĢ
æ± Ł
Ġæª ¢
Ù Ĩ
Ġê¸° ë¦°
ĠëıĦ ëģ¼
ĠìĿ¸ ì²Ļ
ãĢ Ģ
Ġ" |
ĠìĦ± íĺĦ
ĠëĿ¼ íĶĦ
Ġë°© íĥĦ
Ġëĭ¹ ì§Ħ
ĠìĥĿ ëħĦ
ĠA F
Ġìĸĳ ìĽĲ
ĠP M
Ġë°Ķë ŀĢëĭ¤
Ġê¸Ī ìłķ
Ġë¯¼ì£¼ ê³µíĻĶëĭ¹
Ġ74 7
Ġê¸°ìĥĿ ì¶©
ĠìķĪëĵľë łĪìķĦ
Ġì¦Ĳê±° ìĽĢ
æ ¸
Ġì§ ļ
ë° Ģë
ë² ĮëłĪ
Ġê°ķ íĸĪ
Ġìĭľë ł¥
Ġë§¤ ë³µ
ì½Ķ ìĿ¸
Ġë£ ¨ëıĦ
ì½Ķë ĭ¤
Ġì§Ģë°° íĸĪ
Ġ48 0
Ġë¶ĢìĤ¬ ìŀ¥
190 4
ĠëłĪìĺ¤ ëĤĺ
ĠìķĦìĿ´ìĬ¤ íģ¬ë¦¼
Ġè£ µ
êº ¼ë
ìĹĳ ìĬ¤
Ġìĺ¤ë©Ķ ê°Ģ
Ġê°Ģ ì°½
ĠìĤ¬ ëĭ¤ë¦¬
ĠìĪĺ ì£¼
ê°Ģ ìĥģ
Ġíķľëĭ¤ ë©°
Ġê°ľ íĳľ
Ġìĭ¤ ì±ħ
Ġ18 20
Ġì²ĺ ë§Ī
ë¬´ ìĭ¤
ĠìĤ° ìłķ
ĠìķĦìĿ´ ìĸ¸
Ġìľ¤ ê³½
ĠìĿ´ë£¨ìĸ´ ì§Ī
Ġë¹Ħíĸī ìĤ¬
Ġ184 6
ĠWh at
ĠìĹ¿ ë³¼
ĠChris tian
Ġë¶Ģë¥´ë ´ī
è ¾
ĠìĹĲ ìĦ¸ìĿ´
ë¦¬ ìĤ¬
ìķĦ ìļ°
ĠëĤĺ ê¸°
Ġìĺ¤ ë¥¸ëĭ¤
ĠìĨĮ ìĿ¸
Ġë°ľ ì§Ħ
ìļ´ ìłĦ
ìĦ¸ íĬ¸
ĠìĻķ ì¢Į
ĠìĿ¸ë ¨¼
ĠR em
ĠE D
ĠìĦĿ ìŀ¬
ìłľë ĭĪ
Ġå¾ ĭ
ĠìŀĶ ìĹ¬
ëĿ¼ë ĶĶìĺ¤
Ġëį´ ìĩ¼
EE E
ĠìĿ´ëħ¸ ìļ°ìĹĲ
ëª°ë ħĦ
8 6
ë Ŀł
ĠìķĦë ħ¸
ì¦ Īë¹Ħ
ë¡ Ħ
Ġë³Ģ íĸĪ
ĠD ig
Ġê·Ģ ìĪľ
ĠíĥĪ íĶ¼
íħĮë ¥¸
ĠíĦ° ìĬ¤
Ġä» Ĭ
Ġë¶ī ìĿĢìĥī
Ġä¼ ļ
ĠìĿ¸ë¥ĺ íķĻ
ĠíĹ¬ ìĬ¤
ĠëĭĽ ìĤ°
ëĤ¨ë ıĻ
ĠìĹ°ìĬµ ìĥĿ
ë¥¼ë łĪ
¼ ì§Ģ
Ġë¡ľ ìĤ¬
ĠìĪĺ ì§Ī
ìŀĲ ëĿ½
ëĭ ¿
ìĺ¤ ë²Ħ
ĠíĻĶ ìĽĲ
ĠA L
ĠB attle
ĠíĶ¼ ìŀĲ
Ġê¹Ģ ì²ľ
Ġåħ ·
Ġê±´ë Ħ¤
Ġì»¤ ë¸Į
Ġäº ¨
Ġåı ĸ
Ġåľ Ń
Ġëª½ ê³łë©Ķë¦¬
Ġç§ ĭ
Ġãħ £
ĠìĽĮë ĤĻ
ĠìĿĺë³ĳ ìŀ¥
ĠìĦ¹ ìħĺ
form ation
ĠíĶĮëŀĳ ëĵľë¥´
Ġì¡°ë´ī ìķĶ
ì Ń
ĠìĹĲ ë³¼ë
ìĿ´ ìłķ
ĠìŀĲ ìĦĿ
Ġë¶Ģ ìłĦ
ĠìĬ¤ íİľ
Ġì£ Ħë
Ġê°ķ íĥĢ
Ġë¦¬ íģ¬
Ġíı¬ ìĥģ
ĠB ur
ĠíķŃ ìłĦ
ĠíĪ¬ ê¸°
Ġë¿ ľ
Ġíĺ¸ë ¡ľ
ĠìĤ¬ëĿ¼ ì§Ħëĭ¤
ĠíķľìŀĲ ìĸ´
ĠëıĻë¶ģ ë¶Ģ
Ġê±°ëĬĲ ëł¸
ĠìĿ´ ìĦ¤
ĠìĪĺ ë§Ī
ĠëıĻ ë¥ł
Ġìĥģ ìĦ¤
Ġìĺģ ì²ľ
íĮ ¨ëĵľ
Ġêµ¬ ê°Ģ
Ġâ ĳł
Ġë°ĺ ëĭ¬
ì¢ħ êµĲ
ĠëĤ¨ ìķĦìĭľìķĦ
Ġëĭ¬ ì½¤
ĠëĭĪ ì¦Ī
Ġêµ°ë §Ī
Ġë²¤ ì¸ł
Ġë¹ħ íĦ°
Ġ178 9
ĠåĢ ī
ê·¸ëŀĺ íĶ¼
ĠíħĮíģ¬ë ĨĢë¡ľì§Ģ
Ġë°Ķëĭ· ê°Ģ
ĠìĦĿíļĮ ìķĶ
íĶĮëłĪ ìŀī
ĠëłĮë įĶë§ģ
æ Ł
Ġìłľ ê³ł
Ġìĥģ ëıĻ
Ġë©´ íķĺ
ìĺģ ìĸ´
Ġë¬´ ê³µ
Ġë§¤ ëĵŃ
Ġì¹ĺ ë£¨
Ġì±Ħ ì§ĳ
Ġì¹´ë ĶĶ
ĠíĴį ìļĶ
ĠìĪĻ ëł¨
Ġì¸ł ì¹´
Ġëģ¼ ì¹ľ
ĠëĥĪ ìľ¼ë©°
Ġê°ĢìĿ´ ìķĦ
ĠíĢ´ ì¦Ī
ĠíĤ¤ë¥´ ê¸°ìĬ¤
Ġê¼¬ë §Ī
Ñ ĭ
ĠìĿĺ ìĿ¸
Ġê°Ģ ìĺ¨
ê¸° ì¦Ī
Ġìļ° ê¸°
ĠS R
ĠìļĶ ëıĦ
íĭ° ìķ¼
Ġì§ĳ ìłģ
Ġëħ¸ ì¹´
ìĬ¤íĬ¸ ë¦¼
ĠìĥĿìĤ° ìŀĲ
Ġp r
Ġì¹¨ ìĪĺ
ĠìķĦë¦¬ ëŀĳ
Ġæĥ ¡
H S
ĠìĿ´ ìĦ¸ë
Ġê²½ ìĽĲ
Ġì£¼ íı¬
Ġì¡° ìļ°
Ġê´Ģ ê°ľ
Ġë§Ī ì½ĶíĨł
ĠìļĶ ê°Ģ
ĠìĹ´ ìĹŃíķĻ
ĠH P
íĽ ¼
Ġíķ¨ë ¶Ģ
ĠíĽĦë°ĺ ìłĦ
ĠëĤĺìĻĢ ìĦľ
ĠìĦłë³´ ìĿ¸
ì· Į
Ġê°Īë¦´ë łĪìĺ¤
Ġì¡°ê´ĳ ì¡°
Ġìĺ¤íķĺìĿ´ìĺ¤ ì£¼
Ġíķĺ ëıĻ
ĠìĿ¸ ìĤ°íĻĶ
ĠìĿ´ë ©´
ìĿĺ ê¸Īë
íĮ Ķë
ĠìłĦë ´ī
Ġì²ĺ ì¹ł
°Ķ ìĿ¸
Ġêµ°ë Łī
Ġëŀ Įë
Ġë§Ŀ ê°Ģ
Ġíĳ¸ ìķĦ
Ġì¶ĺ ê³Ħ
Ġæī ĭ
ĠìķĦìĬ¤ ì¹´
Ġåı¸ é¦¬
ire ct
ĠíĪ¬ë¥´ íģ¬ë
ĠAM D
ħĦë ĭ¨
ĠìĦľë°Ķ ìĿ´ë²Į
T O
ìļ ¤
Ġê°ľ ì¶ķ
ìĭł ê²½
ê¸ ĢëĿ¼ìĬ¤
ĠìĹŃ ëıĻ
Ġë¬´ ìĺĪ
Ġë¬´ ìĭłë¡ł
Ġìĭľë ¥´
ĠC A
ì²ľ êµŃ
ì²ľ ìĿį
ĠI R
íĥĢë ¹Ħ
ĠíĶĮë Ŀ¼ë
ĠíĽĦë ©´
ìĨĲ ìŀĲ
Ġì½ĺ ëĿ¼íĬ¸
Ġìŀł ìŀ¬ë
Ġìĺ¥ ìĭľ
Ġì½ľë Ł¼ë²ĦìĬ¤
Ġíľĺ ë§Ĳ
ìĦ¸ë į°ìĬ¤
ãĤ ī
Ġíĥľë ¸Ķë¦¿
195 1
çĶ £
Ġêµ³ ìĿ´
Ġå² ¡
ĠìłľìĿ´ ìĬ¨
Ġë¡ľë²Ħ ì¸ł
å ľĺ
Ġìł łëįĶ
ì§Ģ ëĮĢ
ĠìķĦë ĨĢëĵľ
Ġë§Ī ì§Ģ
Ġìŀ¥ ê°ķ
ê³µ ê²©
Ġë°ĺ íĸ¥
Ġë§Įë ¬¼
Ġëħ¸ ê³¨
ĠíĶ¼ ì§Ī
Ġ15 2
ĠH a
Ġíģ´ë ŁŃ
Ġs up
Ġëī´ ìŀīê¸Ģëŀľëĵľ
ĠëĦĺ ë²Ħ
Ġì½ľë ĵľ
Ġå±± åŁİ
Ġèª ¿
Ġæ¯ į
ĠìĹ°ê¸Ī ìĪł
Ġì§Ģ ê²Ģ
ĠìĽ ¬
Ġì¤ĳ ìĭł
Ġê³µ ìĦ±ìłĦ
ĠìĨĮ ì£¼
ìĺ¤ ìĤ¬ì¹´
Ġìĸĳ ìĸĳ
19 18
ë¦¬ìķĦ ìĬ¤
ĠN X
Ġì¦ī íĿ¥
Ġíı¬ë ®¬ëŁ¬
ĠìķĪë Ŀ½
Ġa g
Ġì£Ħ ìĿ¸
Ġêµ°ì£¼ ìłľ
gr am
Ġìĺģë¬¸ íķĻ
ĠìĿ´íļĮ ì°½
Ġìŀ¬ê²° íķ©
ĠìĻķëĭ¹ íĮĮ
ł Įëĵľ
ĠìĿĢ ì§Ģ
Ġê³ł ìłľ
Ġê¸° ê¶Į
Ġë°Ķ ë°Ķ
Ġë¶ģ ë°ĺ
ĠB ri
Ġf l
Ġíĳľ íĬ¸ë¥´
ĠJ r
ĠíĮ¨ ìŀĲ
ĠìķĦìĿ´ íĮĮíģ¬
ë°ķ ìĤ¬
¸Ķ ë¦Ń
ĠY ork
ĠíĿĳ ìĥī
ê³Ħë ıĻ
Ġë¯¸ìĦ± ëħĦ
Ġë© ±
Ġìłľ íĶĦë¦¬
íķĻ íĮĮ
ĠìĦ± ì¡°
Ġêµ¬ íķľ
ĠìĨĮ ì§Ħ
ĠëĿ¼ë Ŀ¼
Ġë¶ģ ëĮĢìĦľìĸĳ
ĠB ad
Ġì§Ģë°© ëıĦ
Ġìķł íĺ¸
äº Į
ĠìĥĪë ®¤ìĸ¼
ĠëıĻìĿ¼ ìĭľ
ĠíĨłë¡ł íļĮ
ĠìıŁ ìķĦ
¡ľ ìĿ´
ìł ĦëĮĢ
Ġì§Ģ íģ¬
ìĹ Į
ĠìĤ¬ ë¯¸
Ġìłľ ì£¼ìĭľ
Ġíı Ĳë
ìĭľìķĦ íĤ¤
ĠL and
Ġë°± ì§Ģ
Ġë£¨ ìĨĲ
ĠëĭĪ ìĭľë
ĠíĽĦë ²łìĿ´
ĠJ u
ĠìķĦìĿ´ ìłł
ĠíĶĦë¦¬ ì¸ł
ì¿łë ³´
ĠìĹ¬íĸī ìŀĲ
ĠêµĲë ªħ
ìļ¸ë ¡ľ
ĠìĺĪìĪĺ êµĲ
Ġíİ¼ì³Ĳ ì§Ģ
Ġê²¨ë ĥ¥
íķ ¨ëĮĢ
Ġì§Ģ ìķĦ
ĠìĤ¬ íĥĦ
Ġìĭľ ì°°
Ġêµ° ë¦¼
Ġìĸĳ ëħĲ
Ġëĵľë Ĥĺ
ĠR ain
ad em
íļĮë ¡ľ
ìĤ´ë °ĶëıĦë¥´
ore an
æ¯ į
ĠGener al
ĠìĿ´ ìĿĢ
ĠìĿ´ íĻį
Ġìķ ¨ë¦¬
Ġê¸° íĶ¼
ĠìŀĲ ì¹´ë¥´íĥĢ
íĬ ł
ĠëĿ¼ ì¿ł
Ġê´Ģ ìĿĮë³´ìĤ´
Ġë§Ī íĭ°
Ġë¬´ íķľë
íĭ° ìĸ´
ë¹Ħ íĬ¸
ĠíĨł íĶ¼
ĠW ith
ë°Ķ ìĿ´ë
ĠìĹĶ ìł¤
ìľłë ¯¸
Ġ80 2
ĠíĬ¸ëłĪ ìĿ¸
ĠíĬľë §ģ
Ġê¸īìĨį ëıĦ
Ġì¢Įë ŀĳ
Ġì¡°ìļ© íŀĪ
ê²½ìĥģ ëĤ¨ëıĦ
U EFA
é ħ
ìłķ ì¹ĺ
ĠìĹ¬ ê´Ģ
Ġì£¼ ìľł
Ġìŀĳ ìŀĲ
Ġë§Īë Ĭĺ
ĠI UCN
Ġì²ł ê¸°
Ġëĭ¬ë ł¥
Ġëĭ´ ìĪĺ
ĠíĪ¬ë ³ĳ
íĶ¼ë ĭĪ
Ġë³Ģíĺ¸ ìĿ¸
Ġåī Ľ
ĠìĬ¤ì¼Ģ ìĿ¼
Ġê³łì§Ģ ëĮĢ
ĠëŃ Ķ
Ġë¯¸ì£¼ë¦¬ ì£¼
ĠíĽĦìľł ì¦Ŀ
b r
Ù Ĭ
Ġëĭ¤ ëĭĮëĭ¤
ìłķ ê¸°
íķĺ ìļ°
ĠìĦ¸ ìļ´ëĭ¤
ĠëıĻ ë§¥
Ġíİ Ļ
Ġè ³Ģ
Ġìľłë ³´
Ġëª¨ ì¹ĺ
ĠC at
Ġìķ½ íĴĪ
ĠD A
ĠD O
ĠP ower
êµ¬ë Ŀ¼
Ġê¶ģ ì£¼
Ġíķ©ë³ĳ ì¦Ŀ
ë²łë Ħ¤
ĠíĨµê³Ħ íķĻ
ĠìĪĺìĺģ ìŀ¥
Ġì§Ŀ ìĪĺ
Ġë¯¸ìĭľ ê°Ħ
íĥĲ ìłķ
Ġìĭ¤ë¦¬ ì½ĺ
ĠìĬ¤íĥľ íĶĦ
ĠWind ows
Ġíķ¸ëĵľë ³¼
ĠìĪĺ ì¡±
ìĥģ ë¸Ķ
ìĺ¤ ìĬ¤íĬ¸
ĠíĬ¹ ìľĦ
Ġíĸī ìļ´
Ġìĸĳ ê¶ģ
19 28
ìĥ Īë¡ľ
Ġë³Ģ ìĦ±
ìĹĲ ë¦¬
Ġë¯¸ë Ł¬
łĪë ¸Į
ìĽ¨ ìĿ¼ìĬ¤
Ġíĺ¸ìĨĮ ì¹´ìĻĢ
Ġæ¾ ¤
ĠëĮĢëĭĪ ìĸ¼
W A
h o
ĠìĪĺ íį¼
ì¶ Ķë
Ġì¶ľ ìłķ
Ġ18 14
íı¬ ì¸ł
Ġëį° ìĿ¼
ë¯¸ ìĵ°
Ġm i
ĠL uc
Ġå¤ ¢
ĠV ic
Ġd o
Ġê²© íĻĶ
ĠìĿ´ìĤ¬ ë²¨
ĠSt r
²¨ íĬ¸
ĠëĬĲ ìĬ¨
ĠëıĦë§Ŀ ê°Ģ
Ġèĥ ¡
Ġçĩ ķ
Ġéº »
éĩ į
Ġíĺ¸ê¸° ìĭ¬
Ġëĭ· ì»´
ìĿĺê¸Īë ¶ĢìĤ¬
è »
Ġëĭ¤ ìľĹ
Ġë¡ľ ë°Ķ
ìĹ¬ ìĻķ
Ġìľłë ¯¼
Ġíĸī íķľ
Ġë¯¼ ìĦł
ĠP i
ĠìĤ¼ ê±°ë¦¬
ĠV S
ĠìĬµ ëĭĪê¹Į
ĠìĺĪë ©ĺ
Ġê²°ë ł¬
ĠêµĲë ŀĢ
Ġç¦ ģ
Ġî Ĭħ
íļĮë ĭ¹
Ġì§Ģë¦¬ ìĤ°
Ġíģ´ë¦¬ ìĸ´
ĠFran k
æ¨ Ĥ
Ġëŀ´ìĺ¤ ëĭĿ
T R
Ġì§Ģ íĮ¡ìĿ´
Ġìĭľ ìĺģ
Ġíķ´ ì»¤
Ġç Ńī
Ġìļ° ì£¼ë
ĠìķĪ ê±´
ĠìĪ łëĿ¼
ë¬´ ì§Ģ
Ġê°Ħ ì§Ģ
ĠëłĪ ìłĢ
Ġê´ĳ ìĦľ
ar ch
Ġë°©ë²ķ ë¡ł
Ġê²© ì¹¨
êµ¬ë ©į
ĠíķŃê³µ ìļ°ì£¼
ĠìĿ¼ìłľ íŀĪ
ĠëĦĺìĸ´ ìĦľ
Ġê¾¸ë ¯¸
ĠGre en
ĠìĦľíĥľ ì§Ģ
ĠëĮĢ ìļ©
Ġê¸° ìĿ¼
ĠìŀĲ ë§ī
íĺ ¼ë
ëĮĢ ë¹Ħ
Ġì°¨ ì°¨
Ġìľłë ıħ
ĠS ound
Ġìŀ¬ ìĭ¬
Ġë§¤ ëĶĶìĬ¨
ĠìĬ¹ ìĦł
Ġìĸ´ë ĳ¡
Ġì´Ŀ êµŃ
Ġì´Ī ìĦĿ
Ġëħ¸ ë¦Ħ
ĠëłĪ íģ¬
Ġê´ĳ íķ©ìĦ±
Ġì±ħ ìłķ
ìļ°ë ©°
ëıĮ ìĿ´
ĠåĪ ĳ
Ġì¶ĺ ì²ľìĭľ
ë¸Įë £¨
Ġéĸ £
ĠìķĦë¥´ë °ĶìĿ´íĬ¸
ĠëłĪìĺ¤ íı´
t d
ĠëıĦ ìķĪ
Ġìĸ´ ìĿ¸
Ġë¶Ģ ê¸°
Ġë¶Ģ íĮĮ
ìłķ ë³´
ë¬ ¼ë¦¬
Ġìĺģ ìľĦ
Ġ8 50
ê±° ìĦ±
Ġë¶Ī ê¸¸
ĠìĻķ ë¦ī
Ġì¹ĺ ë°Ģ
ìĬ¤íĬ¸ ë¦¬íĬ¸
ĠG en
ĠìĪľ ì°°
ĠëĤ´ë ª½ê³¨
íıī ê°Ģ
ìĤ¼ ì´Į
ĠCh urch
ìķ¼ë Ĥĺ
Ġëĵľëŀĺê³¤ ì¦Ī
Ġë°ĶëĤĺ ëĤĺ
Ġhtt ps
è §Ģ
ĮĢ ë¶Ģ
ìłķ ì§Ģ
Ġìłķ ê¸Ģ
ĠìĨĮ íı¬
ìľĦ ìĬ¤
ĠíĥĢ íĮĮ
ĠìĿĮ ìļ´
¥´ë Ĥĺ
Ġì¹´ë ĭ¤
íģ¬ë ĦĪ
ĠìĨ¡ ì§Ħìļ°
Ġìķħ ìĹŃ
ĠëıĮìķĦ ìĺ¬
Ġ29 0
Ġì¶ľë ³ĳ
ĠìļĶë ĤĺëĿ¼
ĠëĬĲëĤ Ģëĭ¤
195 5
195 7
ĠìłģìłĪ íŀĪ
æ° £
Ġâī« (
Ġì½ĺìĬ¤íĥĦíĭ°ë ĪĦìĬ¤
ĠBab y
à ½
Ġ amp
ĠëĮĢ ìĹ¬
ĠìĻ Īë
êµŃ ìŀ¥
Ġê³µ íıī
ĠíĮ »
ĠS ur
ĠìĹ´ ê±°
ëįķ ê¶ģ
ì¿łë °Ķ
ĠSt and
ë¬´ë ¡ľ
Ġì£¼ëĳĶ ì§Ģ
Ġæģ Ĵ
Ġíĸīíķ´ ì§Ħ
Ġëª¨ëĭĪ íĦ°ë§ģ
ĠæĮ ģ
Ġê¹¨ëĭ¬ ìĿĮ
Ġìľłê³µ ìŀĲ
ĠíķŃìĥĿ ìłľ
² Įë¦¬
ĠëıĦ ë³´
ìĨ Ł
ìłķ ëĭ¹
Ġì¶ľ íķŃ
Ġëª¨ ìĺĢ
Ġëª¨ ìĹ¬ë
ĠA ut
Ġë¶ģ ìĨ¡
Ġìĺ¨ ìłĦ
ìº ł
ĠìĬ¤íħĮ ìĿ´
¬¼ë ¡ł
ĠëĮĢë²ķìĽĲ ìŀ¥
ĠíķŃìĨĮ ìĭ¬
Ã³ n
ĠServ ice
o ft
ìĿ´ ë¦Ħ
ĠìĪĺ íĳľ
ĠëĤĺ ëĤł
Ġëĵ± ìĤ°
Ġìĺ¤ ìĬ¬ë¡ľ
Ġì§Ħ êµ¬
ìľł ê¸°
§Ī ìĵ°
Ġë§¤ ê¸°
Ġåħ ©
ĠæĿ ľ
ìĿµ íĿ¬
ĠëıĮìķĦ ìĺ¨ëĭ¤
ĠæĪ ¿
³´ë Ŀ¼
ĠæĻ ĭ
Ġë¡¤ íĶĮëłĪìŀī
Ġé» ĳ
ĠBo y
Ġíķ¨ë¶Ģ ë¡ľ
Ã §
Ġë Ľ
ĠìĿ´ ìĨĮë
Ġì§Ģ íļĮ
ì§Ģ ìĬ¤íĦ°
ĠëıĦ ìĭĿ
êµĲ ëıĻ
Ġì¡° ìľ¨
Ġêµ¬ ìķł
Ġê°ķ ê°Ģ
Ġê²° ìĭ¤
Ġë°ĺ ëĤ©
ĠF K
Ġíĺ¸ë ¥´
Ġì½ľë Ŀ¼ë
íıŃ ìĬ¤
ĠìĥĿë¬¼ íķĻìŀĲ
Ġëģ¼ ìĽĮ
Ġ185 3
ĠìĭľíĤ¨ëĭ¤ ëĬĶ
ĠæĽ º
Ġæ¥ µ
ĠìķĦë¯¸ íĥĢë¶Ī
ĠëĿ¼ìĿ´ìĺ¨ ìĬ¤
ĠìĦľê·Ģ íı¬ìĭľ
Ġê·¸ ê°Ħ
ĠìŀĲ ì¡´
Ġìłķ ì§ģ
ĠìĦ¸ ìĬ¤
ĠìĬ¤ íĮĢ
ìĬ Ŀ
Ġê²° íĪ¬
ĠìĽĲ ìĤ¬
Ġë°ĺ ìłķ
Ġì½Ķ ëłĪ
Ġì¶© ê³ł
Ġê¸Ī ê¸°
Ġê·¼ ìĦ¸
ĠìĹĲë ĳĲ
Ġìŀī ìĹ¬
ĠíĹĪë ĤľìĦ±
Ġê³Ħë £¡
ĠëĵĢ ìĹ£
ĠSh ow
Ġìľ¤ì¹ĺ ìĺģ
Âł Âł
Ġè§ ¸
l ine
ĠìĿĺ ëĮĢ
Ġìľ¼ë ľ¸
Ġë¶Ģ ìĹĮ
ìłĦ ìĦ¤
Ġæ ĳ
ĠìĬ¤ ìĹĲ
ìŀĳ ë¬¼
Ġë¹Ħ ìķ¼
Ġìĸĳ ìľĦ
ĠF il
Ġíķ© ìŀ¥
ĠìĬµ ëıĦ
Ġìĺ¬ëĿ¼ ê°Ī
íĺ¸ë ¶Ģ
Ġç´ °
ì¹´ë§Ī ìĵ°
Ġëĭ¤ ë¹Ħëĵľ
ĠìĿ¸ ìĬ¤
ĠëıĻ ì²´
Ġë¯¸ ìĬ¤ì½Ķë¦¬ìķĦ
Ġëªħ ì¤ĳ
Ġìŀ¥ ë¡ł
ĠíĶ¼ ì³Ĳ
ĠìķĮ ì¹¼ë¦¬
ĠëĦ¤ ë°Ķëĭ¤
ĠíĻ© íķ´
Ġìķħ ìĿĺ
Ġìľ¤ ëħĦ
Ġíŀĺ ìĵ°
Ġë§Įì£¼ ì¡±
ìĺ¬ë ł¸
ĠìĺĪë¹Ħ êµ°
Ġì¿¼ íĦ°
ĠìĿ¸ë¬¸ íķĻ
vel op
u es
ê¸° ìķ¼
ê³ł ìĭľ
ĠíĶĦë¡ľ ë°©ìĬ¤
Ġëħ¸ ìĹŃ
Ġì¹ľ íŀĪ
ĠO per
ìĬ¤íĬ¸ë ¡±
Ġê²¬ ì§Ģ
Ġ179 5
²Ħë Ŀ¼
Ġ183 6
Ġë©Ķëª¨ë¦¬ ìĸ¼
Ġíķ©ì³Ĳ ìĦľ
Ġíķ©ì³Ĳ ìł¸
ĠìĿ´ë§Ī ê°ĢìĻĢ
Ġëĭ¤íĸī íŀĪ
êº¼ë ²ĪìĹĲ
ë¥¼ëłĪ ìķĻ
4 3
ç ı
è į
ĠìŀĲ ê°Ī
ê°Ģ ì¡±
Ġìłķ ìĹŃ
Ġê²Į ìĿ´ë°į
Ġìĺģ ëıĦ
ĠìĹ° íķĺ
ĠìĥĿ íı¬
Ġì°¨ ìĺ¤
©Ķ ìĬ¤
Ġì¦Ŀ ë¥ĺ
ti m
ĠëıĮ ìĹ°
ĠìĶ¨ ë¦Ħ
Ġë§ŀ ëĭ¿
Ġê·¹ íļĮ
ĠO ver
ìĶ¨ ìĭĿë¬¼
Ġê¸°íĥĢ íģĲìĬĪ
ãĤ Ĭ
Ġê·ł ìĹ´
ìĦ¬ ìľł
Ġ184 4
Ġç¯ Ħ
ĠëłĪëĭĮ ê·¸ëĿ¼ëĵľ
Ġë§¥ìĬ¤ ìĽ°
Ġíķ´ìĪĺ ë©´
ĠìĹĩ ê°Ī
Ġë¡ľíİĺ ìĬ¤
i en
Ġíķľ êº¼ë²ĪìĹĲ
Ġìĺ¤ ì¦Ī
Ġë¹Ħ ê¸´
ĠêµĲ íķĻ
ĠíıŃ ì£¼
ĠíĻį ìĿµ
Ġë³¸ë Ĭ¥
ìĿ¸ë ĭ¨
Ġíľĺ ëĳĲ
Ġìķ¼ë §Į
Ġä½ ı
ĠëĤĺìĻĶ ìľ¼ë©°
Ġ184 7
ĠCar l
Ġè¾ Ľ
ç· ļ
ĠìĿ¼ì§Ħ íļĮ
G N
² ħ
ĠìķĦ ìĹŃ
Ġê´Ģ ìĽĲ
Ġìŀ¥ ì°¨
ìļĶ ë¥´
ĵ¤ ëłĪ
Ġíĺ¸ ìłĦ
Ġì´Ī ê³Ħ
ĠíķŃ ë¬¸
Ġì½Ķ ë¦°
Ġìļ´ ìĦĿ
Ġë°± ëĳĲìĤ°
Ġ13 00
ë§Īë Ŀ¼
ent s
ĠY oung
Ġìĺ¤ë¦¬ ìĹĶ
ĠìľłëıĦ íĥĦ
ĠìħĢ ëłĪìļ°
ob al
Ġè© ¦
ĠíĬ¸ëŁ¼ íİ«
Ġë´Ĳ ìķ¼
ĠíĥĦë ł¥
åĵ ģ
sy ch
ĠíĥĦìĪĺ íĻĶë¬¼
u f
Ġíķĺ ìĪĺ
ĠìĤ¬ ì¡°
ĠìķĦ íĺ¸
ê¸ į
Ġëįĺ ì§Ħ
Ġç ¡
Ġì¢ħ ìĭ¤
ĠM D
ĠM ay
Ġì²Ń êµ°
ĠR un
ĠíħĮ íĹ¤
Ġì½Ķë ¡ľ
Ġê²© ìĥģ
³Ģ ìĪĺ
ĠìĦľë¹ĦìĬ¤ ìĹħ
ĠìĪł ì§ĳ
Ġì¡°íķ© ìĽĲ
Ġì§Ħìłķ íķľ
Ġ all
ĠìĪĺ íĶĦ
ĠìłĦ ê·¹
ĠìłĦ ìķ¡
Ġì¤ĳ íķĻ
ĠíķĻ ê¸ī
Ġê±° íĴĪ
ĠA ug
ĠB O
Ġì²Ń ì¤ĳ
Ġë¹Ħë °©
Ġc ar
Ġê·Ģ ìĿ¸
ë§Īë ĪĦìĹĺ
Ġë²Ħë ĭĪ
ê²Ģ ì°°
ĠéĤ Ĭ
Ġçµ Ĳ
Ġìł¤ ë¦¬
į¸ë §ģ
Ġê±°ë¨¸ ì¥Ĳ
Y P
ìĤ¬ ìļ©
Ġì² ¼ë
Ġê²½ ëįķìĻķ
ĠëĿ¼ íģ¬
Ġëªħ ìŀ¥
ĠíĨµ íĤ¹
ĠëĿ¼ë ¯¸
Ġìĭ¤ ë¦°ëįĶ
Ġìľłë ¬¼ë¡ł
ê°ģ ê°ģ
ĠC lass
ĠìĤ° ìĪł
Ġì½Ķ ìĿ¼
ĠH IV
ĠN ot
ëłĪë ĭĪ
ĠìĶ ¨ë
Ġéļ ±
ê¹Ģë ıĻ
ĠìĹĶì§ĢëĭĪ ìĸ´ë§ģ
Ġíķ´ìĪĺ ìļķìŀ¥
ĠëĶĶëłī íĦ°
ĠìĲ Ĳê¸°
³ ¼ë
íĨ Ī
ëĮĢ ìŀ¥
ĠíĺĦ ê´Ģ
Ġìļ° ì¦Ī
Ġë°Ķë ¹Įë¡ł
ĠW eb
Ġë§ī ìķĦëĤ´
Ġëıħë¦½ ìĦłìĸ¸
ĠëłĪìĿ´ ê±´
Ġë°©ë¬¸ ê°Ŀ
ĠëĭĪë Ŀ¼
åĤ ³
Ġê¸° êµĲ
Ġê¸° ë¯¼
ĠìĤ¬ ìķħ
ìĤ¬ íĨł
ĠìŀĲ ìľĦ
Ġìłķ ë§¥
íķĺ ìĬ¤
ĠìĿ´ë ¬¸
ĠìĦ± ìŀĲ
ĠìĬ¤ ê¸°
Ġë¯¸ ì²¼
ĠìĨĮ íĥķ
ĠìĦľ ìķĦíĶĦë¦¬ì¹´
íĶ¼ ìĺ¤
Ġë¦¬ê·¸ ì»µ
ĠíĽĦë Ĥľ
ĠíĬ¸ë ¡ł
ë£¨ ìĿ´ìĬ¤
el y
ĵľë °±
łĪë ıĦ
um ber
ĠëĤ´ëł¤ ê°Ķ
íĮĶ ëłĮ
ĠìĤ¬ë²ķ ë¶Ģ
Ġëª¨íĦ° ìĤ¬ìĿ´íģ´
ĭ¤ ìŀĦ
Īë Ĥĺ
Ġìĭľ ìĦ±
Ġâ Ł
Ġíı¬ ì²ľ
ìĥ Į
íļ Įë²ķ
ĠG et
Ġê¸Ī ë¦¬
Ŀ½ ë¶Ģ
Ġì¿ ¨ë
Ġëī´ ìĺ¬ë¦¬ìĸ¸ìĬ¤
įĺ ìĬ¤
Ġë²Ħë °į
one y
Ġæ¯ Ķ
Ġíħľ íĶĮ
ĠìĬ¤íħĶ ìĬ¤
Ġëĭ¤ë§ĪìĬ¤ ì¿łìĬ¤
I O
ħ ľ
Ġëĭ¤ ì¹´ëĿ¼ì¦Īì¹´
ìŀ¥ ì¡°
Ġ20 7
Ġìĭł ê¶ģ
Ġê°ķ ìŀĲ
Ġë¦¬ ìķĪ
Ġëª¨ ì¡°ë¦¬
Ġíħ Ĳë
ĠF BI
ĠìĹ´ ê¸°
ĠG PS
ê´ĳ ìĦł
ì¦Ŀ ê¶Į
Ġë²łë ĭ¤
Ġæķ ı
ëı ¼ì§Ģ
oth er
ë¦¼ë ıĻ
ĠëıĻëĮĢ ë¬¸
Ġìŀ¬ë¹ ¨ë¦¬
ìĽ ¹
ĠìĹ¬ ê¸´ëĭ¤
íĸī ìĤ¬
Ġì§Ħ ìľĦ
Ġë¦¬ íĥĢ
Ġìĸĳ ë¶Ħ
ì½Ķ ë§Ī
Ġìº łë²¨
ĠìĭĿ ìĿ´
Ġë²łë ĵľë¡ľ
ch er
ĠìķĪë ıĦ
ĠíĦ°ë ľ¨ë¦¬
íĶĮë Ŀ¼ìĬ¤
ĠìłĢì§Ģ ë¥´
190 6
ĠìķĦìĦ¸ íĭ¸
ä¿ ¡
èĹ ı
ĠìĿ´ ì¦Īë
Ġê³ł ì·¨
Ġê³µ ì§Ģ
Ġê³µ íĽĪ
ĠìķĦ ì§Ģ
Ġç ĵ
ĠìĥĿ ëª°ëħĦ
ĠíĺĦ ì²Ń
la d
ĠF S
Ġë§Īë ¥¸
Ġì²´ ì§Ī
Ġë²ł íĭ°
Ġë¦¬ê·¸ ìłĦ
Ġë°± ìŀĲ
Ġíĸ¥ íķľëĭ¤
ìĪľ ì²ľ
ĠëĬ¥ íķĺ
Ġë¬ĺ íĺ¸
¸Įë Ł¬
Ġìķ¤ ìĦľëĭĪ
ìĭ¸ ìĽĢ
Ġ179 3
193 3
Ġ177 6
Ġìĺ¤ìĿ´ íĥĢ
ĠíħĮíģ¬ë ħ¸
ĠíĮĮìĬ¤ ì¹¼
ĠíĨµìĭłë ¶Ģ
ĠìĿ´ìĦ±ì§Ī ì²´
ìŀ¥ ê¸°
ë§ Ĳë¡ľ
Ġìĺ¤ ìļ°ì¹ĺ
ìĿ¼ ì¦Ī
ëĮĢ êµĲ
Ġìľł ê¸¸ì¤Ģ
ĠâĢ §
Ġê°ķ ìľł
Ġëħ¸ë §Ī
Ġë³Ģ ì¡°
ĠP ort
Ġêµ¬ë ¡Ģ
ĵľë ¥´
ĠìĤ°ë ıĻ
Ġì¶ĺ íĸ¥
ëĤ¨ë ¶ģ
Ġì£¼ë¨¸ëĭĪ ì¥Ĳ
ìĸ¸ë ¬¸
æĻ Ĥ
ìĿ¸íĦ°ë Ħ·
o on
Ġê°Ģ ìłĦ
ĠêµŃ ë¬´ë¶Ģ
Ġêµ¬ ìĿ¸
ì¦ Ĳë
ë² ¨ë
ì¹´ ì¦Ī
Ġê²° ì§ĳ
ĠãĢĬ "
Ġë¯¸ë ĶĶ
ĠëĭĪ ì¹ĺ
ĠëĭĪ ì¹´
Ġì¿ °
Ġíŀ Įë
Ġìŀ¬ë ³´
ìļ°ë §Ī
Ġìľłëªħ ìĦ¸
ìľłë ĭĪ
ĠìķĻ ìĥģë¸Ķ
Ġìłĳê·¼ ìĦ±
Ġê±´ëĦĪ íİ¸
ĠìĦ±ëªħ ìĦľ
Ġë¡¬ë°Ķ ë¥´ë
Ġë§ŀë°° ì§Ģë¶ķ
m in
ĠìĿĢ íıī
Ġê¸° ìķħ
ĠìĽĶ ê²½
ìķĦ íĬ¸
ëł ĺ
ê³µ ìĽĲ
Ġìĭł ìķĪêµ°
Ġíİ Į
Ġìļ° ìĹĲëħ¸
íİ ¸ë
Ġìĸĳ íıīêµ°
Ġëħ¸ ì´Ŀ
ĠíĶ¼ ì¹´
Ġì¦Ŀ ìĽĲ
ĠìĹ°êµ¬ ìĭ¤
Ġì¼Ģ ë¦¬
ĠíĥĦ ê´ĳ
ìĬ¬ë Ŀ¼ë¸Į
Ġëŀ ł
íĬ¸ë¡ľ íĶ¼
ĠíĿ¡ ìŀħ
Ġë²łë¥´ ìĤ¬ìľł
ë¸Įë ŀĺìĬ¤ì¹´
193 7
Ġíķĳ ê³Ħ
Ġæ¬ ²
Ġåĭ ķ
ĠNH L
ĠíŀĪë¡ľìĭľë§Ī íĺĦ
Ġê°ķë¦ī ìĭľ
Ġìº¡ íĭ´
ëıħë¦½ ëĭ¹
Ġë¯¸ìĭĿ ì¶ķêµ¬
Ġìŀłìŀ¬ë ł¥
æ ģ
ĠìĹĲ ì½Ķ
ĠëĿ¼ ì§Ģ
Ġë§Ī ìķł
íĤ¤ ë¥´
ĠíĺĦ ìĪĺ
ìķ¼ êµ¬
la t
Ġíıī ìĿĺìĽĲ
ĠëĭĪ ì¹´ëĿ¼ê³¼
Ġë¶Ħë ĭ´
Ġë´ī íĹĮ
Ġë³´ìĿ´ ì¦Ī
Ġì¶ľë £¨
id er
į°ë ĥĲ
Ġìķ¼ë Ĥĺ
Ġ179 2
ric k
ĠíĹ¤ë¥´ë §Į
Ġëĵ Ģë
ĠìĤ¬ ìĤ°
Ġë¯¸ ìĻĦ
Ġìľł ìĦ¸
Ġë°ľ ì·Į
Ġíı¬ ìĦŃ
Ġìµľ ê³łë
Ġì§ģ ê°ģ
ĠP ap
ì£¼ë ¶Ģ
Ġíĺģëªħ ê°Ģ
ì¤ Į
ĠSt ate
ĠëĤ´ëł¤ ìĺ¨
og raph
Ġíķłë ¡ľ
ìĬ¤íĭ°ë ¸Ĳ
ĠíŀĲ ìĬ¤
Ġë·° íĭ°
ĠìļĶìĭľë ¯¸
Ġëº ı
Ġì¼Īë ¹Ī
ĠíħĶëłĪë ħ¸ë
Ħ Ľ
Ġëĭ¤ ì±Ħ
ìĦľ ë©´
ìłĦ ì°¨
íķĺ íĬ¸
íķĺ ë¥´
Ġìĺģ ìĦ±
íĺ¸ íĶĦ
ìļĶ íģ¬
ĠëĤ¨ ìķĦ
ĠìķĪ ìĭľ
Ġíĥľ íĻĶ
ĠíĮĢ ìŀ¥
Ġì²Ń íĸĪ
ìĻĢ ë¦¬
Ġêµ¬ë ªħ
Ġ14 1
ĠG ar
ìĻķ êµŃ
Ġì²« ëĤł
ì± Ħë
Ġëĳ ĳ
ĠíĨł íĶĦ
Ġê±¸ ìĬ¤
Ġì¡°ë ıĻ
ĠìŀĲëıĻ ë³ĢìĨįê¸°
Ġê°Ģìł¸ ê°Ķ
Ġíİľ ìĬ¤
æľ ī
Ġêµ´ ìļķ
Ġíļ¨ë ª¨
ì»¬ë Ł¼ë¹ĦìķĦ
æ¨ ŀ
ë¸ĮëĿ¼ ì§Ī
ĠíĮĮë¥´ë §Ī
Ù Ī
ìľ łëıĦ
Ġíĥ Ń
ĠìĦ± íĺķ
Ġìĺ¤ ëŀĳ
ĠìķĦë ŀĮ
Ġìľł ê°Ĳ
Ġëª¨ë į¸ë§ģ
ĠëłĪ íĭ°
Ġë³Ģ ì²ľ
ĠL ittle
Ġì°½ ìĶ¨
ub e
ĠíĤ¬ ëŁ¬
ìĵ°ë Ħ¤
ĠèŃ ĺ
ĠíĭĪ íĥĢ
Ġëı¼ì§Ģ ê³łê¸°
Ġì¶Ķì¶ķ êµŃ
Ġë²łìĺ¤ ê·¸ëĿ¼ëĵľ
ĠìĿ´ ëĭ¬
ĠìĿ´ ìĶ¨
ĠëıĦ ìŀĲ
ĠëıĦ íĻĶ
ìŀ¬ íĻį
Ġëįĺ ìłĦ
Ġìĭ¤ íĥľ
ĠëĤ¨ ê²½
Ġì´Ŀ ìĪĺ
Ġì´Ŀ ìķ¡
Ġëħ¸ë Ŀ¼
es ter
ĠíĬ¸ë ŀ¨
Ġìļ°ìĬ¹ ì»µ
Ġì»¤ ìł¸
Ġìļ°ë ĮĢ
ĠíĹĪ êµ¬
Ġëĭ´ ìŀ¥
ĠëĩĮ ì¡¸
ĠìĬ¬ íį¼
Ġëŀľë į¤
ê±´ë ¬¼
Ġìĺģìŀ¥ ë¥ĺ
Ï ĥ
łë ²ĦëŁ¬
Ġì° Ķ
ĠìķĦ ìļĶ
ĠíĻĶ êµĲ
ĠìĽĲ ê³¡
ìłģ ë¶Ħ
ĠìĿĮ ìĹŃ
íħĮ ë¦¬
Ġì¤ĳìĭ¬ íķµ
ì£¼ë ĭĪìĸ´
Ġìķłë §¤
Ġëŀ ı
ĠíĶĦë¦¬ íĤ¥
ëĵ¤ ë¦¬
Ġê·¸ëŀĺíĶ½ ìĬ¤
ĠPar ty
ĠíĮ¨ëŁ¬ë ĭ¤ìŀĦ
Ġìĸ´ëĵľë °´
ì´Įë ıĻ
ĠRecord s
Ġë¦¬ìĸ¼ë¦¬ íĭ°
Ġíı¼íİĺìĿ´ ìļ°ìĬ¤
8 7
r um
z z
ë ķ
ĠìĿ´ ë§Į
Ġë¡ľ ë³´
ìĬ¤ íį¼
ĠìĤ¬ ìĿ´ëĭ¤
Ġì¡° ìĭľ
íĭ Ī
Ġé Ł
Ġç ĥı
Ġì§Ħ íķĺ
ĠíĥĢ ìĿ¼ëŁ¬
ĠìĦłìĪĺ ìĥģ
ĠD el
ĠI F
ĠìĤ´ íĶ¼
Ġ30 1
ĠìĨĲ ìī½
Ġìłĳ ìĭľ
ĠìķĪë į°ìĬ¤
ë²ł ë¦¬
ĠêµĲë Ĥ´
ĠèĪ ŀ
ĠìľĹ ë©´
ĠëıĮìķĦìĻĢ ìĦľ
ĠìĦľëĮĢ ë¬¸êµ¬
Ġì¤ĳìĦľ ë¶Ģ
. .
4 2
w are
ç ±
ĠìĤ¬ íķĺëĿ¼
ĠëıĦ ëĤľ
ì¹´ íħĮ
ì¹´ ìĵ°
ëıĻ ê²½
Ġë°Ķ ëĭĪ
ĠìĤ Ĳ
Ġì± ł
Ġê¹Ģ íĿ¬
Ġíķ© ìĤ°
ĠíĤ¤ ìĽł
íĭ°ë ³´
Ġì¢Į ì²ľ
ì»¤ ìļ°
ĠëĬĺ ëł¸
£¨ë ¯¸
Ġ38 6
Ġë³´ìĺĢ ìľ¼ëĤĺ
Ġì¶ľìŀ¥ ìĨĮ
Ġ183 7
ìĬ¤íĭ°ë ĭĪ
ĠíĬ¸ëĿ¼ ìķ¼ëĪĦìĬ¤
çĩ Ł
ëĵľëŀĺ ê³¤
ìł łë
Ġê² ¸ë
ĠìĿ¸ ìĤ¼
Ġíķ´ ì£¼
ĠêµŃ ë©´
ĠêµĲ íĨłë¶Ģ
íķľë Ĥĺ
Ġì´Ŀ ìĤ´
Ġì§ģ íķłìĭľ
Ġê´ĳ ì£¼ìĭľ
ë¯¼ ì£¼
ĠíĻ© íķĺ
ĠìĹ¬ëŁ¬ íķ´ìĤ´ìĿ´íĴĢ
ê·¹ ëĭ¨
Ġê·ľ ìŀ¥
Ġìķ¨ë ²ĦíĬ¸
ĠìĿĳ ëł¥
ĠìľĦë °°
Ġë°ĽìķĦëĵ¤ ìĿ¸
Ġíĺ¼ë ıĪ
ĠíĮĲë ĭ¤
ĠíĹ¬ë łĪëĭĪì¦ĺ
Ġæĥ ħ
Ġéĺ ²
èª ¿
ĠEd ward
Ġë¬´ì§Ģ ê°ľ
Ġ end
Ġê³ł ìļĶ
ìķ Įë¦¬
ìłķ ê¶Į
ĠìłĦ ì§ĳ
ĠìĿ´ë °Ķë
Ġæ Ľ°
Ġë³´ ë¦¬ìĬ¤
ĠìĦľ ê³¡
Ġë¦¬ ìĦľ
ĠëĤ´ ìĹŃ
ĠS n
ìĦ¸ ìĿ´ë
Ġë§Įë ĭ¤
ĠìĿ¸ë ĮĢ
Ġì¹´ ë¦¬ìĬ¤
íıī ëıĻ
ĠíĮ¨ íĩ´
om en
Ġìħ ´
id d
Ġåı Ķ
Ġå¾ ³
Ġë²łìĿ´ ì§ģ
Ġåĸ ®
ĠSp ec
ĠìłĦëıĻ ê¸°
æĪ °
Ġëį°ëł¤ ê°Ģ
Ġë²Ħì§ĢëĭĪìķĦ ì£¼
íĮ½ ìĿ´
ĠìĦĿê°Ģ ëª¨ëĭĪ
Ġé£ Ľ
Ġê±´ëĦ Ĳëª©
íĮĲë ³¸
Ġéī ī
ĠìĤ°ëĳ¥ ìĦ±
ĠíħĶëłĪëħ¸ë ²¨ëĿ¼
I E
ĠìĹĲ íŀĪë©Ķ
ĠìĤ¬ ìĺ¥
Ġìĭľ ê²½
Ġìłľ ìĭĿ
ĠëĿ¼ ìŀĦ
Ġìĺ¤ ë§Ī
ìĬ Ĳë¦¬
Ġë¶Ħ íĻįìĥī
ìļĶ ë¦¬
ĠM el
ĠìĤ° ìĿ¸
Ġê°ģ ê´ĳ
Ġì¦Ŀ ì§ģ
ĠI A
Ġéĩ ľ
ĠëıĮìķĦ ê°Ħ
Ġìĺ¬ëĿ¼ ìĺ¨
ĠQ ue
íķĻìĥĿ íļĮ
Ġä¾ Ĩ
ug h
Ġëª¨íĦ° ìĩ¼
ĠRes earch
ê° ĵ
ĠìĤ¬ ìĬ¤
ĠëĤĺ ëĤĺ
ĠìķĦ ìĹ´ëĮĢ
Ġë³´ ìĸ´
ĠìĦľ ìĹŃ
Ġëĭ¹ ë¶Ħ
Ġëĭ¹ ëªħ
ĠëĤ¨ íķ´êµ°
Ġì§ģ ê¶Į
Ġë²ł íħĮëŀĳ
Ġì²ł ê·¼
Ġë´ī ë¶Ħ
Ġì¤Ģ íķĺ
Ġíı´ë ¡ľ
Ġë²Ĺ ê²¨
ĠëĤ© íĴĪ
ë¸Įë ¥´
åĲ Į
ëı Ķ
ĠíĨµê³Ħ ì²Ń
æĿ ĳ
² Įë
ĩ ½
Ġëĭ¤ ìļ°
ìĭľ ìŀ¥
Ġìĭľ ì°¨
ìĨ ľ
ì£¼ ìĭĿ
ĠìĿ´ë ¤ĺ
Ġëķ Ģ
Ġêµ° ìĤ°ìĭľ
Ġìĭľë ¡ľ
Ġì§ģ ë¥ĺ
Ġë§Īë ıĦ
ĠD a
Ġm g
ĠìĻ¸ ê°Ģ
Ġë©Ķ ìĭłìłĢ
Ġìķłë ĭĪë
°Ģ ë¦¬ìķĪ
ĠëĬĲë Ŀ¼
Ġæ´ Ľ
Ġìĺ¤ë¦¬ ê±´
ìĬ¤íĭ° ìķĪ
Ġìĵ°ìĹ¬ ì¡Į
olog ical
åĬ Ł
ĠìĬ¤ìĻĢ íĶĦ
ĠìĿ´ìĺ¤ ëĭĪìķĦ
Ġì§Ģìŀ¥ ë³´ìĤ´
å± ¤
Ġë¬´ê¶ģíĻĶ íĺ¸
Ġì¹´ì§Ģ ëħ¸
° Ń
Ġìľ¼ë ¡ł
Ġê¸° ëĦ¤ìĬ¤
ìŀ¥ ìŀĲ
ĠêµŃ ìĤ°
Ġìľł ê´Ģ
on a
19 14
Ġìķ½ ìĪĺ
Ħ¤ ìĨĮìĬ¤
Ġíĳľ ìĸ´
Ġê´ĳ ëıĻ
íį¼ íĬ¸
Ġåħ ĭ
Ġê±¸ ì¹ĺ
ĠìķĪë ©´
Ġìľµ ê¸°
Ġê´´ë ¢°
åĪ ¤
Ġë¬¼ë¦¬íķĻ ìĥģ
ĠLou is
K A
ľ ¬
Ġíķĺ ë§Īë
Ġìĭľ ìĺ¨
ë¶Ģ ë¯¸
Ġæ ŀ
Ġë§Ī ì¸łë
Ġë¦¬ ìĸ¸
ìķ½ ìĬ¤
Ġê´ĳ íĻĶë¬¸
ĠëĴ¤ ëĶ°ë
ĠH ome
Ġê¸ī ìĤ¬
íĥĿ ìĥģ
Ġìĺ¥ ìĥģ
íĺ¸ë ıĻ
ĠëĵľëŁ¬ë Ĥľ
ĠìĿ´ì¹ĺ ë¡ľ
ĠíĶĮëŀĺ ëĭĽ
Ġì°¾ìķĦ ìĻĶ
Ġåĥ ī
Ġë¬´ëĦĪ ì¡Į
Ġìķ¤ëĵľë ¥ĺ
° ¥
°ë Ŀ¼
Ġìĭľ ìĭľ
ĠìłĦ ê³¡
ĠìľĦ íĥľ
ĠìķĦ íĶĶ
Ġìĺ¤ ëĭĪ
Ġìŀ¥ íĿ¥
ĠìĥĿ ìŀ¥
Ġìŀ¬ ì£¼
Ġìĸ´ë Ŀ¼
ê±´ ìłģ
Ġì¹ĺ íĤ¨
Ġíİĺ ëĵľë¡ľ
Ġë¯¸ë ħĢ
Ġc lass
ì§ķ ìĸ´
Ġì»¤ ë¦¬
ĠìĪĺëıĦ ìĤ¬
Ġíĺģëªħ êµ°
ĠíĪ ¼
ĠéĿ ľ
ĠëĤ¨ë¶ģ ì¡°
Ġë¹¼ìķĹ ê²¼
Ġë¶ĢìľĦ ìĽĲìŀ¥
ĠíıīíĥĿ ìĭľ
3 1
o ch
Ù ħ
ĠìĤ¬ ì²ľìĻķ
ìĭľ ê³Ħ
Ġê²½ ë§Ī
ë¶Ģ ëĮĢ
ĠëĿ¼ ìĿ´ëĵľ
Ġìĺ¤ ìĭľ
Ġë§Į ê¸°
Ġìľł ìĿµ
Ġì§ģ íķ¨
ĠD ou
Ġë°ķ ìļ©
Ġê´ĳ ìĭľ
Ġë¦¬ë Ĥĺ
Ġë°Ķë¡ľ ìŀ¡
íĿĲ íĬ¸
Ġä¹ ¾
193 1
ìºĲ ìĬ¤íĬ¸
íĭ¸ë łĮ
ĠìĬĲ ëłĪ
ìĹĲëĵľ ìĽĮëĵľ
Ġëħ¸íĬ¸ë ¶ģ
Ġì§Ģ ì¸µ
ĠëıĦ ì¹ĺê¸°
ĠëĿ¼ ìļ¸
ĠìĦł ìĸ¸ë¬¸
ĠìĦľ íĶĦëŀĳíģ¬
ĠíĽĦ ìĿ´
Ġíĸ¥ ë¡ľ
ĠJ our
íĻľ ìĦ±
Ġìļ°ë ĭĪ
Ġd a
ra y
ëĶ °
ĠìłľíĴĪ êµ°
Ġë°ĽìķĦëĵ¤ ìĿ¼
ëª¨ë ĭī
ìŀ¬ë ŀĢ
ì¤ĳêµŃ íķ´
OV E
ĠêµŃë¬¸ íķĻ
Ġë¯¸ìĭľê°Ħ ì£¼
5 9
v ille
¿ Įë¦¬
ħ ĦëıĦ
ĠìĪĺ ìĿĺ
Ġë² ħìĬ¤
Ġë¶Ī íıī
ì§ģ íķłìĭľ
ì½ °
ìĿĢ íķĺ
Ġë¿ Įëł¤
Ġì¤Ħ ìĺĢ
Ġg o
ĠìĿµ ìĤ°ìĭľ
Ġìĸ´ëł¤ ìļ¸
193 8
ĠìłĦì²ł ìĹŃ
Ġê°Ĳë§Ī ìĦł
ç¯ Ģ
Ġê¸°ë»Ĳ íķĺ
Ġìłķëª½ ì£¼
i j
Ġê¸° ê·¼
ìŀĲ ìľłë
Ġë¶Ģ ì²ľìĭľ
Ġë¶Ģ ìĹĲëħ¸ìĬ¤ìķĦìĿ´ëłĪìĬ¤
ìłķ ìłľ
Ġìĺ¤ ì°¨
Ġêµ¬ ìĭľ
Ġìľł ìĥģ
Ġëĭ¹ ìĤ¬
Ġìĭł ìĿµíĿ¬
Ġíı¬ êµĲ
ìļĶ ì½Ķ
Ĭ¥ ëł¥
Ġìĸ´ë Ķĺ
Ġë¯¼ ê°Ģ
ĠíĶ¼ ìĸ´ìĬ¤
íİĺ ìĸ´
ĠíķĦ ë¦¬ìĬ¤
Ġìłľë ³´
Ġê¸Ī ê´Ģ
Ġë¡Ŀ íŀĪëĵľ
Ġë¬´ìĤ¬ ìĭľ
ĠíĢĺ ìĬ¤íĬ¸
Ġëıĭ ë³´ìĿ´
ĠìĹ¬ì£¼ ìĿ¸ê³µ
Ġ id
ìĦľ ë¶Ģ
ĠëıĦ ëŁī
ìłĦ íķĺ
Ġìĥģ ìŀĳ
Ġêµ¬ ìĦĿ
íĤ¤ íĥĢ
íĥľ ì¢ħ
Ġë§¤ ì§Ī
Ġíĳľ ê²°
ì³Ĳ ìĦľ
ĠU l
ĠëĨį íĺĳ
Ġìľ¡ ë°ķ
Ġêµ°ë ¹Ħ
ĠìĥĪ íķ´
ĠìºĲ ì¹ĺ
ìĹĲë Ĥĺ
Ġíı´ëŀĢëĵľ ìĿ¸
li e
ĠéĽ ¨
ĠíĬ¸ë¦¬ ëĭĪ
ĠíĬ¸ëŀľ ì§ĢìĬ¤íĦ°
Ġê°ĳìŀĳìĬ¤ ëŁ°
è§ Ĵ
Ġë³´ëĿ¼ ìĥī
Ġê¸° íĺķ
ĠëıĦ íĳľ
Įë §Ī
Ġë¯¸ ìĹĲ
Ġíı¬ ì§Ħ
ĠìĦ¤ ê³¼
Ġì¹ĺ ì¤ĳ
Ġìłľë ħ¸ë°Ķ
ĠíĨł ìĿĺ
ĠìĦłê±° ìĿ¸ëĭ¨
Ġ22 1
ĠëĬĲë ĥ
ëĿ¼ë Ŀ¼
ĠçĽ ®
Ġê´´ë ©¸
ã ħ
į ©ìĿ´
Ġìĺ Ĳë¡ľ
Ġê³ł ëıħ
Ġì§Ģ ë°ĺ
ĠëıĦ ìķ¼ë§Ī
ìŀ¥ ìĪĺ
ìłĦ ì£¼
ëĭ ´ë
ĠëıĻ ë°±
Ġíķł ìĸĳ
Ġë¹Ħ ìĺ¬ëĿ¼
°ĺ íĬ¸
ĠìłĦë ŀĢ
ĠíĤ¤ ëĵľ
ĠëĤ¨ë °ĺêµ¬
Ġëħ¹ ë§Ĳ
Ġê´Ģì°° ìŀĲ
Ġç´ ħ
ĠCon c
AR T
ĠíĬ¸ë¡ľ ì¸łíĤ¤
Ġê·¸ëłĪìĿ´ ìĹĦ
Ġê·¸ëŀĺë¯¸ ìĥģ
) ,
x y
Ä «
Ñ ĩ
ĥ Ħ
ĠìĿ´ ìĦ¸ìĿ´
ë¦¬ ê°Ģ
ìķ Ĭ
ìĭľ ìķĦëĵľ
ìłķ ë³´ë¶Ģ
Ġì¤ĳ ìĿ¼
ĠìĦł íļĮ
ĠêµĲ íı¬
ĠF irst
ĠB B
ê¸ī ìĭľ
ĠL ab
ĠK ST
ĠíĶĦë¦¬ íģĲìĸ´
Ġìĥ¤ ë¥´
Ġíĥľìĸĳ ê´ĳ
Ġh a
ag ement
Ġë¸Į ë¦¬ìĬ¤
åı ¸
ĠìħĶ ì¸ł
Ġì¡°ë³ĳ ìĺ¥
Ġê·¸ëłĪê³łë¦¬ ëł¥
Ġë¸Įë¦¿ ì§Ģ
ĠìķĦì¹¸ ìĨĮ
æ ŀľ
ĠìĤ¬ ëª©
ĠëıĦ ëıħ
ĠìĪĺ ìĦł
íķ´ ë¦¬
ìĦ± ë©´
Ġë³´ ê·¸
ìĭł ê¸°
ĠíĽĦ ì¶Ķ
Ġë°° íĬ¸ë§¨
ĠM ont
Ġë¶Ħë ĮĢ
ŀĮ ìĬ¤
ìļ°ë ¥´
av a
Ġê±¸ë §ŀ
Ġ73 7
ĠëģĮìĸ´ëĵ¤ ìĿ´
Ġìĭľê²Įë £¨
ĠëĿ¼ì¿ł íħĲ
Ġì Ń
Ġë ·
ĠìĪĺ ê°ķ
ìŀĲ ëĤĺ
ĠìĦ± êµĲ
Ġë³´ ê¶Ĳ
ĠìĦł ìĦľ
Ġë§Ī ì·¨
Ġé ®®
Ġê°ķ ìĦľ
Ġëª¨ë ¥¼
Ġë°° ì§Ģ
ĠíķľêµŃ ëıħë¦½ëĭ¹
Ġë²Ħ ê±°
Ġì½Ķë Ķ©
ĠìķĮëłīìĤ°ë į°ë¥´
Ġê²ĮìĿ´ ìĺ¤
Ġèĭ ¦
Ġê¹ľ ì§Ŀ
T N
b a
u ter
¥ ê±°ë
ĠìĽ ľ
íķĺ ìĿ´ëĵľ
ĠìĬ¤ íĤ¨
Ġê´Ģ ìłĢ
ëĭ¤ ìĺ¤
Ġê°Ĳ ê¸°
Ġíļ¨ ìļ©
íĦ°ë ĦĪ
Ġìĸ¸ìĸ´ íķĻìŀĲ
Ġëħ¼ ìĦ¤
ĠìºĲë ħ¼
ĠíŀĪë¡ľ ë¶Ģë¯¸
Ġèģ ¯
Ġ179 1
Ġì»¬ë §ģ
ĠëĨįë¯¼ êµ°
èģ ĸ
ì°°ë ĮĢ
Ġìµľíķĺ ìľĦ
Ġì²¨ë ¶Ģ
n i
ê ¶Ī
Ġë¡ľ ëıĻ
ìĬ¤ íĭ±
ĠìĪĺ êµ¬
ĠëĿ¼ ìĬ¤íĬ¸
Ġìĺ¤ íĨłëª¨
Ġìľł ì°½
ĠìĺĪ ìĨį
ĠF r
ĠìķĮë ¡ľ
ou d
Ġìķł ì°©
ĠìĹ´ë §Ŀ
ĠìłĪë ĮĢë¡ľ
ĠìĿ´íķ´ ê´Ģê³Ħ
ĠìłķíĻķ ëıĦ
Ġì°¸ë °°
Ġì°½ìĹħ ìŀĲ
Ġâĳ ¡
Ġë§ŀëĮĢ ê²°
Ġë§ĪìĿĮë ĮĢë¡ľ
ĠìĿ´ ê²Į
ìĿ´ íĥĢ
Ġìłľ íķĻ
ĠìĦ± ë¶ģêµ¬
Ġë¯¸ ìĪĻ
Ġë§Ī ì´Ī
Ġë¹Ħ ì°¸
Ġìĭ¤ ë²ł
Ġìľłë ¯¸
ĠëĤ´ ê²Į
Ġì¶Ķ ìľĦ
Ġê´ĳ íĥĿ
Ġê°Ĳ íĥĦ
Ġì¶© ì£¼ìĭľ
ëª¨ ìĿĮ
ë©Ķ ìĬ¤
ì½Ķë ¡ľ
Ġ184 2
Ġì²´ë ¥´
ĠæĶ ¾
ĠíĺĦë ł¹
ĠCom mun
ì¿łìĬ¤ íĭ±
ĠìľłìĦ± êµ¬
Ġë¬´ëĦĪ ìł¸
Ġìĭľì¦Īìĺ¤ì¹´ íĺĦ
Ø ±
Ġíķĺ ìĤ°
ĠëıĦ ìłķ
ĠìŀĲ ìĹ°ë
ê°Ģ ì¿ł
Ġìłľ íĹĮ
ĠìĬ¤ ìĻĦ
ĠìĽĲ ìĥĿ
ìľł ìĹĶ
ĠíĬ¹ íĺľ
ĠíĥĢ íĺĦ
ìĹĲ ë°Ķ
ĠìķĮ íĶĦëłĪëĵľ
ĠíĶĮë łĪë
ĠëĭĪ ì²´
Ġì§Ģë°© ê´Ģ
ë¶ģ ìª½
Ġë¥´ ìĻĦëĭ¤
Ġëįķ ìĪĺ
ë© ĺ
ë© ķìĭľì½Ķ
Ġê²¬ íĽ¤
Ġä¸Ń æ¨ŀ
Ġæķ ¸
ĠèĪ ¹
Ġê¹Ģì¢ħ ì§ģ
Ġìĸ´ë¦¬ ìĦĿ
æĦ ı
Ġìª¼ ê°ľ
ĠíķĦíķĺ ëª¨ëĭī
çĿ £
íĻĶ ìĦ±
Ġíķ´ ìŀĲ
ĠìĨĮ ìłķ
Ġìĭł ê´Ģ
Ġêµ° ì§ĳ
ĠìķĪ íĨ¤
Ġì½Ķ ìĿ¸
Ġ17 2
ĠK D
ĠR os
Ġìĺ¤ë Ķĺ
Ġ21 2
ĠíĮĶ ëł¤
Ġê³Ħìķ½ ê¸Ī
ìĤ´ë Ŀ¼
Ġì¾ ¨
193 5
190 8
ĠìłĦë§Ŀ ëĮĢ
Ġìĭľê³µ ê°Ħ
Ġì«ĵê²¨ë Ĥĺ
ĠìĮįë°© ìļ¸
å¦ ĥ
ĠìķĶëª¨ë ĭĪìķĦ
Ġë¶ģë°ĺ êµ¬
á Ģ
ĠìĿ´ ìĦł
ì§ ±
ê°Ģ íķĺëĿ¼
Ġìłľ íĥĢ
Ġâ Ĺĭ
į° ìĺ¤
ĠêµĲ ë¬ĺ
Ġç §ī
Ġê³Ħ íĪ¬
Ġëª¨ ìĭĿ
Ġê²½ê¸° ëł¥
Ġä¸ Ļ
ĠíĬ¸ ë¦¬ìĬ¤
ĠìĦ¬ ê²¼
Ġê·Ģ ìĹ¬
Ġ21 5
ĠìĨ¡ ìĿ´
ĠëĤľ ìŁģìĿ´
Ġë§Ŀ ë£¨
ìĤ¼ ê°ģíĺķ
ess ion
Ġëį¸ ë¦¬
Ġçķ Ļ
ĠíĶĦë¦° íĦ°
©Ķë Ħ¤ìĬ¤
ìĺ¤ìĬ¤íĬ¸ ë¦¬ìķĦ
íķ ĢëŀĢëĵľ
Ġíķľ ê°Ģ
ĠìĻĢ íĥĢëĤĺë²ł
ĠìķĦë ¡ľ
Ġë¯¸ ì£¼
Ġë§Į ìĹ°
ĠìĹŃ ìĬµ
Ġíĺķ ê´ĳ
Ġíĥľ ìĥģ
Ġë¯¼ ìĥĿ
Ġê·¸ë¦¬ ëĵľ
ì²ĺ ë¦¬
Ġå® ħ
ëħ¸ë ıĻ
ĠìĬ¤íĥ łë
ĠëĤ¨íķľ ìĤ°ìĦ±
ĠëĿ¼ê·¸ë ŀĳ
ĠNet work
ìŀłë ¹Ħíģ¬
ĠìĪĺì¦Ŀ ê¸°
ĠìĿ´ ê²¬
ĠìĤ¬ ìĻĢ
Ġìĥģ ê°Ĳ
íŀĪ ê°Ģìĭľ
Ġëª¨ë ħ¸ë
Ġë¶Ħ ìĸĳ
Ġíı¬ ìĿ¸íĦ°
Ġë°° ìĪĺëŁī
Ġë¶ģ ìĥģ
ì²ľ ìķĪ
Ġìķ½ íķĻ
ĠìĹ´ íĴį
ĠK orean
Ġì²ľë ªħ
Ġê¸°ëıħêµĲ ìĿ¸
ĠìĿµ ìĤ°
ĠíŀĪë ħ¸
Ġì¹ł ê³¡
Ġìĩł ìķ½
å¾ ŀ
Ġìĵ°ìĹ¬ ìł¸
Ġìļ¸ë £¨
Ġê³łê³ł íķĻìŀĲ
Ġåģ ĩ
èĬ ±
ĠìĿ´ ìĥī
ĠìĿ¸ ì¶ľ
ĠìĽĶ ë¶ģ
ìķĦ ìĤ¬
Ġê²½ ë©¸
ì£¼ ìłľ
ĠìĦ¸ íĥĢ
ìŀĦ ìĪĺ
Ġë§Ĳ ìĨĮ
ĠëĳĲ ë¶Ģ
íĨł íģ¬
Ġê¶Į íķĺ
Ġíıī ìĥģìĭľ
ìķĦë ³´
Ġë³Ģ ìŀ¥
ĠD em
ĠìĤ¬ìĿ´ íģ´ë¡ł
Ġê·Ģ ìĸĳ
ĠíĥĦ ìĦ±
ĭ´ íļĮ
Ġæķ ¦
Ġëŀĺ ë¦¬
ĠíĽĪ ì¡±
Ġê±´ëĦĪ ê°Ķ
Ġíı´ë¦¬ ëĦ¤ìĭľìķĦ
ĠìĭľëĤĺ ëħ¸
ib le
ĠLC D
Ġíģ´ëĿ¼ìĿ´ë §¥ìĬ¤
Ġê³ł ê°Ī
ìĿ´ ì§ĳíĬ¸
ĠëıĦ ìĥī
Ġë°© ìĸ´ë
ìĸĳ ìĤ°
Ġë¬´ ìłķë¶Ģ
ìĹ° ìĿĺ
Ġê°Ħ íĮĮ
ĠL ang
ĠH MS
ĠíĻĺ ì´Ī
ĠìĥĪ ê¸°
Ġìķ¡ ìĪĺ
Ġìŀĩ ëĭ¬
Ġë²½ ë©´
éĥ İ
åı £
Ġìľłê²© ëĮĢ
ĠëıĦëĤĺ ìļ°
ì¶©ì²Ń ëĤ¨ëıĦ
ì§Ģë ¨¼íĬ¸
ĠìħĢëłĪìļ° ì½ĶìĬ¤
N C
ĠìĿĺ ì¢ħ
Ġíķĺ ì¹´íĥĢ
Ġë¶Ģ ëħĢ
ĠìľĦ ê·¸
ëł Ĳ
Ġæ ·¨
ĠìĬ¤ íĮħ
Ġë³´ ìľ¡
ĠêµŃ ëªħ
Ġê´Ģ ëĮĢ
ĠëĳĲ ìĬ¤
ê·¸ ë¦°
ĠìĤ° ì²Ń
ìķĦë ¹Ħ
Ġíķ© ì²ľêµ°
Ġì´Īë ĭ¹
ĠëĭĪ ìĬ¤íĬ¸
ĠU nd
Ġíĳ¸ íĭ´
ĠíĹĪë ĵ¤
Ġì¤Ģëĭ¤ ê³ł
ĠìĽĲìłķ êµ°
Ġî º
ĠíĥĢë ¸Ķë¡ľ
ì´Ŀë¦¬ ëĮĢìĭł
Ġìĸ´ì ¨
ĠìķĪíĭ° ê³łë
Ġë§ĪìĿ´íģ¬ë¡ľ íĶĦë¡ľìĦ¸ìĦľ
Ġêµ¬ì²Ń ìŀ¥
ĠêµĲì§ģ ìĽĲ
ĠìĤ¬ë¥´ë į°ëĥĲ
ìĭłìłķ ë³Ģ
ìĦ ¼ë
ĠìĿ¼ ì£¼
ĠìŀĲ ì½Ķë
íĻĶ ê°Ģ
Ġë³´ íĽĪ
ĠìĹŃ ëª¨
ĠíĮĮ ê²©
Ġìµľ ìĪľ
ĠìļĶ ìħī
ì½Ķ ìĬ¤íĬ¸
Ġì§ĳ ìĸ´ëĦ£
ĠP R
Ġìķ¼ íĸīìĦ±
Ġì²ľ êµ¬
ĠR iver
ĠíĻį ìĦ±
Ġp re
Ġëĭ´ë ¡ł
łī ìĬ¤
Ġì°© ìķĪ
Ġ184 1
Ġì§ĢëĤ ľëĭ¤
ìķĮë Ŀ¼ë
Ġ183 2
Ġì°¸ëª¨ ìŀ¥
ĠìĥģìĨį ìĿ¸
ĠNA D
§ĲëĿ¼ ìķ¼
æµ ģ
ĠìºĦíĮĮëĭĪìķĦ ì£¼
ĠëĩĮì¡¸ ì¤ĳ
u el
Ã º
ĠëĲĺ ìĤ´
Ġå ²³
ĠìĦ± ìłľ
ĠìĹ° ìľł
Ġë¯¸ ìŀĲ
ĠíĻĶ ë¶ģ
ĠíķĻ ëıĦ
Ġë¦¬ ì§Ģ
Ġë¦¬ íı¬íĬ¸
Ġë¶Ħ ìŀ¥
Ġë°Ķ ì¿ł
Ġì´Ī íĮĲ
Ġíĳľ ìĥģ
ì¹´ë ²ł
Ġê³¨ ìĪĺ
Ġíĭ° ìķĦ
ì½Ķë įĶ
ĠSt ation
ãĤ ¯
åľ Ł
Ġ179 6
ĠèĹ Ŀ
ĠìĽħ ì§Ħ
Ġì²ľìĹ° ê°ĢìĬ¤
Ġê·¸ëŁ¬ë ©´
Ġë²µ ê³¨
Ġë¹łìł¸ëĤĺ ê°Ģ
¥ê±°ë £¨
Ġëĭ¤ ì§Ģ
Ġê°Ģ ë³Ģ
ĠìĤ¬ íĿĺ
ĠìĪĺ ëłµ
Ġê³µ íķ´
ĠìķĦ ìķ½ìĬ¤
Ġæ ¨¹
Ġì¢ħ ëĭ¨
ĠC OM
ë¯¸ ìķ¼
Ġëħ¸ ìĹĺ
ĠëĦ¤ ë¸ĮëŀĺìĬ¤ì¹´
Ġë©Ķ ìĿ´íĬ¸
Ġë²ł ê°Ģ
ĠN S
Ġp ol
łĪë °ĺ
Ġìķ¼ë §Īëĭ¤
ĠRe p
Ġç¶ ±
ĠìĹī ëį©ìĿ´
ë²łìĿ´ ê±°ìĬ¤
ëĶĶì§Ģ íĦ¸
ĠìķĪíĭ°ìĺ¤ íĤ¤ìķĦ
Ġë³´ëĤĺ íĮĮë¥´íĬ¸
I ST
k er
ë ĥī
ĠìĹĲ ëĿ¼
ĠìĹĲ íĶ½
ĠìĤ¬ ê°Ģë¯¸
ìłĦ ìŀĳ
ì¹ĺ ìĽĲ
Ġæ ŀľ
Ġé ·
Ġë°ĺ ìĹ´
¼ë¦ ½
Ġì¶© ë¬´
Ġë¯¸ë ¬ĺ
ĠíĬ¸ë ¡¤
ĠìºĲë ¡¤ëĿ¼
Ġê°Ģê¹Į ìĬ¤ë¡ľ
ĠåĪ Ĺ
Ġê¹Ģë įķ
Ġëĵ±ë¡Ŀ ê¸Ī
Ġ39 0
Ġê³µê¸° ìĹħ
ĠíĢ¸ ìĬ¤
çĽ ®
Ġê±´ë¥Ń ìłľ
æ· ¸
ĠìŀĲìľłë¯¼ ì£¼
è ¬
é ¦
Ġë¡ľ ì§Ģ
ìĥģ ëıĦ
ĠìķĦ ìĤ°ìĭľ
íķĺ ë¦¬
Ġíĥ ¬
ĠìĹ° ìŀĦ
Ġë°ľ ìĹ´
Ġìŀ¥ ëł¹
¬¸ ê³ł
ĠëĤ¨ ì¡°ìĦł
ĠC amp
ì» ¨ëĵľ
Ġì¡´ ìĹĦ
Ġk r
Ġë´ī ìŀĳ
ĠíĴį ê¸°
Ġíĩ´ ìĤ¬
ĠìĹ¬ê°Ŀ ìĦł
Ġê¸°ë¶Ģ ê¸Ī
Ġçļĩ åĲİ
Ġëĵ¤ìĸ´ìĻĢ ìĦľ
Ġìºħ ì¹´ìĬ¤
8 5
Î º
ī ìĬ¤
ĠëĮĢ ë§Ī
ĠëıĦ ë¶Ģ
Įë į°
ĠìĻĢ íķ´
ìĽĲ ìŀĲ
Ġìŀ¥ ìĦľ
Ġf e
ĠíĻĺ ê¸°
¸Ķ ë¦°
Ġëª¸ ì§ĳ
ãĥ »
Ġê³¼ë ¶Ģ
Ġìŀĩ ëĶ°ë
Ġ180 6
Ġê±¸ë ¡ľ
ĠíĬ¸ëŀľ ìĭ¯
ĠíĽĦìŀĦ ìŀĲ
¦¬ë Ħ·
ĠíĺĪìķ¡ íĺķ
ĠìĭľìķĦ íĮĮ
ĠëĶĶëłī íĦ°ë¦¬
çµ ±
è± ¡
íı°ë Ħ¤ìĨĮìĬ¤
7 6
ĠìĿ¼ ê°Ħì§Ģ
¯¼ ìłķ
ë° ĭ
ĠìĦ± ë¶Ģ
ĠìĬ¤ íħĲ
ĠìĬ¤ íĭ±
ĠìĨĮ íĻĢ
Ġê°ķ ì§Ħ
Ġê±° ìķ¡
Ġëıħ ìĭ¤
ĠF er
ic o
ĠJ ac
ĠìĤ°ìĹħ ëĭ¨ì§Ģ
ĠíĶ¼ë ĵľë°±
ĠíŀĪë ¸Į
ĠìŀĶ ì¹ĺ
ĠìĹ´ëł¸ ìľ¼ë©°
Ġæ¢ Ŀ
Ġë§¤ëĭĪ ì§Ģë¨¼íĬ¸
ĠPr es
Ġëª¨ëħ¸ ìĿ´ëĵľ
ëĸ ¨ìĸ´
N H
Ġë Ł°ë
ĠìĦ¸ êµ°ëĭ¤
Ŀ¼ë Ŀ¼
Ġë§Ī íĶ¼ìķĦ
ìŀ¬ ê¸°
ìĺ¤ ë¦°
ĠëĳĲ ê»į
Ġíĺ¸ êµŃ
ĠìķĪ íĨłë
ĠF F
ĠP H
ĠH all
Ġêµ°ë ¬´
ĠìķĶ ì´Ī
ë°ķ ìłķ
Ġë¨¸ íģĲë¦¬
Ġë¶Ħë¥ĺ íķĻ
ĠíķĻìĥĿ íļĮ
ìĭłë ıĻ
ĠëĳĲë įĶì§Ģ
ĠåĿ Ģ
ĠëħĢ ìĦĿ
ĠìķĪëĵľë¡ľ ë©Ķëĭ¤
Ġíģ¬ëłĪ íĥĢ
Ġëĭ¨ê¸° ê°Ħ
ĠCor por
ĠìĻ¸ë¬´ ìĦ±
ĠHen ry
¡ľ ìĿ´ëĵľ
ĠìĬ¤ ë§¥
Ġìĺ¤ êµ¬
Ġìľł ê³Ħ
Ġìľł íıĲ
Ġç ¥Ĳ
ĠìĽĲ ìĪł
ìĺģ ì£¼
Ġë§¤ ë²Ī
ĠìĬ¹ ë§Ī
ĠP an
es tiv
ĠìĦłë į°ìĿ´
id th
Ġìĥ¤ ë¥¼ë
Ġë³´íĺ¸ êµ¬ìĹŃ
ĠIn f
ĠíıīíĻĶ ìĥģ
ĠìĮĵ ìĹ¬
Ġê°Ģìŀħ ìŀĲ
Ġì£¼êµĲ ì¢Į
Ġëħ¸ìĬ¤ ì¼Ģ
Ġê½ Ŀ
Ġæĩ ¿
ĠCO V
Ġå¶ º
Ġë§Īê·¸ëĦ¤ ìĬĺ
â Ī
æ İ
Ġê°Ģ ìļ°ìĬ¤
Ġë¡ľ ìĭľ
Ġë°ľ ìĨ¡
ìĺ¤ ë°į
Ġê°ķ êµ¬
Ġì´Ŀ ì²´
ĠìĨĮë ıĦ
ĠìĨĮë ¶Ģ
Ġê´ĳ ê²½
Ġc ell
Ġ23 8
Ġìĸµ ë¥ĺ
êµ¬ë ıĻ
Ġë¹Įë ¯¸
Ġì¹Ń ê¸°ì¦Ī
Ġì°¬ íĥĪ
Ġëļ ±
Ġëħ¸ëıĻìŀĲ ëĭ¹
ĠSp ort
Ġíķľìłķ íĮĲ
ĠìĦ¸ë¥´ ê²ĮìĿ´
Ġåĵ ģ
éĽ ²
ĠìķĪíĨłëĭĪ ìļ°ìĬ¤
ĠìĦľëĤ¨ ìª½
Ġìĭľë¯¸ ì¦Ī
ĠìĹĲ ëłĪë
ìĬ¤ ìĽ¨ëį´
Ġìĭľ ì£¼
ĠëĿ¼ ìĤ¬
Ġë³´ ìļ°
Ġíİ ľë
ĠìĽĲ íķľëĭ¤
ĠíĥĢ ìĺ¤
19 25
in us
Ġì²ľ ë¦¬
ĠìĦ¸ë ¡Ģë
ĠíĤ¤ ì¹ĺ
ĠëĨį ìŀĳë¬¼
Ġê¸ī ìĬµ
Ġê·¼ ìľĦ
ĠæĿ ¿
et s
ĠìĹĺ ë¦¬ìĬ¤
Ġå° Ĭ
ri p
ĠåĽ ŀ
ĠíķĺìĿ´ ìĽ¨ìĿ´
Ġre g
Ġëª¨ìĹ¬ ìĦľ
ìĹĲìĿ´ íĭ°ë¸Į
IN G
ĠìĦľë¶ģ ìª½
Ġë³´íĸī ìŀĲ
ĠìĿ´ ìĬ¬
Ġë¡ľ ìĬ¤íĬ¸
Ġìłķ ê³µ
Ġæ ¢ħ
Ġìĺ¤ ìĬ¤íĬ¸ë¡ľ
Ġë¶Ħ ê°ľ
íĺ¸ ë¦¬
ĠìĦ¤ ìĤ¬
ĠM E
la m
Ġë³¸ ê¸°
ìĿĢ íĩ´
ĠìķĶ ìĬ¤íĬ¸ë¡±
Ġì½ĺ ìħī
ë¹ Įë
ĠëłĪë Ĥĺ
ĠíĥĪ ë¦¬
Ġë£¨ë ¨¸
°ķ ì¥Ĳ
ìłł ê°Ģ
ëłĮ ìĬ¤
Ġìı ľ
ĠìŀĳìĤ¬ ê°Ģ
ĠìħĶ íĭĢ
ĠìľłëĭĪë²Ħ ìĭľìķĦëĵľ
Ġëł¤ëĭ¤ ê°Ģ
ĠìĥģíĮĮ ìļ¸ë£¨
ĠEurope an
Ġìĺ¤ ìĽ¬
Ġ' -
Ġë¦¬ ìĺ¨
ĠìĿ¼ë³¸ ìĦľê¸°
Ġìĸĳ ëıĻ
Ġì¶Ķ ê¶ģ
ĠëĮĢíķĻ ìĤ´
Ġì´Ŀ íķĻìĥĿíļĮ
Ġ14 2
ĠëĪ Į
ĠìĨĲ ë°Ķëĭ¥
Ġê¸ī ê¸°ìķ¼
ë²Ħ ë¦¬
Ġê°ĸ ê°Ģì§Ģ
Ġëĵ¤ìĸ´ ìĦł
ĠìľłëŁ½ ìĹ°íķ©
ìĵ° íĤ¤
Ġê¸°ëħĲ ìĤ¬ìĹħ
ĠíĽĦë°ĺ ë¶Ģ
Ġì´ĪëĮĢ ì¹Ń
ì§Ħë ²ķ
Ġì¹ľë ª©
Ġå¢ ŀ
ìłĦëĿ¼ë Ĥ¨ëıĦ
ĠìĬ¤ë§¥ ëĭ¤ìļ´
D C
° ¤
ç Ĳ
ĠìĹĲ ìĸ´ë
Ġë§ ¨ë
Īë Ł¬
ĠìĻĢ ìĿ´ìĸ´
Ġê³µ ì§ģìŀĲ
ìłľ ê³±
Ġëªħ ë¥
Ġë¦ Ħ
Ġë¶Ħ ìĩĦ
Ġê±° ìłľìĭľ
ĠM aster
19 21
19 17
Ġì´Ŀ ìĥĿìĤ°
Ġë°ķ ì°¬
Ġì½Ķ ëĭĪ
ĠìĤ¬ìĿ´ ê³µ
Ġë¿ Į
ĠìĬ¤íĥĢ ì¦Ī
Ġìķłë ²ĮëłĪ
íĤ¨ ìĬ¨
ur es
ĠY ear
Ġê²¬ ìĬµ
Ġíģ¬ë¦¬ìĬ¤ íĥĪ
¹Ħë ħ¸
°Ķë Ĥĺ
å° Ļ
ĠìŀĲìĿ´ìĸ¸ íĬ¸
âĸ ³
Ġéº Ł
Ġì§Ģíıī ìĦł
ĠìĤ¬íĥķ ìĪĺìĪĺ
íĥĢê³łë Ŀ¼ìĬ¤
Ġíķĺ ìĪľ
Ġê³ł íķ´
Ġíķľ ì°¸
ĠëĮĢ ë¨¸ë¦¬
êµ¬ ê¸Ģ
Ġê²½ ë¹ĦëĮĢ
Ġìĥģ ê³Ħ
Ġê°ľ ë¦¬
Ġìĺ¤ ë²Ħë
Ġë¦ °ëĭ¤
Ġìĭ¤ ìĬµ
Ġìĸĳ ìłķ
ĠíĤ¤ íĥĢ
ĠìĦĿ ìĥģ
Ġì·¨ íķľëĭ¤
ĠíĹ¤ ìĹĦ
Ġì¿ł ìĤ¬
ĠíĮ¨ë ĵľ
Ġåį ·
ĠìĬ¤ì¼Ģ ì¤Ħ
ë²łë ¥¼ë¦°
ĠìĤ¬ëĭ¤ íķĺë£¨
Ġíĥľê·¹ ê¸°
Ġê³ł ëĭ¤ìĿ´
ĠìĹ¬ ìĥĿ
Ġëªħ ìĿĢ
Ġë°ľ íĦ°
ĠëĦ ī
Ġê²° íĥģ
ĠìĽĲ ê°Ģ
ë§Ī ìĵ°
in es
ĠìĨĮë ŀĢ
Ġì¼ Ģë¡ľ
Ġì½Ķë į±
Ġì¤ĳìķĻ ìłķë³´ë¶Ģ
Ġíĸīìłķ ê´Ģ
ĠíĴį ìĪĺ
Ġìµľë ¶ģ
ĠìĽ¨ ìĬ¬ë¦¬
Ġë¶ĪëłĢ ìľ¼ë©°
ĠíĺĦë ªħ
Ġê°ľë§ī ìĭĿ
æĺ Į
Ġçĩ Ł
Ġë§Īìļ´ íĭ´
ìį ¬
ĠëŁ¬ìĦľ ëĬĶ
ĠëĮĢì£¼ ì£¼
ĠëıĹ íĨłë¦¬
Ġê°Ģ ëĶĶìĸ¸
ê· łë
ĠìĨĮ íĶ¼
Ĥ´ ë¦¬
íĹ Ĳ
Ġë§¤ ìĽĶ
Ġë§¤ ì¶ĺ
Ġë¬¸íĻĶ ìĤ¬
Ġë¦¬ë ħ¸
Ġíļ¨ ìĦ±
ĠíıĲ êµĲ
ak er
ĠëıĻìĿĺ ìĸ´
ì¸łë ¶Ģë¥´íģ¬
ê¶Įë ł¥
ë¯¸ìĤ¬ ìĿ¼
Ø§ ÙĦ
Ġì¡°ê³Ħ ì¢ħ
ĠìķĦìļ°êµ¬ ìĬ¤íĬ¸
Ġë³ĳë§Ī ìłĪëıĦìĤ¬
Ġè½ ī
N GC
g es
Ġê°Ģ ëĬ
Ġê³ł ì¦Ŀ
ìĿ´ ê³³
ìĭľ ìĦ¤
ĠìĪĺ íĻĶ
ĠìĹ° ìĸ´
ĠêµĲ ì£¼
Ġê³Ħ íĮĮ
ì¹´ ìĭľ
ì¢ħ íķ©
ê±° ë¦¿
Ġíĺ¸ ì§Ģ
Ġíĥľ ìĦ¸
ĠF in
Ġë³Ģ ë°©
ĠB a
Ġì²Ń ìĿ¼
Ġë²ł ìĿ´ë¹Ħ
ĠìĦ¼ íĥĢ
łĪë ¸Ĳ
Ġíĩ´ íĻĶ
ĠY M
Ġê·¸ë¦¬ìĬ¤ëıĦ êµĲ
ĠìĪĺìĪĺ ë£Į
Ġìĺ¤ë¹Ħ íĥĪ
ĠíĨłìļĶ íĥĢ
ë ·°
ĠëıĦ ì§ĢìĤ¬
Ġìĸ´ ì¿łìĬ¤íĭ±
ìĪĺ ìĺģ
ĠëĿ¼ ìĭľ
Ġê¹ Įëĭ¤
íĮ į
ì¡° ìķ½
Ġìŀ¥ ê²½
ìĨĮ ìĭľ
ĠíĽĦ ìĭł
ĠS ol
ëĤ ľë
er ing
ì¤ĳ ìĭ¬
ĠìĿ¸ë ħ¸
Ġê¶Į ìĦ¸
ĠíķŃ ëª¨
ĠD own
Ġì¹ĺ ìĪĺ
al s
Ġì¤Ģ ìľĦ
Ġíķµ íıŃíĥĦ
ĠìłĦê¸° ìŀ¥
ri b
Ġëį°ìĿ´ë ¹Ĺ
Ġì¢ĭìķĦ íĸĪ
Ġæķİ èĤ²
Ġë¯¼ì¡±ì£¼ìĿĺ ìŀĲ
íķĦë¦¬ íķĢ
Ġè¥ Ħ
Ġì¶Ķë°Ģ ìĽĲ
U SS
Ġ ×
Ġíķĺ ëª¨ëĭĪ
Ġê³ł ìķķ
êµŃ ë¯¼ëĭ¹
Ġ20 8
Ġ" '
ĠìĦł ì§Ģ
ĠìĨĮ íģ¬ëĿ¼íħĮìĬ¤
ì²´ ìĸ´
ĠC B
ĠìļĶ ìĭľìķĦíĤ¤
ĠT BC
ĠëĶĶ ìķĦìĬ¤
Ġë²Ħ ë¦´
ì¿ł ì¹ĺ
Ġì¼Ģ ëıĦ
Ġå® ľ
ë§Īë ıĦ
Ġê³µìĤ¬ ê´Ģ
Ġéģ ¼
ĠìĽħ ìŀ¥
ëĭī ìĬ¤
ĠìŀĬ íĺĢ
Ġë¶ģê·¹ íķ´
Ġìłķìľł ìŀ¬ëŀĢ
ĠéĨ «
ĠëĮĢ ìłķ
ĠìĤ¬ ê³Ħ
ìĽĲ ëıĻ
ĠíĻ Ģëĵľ
Ġìŀ¥ íĥĿìĥģ
Ġíĺķ ë¬´ìĨĮ
ĵ¤ ëŀľëĵľ
ìķĦë ŀį
ĠíĽ ħ
Ġì²Ń íĥģ
íĿ °
Ġêµ¬ë Ĥĺ
íĶĦë ĭĪ
Ġë³¸ë ĭ¹
Ġìķķ ìĨ¡
Ġ40 1
ĠëĤ´ëł¤ ëĭ¤
ë© Ķëĵľ
Ġìŀĩ ëĶ°ëĿ¼
Ġê²¨ìļ¸ ì²ł
ĠìĦľê¸° ìŀ¥
ĠìĬ¤íĥĢë ĵľ
Ĥľë ıĦ
Ġì·¨ìķ½ ìłĲ
Ġë£¨íĦ° êµĲ
ĠçĤ ³
Ġíģ´ëĿ¼ë ¦¬ëĦ·
ëŀľ ìĦľ
ĠìĿ´ìĻĦ ìļ©
ĠìĦľëĳĺ ëŁ¬
ë ĪĦìĬ¤
Ġ ed
ìŀĲ ìľĦëĮĢ
íĥĢ ëĭĪìķĦ
ìĬ ´ë
ìĹ¬ ì§Ģ
Ġìłľë ¹Ħ
ĠëĤ¨ë ¡ľ
Ġìķħ ìĸ´
Ġíķľë ıĦ
ĠìĹ´ë °ĺ
Ġë¹Ħíĸī ëĮĢ
ĠëģĬ ìĿ´
Ġ183 5
Ġê¸¸ë ²ĦíĬ¸
ĠíĨłìĬ¤ ì¹´ëĤĺ
Ġì´Īê³ł ì¸µ
Ġê³µìĸĳ ìĻķ
3 4
ĠìĿ´ ì§ĢìĬ¤
Ġê°Ģ ìĿ´ë
ĠëĮĢ ìĦ¸
Ġíĺ ľë
ĠìĦ± ì±Ħ
Ġìĺģ ìŀ¬
Ġë¹Ħ ìļĺ
ĠìĹŃ íĸī
Ġç Ł
Ġë¬¸ êµĲ
Ġè ·
Ġë¯¼ ìĿĺìĽĲ
ëĭ¹ ì´Ī
Ġë§Īë ¡ľ
Ġì¹´ ìĿ¼
íļ ¨ë
Ġì¼ Ĳ
ĠíĤ¤ ìĽĮëĵľ
Ġì¿łë §Ī
Ġëª° ìŀħ
Ġëı¼ ìĦľ
Ġíı¬ìľĦ ìłĦ
Ġíķ´ìĦ¤ ìŀĲ
Ġëª©íı¬ ìĭľ
ê¾ ¼
ĠìĥģìĦ¸ íŀĪ
ĠëĮĢê°ģ ìĦł
ĠíĬ¸ë£¨ë ¨¼
ì ©į
ìĬ¤ íĥķ
ĠëĮĢ ìĹ´
Ġê¸° ì£¼
Ġì£¼ ìĬ¤
ĠëıĻ ëĳĲ
ĠìķĦë ªħ
Ġ- >
Ġë¹Ħ ê¸°
Ġíķ¨ ìĿĺ
ĠíķĦ ê¸°
ĠìĪľ ìłķ
ĠU K
Ġìľ¤ ë¦¬íķĻ
ê¹Ģ ìļ©
Ġê°ĳ ìĺ¤
ĠìºĲëĤĺëĭ¤ ìĿ¸
Ġìĺ¬ëŀĲ ìľ¼ëĤĺ
ĠìĪŃ ìĭ¤
190 7
Ġth at
Ġè£ ķ
ĠìĦ¸ë¡Ģë ªħ
į ľë
ĠìĪĺ ë¥ĺ
Ġë¶Ģ ìľ¤
ĠìķĦë ŀĳ
Ġêµ¬ íĨł
ìĿ´ë ŀĢ
Ġìµľ ìļ©
ëĤ ¨ëĮĢ
ĠT O
ĠìĤ° ìĭł
ĠìĨį ë³´
ĠìĿĮ ìĸĳ
ìķĦë ĪĦ
ìķĦë łĪìĬ¤
Ġíķ© ì²´
Ġë²ł ì»´
Ġëĭ¤ìĭľ íĶ¼
Ġêµ°ë Ŀ½
Ġìķłë ĵľ
°ķ ìĬ¤
Ġçİĭ åĲİ
Ġå¸ ĥ
Ġèģ ²
Ġê³µíĻĶ ì£¼ìĿĺ
Ġíģ´ëĿ¼ ìĿ¸
ĠëıĮëł¤ ì£¼
ê¶¤ ëıĦ
ĠéĬ ħ
ĠíĻī íĤ¨ìĬ¤
ê»į ì§Ī
ëħĦë ĭ¨
ĠìĦľìĬ¤íİľ ìħĺ
Ġíķĺ ëıĻêµ°
Ġíķ´ ìĿ¼
Ġíģ ¼
ë² ĪëĩĮ
Ġ7 20
Ġíı¬ ì²ľìĭľ
Ġìŀ¬ ìĽĲ
Ġì¹ĺ ê°Ģ
Ġìļ© ìłĳ
ĠëĭĪ íĬ¸
ĠìĨĲ ì±ħ
Ġ23 1
ìĬ¬ë ¡ł
ĠìŀĲìĹ° ì£¼ìĿĺ
ĠíļĮë ¶Ģ
Ġå¯ Ł
æľ ¨
ĠëıĻë¶ģ ìª½
ĠìŁģ ìłĲ
Ġë°ĺê³µ ì£¼ìĿĺ
P M
l ish
w ood
Ĥ ±
Ġìĸ´ ìĿ´
ì£¼ ìĿ¸ê³µ
ĠìķĦ ì¼Ģë
Ġìĺ¤ ëĤĺëĿ¼
ĠêµŃ ë¬´ìĽĲ
ê´Ģ ê´ĳ
ìĹ¬ ë¦Ħ
Ġë¬´ ìĻķ
ĠC T
Ġë³Ģ ìĨįê¸°
ĠìķĮë łĪë¥´
ĠR ay
Ġê°Ĳë ªħ
Ġìĸ¸ ìķ½
ì¹´ë łĪ
ĠìĬµ ìĦ±
ëĭĪëĭ¤ ëĵľ
Ġê°Ģê¹Į ìĽł
Ġìĺ¤ë¸Į ìłĿíĬ¸
ĠìĿĢíķĺ ëĭ¨
193 4
ĠíĶĮëĿ¼ ìŀĲ
Ġë¸Ķë£¨ ìĸ´
Ġì°¾ìķĦ ìĺ¨
Ġæ¡ ĵ
Ġë¦¬ìĦľ ì¹ĺ
ĠìĿ´ ì¹´
ĠìĿ´ íĿ¬
ìĦ ¹
ĠìŀĲ ìĿ´
Ġìĸ´ íĮĲ
Ġëªħ ëıĻ
ĠíĻĶ ìĿ´
Ġë¬´ ìĵ°
ë©´ ìłģ
Ġë°ķ ê²©
Ġì²ľ ìłģ
ĠíĽĦë °±
Ġíĸ¥ ë¦¬
Ġåħ Ĵ
Ġìķł íĶĦ
Ġå® °
ĠëĪĦë §Ī
ĠëĤ´ê°ģ ì´Ŀë¦¬ëĮĢìĭł
Ġæī ¶
Ġæ± Ĥ
Ġê°Ģë¡ľ ë§ī
ê°ľë ªħ
å° ¹
ĠìľĪ íĦ°
ĠëĦ¥ ìĬ¤íĬ¸
åĸ Ħ
u a
ĩ °
ĠìĤ¬ ì£Ħ
ìĦ± ìĿ¸
íļĮ ìĽĲ
ëĮĢ ëĭĪ
ĠíĮĮ íĮĮ
ĠM al
ĠE S
ë£¨ íģ¬
Ġì¡°ë ł¥
ap e
Ġìļķ ìĦ¤
Ġê·¸ë¦¬ìĬ¤ëıĦ ìĿ¸
ĠìĭľíĿ¥ ìĭľ
Ġç¯Ģ åº¦
ĠìĨĮìļ© ëıĮìĿ´
Ġìľ¨ë ł¹
Ġê°Ģ ëª¨
Ġë¡ľ ì½Ķ
ĠìĤ¬ ê·¹
Ġ20 4
Ġìłķ ê°ķ
ĠìĿ´ë ²łë¦¬ìķĦ
ĠìķĦë ©Ķ
Ġë¯¸ ì¶Ķ
Ġë°© ì¡°
Ġë¹Ħ íĺ¸
Ġëĭ¹ ê¸°
ĠS W
Ġì¢ħ ì£¼
ĠíĮĮ ê°Ģ
Ġëª© íĻĶ
ê·¸ë §Į
Ġ16 23
ĠìĦłë įķ
Ġì¹ľ ìłĪ
Ġt r
Ġë³´íĺ¸ ê´Ģ
ä¸ ī
ĠéĽ ľ
ìľĦë §Ŀ
ĠìķĦë¸ĮëĿ¼ íķ¨
Ġìĸ´ ê¸°
Ġë¶Ģ ì´Ŀ
ĠìĨĮ ì¼ĵ
ëıĻ ìĥĿ
ĠëĤ´ ìĪĺ
ĠS on
Ġë§Įë ĵłëĭ¤
Ġëħ¸ íĻĶ
ĠíĶ¼ ì¸ł
ĠK im
ĠG ame
íħĮ ìĿ´
Ġë§ŀ ìĦ°
ĠíĹ¤ ì§Ģ
ing ton
Ġë¨¸ íĶ¼
ĠëĶ¸ ë¦°
Ġæĺ ĩ
å¤ ĸ
ĠíĽĦì¿ł ìĿ´
Ġ179 8
êº ¼
Ġì¡°ê¸° ìĸ´ë¥ĺ
ĠìłķìĤ¬ ê°ģíĺķ
ĠìĿ´ë¦¬ íķĺìĹ¬
Ġë²Ħëł¤ ì§Ħ
ĠìĿ´ ìĤŃ
ìľ Į
ìĺ ´
Ġê²½ ìĿ´
Ġì¡° ì°¸
Ġìĺģ ì¢ħ
ĠëĤ´ ìĭľ
Ġìĭľë ĥ
Ġ16 2
Ġíİ¸ íķĺ
Ġë³¸ ì§Ħ
Ġë²Ħ ìĭľ
Ġì¼ ĵ
is on
at ing
Ġp e
ĠëĤĻ íĥľ
Ġì§ĢëĤľ íķ´
Ġíĭ°ë ¬´ë¥´
ĠíķĦë ¡ľ
Ġ183 1
Ġêµ¬ë¯¸ ìĭľ
Î¿ ÏĤ
f ic
Ĥ łë
Ġìĭľ ê·¸
Ġìłķ ë§Ĳë¡ľ
Ġê²½ ì¹ĺ
Ġì£¼ ìĥģ
Ġê°ľ ê°ľ
Ġìĺ¤ ëĭĲ
ĠêµŃ ê³ł
Ġìľł ìŀ¬
Ġì²ĺ íĸĪ
ĠìłĲ íķĺ
Ġìłľë °ĺ
ĠH uman
įĶ ë¦Ń
ë°ľ íĬ¸
ĠìĥģëĮĢ ë¡ł
Ġì½ĺ íĭ°ëĦ¨
Ġëħ¼ ìĤ°ìĭľ
ĠìĻ¸ë ²½
Ġê¸°ëħĲ ìĭĿ
ĶĶë ĵľ
ĠêµĲë ³µ
ĭ¬ë £¨
sk i
Ġë¶Ģìłľ íķĻ
ĠìķĦëĤĺíĤ¤ ì¦ĺ
ê°ķìĽĲ ëıĦ
Ġì°Įë ¥´
F I
ĠìĹĲ ëĤĺ
Ġëĭ¤ ìĿ´ìĬ¤ì¼Ģ
Ġê³ł ì¡°ìĦł
ìĿ´ ì¢ħ
Ġìłķ ëħĦ
Ġìłľ ìĿ´ìĬ¤
ĠìĦ¸ íĥģ
Ġìĥģ ìĭľ
ì° ¨ëıĦ
Ġìĭ¤ ë¡ľ
Ġë°° ìĦ¤
19 23
Ġê°ģ ë³Ħ
ĠB et
Ġê¹Ģ ëıĦ
ĠK C
ĠìĻĦ ìĤ°
ĠìĽĲë Ĥ
Ġë²Į ìĸ´ëĵ¤
Ġëĭ¬ë ł¸
Ġê³Ħìķ½ ìĦľ
un t
ìķĪë ©´
Ġê¶Įëł¥ ìŀĲ
Ġë°ĳ ë©´
Ġê·¸ëł¤ ì§Ģ
ŀŃ íĶ¼íģ¬
ĠíĥĿ ì§Ģ
ĠëıĻëªħ ìĿ´ìĿ¸
Ġãİ ¡
ĠíĮ© íĨłë¦¬
Ġì»¨ë ĶĶìħĺ
ĠìľĪë ĵľ
ìķĪíĨłëĭĪ ìĺ¤
© §
ĠìĹĲ ëĵ
ĠìĿ´ë ¡ľ
ìĦł ìĪĺ
Ġìŀ¥ íĥĢ
Ġâ Ļ
Ġìŀĳ ìĿ¸
ìĸĳ ëıĻ
Ġì²Ń ìłķ
Ġëĵľë łĪìĿ´íģ¬
ĠH ill
Ġëł Ŀ
ëª¨ ìĬµ
ĠJ an
ë¹ Įë¦¬
Ġæľ «
ĠíŀĪë °Ķ
Ġì°¬ ìĬ¤
Ġë¯¸ìĪł ê°Ģ
ĠíĭĢ ë¦¬
bur g
Ġíķ ¼ë¦¬
ì§Ģ ëĤľ
ìŀ¥ ìĭĿ
ë§ Ĳë¦¬
ĠìĹ¬ ê¸´
Ġå ·¨
ë¥ ¼ë¡ľ
ìłĦ ë¦¬
ĠëĤĺ ì£¼ìĭľ
Ġíı¬ ìľĦë§Ŀ
ìĬ¹ ë¦¬
Ġì§ģ ìłľ
Ġë³¸ ì´Ī
Ġë²ł ìĿ¼ë¦¬
ĠíĮ¨ ìĬ¤íĬ¸
ĠíĥĦ ìĽĲ
ĠëĪĦ ê°ģ
ĠëłĪë Ķ§
ĠìĹĺ ëłĪ
Ġç¦ ¹
Ġ184 3
Ġì¢Ģ ì²ĺëŁ¼
Ġì¹´íħĮ ê³łë¦¬
Ġê¹ģ ìĬ¨
ĠìĹĲ ìĿ¸
ĠìĤ¬ ê³łë
Ġê¹ ¡
ì¡° ì§ģ
Ġë¬´ë ĭ¹
ĠìĻĦ íĪ¬
Ġë²Ķ ìļ©
Ġë¸Ķë Ł¬ëĵľ
Ġíĺ¹ ëıħ
ĠìĽĢì§ģ ìĿ¸ëĭ¤
ĠëĤŃ ëıħ
ª¨ë ĭĪ
ì§Ħë ıĻ
íĦ°ë²ł ë¦¬
Ġë°Ģë¦¬ ë¯¸íĦ°
Ġì½ľë¡ ¬ë
ì§ĢëĭĪ ìĬ¤
ìĦłëĮĢ ë¶Ģ
Ġíİłë¡ľ íı°ëĦ¤ìĨĮìĬ¤
ĠìĤ¬ìĥĿ ìķĦ
j e
t ure
ç ¸
ìĿ´ ìŀ¬
Ġìĭľ ìļ°ë
Ġìłķ íĮĮ
Ġì¤ĳ ì²©
íķĺ ìĿ´ë
ĠìĬ¤ ëłĪëĵľ
ĠìĹ° ìŀĳ
Ġìŀħ ìķĪ
Ġëħ¸ íļĮ
Ġíĳľ íĸĪ
Ġëľ ¬
ĠìĦ¸ë ıĦ
Ġ% (
ĠìķĦìĿ´ ìŀĳ
Ġn ot
ĠìĭľìĦ¤ ë¬¼
ĠëĤĻ ëŀĳ
Ġ179 4
Ġëĭ¤ì¹´ ìĭľ
Ġë¹Ħìłķ ê·ľ
ĠìĥĮëĵľ ìľĦì¹ĺ
Ġìĭ«ìĸ´ íķĺ
Ġì¡°ìĦłìĻķì¡° ìĭ¤ë¡Ŀ
D R
Ã ¢
ĠëĮĢ ìłģ
Ġê³¼ ìĦłêµĲ
ĠìĪĺ ë°°
Ġë¬¸ ìĸ´
Ġ9 50
Ġë°° ìļ¸
or a
Ġëıħ ìĨĮ
ĠL ike
Ġìĸ¸ ìłłê°Ģ
ĠíĹ¤ ìŀĦ
ĠìĥĪ íĦ´
Ġíķľë Ŀ¼
Ġì¿ł íİĺ
ĠìĹĦ ìłķ
Ġw idth
ĠìĹĺë¦¬ ìĹĩ
Ġë¹ĦíĬ¸ ì½ĶìĿ¸
Ġè² ¡
ĠíħĮëŁ¬ ë¦¬ìĬ¤íĬ¸
ĠíĶĮëŀĺ ê·¸
Ġéİ ¬
Ġé¤ Ĭ
Ġìĵ°ëŁ¬ ìł¸
Ġëªħë°± íŀĪ
ĠìĬ¤íİľ ìĦľ
Î ·
Ġì§Ģ ë³ĳ
¶Ģ ìĿ¸
Ġå ŀ
Ġê°ľ ìłĦ
íĺ¸ íģ¬
[...]
