{"!":0,"\"":1,"#":2,"$":3,"%":4,"&":5,"'":6,"(":7,")":8,"*":9,"+":10,",":11,"-":12,".":13,"/":14,"0":15,"1":16,"2":17,"3":18,"4":19,"5":20,"6":21,"7":22,"8":23,"9":24,":":25,";":26,"<":27,"=":28,">":29,"?":30,"@":31,"A":32,"B":33,"C":34,"D":35,"E":36,"F":37,"G":38,"H":39,"I":40,"J":41,"K":42,"L":43,"M":44,"N":45,"O":46,"P":47,"Q":48,"R":49,"S":50,"T":51,"U":52,"V":53,"W":54,"X":55,"Y":56,"Z":57,"[":58,"\\":59,"]":60,"^":61,"_":62,"`":63,"a":64,"b":65,"c":66,"d":67,"e":68,"f":69,"g":70,"h":71,"i":72,"j":73,"k":74,"l":75,"m":76,"n":77,"o":78,"p":79,"q":80,"r":81,"s":82,"t":83,"u":84,"v":85,"w":86,"x":87,"y":88,"z":89,"{":90,"|":91,"}":92,"~":93,"¡":94,"¢":95,"£":96,"¤":97,"¥":98,"¦":99,"§":100,"¨":101,"©":102,"ª":103,"«":104,"¬":105,"®":106,"¯":107,"°":108,"±":109,"²":110,"³":111,"´":112,"µ":113,"¶":114,"·":115,"¸":116,"¹":117,"º":118,"»":119,"¼":120,"½":121,"¾":122,"¿":123,"À":124,"Á":125,"Â":126,"Ã":127,"Ä":128,"Å":129,"Æ":130,"Ç":131,"È":132,"É":133,"Ê":134,"Ë":135,"Ì":136,"Í":137,"Î":138,"Ï":139,"Ð":140,"Ñ":141,"Ò":142,"Ó":143,"Ô":144,"Õ":145,"Ö":146,"×":147,"Ø":148,"Ù":149,"Ú":150,"Û":151,"Ü":152,"Ý":153,"Þ":154,"ß":155,"à":156,"á":157,"â":158,"ã":159,"ä":160,"å":161,"æ":162,"ç":163,"è":164,"é":165,"ê":166,"ë":167,"ì":168,"í":169,"î":170,"ï":171,"ð":172,"ñ":173,"ò":174,"ó":175,"ô":176,"õ":177,"ö":178,"÷":179,"ø":180,"ù":181,"ú":182,"û":183,"ü":184,"ý":185,"þ":186,"ÿ":187,"Ā":188,"ā":189,"Ă":190,"ă":191,"Ą":192,"ą":193,"Ć":194,"ć":195,"Ĉ":196,"ĉ":197,"Ċ":198,"ċ":199,"Č":200,"č":201,"Ď":202,"ď":203,"Đ":204,"đ":205,"Ē":206,"ē":207,"Ĕ":208,"ĕ":209,"Ė":210,"ė":211,"Ę":212,"ę":213,"Ě":214,"ě":215,"Ĝ":216,"ĝ":217,"Ğ":218,"ğ":219,"Ġ":220,"ġ":221,"Ģ":222,"ģ":223,"Ĥ":224,"ĥ":225,"Ħ":226,"ħ":227,"Ĩ":228,"ĩ":229,"Ī":230,"ī":231,"Ĭ":232,"ĭ":233,"Į":234,"į":235,"İ":236,"ı":237,"Ĳ":238,"ĳ":239,"Ĵ":240,"ĵ":241,"Ķ":242,"ķ":243,"ĸ":244,"Ĺ":245,"ĺ":246,"Ļ":247,"ļ":248,"Ľ":249,"ľ":250,"Ŀ":251,"ŀ":252,"Ł":253,"ł":254,"Ń":255,"Ġì":256,"Ġë":257,"ĠìĿ":258,"Ġê":259,"Ġí":260,"ĠìĹ":261,"ĭ¤":262,"Ġíķ":263,"ĠìĿ´":264,"Ġ.":265,"ĠìĹĲ":266,"Ġëĭ¤":267,"ĠìĿĺ":268,"ĬĶ":269,"ĠëĬĶ":270,"Ġê³":271,"¡ľ":272,"Ġ,":273,"ìĦ":274,"Ġê°":275,"ìĿ":276,"¼ë":277,"Ġìŀ":278,"Ġíķĺ":279,"ĠìĿĦ":280,"Ġìł":281,"Ġìľ":282,"ĠĊ":283,"íķ":284,"§Ģ":285,"ìŀ":286,"ë¦":287,"ĠìĿĢ":288,"ìł":289,"¸°":290,"Ġ1":291,"Ġìķ":292,"ìĦľ":293,"êµ":294,"Ġëħ":295,"Ĥ¬":296,"ĮĢ":297,"ľë":298,"ĠìĦ":299,"Ġê°Ģ":300,"Ġë°":301,"Ġ)":302,"Ġë¥":303,"Ġìĺ":304,"Ġê²":305,"Ġê³ł":306,"Ġ(":307,"ĠëĲ":308,"Ġë¥¼":309,"Ĭ¤":310,"ıĦ":311,"ĠëħĦ":312,"ìĭ":313,"Ġìľ¼ë":314,"ë¦¬":315,"ê³":316,"´ë":317,"Ħë":318,"Ġìĭ":319,"ìķ":320,"Ġë§":321,"Ġëĵ":322,"ê°":323,"ìļ":324,"Ġë¡ľ":325,"Ġìľ¼ë¡ľ":326,"ìĬ¤":327,"ĠìĹĲìĦľ":328,"¸ë":329,"ĠìŀĪ":330,"Īĺ":331,"Ġì§Ģ":332,"Ĥĺ":333,"Ġ2":334,"ìĿ´":335,"Ġíķľ":336,"¶Ģ":337,"ĠëĮĢ":338,"Ġê·":339,"Ġê¸°":340,"ĠëĲĺ":341,"ìĹ":342,"Ġêµ":343,"ì§Ģ":344,"ĸ´":345,"ĠìĽ":346,"ĠìĹĪ":347,"ĠìĤ¬":348,"ĠìĻ":349,"Ŀ¼":350,"Ġë³":351,"ĠëıĦ":352,"Įë":353,"Ġëª":354,"ĠìĿ¸":355,"Ġíĸ":356,"Ġê³¼":357,"ê²":358,"ì¹":359,"£¼":360,"ê¸°":361,"ĥģ":362,"°ë":363,"Ġë©":364,"ìľ":365,"ìĭľ":366,"ıĻ":367,"êµŃ":368,"ĠìĿ¼":369,"ìĤ¬":370,"Ġëĵ¤":371,"Īë":372,"Ġìĭľ":373,"ìĽ":374,"¬ë":375,"ĠìĽĶ":376,"ĠìĪĺ":377,"ĠíĸĪ":378,"Ġíĺ":379,"ìŀĲ":380,"Ġê·¸":381,"ĠìĺĢ":382,"Ġìłģ":383,"łë":384,"ĻĶ":385,"ĠìĻĢ":386,"Ġëĭ":387,"¤ĳ":388,"ĠìŀĲ":389,"ì§":390,"ľëĭ¤":391,"íĬ":392,"Ġ19":393,"¨ë":394,"ìĺ":395,"ê°Ģ":396,"Ġë²":397,"¡°":398,"ìŀ¥":399,"ê³ł":400,"Ġëį":401,"Ġìļ":402,"ë§":403,"íĥ":404,"ìĨ":405,"Ġë¬":406,"Ġìĸ´":407,"Ġë¶Ģ":408,"Ġì§":409,"ìłķ":410,"ĠëĤ":411,"ĠìĹ¬":412,"ì²":413,"Ġì²":414,"íĺ":415,"íķ´":416,"ĠìĨ":417,"Ġ20":418,"ĠìłĦ":419,"Ġë¶":420,"Ġìłķ":421,"ìĪĺ":422,"Ġì¤ĳ":423,"Ġå":424,"ìĿ¸":425,"¯¸":426,"ë¥":427,"ãĢ":428,"ìĽĲ":429,"íĦ":430,"´Ģ":431,"ĵľ":432,"¹Ħ":433,"ìķĦ":434,"Ġìłľ":435,"ĠìľĦ":436,"Ġì°":437,"êµ¬":438,"ļĮ":439,"ìĦ±":440,"ëł":441,"Ġê³µ":442,"íķľ":443,"ìłĦ":444,"íĬ¸":445,"Ġì¶":446,"ìĥģ":447,"ìĸ´":448,"ì¹ĺ":449,"Ġ\"":450,"Ġ3":451,"ĽĦ":452,"ĠãĢ":453,"Ġê²½":454,"ëĭ":455,"ì£¼":456,"ĠëĤĺ":457,"Ġê²Į":458,"ĠìķĦ":459,"ìĸ":460,"Ġê²ĥ":461,"Ġíı":462,"ê·":463,"íĻĶ":464,"ĠíĶ":465,"íĦ°":466,"íķĺ":467,"ĠìĿ´ë":468,"Ġê±":469,"ìłľ":470,"íķĻ":471,"Ġíķ´":472,"Ġì£¼":473,"Ġíķľëĭ¤":474,"Ġìĸ":475,"¯¼":476,"Ġëĵ±":477,"ìļ©":478,"ĠíĻ":479,"íĶ":480,"Ġì¹":481,"ĠíĮ":482,"Ġíĥ":483,"ìļ°":484,"ĠìĦ¸":485,"íĸ":486,"íĨ":487,"ë°":488,"Ĥ°":489,"Ĭ¹":490,"ĠìĦ±":491,"ë¶Ģ":492,"ë¬":493,"êµĲ":494,"Ġì¡°":495,"ĠëıĻ":496,"Ġæ":497,"ĥĿ":498,"ĠìĬ¤":499,"ëıĦ":500,"ĠëĿ¼":501,"Ġìĥģ":502,"Ġê°ľ":503,"Ķë":504,"Ġê¹":505,"íļĮ":506,"Ġë³´":507,"ĠìĦł":508,"Ģë":509,"Ġìĺģ":510,"Ġìĺ¤":511,"Ŀ¼ë":512,"©°":513,"ĠíĨ":514,"ì°":515,"Ġë©°":516,"Ġë©´":517,"ĠëĲľ":518,"Ł¬":519,"Ġ4":520,"ĠìķĦë":521,"ìĿĺ":522,"ìĦł":523,"¢ħ":524,"Ĳë":525,"Ġ'":526,"íĮ":527,"ĠêµŃ":528,"ìĭł":529,"ê³Ħ":530,"íģ":531,"ê¸":532,"ë³":533,"Ġì´":534,"ìĹŃ":535,"ĠìĹ°":536,"Ġë¯¸":537,"Ġ5":538,"Ġëķ":539,"Ġëªħ":540,"Ġê´Ģ":541,"ê±":542,"ĠëĶ":543,"ĳĲ":544,"ìĤ°":545,"łĪ":546,"ìĿĮ":547,"íı":548,"Ġë§Ī":549,"ìĭĿ":550,"Ġêµ¬":551,"00":552,"ìĿ¼":553,"Ġ-":554,"ëĮĢ":555,"íĤ":556,"ì¡":557,"ì¦":558,"ĠìĿ¼ë":559,"Ġë§Į":560,"Ġê·¸ë":561,"ì¶":562,"ªħ":563,"ë§Į":564,"ìŀ¬":565,"Ġëįĺ":566,"ĠìĨĮ":567,"ŀĺ":568,"ì§Ħ":569,"ì²´":570,"Ġíķł":571,"Ġìľł":572,"ĳľ":573,"Ġë¦":574,"Ġë°ľ":575,"ì¡°":576,"ìĺ¤":577,"Ġë°©":578,"Ġìŀ¥":579,"ê²Į":580,"¥´":581,"ìĨĮ":582,"£¨":583,"Ġâ":584,"ìŀĳ":585,"ĠìĦľ":586,"Ġ201":587,"ıħ":588,"į°":589,"êµ°":590,"ê°Ħ":591,"ìĻ":592,"Ġë¹Ħ":593,"íĭ":594,"Ġê¸":595,"Ĥ´":596,"íĽĦ":597,"ìľĦ":598,"ê´Ģ":599,"Ġíģ":600,"Ġëĭ¹":601,"ĠíĽĦ":602,"íĸī":603,"ĭĪ":604,"Ġ6":605,"ĠêµĲ":606,"ê³µ":607,"ë¡":608,"íĻ":609,"ĠìĹŃ":610,"ìĿ´ë":611,"ë²":612,"ŀĪ":613,"ĠíĨµ":614,"Ġé":615,"Ġç":616,"ĠÂ":617,"ĠíĶĦë":618,"Ġë¬¸":619,"íĥĢ":620,"Ġë¹":621,"íģ¬":622,"ë¥´":623,"ĠâĢ":624,"Ġëĺ":625,"ĠìķĬ":626,"ìľ¼ë":627,"Ġ200":628,"Ġìĭł":629,"Įì§Ģ":630,"Ġê³Ħ":631,"¬¸":632,"ł¤":633,"Ġ7":634,"ĠëĿ¼ë":635,"íĤ¤":636,"Ġìķĺ":637,"Ġì£":638,"ìĹħ":639,"Ġê¹Įì§Ģ":640,"ĠíĻĶ":641,"ĠìĥĿ":642,"Ġê°Ļ":643,"ĠíķĻ":644,"Ġ8":645,"½Ķ":646,"Ġìŀĳ":647,"ëĤĺ":648,"ëŀ":649,"ĠëĬĶë":650,"ìĬ":651,"ĠìĹĲê²Į":652,"ë¶":653,"ìķĪ":654,"ì¹´":655,"Ġíİ":656,"©´":657,"Ġë°Ľ":658,"ĠëĦ":659,"Ġê°ķ":660,"Ġì¡":661,"ìĸĳ":662,"Ġìľ¼ë©°":663,"íŀĪ":664,"ìĨį":665,"ĠíĺĦ":666,"ë¡Ŀ":667,"ìĪ":668,"Ġê²°":669,"¶Į":670,"Ġì§Ħ":671,"Ġè":672,"ĠëĲľëĭ¤":673,"Ġë²Ī":674,"ìŀĦ":675,"µľ":676,"Ġìļ°":677,"íĶĦ":678,"ĠãĢĭ":679,"ĠìĽĲ":680,"ìľł":681,"Ġ~":682,"Ġë¦¬":683,"Ġë°ĺ":684,"Ġëª¨ë":685,"ë¦½":686,"ëıĻ":687,"ê²½":688,"Ġì°¨":689,"Ġêµ°":690,"Ġíķ¨":691,"Ġ9":692,"íİ":693,"Ġì§Ģë§Į":694,"ìķ¼":695,"Ġì¶ľ":696,"Ġ10":697,"³¸":698,"ì¢ħ":699,"Ġìĭ¤":700,"Ġë¶Ħ":701,"Ġíı¬":702,"Ġíĺķ":703,"ìĺģ":704,"ìĥĿ":705,"íĳľ":706,"ìĹ¬":707,"íĺ¸":708,"ìļĶ":709,"Ġìľłë":710,"Ī¬":711,"ĠìĹĨ":712,"Ġëª¨":713,"ê³¼":714,"ĠëĤ´":715,"Ġë¶ĢíĦ°":716,"íĨµ":717,"Ġë°°":718,"Ġë¬´":719,"ĵ¤":720,"ĠëĤ¨":721,"ĠëķĮ":722,"ĠÂ·":723,"Ġëĭ¨":724,"ë¡ľ":725,"ê²©":726,"ê±°":727,"§Ī":728,"Ġë°Ķ":729,"Ġë§Ĳ":730,"ĠìĤ¬ìļ©":731,"ê°ģ":732,"Ġìĥ":733,"ĠëĿ¼ê³ł":734,"ĠëĳĲ":735,"ĠS":736,"íĨł":737,"or":738,"ìĹ°":739,"ĠëĿ¼ëĬĶ":740,"ĠíĹ":741,"ìłģ":742,"íħ":743,"ĠíļĮ":744,"Ġì¢ħ":745,"ĠíĮĮ":746,"ê·¸":747,"ĶĶ":748,"ë¥¸":749,"ëĿ¼":750,"ĠëĨ":751,"Ġë¶Ī":752,"Ġìµľ":753,"Ġë¯¸êµŃ":754,"Ġíĺ¸":755,"ìļ´":756,"ĠëĶ°ë":757,"Ġìĭľë":758,"´ĳ":759,"ëĭ¨":760,"ĠìĦ¤":761,"Ġì¦":762,"íķ©":763,"ìĸ´ë":764,"ëĤ":765,"Ġë©´ìĦľ":766,"ëĬĶ":767,"°ĺ":768,"ĠìĿ´íĽĦ":769,"Ġë³´ë":770,"ì´":771,"ĠãĢĬ":772,"ĠíĬ¹":773,"Ġê±°":774,"ª¨":775,"ĠC":776,"ª½":777,"ĠëĬĶëį°":778,"ĠíĥĢ":779,"Ġ12":780,"ĠìĿ¼ë³¸":781,"er":782,"ĠìĺĪ":783,"íĹ":784,"ì¼":785,"Ġ18":786,"ĠìłĦë":787,"Ġì£¼ë":788,"íĴ":789,"ìĦ¸":790,"ìľ¼ë©°":791,"ĠìļĶ":792,"ì§ģ":793,"ĠìķĪ":794,"ĠA":795,"ëħ":796,"Ĭ¥":797,"Ġä":798,"ìĭ¤":799,"Ġëıħ":800,"ë¦Ħ":801,"Ġìŀ¬":802,"íı¬":803,"ìħ":804,"ì¤ĳ":805,"¤Ģ":806,"¯¼êµŃ":807,"ë§Ī":808,"Ġíĸī":809,"ë¦°":810,"ìĦ¤":811,"Ġì²ĺ":812,"ìĬ¹":813,"ĠìĪ":814,"ĠëĺĲ":815,"íķľë":816,"ĠM":817,"ë¶Ħ":818,"ĠìĻķ":819,"Ġì§ĢìĹŃ":820,"ëªħ":821,"Ġìŀħ":822,"Ġë§Įë":823,"ĠìĤ":824,"Ġ199":825,"ĠìĿ¸ë":826,"ĠíĿ":827,"ìłĲ":828,"Ġëĭ¤ìĿĮ":829,"íĮĮ":830,"Ġ11":831,"Ł¬ë":832,"íĥľ":833,"Ġì±":834,"ì°¨":835,"ëł¥":836,"Ġë§İ":837,"la":838,"Ġê¶Į":839,"ĠëĮĢíķľ":840,"Ġë¸":841,"íķľë¯¼êµŃ":842,"ë¬¸":843,"ë¬´":844,"Ġíıī":845,"Ġë§¤":846,"ì¦Ī":847,"ì¡±":848,"ĠìĤ¬ëŀ":849,"Ġìĸĳ":850,"ë©´":851,"Ġëį°":852,"ĭ¹":853,"20":854,"on":855,"Ġì¶Ķ":856,"ë¯¸":857,"ì¸":858,"íĺĦ":859,"ĠìĬ¹":860,"ëł¹":861,"Ġíħ":862,"ì½Ķ":863,"Ġíĥľ":864,"Ġìĸ´ë":865,"Ġê²½ê¸°":866,"19":867,"Ġëĭ¤ë¥¸":868,"ìĪł":869,"íĭ°":870,"Ġë°ı":871,"Ġëĭ¤ê³ł":872,"ĠëķĮë":873,"ìª½":874,"ë¬¼":875,"íĺķ":876,"ĠT":877,"ìĭ¬":878,"ĠìĤ°":879,"ì¶ľ":880,"ĠìĨį":881,"ĠìľĦíķ´":882,"Ġì°¸":883,"in":884,"ĠëĮĢíķĻ":885,"íĬ¸ë":886,"ëĵ":887,"Ġì´Ŀ":888,"ìķ½":889,"Ġëħ¸ë":890,"ìĥ":891,"£Į":892,"Ġê±°ë":893,"Ġì½":894,"ĠíĬ":895,"Ġë¯¼":896,"¡ł":897,"Ġê°Ħ":898,"ĠíĶĦë¡ľ":899,"ìĦĿ":900,"ĠìĿĮ":901,"Ġê·¸ë¦¬":902,"ìķĦë":903,"Ġëª©":904,"Ġë¯":905,"ĠëĮĢíķľë¯¼êµŃ":906,"ê¸Ī":907,"ĠëķĮë¬¸":908,"ë°©":909,"an":910,"Ġë¶ģ":911,"ê±´":912,"íĸ¥":913,"ê»":914,"ìŀħ":915,"Ġì»":916,"Ġì§ĳ":917,"Ġìĭľìŀĳ":918,"Ġê°ľë":919,"ł¥":920,"Ġëı":921,"ŀĳ":922,"ŀĢ":923,"Ġ:":924,"°ľ":925,"Łī":926,"ĠëįĶ":927,"Ġê°ģ":928,"Ġë²ķ":929,"Ġì§ģ":930,"ëĵľ":931,"íĴĪ":932,"ĠF":933,"ĠíĽ":934,"ê»ĺ":935,"Ġì´Ī":936,"ëĭ¹":937,"ì¤Ģ":938,"ĠìĤ¬ëŀĮ":939,"¬¼":940,"ìĨ¡":941,"³´":942,"ĠìĺģíĻĶ":943,"Ġëħ¸":944,"ĠëłĪ":945,"ĠìĦľë":946,"Ġíķ¨ê»ĺ":947,"ì¿":948,"ĠëĶ°ëĿ¼":949,"íĮĲ":950,"Ġë³Ģ":951,"ë¦¬ìķĦ":952,"ëĭĪ":953,"ì²ľ":954,"ìļ¸":955,"ĠìłĲ":956,"Ġ198":957,"ĠB":958,"ì²Ń":959,"Łģ":960,"Ġìķ½":961,"ĠíĶ¼":962,"ĠíķŃ":963,"ì§Ī":964,"ĠìĹ´":965,"ì»":966,"ëĭ¤":967,"ĠíĮĢ":968,"Ġ15":969,"Ġê¹Ģ":970,"Ġf":971,"Ġë§Īë":972,"Ġì²´":973,"ìł¸":974,"ê¸ī":975,"ëĬ¥":976,"ĠìĨĮë":977,"ĠìŀĲìĭł":978,"ìŁģ":979,"Ġê²½ìļ°":980,"ê·¸ë":981,"íķ¨":982,"ĠìĦłìĪĺ":983,"Ħ¤":984,"ĠD":985,"ë¦¼":986,"Ġì¹´":987,"ĠìĹ¬ë":988,"ĵ°":989,"©Ķ":990,"ĭ¨":991,"ľëıĻ":992,"Ġì¹ĺ":993,"ìĹĲ":994,"ë¹Ħ":995,"ĠìĬ":996,"ĠëĴ":997,"ê°ľ":998,"ë³´":999,"ĠëĺĲíķľ":1000,"Ġíĳľ":1001,"Ġëģ":1002,"ìĬ¤íĬ¸":1003,"²Ħ":1004,"Ġê±´":1005,"Ġíļ":1006,"íĶ¼":1007,"ĠìĦ¸ê³Ħ":1008,"ĠìľĦì¹ĺ":1009,"ĠP":1010,"ë²ķ":1011,"ìĸ¸":1012,"¸Į":1013,"ĠìķĮë":1014,"Ġ16":1015,"Ġë°ķ":1016,"Ġê´ĳ":1017,"ĠìĿ´ë¦Ħ":1018,"Ġì½Ķ":1019,"´ī":1020,"Ġì²Ń":1021,"Ł¬ëĤĺ":1022,"ì´Ī":1023,"Ġìº":1024,"Ġê¸°ë¡Ŀ":1025,"ĠíķĺëĤĺ":1026,"íĿ":1027,"Ġìļ©":1028,"Ġë¨":1029,"ìķħ":1030,"Ġm":1031,"ĵł":1032,"ĠíĺĦìŀ¬":1033,"íĪ¬":1034,"Ġë¹Ħë":1035,"Ġëĭ¹ìĭľ":1036,"ĠíķľêµŃ":1037,"en":1038,"ĠíĮĲ":1039,"ê°ķ":1040,"ĠìķĮ":1041,"Ġë³µ":1042,"Ġíģ¬":1043,"ê²°":1044,"Ġëĭ¤ëĬĶ":1045,"Ġì¶ķ":1046,"ìĭľìķĦ":1047,"ì³":1048,"ĠìĤ¬ìĿ´":1049,"ĲëĬĶ":1050,"ĠíĻķ":1051,"ħ¸":1052,"ĠìĻ¸":1053,"Ġ_":1054,"Ġìļ´":1055,"Ġì¸":1056,"ĠíĪ¬":1057,"Ġì¢":1058,"Ġê°Ģìŀ¥":1059,"Ġíİ¸":1060,"ar":1061,"ĠêµŃê°Ģ":1062,"mu":1063,"ĠëĺĲëĬĶ":1064,"ĠìĿ´ëĤĺ":1065,"Ġê°Ģì§Ģ":1066,"Ġì¡´":1067,"Ġë³¸":1068,"íķŃ":1069,"ĠìłĢ":1070,"ĠëĴ¤":1071,"Ġìķ¼":1072,"ĠëĦ¤":1073,"Ġì²ľ":1074,"ĠíĻľëıĻ":1075,"Ġíķ©":1076,"Ġ17":1077,"ì£¼ìĿĺ":1078,"Ġë©Ķ":1079,"ì¡Į":1080,"ĠíķĻêµĲ":1081,"ìĻĢ":1082,"ĠL":1083,"Ġfor":1084,"ëª":1085,"Ġë²ł":1086,"Ġì§¸":1087,"mula":1088,"íİ¸":1089,"Ġê°Ĳ":1090,"Ġëĭ¬":1091,"ìħĺ":1092,"Ġë¦¬ê·¸":1093,"Ġ197":1094,"Ġë°ľë":1095,"Ġëĵľë":1096,"Ġë°Ķë":1097,"ë£Į":1098,"ĠK":1099,"ĠìĿĺíķ´":1100,"ê²¬":1101,"Ġì¦Ŀ":1102,"ĠI":1103,"ê¹":1104,"į¼":1105,"°©":1106,"Ġì¡°ìĦł":1107,"ì½":1108,"Ġëª»":1109,"ìłĢ":1110,"¼ë¦":1111,"íļ":1112,"ĠìĹ°ë":1113,"íĻ©":1114,"ë¯¼":1115,"ìĥī":1116,"ë¶ĢíĦ°":1117,"Ġformula":1118,"ĠëĶĶ":1119,"ĠìĭĿ":1120,"ĠìŀĦ":1121,"Ġíķ´ë":1122,"Ġë³ĳ":1123,"ĠìĤ´":1124,"Ġì°½":1125,"ĠíĨµíķ´":1126,"íİĺ":1127,"Ġ/":1128,"íĻĺ":1129,"ĠìĹ°êµ¬":1130,"Ġê·¸ëŁ¬ëĤĺ":1131,"ê·¼":1132,"Ġë°±":1133,"¬´":1134,"Ġk":1135,"°Ķ":1136,"Ł½":1137,"ĠíĤ":1138,"ĠëĮĢíĳľ":1139,"Ġì¤":1140,"Ġë²Ħ":1141,"Ġêµ¬ë":1142,"ìľ¼ëĤĺ":1143,"al":1144,"¶ģ":1145,"ĠíĶĦëŀĳ":1146,"Ġ14":1147,"ĠR":1148,"ìľ¡":1149,"ĠG":1150,"ìłĪ":1151,"´ëĵľ":1152,"Ġëľ":1153,"Ġê·¸ë¦¬ê³ł":1154,"ti":1155,"íĥĢë":1156,"ìĻķ":1157,"201":1158,"Ġìĭ¬":1159,"Ġíİĺ":1160,"ĠìĤ¼":1161,"íĹĺ":1162,"ĠìĦ¸ë":1163,"ĠëĪ":1164,"ë¥ĺ":1165,"ĠíķĦ":1166,"ê¶Į":1167,"Ġ196":1168,"Ġ0":1169,"ì¦Į":1170,"ëł¤":1171,"ìĤ":1172,"ŀľë":1173,"¸ëĭ¤":1174,"Ġìłľë":1175,"Ķ¨":1176,"Ġ13":1177,"ĦĪ":1178,"Ġë¬¼":1179,"ìĻ¸":1180,"ĠìķĦëĭĪ":1181,"ĠíĻ©":1182,"Ġë³´ëĭ¤":1183,"Ġì²«":1184,"Ġë§Įëĵ¤":1185,"ĠâĢĻ":1186,"·¨":1187,"ĠíĶĮë":1188,"Ġìĭłë":1189,"ĠëĨĴ":1190,"Ġëĭ¤ìĭľ":1191,"Ġì¶©":1192,"es":1193,"Ġìĵ°":1194,"ĠíĴ":1195,"ì£":1196,"Ġìĺ¬":1197,"Īë¡ľ":1198,"Ġë¸Įë":1199,"ì±":1200,"íķł":1201,"ìĽĮ":1202,"²ķ":1203,"Ġë£¨":1204,"ĠìĤ¬íļĮ":1205,"Ġìĭľì¦Į":1206,"ĠâĢĺ":1207,"Ġì´Īë":1208,"Ġíĺĳ":1209,"ĠH":1210,"ĠN":1211,"Ġëł":1212,"ê´ĳ":1213,"Ġë¯¸ë":1214,"Ġíı¬íķ¨":1215,"ŀľëĵľ":1216,"ĠëĬĶëĭ¤":1217,"ĠE":1218,"ĠìĭľëĮĢ":1219,"Ġëľ»":1220,"Ġë¬´ë":1221,"Ġìłķë¶Ģ":1222,"ĠëĮĢíķ´":1223,"ī´":1224,"ê³¡":1225,"Ġê¸Ī":1226,"ì¸ł":1227,"ĠíĶĦëŀĳìĬ¤":1228,"ĠëıĦìĭľ":1229,"ĠìĪľ":1230,"Ł°":1231,"íķĻêµĲ":1232,"Ġì¤ĳêµŃ":1233,"Ġëĸ":1234,"ħĢ":1235,"ëį":1236,"ĠëıĮ":1237,"¥ĺ":1238,"Ŀ½":1239,"Ħëĭ¤":1240,"ì§ĳ":1241,"íĥĪ":1242,"íĸĪ":1243,"ĠìĺģêµŃ":1244,"ì°°":1245,"ĠëĭĪ":1246,"Ġíĭ":1247,"Ġì¼":1248,"Ġê°Ĳë":1249,"¼ë¦¬":1250,"ì³Ĳ":1251,"Ġìľ¼ëĤĺ":1252,"Ġëĭ¤ê°Ģ":1253,"Ġë¡ľìĦľ":1254,"ĠìĹ¬ëŁ¬":1255,"ê²ĥ":1256,"ëłĪ":1257,"ìĺ¨":1258,"ĠëĤ´ë":1259,"ĠíĽĦë":1260,"Ĥľ":1261,"ĠìłĦìŁģ":1262,"Ġì£½":1263,"ĠíĤ¤":1264,"ë§Ŀ":1265,"ĠëıħìĿ¼":1266,"ìĿ¼ë":1267,"ëĵ±":1268,"Ġ194":1269,"ĠëŁ¬":1270,"ĠíĦ":1271,"Ġíģ°":1272,"Ġëª¨ëĳĲ":1273,"Ġëĳ":1274,"Ġ%":1275,"Ġë°°ìļ°":1276,"Ġê°ĢëĬ¥":1277,"íħĮ":1278,"ì¡´":1279,"ê·¹":1280,"´ëıĻ":1281,"ĠìĦľìļ¸":1282,"ĠëıĻìķĪ":1283,"Ġì°¨ë":1284,"ĠìľĦìĽĲ":1285,"Ġë¬¸íĻĶ":1286,"ìķĻ":1287,"Ġê°Ĳëıħ":1288,"ĠìĿ´ìĥģ":1289,"he":1290,"Ġì¿":1291,"Ġìĸ¸":1292,"Ġkm":1293,"§¤":1294,"Ġìłķì¹ĺ":1295,"ì¹Ń":1296,"Ġê³¡":1297,"ë°ĺ":1298,"ĠíĨł":1299,"ĠëĮĢíļĮ":1300,"ìĹ´":1301,"ìĿĢ":1302,"íıī":1303,"ìĬµ":1304,"ĠìķĮëł¤":1305,"Ġ195":1306,"łĪìĿ´":1307,"ì¶ķ":1308,"ĠëĬ":1309,"Ġë¬¸ìłľ":1310,"ĠìĿ¼ë¶Ģ":1311,"Ġc":1312,"Ġë°©ìĨ¡":1313,"Ġìĺ¤ë":1314,"ì¿ł":1315,"Ġëª¨ëĵł":1316,"ĠíĻĺ":1317,"Ģë¡ľ":1318,"ĠìĦłë":1319,"ĠìĿ´ë£¨":1320,"Ġìłľìŀĳ":1321,"Ġê°ľë°ľ":1322,"Ġì¹ľ":1323,"Ġêµ¬ìĦ±":1324,"ĠìĻĦ":1325,"ë³¸":1326,"ĠW":1327,"ĠìľĦíķľ":1328,"Ġì§Ģë°©":1329,"ĩ´":1330,"Ġì²ĺìĿĮ":1331,"íĥĦ":1332,"ic":1333,"Ġê¸¸":1334,"ì¼Ģ":1335,"Ġä¸":1336,"000":1337,"ĠìĺĢìľ¼ë©°":1338,"ê°Ĳ":1339,"ĠëĮĢíķĻêµĲ":1340,"is":1341,"ĠìĦ¸ê¸°":1342,"¥´ë":1343,"Ġ30":1344,"ĠíħĮ":1345,"ĠëĲł":1346,"ĠU":1347,"ĠëģĿ":1348,"Ł¼":1349,"ł¸":1350,"ëª¨":1351,"Ġì¶ķêµ¬":1352,"ë°Ķ":1353,"ĠìĦĿ":1354,"ĠìĹĶ":1355,"ìĺĪ":1356,"ĠìĿ¸êµ¬":1357,"ì²ĺ":1358,"ĠìĨĲ":1359,"ĠíĬ¸":1360,"Ġìĭľê°Ħ":1361,"ĠìĿ´ìļ©":1362,"Ġì¡´ìŀ¬":1363,"ĠìŀĳíĴĪ":1364,"ëĤ´":1365,"ĠìłķëıĦ":1366,"ìĭľë":1367,"Ġê²Ģ":1368,"ë³µ":1369,"ìĿ´ìĬ¤":1370,"ì¶Ķ":1371,"ĵ±":1372,"ĠíĬ¸ë":1373,"ĠëĨį":1374,"Ġì±Ħ":1375,"ĠëĤ¨ë":1376,"Ġê³³":1377,"Ġíģ´ë":1378,"ł¨":1379,"Ġë¶Ħë":1380,"Ġì¦ī":1381,"ĠëĤĺë":1382,"Ġê¸ī":1383,"Ġë¦¬ë":1384,"Ġê²ĮìŀĦ":1385,"Ġì·¨":1386,"Ġì£¼ìŀ¥":1387,"ĠìĿĮë":1388,"ê²¨":1389,"Ġs":1390,"Ġíĸ¥":1391,"łëıĦ":1392,"Ġëł¤":1393,"Ġìĺ¬ë":1394,"Ġì²ł":1395,"Ġê´Ģê³Ħ":1396,"Ġì¹´ë":1397,"ĠìĿĮìķħ":1398,"Ġìļ´ëıĻ":1399,"Ġëī´":1400,"ĠíıŃ":1401,"įĶ":1402,"ì°½":1403,"Ġë§¡":1404,"íļį":1405,"ĠìĿ¼ë°ĺ":1406,"Ġê±°ëĤĺ":1407,"³ĳ":1408,"200":1409,"Ġt":1410,"ĠëĤł":1411,"ĠÂł":1412,"ĠJ":1413,"Ġìķŀ":1414,"ĠìĶ¨":1415,"ĠëĤĺíĥĢë":1416,"ĠìĤ¬ê±´":1417,"²Ķ":1418,"ĠíĻľ":1419,"ãĢĬ":1420,"íĥĿ":1421,"Ġì¤ĳìĭ¬":1422,"Ġìłĳ":1423,"ë£¨":1424,"ĠêµĲìľ¡":1425,"ì±ħ":1426,"Ġëį°ë":1427,"ĦĲ":1428,"Ġê¸°ì¤Ģ":1429,"Ġå¤":1430,"į¨":1431,"ĦëĮĢ":1432,"Ġë¡":1433,"Ġë§ŀ":1434,"ĠìĹŃìĤ¬":1435,"ë³Ħ":1436,"ë¶Ģë¶Ħ":1437,"Ġë¶Īë":1438,"Ġ25":1439,"ĠìĥĪë¡ľ":1440,"Ġì½Ķë":1441,"ĠíĸĪìľ¼ë©°":1442,"Ġê·¼":1443,"Ġê·¹":1444,"Ġë°ľê²¬":1445,"ëł¨":1446,"ë²Ħ":1447,"ĥĪ":1448,"Ġ]":1449,"Ġê°ĸ":1450,"at":1451,"ĠêµŃìłľ":1452,"ĠãĢī":1453,"Ġã":1454,"ì¦Ŀ":1455,"íĶ½":1456,"le":1457,"Ġìľ¡":1458,"íĨµëł¹":1459,"Ġë°ľíĳľ":1460,"ë¦¬ìĬ¤":1461,"ì°©":1462,"ëıħ":1463,"ĠíĮ¨":1464,"ĠìĦ¬":1465,"ŀĢë":1466,"Ġ>":1467,"Ġíĥľìĸ´ë":1468,"Ġì¸¡":1469,"re":1470,"ŀ¨":1471,"ĠìĭľíĤ¤":1472,"ĠëıĦë¡Ŀ":1473,"ĠíĨłë":1474,"íį¼":1475,"Ġê¸°ìĪł":1476,"ì¹´ë":1477,"íĻĶêµŃ":1478,"ĠìķĦëĵ¤":1479,"íĦ´":1480,"Ġë¡ľë¶ĢíĦ°":1481,"¯¸ë":1482,"Ġìŀĺ":1483,"Ġíı¬ë":1484,"ìĬ¨":1485,"Ġë§ī":1486,"¨ìĸ´":1487,"it":1488,"Ġì±ħ":1489,"íĭ°ë":1490,"Ġåħ":1491,"Ġê±¸":1492,"Ġê³µê²©":1493,"Ġ193":1494,"ìĽĢ":1495,"ĠìĿĺë¯¸":1496,"ĠO":1497,"ì§ķ":1498,"Ġíŀ":1499,"ë§¤":1500,"ëħĦ":1501,"ĠìĿ´ëŁ¬":1502,"¨ëıĦ":1503,"íĻľ":1504,"Ġëĵ¤ìĸ´":1505,"ĠìłĦíĪ¬":1506,"Ġìĭľì¼":1507,"ë¦Ń":1508,"Ġë²łë":1509,"ëŁī":1510,"ľĺ":1511,"Ĥ¨":1512,"ìłĳ":1513,"Ġê²½ìłľ":1514,"ĠìĦłê±°":1515,"Ġê·Ģ":1516,"ou":1517,"Ġìļ°ìĬ¹":1518,"Ġíĳ":1519,"¨¸":1520,"Ġë¿":1521,"ì²ł":1522,"Ġë´ī":1523,"íĶĦë":1524,"Ġë°Ŀ":1525,"ë¶ģ":1526,"ìĪľ":1527,"ë°°":1528,"ĠëĮĢíĨµëł¹":1529,"ìĤ´":1530,"Ġìĺģíĸ¥":1531,"ê¸Ģ":1532,"Ġíļ¨":1533,"Įë¦¬":1534,"Ġ21":1535,"Ġì¤Ħ":1536,"ĠëĮĢë¶Ģë¶Ħ":1537,"ĠìĤ¬ë§Ŀ":1538,"ëĤ¨":1539,"ĠãĢĭ(":1540,"ëŁ¬":1541,"ĠãĢĪ":1542,"Ġê±´ë":1543,"Ġìŀ¡":1544,"Ġìĩ":1545,"Ġì§ĢìĽĲ":1546,"Ġê³¼ìłķ":1547,"ìį¨":1548,"ĠíĶĦë¡ľê·¸ë":1549,"ĠìĽĲë":1550,"Ġê·ľ":1551,"íĺ¼":1552,"ŀĢëĵľ":1553,"ª©":1554,"Ġê²°ê³¼":1555,"Ġêµ°ë":1556,"ĠíĻį":1557,"¡Ģ":1558,"Ġìĸ»":1559,"Ġë°Ģ":1560,"Ġì°¸ìĹ¬":1561,"ĠìĹħ":1562,"ĠìķĶ":1563,"Ġìķł":1564,"ìĿĦ":1565,"Ġì§Ħíĸī":1566,"Ġì»¤":1567,"Ġë¶Ģë¶Ħ":1568,"Ġê´Ģëł¨":1569,"ĠíĶĦ":1570,"Ġë°ľìĥĿ":1571,"ħĦ":1572,"Ġëĵľ":1573,"ì§Ģë§Į":1574,"ŀĮ":1575,"el":1576,"ĠëĲĲ":1577,"Ġ[":1578,"Ġìµľì´Ī":1579,"ĠíĹ¤":1580,"Ġë³Ħ":1581,"Ġë°ľë§¤":1582,"ìĤ°ë":1583,"Ġê³¨":1584,"Ġìĸ´ìĦľ":1585,"Ġë³¼":1586,"ìĿĳ":1587,"Ġì¡°ë":1588,"Ġìļ°ë":1589,"²Ħì§Ģ":1590,"ĠìĦ¤ë¦½":1591,"ĠìłľêµŃ":1592,"ìĿ´íĬ¸":1593,"Ġê²°ìłķ":1594,"Ġëıħë¦½":1595,"Ġì¤ĳìķĻ":1596,"Ġìĥģíĥľ":1597,"íģ¬ë":1598,"ĠìĦ¤ì¹ĺ":1599,"ĠìķĦìĿ´":1600,"ĠíĬ¹íŀĪ":1601,"ë§ī":1602,"Ġíĺķíĥľ":1603,"Ġê°ĻìĿ´":1604,"ë¦¬ì¹´":1605,"ĠâĢĿ":1606,"ĠìĨĮìĨį":1607,"Ġê³łëĵ±":1608,"ìµľ":1609,"ĵľë":1610,"Ġëĭ¤ìĸĳ":1611,"ë°ľ":1612,"ëª©":1613,"Ġì¼Ģ":1614,"ĠìĤ¬ìĭ¤":1615,"§Į":1616,"Ġå®":1617,"Ġ<":1618,"ĠìĨ¡":1619,"ìĽĶ":1620,"ĠìľłëŁ½":1621,"ì£¼ë":1622,"ĠìĿ¼ìĸ´ë":1623,"ĶĶìĺ¤":1624,"ìĺĢ":1625,"Ġ24":1626,"ĠìĿ´ìłĦ":1627,"Ġ23":1628,"ìļ´ë":1629,"ĠìŀĦë":1630,"Ġìľ¼ë¡ľìĦľ":1631,"Ġìĺ¬ë¦¼":1632,"¶Ħ":1633,"ĠâĢľ":1634,"Ġë²Ķ":1635,"ĠìĥĿê°ģ":1636,"Ġìŀ¬ë":1637,"ĠìĿ¸íķ´":1638,"ĠíıĲ":1639,"Ġìķħ":1640,"Ġì£¼ë¡ľ":1641,"Ġì´Īëĵ±":1642,"om":1643,"ĠìĥĪë¡ľìļ´":1644,"·Ķ":1645,"Ġì¢ĭ":1646,"ĠëŁ¬ìĭľìķĦ":1647,"ìļ°ìĬ¤":1648,"²ł":1649,"ĠëĤĺëĿ¼":1650,"ĠíĮĮë":1651,"°°":1652,"ë³ĳ":1653,"ol":1654,"Ġìķ¨ë":1655,"ĠíķĦìļĶ":1656,"ĭ¬":1657,"íĮ¨":1658,"ıĮ":1659,"ìĨĲ":1660,"ĠíĥĦ":1661,"Ġ2010":1662,"ĠíĶĦë¡ľê·¸ëŀ¨":1663,"ìķł":1664,"us":1665,"ĠìĦ¼":1666,"ìļ°ë":1667,"Ġêµ¬ì¡°":1668,"Ġì¶ľìĭł":1669,"ìĿ´ëĵľ":1670,"Ġ22":1671,"ĠæĿ":1672,"íĨłë":1673,"Ġìĺ¨":1674,"ĠìĿ¸ë¯¼":1675,"ĠíĹĪ":1676,"Ġì¡°ì§ģ":1677,"Ġê·¸ëħĢ":1678,"ĠV":1679,"ìĬ¤íħ":1680,"Ġíģ¬ë":1681,"ëĤľ":1682,"ĠìĿ´íĥĪ":1683,"Ġëĵ±ìŀ¥":1684,"Ġì¤ĳìļĶ":1685,"ĠìĿ´ê²ĥ":1686,"ĠëŀĢ":1687,"Ġìļ´ìĺģ":1688,"ĠíŀĪ":1689,"Ġê¸°ê´Ģ":1690,"Ġìĺ¬ë¦¼íĶ½":1691,"Ġê³Ħíļį":1692,"Ġê´Ģë¦¬":1693,"as":1694,"¨ëĭ¤":1695,"Ġì°¸ê°Ģ":1696,"Ġê³ĦìĨį":1697,"ĠìĬĪ":1698,"ĠìĹ¬ìĦ±":1699,"Ġíĸīìłķ":1700,"Ġìĭ±":1701,"Ġìħ":1702,"íĩ´":1703,"ĠìľĦìĽĲíļĮ":1704,"Ġíķ´ìĦľ":1705,"ĠìĦ±ê³µ":1706,"Ġìłķë³´":1707,"ì°¬":1708,"Ġì§Ģìłķ":1709,"Ġíĭ°":1710,"ĠìĿĮë°ĺ":1711,"Ġë§¤ìļ°":1712,"Ġë¡ľë§Ī":1713,"am":1714,"Ġíķĺì§Ģë§Į":1715,"ĠìĥģëĮĢ":1716,"£¹":1717,"tion":1718,"Ġì¢Į":1719,"ķĮ":1720,"Ġìĸ´ëĸ":1721,"ëŁ¼":1722,"ĠëĦĺ":1723,"Ġ000":1724,"ì¹ľ":1725,"Ġíķ´ëĭ¹":1726,"Ġìµ":1727,"ê°Ŀ":1728,"Ġ26":1729,"ĠìĥĪ":1730,"Ġìĸµ":1731,"íĿ¬":1732,"Ġë¿Ĳ":1733,"Ġì¤Ģ":1734,"Ġë²Į":1735,"ìľ¨":1736,"Ĭĺ":1737,"ĠìŀĲìľł":1738,"Īë¹Ħ":1739,"Ġëį°ë·Ķ":1740,"ìĨĮë":1741,"ëĭ¬":1742,"Ġë³¸ë":1743,"ì¸¡":1744,"Ŀ¼ë§Ī":1745,"ë°ķ":1746,"Ġ28":1747,"ë¦¬ì¦Ī":1748,"ê´":1749,"ĠìŀĲë¦¬":1750,"Ġì²łëıĦ":1751,"ê·ľ":1752,"Ġ27":1753,"Ġì°¾":1754,"ìĿµ":1755,"ĠìĿ´ìĸ´":1756,"ĠìĹ¬ìŀĲ":1757,"Ġì²ĺëŁ¼":1758,"Ġ192":1759,"Ġë°ľìłĦ":1760,"Ġë¯¼ì£¼":1761,"Ġê³¼íķĻ":1762,"ĠìĿ´íĥĪë¦¬ìķĦ":1763,"Ġd":1764,"ê·ł":1765,"ĠìĤ¬ìĹħ":1766,"ì§Ħëĭ¤":1767,"ing":1768,"ëħ¸":1769,"ĠìĥĿìĤ°":1770,"Ġëªĩ":1771,"Ġê¸Ģ":1772,"íĦ°ë":1773,"ìĿ´ìħĺ":1774,"íĺĢ":1775,"ì»¤":1776,"il":1777,"ĠëĶ°ë¥´":1778,"íĶĦíĬ¸":1779,"íĭĢ":1780,"Ġë°©ë²ķ":1781,"¥Ĳ":1782,"ĠìķĦë²Ħì§Ģ":1783,"Ġëĭ¬ë":1784,"ìĬ¬ë":1785,"Ġê³łëł¤":1786,"ìĬ¤íĦ°":1787,"Ġìľ¤":1788,"Ġì°¨ì§Ģ":1789,"Ġê·ľë":1790,"et":1791,"Ġìķ¨ë²Ķ":1792,"¥¸":1793,"Ġê·¸ë£¹":1794,"ch":1795,"ro":1796,"Ġë¸Ķë":1797,"Ġê°Ģë¦¬":1798,"Ġì½ĺ":1799,"Ġo":1800,"§Ŀ":1801,"Ġ2008":1802,"Ķ©":1803,"Ġìĭľë¦¬ì¦Ī":1804,"ĠëĮĢìłĦ":1805,"ĠíĽĦë³´":1806,"ë¹":1807,"į¸":1808,"ĠëĪĦ":1809,"Ġì£¼ìļĶ":1810,"Ġë³´ìĿ´":1811,"Īëĭ¤":1812,"ĠëĤ´ìļ©":1813,"ëĤł":1814,"Ġ100":1815,"Ġì¶ľìĹ°":1816,"Ġë£":1817,"ĠëĬ¥":1818,"ĠíĥĢìĿ´":1819,"Ġíķľë":1820,"Ġìµľê³ł":1821,"¼ë§Ī":1822,"ĠíļĮìĤ¬":1823,"Ġ2007":1824,"Ġì¡Į":1825,"Ġë¬ĺ":1826,"Ġê²°êµŃ":1827,"Ġëĳĺ":1828,"Ġb":1829,"ìļ´ëį°":1830,"Ġéĩ":1831,"ĠíĮĶ":1832,"ĠìłĦì²´":1833,"Ġíĥľìĸ´ëĤ¬":1834,"ĠìĺĢìľ¼ëĤĺ":1835,"°ëĭ¤":1836,"ĠëĵľëĿ¼ë§Ī":1837,"Ġê²©":1838,"³Ģ":1839,"íı¬ë":1840,"Ġì¸µ":1841,"Ġp":1842,"ĠëĤľ":1843,"ĠìĥĿíĻľ":1844,"Ġíŀĺ":1845,"Ġëª»íķĺ":1846,"¸ëĭĪ":1847,"Ġ2012":1848,"Ġ2009":1849,"Ġë§İìĿ´":1850,"łĪë":1851,"ĠëıĮìķĦ":1852,"ĠëįĶë":1853,"Ġê·¸ë¦¬ìĬ¤":1854,"Ġ2011":1855,"íķľëĭ¤":1856,"Ġê°Ģìļ´ëį°":1857,"Ġê·¼ë":1858,"Ġë°©ìĭĿ":1859,"Ġê³łëĵ±íķĻêµĲ":1860,"Ġ29":1861,"Ġìłľê³µ":1862,"ĠìĿ´ìľł":1863,"ĠìĽĶëĵľ":1864,"Ġìĭľê¸°":1865,"Ġ191":1866,"FA":1867,"ìķķ":1868,"ĠìĿ´ëģ":1869,"ìĻĶ":1870,"Ġê¸°ìĹħ":1871,"ĠìĹŃíķł":1872,"Ġë¹Ħë¡":1873,"ĠìķĪë":1874,"Ġê¸°ìĽĲ":1875,"ĠêµŃë¯¼":1876,"ĠìĿĺìĽĲ":1877,"¸Ķ":1878,"Ġê³µìĭĿ":1879,"Ġæľ":1880,"Ġ\")":1881,"³Ħ":1882,"ĠìĿ¸ëıĦ":1883,"êµ¬ë":1884,"ìĹĺ":1885,"ĠìķĦëŀĺ":1886,"ĪĦ":1887,"ĠìĹ°íķ©":1888,"ĠìĬ¤íĥĢ":1889,"ĠíĴį":1890,"Ġìľłëªħ":1891,"ìłľë":1892,"Ġìĩ¼":1893,"ĠìĿ¸ê°Ħ":1894,"ĠëłĪë":1895,"ìĬ¤íħľ":1896,"Ġê±°ìĿĺ":1897,"Ġêµ°ìĤ¬":1898,"Ġìľ¼ë¡ľìį¨":1899,"³µ":1900,"Ġë°ĺëĮĢ":1901,"Ġì¡°ìĤ¬":1902,"ê°Ī":1903,"ĠìłĪ":1904,"Ġìĥī":1905,"ĠìĭľìĬ¤íħľ":1906,"ĭĪìķĦ":1907,"ĠìłľëıĦ":1908,"Ġë¯¼ì¡±":1909,"łë¥´":1910,"ìķĶ":1911,"ìĵ°":1912,"ì´Ŀ":1913,"ĠìĬ¤íİĺ":1914,"íľĺ":1915,"ìĿ¸ëĭ¤":1916,"ĠëĮĢìĭł":1917,"Ġê¶":1918,"Ġìľ¼ë¡ľë¶ĢíĦ°":1919,"ë¥´ë":1920,"ĠíĳľíĺĦ":1921,"ì¹Ļ":1922,"ìĩ":1923,"ĠíķŃê³µ":1924,"®¤":1925,"Ġì¶ľìłĦ":1926,"Ġíıīê°Ģ":1927,"Ġíķ´ìķ¼":1928,"ĠìĿ´ë£¨ìĸ´":1929,"ëĦ¤":1930,"Ġì¶ľë":1931,"ëŀĢ":1932,"Ġìļ°ë¦¬":1933,"Ġê³µê°ľ":1934,"ĠìĪĺìĥģ":1935,"Ġìľłì§Ģ":1936,"Ġ2014":1937,"Ľ°":1938,"ĭĮ":1939,"Ġäº":1940,"ì¶©":1941,"Ġìī":1942,"íĴį":1943,"Ġìµľë":1944,"§Īë":1945,"ê·Ģ":1946,"Ġë¨¸":1947,"ĠìºĲ":1948,"ĠëĮĢìĥģ":1949,"Ŀ¼ìĿ´":1950,"ĠìĿ´ë¥´":1951,"Ġê¸°ëĬ¥":1952,"Ġì¿ł":1953,"ìķ¼ê¸°":1954,"Ġë¶Ļ":1955,"Ġëª¨ìĬµ":1956,"Īë©Ķ":1957,"ra":1958,"ĠêµĲíļĮ":1959,"ĠëĨĵ":1960,"Ġê°ģê°ģ":1961,"ĠìĹĺ":1962,"Ġë°ĸ":1963,"ĠíĥĪ":1964,"ĠìĬ¹ë¦¬":1965,"ìľ¼":1966,"Ġê·ľëª¨":1967,"Ġíľ":1968,"Ġì§Ģêµ¬":1969,"ì§Ģë§ī":1970,"Ġì´Īê¸°":1971,"Ġ31":1972,"Ġìĸ¸ìĸ´":1973,"ĠìĿ¸ìłķ":1974,"ĬĲ":1975,"Ġ2013":1976,"Ġì§Ħë":1977,"ìĬĪ":1978,"ĠìĹ°ê²°":1979,"ĠìĿ´ë¯¸":1980,"ê¹Ģ":1981,"Ġëĸ¨ìĸ´":1982,"Ġë¶Ħë¥ĺ":1983,"ĠìŀĦëªħ":1984,"Ġë¨¼":1985,"Ġëħ¸ëıĻ":1986,"Ġìĭľì¼°":1987,"Ġìķłë":1988,"BS":1989,"Ġëħ¹":1990,"¹ĦìķĦ":1991,"ê°Ķ":1992,"ħĲ":1993,"Ģëĭ¤":1994,"Ġëĭ¨ì²´":1995,"Ġ2006":1996,"ĠíħĶ":1997,"ì³¤":1998,"Ġëª©ìłģ":1999,"Ġì¹¨":2000,"íĽ":2001,"ĠìĪĺëıĦ":2002,"Ġì¡¸":2003,"Ġì§ĢëıĦ":2004,"ĠìķĮëł¤ìł¸":2005,"¨¸ëĭĪ":2006,"ìļķ":2007,"íĿ¥":2008,"Ġë¥´":2009,"íħĮë":2010,"Ġì§Ħì¶ľ":2011,"Ġof":2012,"Ġê¼":2013,"Ġìŀł":2014,"ĠíĬ¹ë³Ħ":2015,"ĠëıĻìĭľ":2016,"ĠìĥģíĻ©":2017,"ìĿ´íĦ°":2018,"ĠìĹĲë":2019,"ĠìĿ´ë¡ł":2020,"Ġìĵ":2021,"ëĵĿ":2022,"Ġë§Īì§Ģë§ī":2023,"ê³łë":2024,"Ġë¶Īë¦¬":2025,"íĹĮ":2026,"ê¹Į":2027,"Ġ2015":2028,"Ġì§ģìłĳ":2029,"ed":2030,"ìĿ´ì§Ģ":2031,"ĠëĶ°ëĿ¼ìĦľ":2032,"Ġê°ľìĿ¸":2033,"ê²¼":2034,"ĠìĦľë¡ľ":2035,"Ġíķµ":2036,"ë°±":2037,"Ġì»´":2038,"Ġê¸°ê°Ħ":2039,"ĠìĻĶ":2040,"ĠìĿĳ":2041,"Ġë¥ĺ":2042,"ĠëĽ°":2043,"ĠíĦ°":2044,"Ġë¬¼ë":2045,"Ġìłķì±ħ":2046,"ĠìĮ":2047,"ĠíĸĪìľ¼ëĤĺ":2048,"ĠìĿ´ìķ¼ê¸°":2049,"ìĦ¼":2050,"ĠìŀĲìĹ°":2051,"Ġì§Ī":2052,"Ġê³Ħìķ½":2053,"ĠíħĮë":2054,"ĠìłĦë¬¸":2055,"Ġå¤§":2056,"Ġë¨¹":2057,"íĺģ":2058,"Ġ50":2059,"ĠìłķìĿĺ":2060,"ëĳĲ":2061,"Ġìĭľìŀ¥":2062,"íĭ´":2063,"Ġì¶Ķê°Ģ":2064,"Ġëŀ":2065,"ĠìĹ´ë¦°":2066,"Ġì¡±":2067,"ê³¨":2068,"ĠìĭľìłĪ":2069,"ĠìĤ°ìĹħ":2070,"ìĽł":2071,"¹ĦìĬ¤":2072,"ë©Ķ":2073,"íŀ":2074,"Ġëħ¼":2075,"ê´´":2076,"ê³³":2077,"Ġëħ¸ëŀĺ":2078,"ì¹¨":2079,"Ġê±´ìĦ¤":2080,"Ġê³µëıĻ":2081,"Ģëŀľëĵľ":2082,"Ġíĺģ":2083,"Ġ190":2084,"ĠíĺĦëĮĢ":2085,"Ġ2018":2086,"íķĻìŀĲ":2087,"Ġê³µê°Ħ":2088,"Ġê²½ìĥģ":2089,"ĠìĬµ":2090,"Ġê°ľìµľ":2091,"ĠêµĲìĪĺ":2092,"íĺĶ":2093,"¸Įë":2094,"ĠíĻľìķ½":2095,"Ġì§Ģê¸Ī":2096,"Ġ2016":2097,"íĬ¹":2098,"Ġëĭ¨ë":2099,"ĠíĺķìĦ±":2100,"Ġìľ¼ë©´":2101,"id":2102,"Ġíĺ¸ë":2103,"§ģ":2104,"ĠíĶĮëłĪìĿ´":2105,"Ġëĸłë":2106,"Ġê±´ë¬¼":2107,"Ġë³Ģê²½":2108,"Ġëª¨ëį¸":2109,"ĠåŃ":2110,"ĠíĶĦë¦¬":2111,"Ġê±°ë¦¬":2112,"Ġíĺ¹":2113,"Ġê´Ģíķľ":2114,"Ġê²°íĺ¼":2115,"ĠìĿĺíķĺ":2116,"ĠìĿ¸ë¬¼":2117,"Ġë¶Ģë¥´":2118,"Ġìķķ":2119,"íĤ¨ëĭ¤":2120,"Ġëĭ´ë":2121,"ë²ł":2122,"ëĤĺëĿ¼":2123,"Ġë³ĢíĻĶ":2124,"Ġ2000":2125,"Ġì¡¸ìĹħ":2126,"Ġê·¸ê²ĥ":2127,"´ë¦¬":2128,"Ġæĸ":2129,"Ġåı":2130,"Ġíĺ¼":2131,"Ħëĵľ":2132,"ìĬ¤íĬ¸ë":2133,"Ġê°ĢìĪĺ":2134,"ĠìĤ¬ìĥģ":2135,"ĠìŀĲëıĻ":2136,"ëħĲ":2137,"Ġê²½ì°°":2138,"Ġíį¼":2139,"ac":2140,"Ġë³´ìĹ¬":2141,"Ġê¸´":2142,"ĠìĻĦìłĦ":2143,"Ġë¹Ħë¡¯":2144,"ĠìĹ¬ê¸°":2145,"199":2146,"ĠìĹŃìĭľ":2147,"¶Ī":2148,"ì»µ":2149,"ëĭĪëĭ¤":2150,"¨¼":2151,"Ġë§Ŀ":2152,"ìĿ¸ë":2153,"ìĹ¼":2154,"ĠìºĲë":2155,"Ġëª¸":2156,"ĠTV":2157,"ĠíĮ¨ë":2158,"ìľłë":2159,"18":2160,"ê³µíĻĶêµŃ":2161,"ì¸µ":2162,"Ġ!":2163,"Ġ2017":2164,"ter":2165,"íĤ¨":2166,"ĠíĶ¼ë":2167,"Ġëĭ´":2168,"ĠìĿ¸ë¯¼ê³µíĻĶêµŃ":2169,"ł¹":2170,"ĠëĤ®":2171,"Ġì¹¸":2172,"os":2173,"Ġ2005":2174,"ĠìĨĮìĦ¤":2175,"ĠìĬ¤íİĺìĿ¸":2176,"Ġê²ł":2177,"ĠìµľëĮĢ":2178,"Ġìķ¼êµ¬":2179,"ë£":2180,"Ġ40":2181,"ìĹĦ":2182,"íĻķ":2183,"Ġê³µíĻĶêµŃ":2184,"ë¥ł":2185,"ĠìĨįíķĺ":2186,"Ġê°Ī":2187,"ĠìĽ¨":2188,"ĠêµŃíļĮ":2189,"Ġëħ¸ìĦł":2190,"ĠíķĻìĥĿ":2191,"ĵ¨":2192,"Ġæ°":2193,"Ġê±°ì³Ĳ":2194,"Ġì¤ĳíķĻêµĲ":2195,"Ġ?":2196,"ĠìļĶêµ¬":2197,"ĠìĿ¼ìľ¼":2198,"ì½Ķë":2199,"ĠìĹĨìĿ´":2200,"łī":2201,"ĠëĶ¸":2202,"Ġë§ĪìĿĦ":2203,"íĥķ":2204,"Ġì§Ģì§Ģ":2205,"ĠìĦľë¹ĦìĬ¤":2206,"ìĺ¥":2207,"Ġìĭ¤ìĭľ":2208,"¬ë¦¬":2209,"ì¿Ħ":2210,"ĠíļĮë":2211,"Ġë¸ĮëĿ¼":2212,"ĠíĮĲë§¤":2213,"ëįķ":2214,"Ġê¶ģ":2215,"Ġ2004":2216,"ĠãĢį":2217,"Ġìĥ¤":2218,"²Ī":2219,"Ĳë¦¬":2220,"ìļ±":2221,"ig":2222,"ìļ´ëĵľ":2223,"Ġë³´íĨµ":2224,"Ġë§ĪìĿ´":2225,"Ġê²¸":2226,"ë§Īë":2227,"ĠìĤ¬ëŀĳ":2228,"Ġìŀī":2229,"°Ģ":2230,"Ġëĭ¬ë¦¬":2231,"ë¦°ëĭ¤":2232,"êµ´":2233,"ĠìĻ¸ë":2234,"ĠìľĦíķĺ":2235,"Ġíĥĳ":2236,"ĠìĦ¸ëł¥":2237,"Ġìĸ¸ë":2238,"Ġê°Ģì§Ħ":2239,"ëĭĪìķĦ":2240,"ĠFC":2241,"ĠíĻ©ìłľ":2242,"Ġíķľíİ¸":2243,"ĠìĿ¸íĦ°ë":2244,"ĠìĤ°ë":2245,"íĮħ":2246,"ë¥Ļ":2247,"Ġë¹ĦíĮĲ":2248,"ĠìŀĲê¸°":2249,"Ġìĭ±ê¸Ģ":2250,"Ġê¸°ë°ĺ":2251,"ĥĲ":2252,"ĠìĹ´ë":2253,"Ġíķľëĭ¤ëĬĶ":2254,"ëĤ¨ëıĦ":2255,"ìĹŃìĭľ":2256,"Ġë°´ëĵľ":2257,"Ġì§ĢëĤĺ":2258,"and":2259,"Ġì²ľë":2260,"Ġì§Ģíķĺ":2261,"Ġë§Įëĵł":2262,"½ĥ":2263,"Ġìĭ¸":2264,"ê¶ģ":2265,"Ġn":2266,"Ġì§Īë":2267,"Ġëªħì¹Ń":2268,"Ġëª»íĸĪ":2269,"Ġëª¨ìĸĳ":2270,"íĶĦë¦¬ì¹´":2271,"Ł°ë":2272,"ĠëĪĪ":2273,"ĠìŀĲë£Į":2274,"ĠíħĶëł":2275,"ĠThe":2276,"Ġå¯":2277,"ì£Ħ":2278,"ĠìłĦêµŃ":2279,"ìĪĻ":2280,"ĠìłľìĻ¸":2281,"ĠìĿĺíļĮ":2282,"íĳ":2283,"ur":2284,"ĠãĢĮ":2285,"Ġì¤ĳíĻĶ":2286,"ĠìĪĺíĸī":2287,"Ġï":2288,"Ġë³´íĺ¸":2289,"ê¸¸":2290,"Ġìļ°ì£¼":2291,"¬´ë":2292,"ë¡ł":2293,"Ġíĺ¹ìĿĢ":2294,"Ġìĸ´ëĸ¤":2295,"Ġì¢ħêµĲ":2296,"ŀĲ":2297,"ëį°":2298,"Ġë¶ĢìĤ°":2299,"od":2300,"Ġìļ¸":2301,"ĠëĤĺìĿ´":2302,"íĮĮë":2303,"Ġìļ´íĸī":2304,"ad":2305,"¨ë¦¬":2306,"įĺ":2307,"ĠìĽĮ":2308,"ĠëĤĺìĺ¤":2309,"Ġê·¸ëŀĺ":2310,"ĠëĮĢíķ´ìĦľ":2311,"Ġë¶ĢëĮĢ":2312,"un":2313,"ĠìłĦíĨµ":2314,"Ġë¶Ħìķ¼":2315,"Ġê¸°ë³¸":2316,"Ġê¸°ìĽĲìłĦ":2317,"ĠíĻĺê²½":2318,"Ġì°¨ìĿ´":2319,"ĠìĭľìĦ¤":2320,"Ġê²½ê¸°ëıĦ":2321,"ĠìķĦëĭĮ":2322,"ì¦Īë":2323,"ëĳ":2324,"ìĬ¤íĥĢ":2325,"ìŀ¡":2326,"ĠìĪĻ":2327,"ĠìĨĮëł¨":2328,"Ġê³µìĹ°":2329,"íĥģ":2330,"Ġëħ¼ë":2331,"ĠëĵĿ":2332,"ê¸´":2333,"ĠìĺĪë":2334,"Īë¹ĦìłĦ":2335,"Ġå°":2336,"ĠíļĮìĿĺ":2337,"Ġë¡ł":2338,"ĠíĦ°ë":2339,"ëĶĶ":2340,"ĭ´":2341,"Ġ2019":2342,"ë¦´":2343,"íĶĮë":2344,"ĠíĬ¹ì§ķ":2345,"Ġéĩĳ":2346,"ĠìŀĳìĹħ":2347,"Ġì»´í":2348,"ì¶ĺ":2349,"ĠìĦ¤ëªħ":2350,"ĠíĨµíķ©":2351,"Ġë§¥":2352,"ĮĢë¡ľ":2353,"Ġåľ":2354,"ent":2355,"±±":2356,"ĠëıĦìŀħ":2357,"ĠìĿĺíķľ":2358,"Ġthe":2359,"ĠíħĶëłĪë¹ĦìłĦ":2360,"Ġì§Ģë":2361,"ĠìłĦìŀĲ":2362,"íļ¨":2363,"ation":2364,"ĠìĿ´ëıĻ":2365,"Ġë°©íĸ¥":2366,"Ġ2002":2367,"ĠìłĦê¸°":2368,"Ġì¶ľìĭľ":2369,"íķĦ":2370,"ëıĮ":2371,"ĠìĬ¹ê°ķ":2372,"¾¸":2373,"Ġë¹ĦìĬ":2374,"Ġ189":2375,"ìĻĦ":2376,"åŃ":2377,"Ġë°Ķë¡ľ":2378,"Ġíĩ´":2379,"íĺĳ":2380,"Ĥĺëĭ¤":2381,"ìĶ¨":2382,"Ġì§Ģíľĺ":2383,"ĠìĽĲëŀĺ":2384,"Ġë®¤":2385,"ĠëĤ¨ìª½":2386,"Ġêµ°ëĮĢ":2387,"ĠìĺĪìĪł":2388,"ĠìĦ¼íĦ°":2389,"ĠìĦłìłķ":2390,"ĠëĬ¥ëł¥":2391,"ŀĻ":2392,"Ġë¯Ģë¡ľ":2393,"ĦĪì§Ģ":2394,"ĠíĻķìĿ¸":2395,"Ġìŀĳê³¡":2396,"ĠíĸīëıĻ":2397,"ĠëıĦë¡ľ":2398,"Ġëª©ë¡Ŀ":2399,"Ġìĺ®":2400,"ìĽ¨":2401,"ĠëĦĵ":2402,"Ġìĺ¥":2403,"Ġë¹ĦìĬ·":2404,"ëĿ½":2405,"ë³Ģ":2406,"Ġìŀĳê°Ģ":2407,"Ġåį":2408,"ĠíĸīìľĦ":2409,"Įë²ķ":2410,"ĠìĹ°ë°©":2411,"Ġë¶ģìª½":2412,"Ġêµ¬ìĹŃ":2413,"¬íķ´":2414,"ĠëıĻë¬¼":2415,"Ġê¸°íĥĢ":2416,"ĠëĨĴìĿ´":2417,"um":2418,"Ġå·":2419,"Ġì°¨ëŁī":2420,"Ġê¸°ëıħ":2421,"ĠíĺķìĭĿ":2422,"Ġì°©":2423,"ĠìĭŃ":2424,"ĠíĥĲ":2425,"Ġë¬¸íķĻ":2426,"Ġìĸ´ë¨¸ëĭĪ":2427,"te":2428,"BC":2429,"Ġê°Ģì¡±":2430,"ĠìĽĶëĵľì»µ":2431,"ìľ¤":2432,"ĠìłĪë":2433,"ë¡Ģ":2434,"ĠY":2435,"Ħ·":2436,"ĠìĹŃìŀĦ":2437,"ĠêµĲíĨµ":2438,"ĠíĶ¼íķ´":2439,"ĠìĿ´ëģĮ":2440,"ĠëĤĺê°Ģ":2441,"ìĥĪ":2442,"Ġì¦Ŀê°Ģ":2443,"ĠìĹ´ì°¨":2444,"ĠêµĲíĻ©":2445,"Ġë§Īëĭ¤":2446,"ìĬ¤íĥĦ":2447,"Ġê¸°ì¡´":2448,"ĠæĿİ":2449,"Ġë²Ħë":2450,"Ġíļ¨ê³¼":2451,"ìĿĺìĽĲ":2452,"Ġì§Ģë°°":2453,"ĠëıĦì¿Ħ":2454,"ĠìĨĮíĶĦíĬ¸":2455,"ì¢":2456,"ëĭ´":2457,"Ġìŀĳìļ©":2458,"ĠìľłìĿ¼":2459,"ĩĮ":2460,"Ġíĺģëªħ":2461,"Ġëĭ´ëĭ¹":2462,"Ġê°Īë":2463,"°±":2464,"ŀµ":2465,"Ġ2003":2466,"Ġì¶Ķìłķ":2467,"ĠìľĦë":2468,"Ġë³´ëĤ´":2469,"ĠìĿ´ìłģ":2470,"ë¥¸ëĭ¤":2471,"ĠìĿ´ëķĮ":2472,"ĠìĬ¹ê°ķìŀ¥":2473,"Ġê´":2474,"ĠåĲ":2475,"¡ľìĬ¤":2476,"ë§¹":2477,"ĠíĿĲ":2478,"Ġê¸°ëħĲ":2479,"ìĭ±":2480,"ĠêµŃëĤ´":2481,"ĠëĤ¨ë¶Ģ":2482,"ëĵľë":2483,"ëħĢ":2484,"Ġíģ´ëŁ½":2485,"Ġíĥľìĸĳ":2486,"íĽĪ":2487,"ĵ¨íĦ°":2488,"Ġë§Īë¥´":2489,"į¼ë":2490,"Ġë©´ìłģ":2491,"Ġê¸°ëıħêµĲ":2492,"Ġê°ĳ":2493,"ĠìĻķêµŃ":2494,"ìĬ¤íģ¬":2495,"Ġìª½":2496,"Ġìłģìļ©":2497,"ë¶ģëıĦ":2498,"Ġ=":2499,"Ġë°ĶìĿ´":2500,"Ł¬ìĬ¤":2501,"ĠíĻĪ":2502,"ìķ¡":2503,"²Į":2504,"ĠíĺĳíļĮ":2505,"Ġìŀ¥ê´Ģ":2506,"Ġìĭľì¼ľ":2507,"ĠíĿ¬":2508,"Ġë¹ĦêµĲ":2509,"ĠíĴĢ":2510,"Ġìĭľë¯¼":2511,"Ġíķľëĭ¤ê³ł":2512,"Ġìłķëĭ¹":2513,"Ġë¬¸ë":2514,"ve":2515,"ĠëĤ¨ìŀĲ":2516,"ĠìºĲëĤĺëĭ¤":2517,"ì¥Ĳ":2518,"ĠìĿ¸ê¸°":2519,"ĠìĺĪìłķ":2520,"ëŀĳ":2521,"Ġå¾":2522,"ĠëıĻìª½":2523,"íģ´":2524,"ĠìłĦëĿ¼ë":2525,"ìĹĶ":2526,"Ġì£¼ë³Ģ":2527,"ì´Į":2528,"ri":2529,"ëł¬":2530,"ĠFI":2531,"Ġë¹Ī":2532,"ĭĪë©Ķ":2533,"Ġê³¼ê±°":2534,"į°ë":2535,"ìŀĲë¦¬":2536,"å®":2537,"Ġ1990":2538,"ì¿łë":2539,"Ġh":2540,"łĮ":2541,"ĠìĿ´ìĤ¬":2542,"ĠëĿ¼ìĿ´":2543,"Ġê³§":2544,"ĠX":2545,"Ġêµ¬ê°Ħ":2546,"Ġë°Ķê":2547,"ĠëĤĻ":2548,"Ġìĥģëĭ¹":2549,"ì±Ħ":2550,"Ġíļį":2551,"Ġíķ¨ë":2552,"ĠëĦ£":2553,"Ġì»µ":2554,"Ġíĳľë":2555,"Ġê°ľëħĲ":2556,"¡Ŀ":2557,"Ķë¡ľ":2558,"Ġê°Ģê¹Į":2559,"Ġì°¨ë¡Ģ":2560,"ĠëĮĢìĤ¬":2561,"ĠëĮĢíķĺ":2562,"ĠëĬĲë":2563,"ot":2564,"Ġíģ¬ê¸°":2565,"Ġì±Ķ":2566,"ĠìĦľìª½":2567,"ìº":2568,"ŀľ":2569,"Ġê±´ì¶ķ":2570,"ĠìĹ°ê¸°":2571,"ì£¼ëĭ¹":2572,"ĠíĪ":2573,"Ġê³µìĤ¬":2574,"ĠíĿ¥":2575,"ĠìŀĲì²´":2576,"Ġìķ¡":2577,"Ġìľ¡êµ°":2578,"ì¼ĵ":2579,"ĠìĹĲëĦĪì§Ģ":2580,"Ġë³Ħë":2581,"Ġë©¤":2582,"Ġì£¼ëıĦ":2583,"Ġì§ķ":2584,"Ġìĭ¤íĮ¨":2585,"¯Ģë¡ľ":2586,"ëĶ":2587,"Ġë°©ìĺģ":2588,"Ĥł":2589,"Ġìĺģìĸ´":2590,"ĠìĤ¬ë¬´":2591,"ĶëĿ¼":2592,"ĠìķłëĭĪë©Ķ":2593,"ìĿ´ë¸Į":2594,"ĠìĿ´ëĿ¼":2595,"Ġéĥ":2596,"ĠìĦ±ìŀ¥":2597,"ow":2598,"Ġìĺ¤ëĬĺ":2599,"ì·¨":2600,"ìĺ¬":2601,"ãģ":2602,"ĠìĤ¬ê³ł":2603,"Ġì±ĶíĶ¼":2604,"ê¸Ģëŀľëĵľ":2605,"Ġë²ĦìłĦ":2606,"Ġìĺ¬ëĿ¼":2607,"Ġì¢ħë¥ĺ":2608,"Ġëī´ìļķ":2609,"íĦ¸":2610,"ë¶Ī":2611,"Ġì»´íĵ¨íĦ°":2612,"ìĿ¼ë¦¬":2613,"ĠìŀĳìłĦ":2614,"ĠëĿ":2615,"Ġæĺ":2616,"ĠëĬĺ":2617,"ĠëĶĶìŀĲ":2618,"ê°Ģì§Ģ":2619,"Ġëĭ¤ë¥´":2620,"ĠìĪĺë¡Ŀ":2621,"ìĹĲë":2622,"Ġë¯¼ì£¼ì£¼ìĿĺ":2623,"Ġíĳ¸":2624,"ĠìľĦíķ´ìĦľ":2625,"Ġ2001":2626,"Ġìĸ´ë¦°":2627,"Ġ2020":2628,"ec":2629,"Ġëķħ":2630,"ì¢Į":2631,"łĩ":2632,"Ġíı´ë":2633,"Ġì¡°ê±´":2634,"ĠçĶ":2635,"ĠëłĪìĿ´":2636,"Ġë¹Įë":2637,"Ġëĭ¬ëŁ¬":2638,"Ġì¹Ń":2639,"ĠìĤ¬ëĭ¨":2640,"ĠìĽĢ":2641,"Ġê·ľìłķ":2642,"Ġë°ĺìĿĳ":2643,"ë²Į":2644,"íģ´ë":2645,"íĶĮ":2646,"ĠìĹ°ìĨį":2647,"ê±°ë¦¬":2648,"íħĶ":2649,"Ġë¬¼ë¦¬":2650,"Ġë²ĦìĬ¤":2651,"ë²Ķ":2652,"ĠéĻ":2653,"ĠìķłëĭĪë©ĶìĿ´ìħĺ":2654,"Ġì¿łë":2655,"ĠíĹĪë":2656,"ĠìŀĲì¹ĺ":2657,"Ġëª½":2658,"Ġìķ¤":2659,"ĠìĨįëıĦ":2660,"Ġë¶Ģì¡±":2661,"ĠìĹ°ì£¼":2662,"Ġì²´ìłľ":2663,"Ġì§ĢëĥĪ":2664,"Ġìĸ¼":2665,"ĠìĦłíĥĿ":2666,"Ġìĸ´ëĬĲ":2667,"ĠíĬ¹ìłķ":2668,"íĬ¸ë¦¬":2669,"ĠìĺĽ":2670,"Ġë©¤ë²Ħ":2671,"ì¤":2672,"ìĤ¼":2673,"ĠëĤ´ë¶Ģ":2674,"ĠëĶ°":2675,"Ġa":2676,"Ġëªħëł¹":2677,"Ġë¶ģë¶Ģ":2678,"ë´ī":2679,"Ġë°ĿíĺĶ":2680,"50":2681,"Ġì¹ľêµ¬":2682,"Ġê±¸ì³Ĳ":2683,"ĠìĹ°ëĮĢ":2684,"ĠëĬĶì§Ģ":2685,"Ġcm":2686,"ìĬ¤ì½Ķ":2687,"Ġì¶©ì²Ń":2688,"ĠíĴĪ":2689,"Ġë¡Ŀ":2690,"Ġíľ´":2691,"Ġëĭ¨ê³Ħ":2692,"ĠìĦ¸íı¬":2693,"Ġê·¸ëŁ¬":2694,"ĠìĹĦ":2695,"íķĢ":2696,"íıĲ":2697,"ĠìĦłì¶ľ":2698,"ì¦ĺ":2699,"ir":2700,"ĠìĿ´ëŁ°":2701,"Ġë³´ìĿ¸ëĭ¤":2702,"ìĽ¨ìĸ´":2703,"Ġê°Ģì¹ĺ":2704,"ìł¤":2705,"Ġë¨¸ë¦¬":2706,"ĠìĦłìĸ¸":2707,"ì»¬":2708,"íĬ¸ëĤ¨":2709,"ìĭľë§Ī":2710,"Ġíķ´êµ°":2711,"Ġì¡°ìķ½":2712,"ĠìĿ¼ìĸ´ëĤĺ":2713,"ia":2714,"Ġéģ":2715,"ĠìķĦë¥´":2716,"Ġë¬¼ì§Ī":2717,"ĠíĹĮë²ķ":2718,"Ġì¦Ī":2719,"Ġì¶ľíĮĲ":2720,"ĠSt":2721,"Ġ60":2722,"Ġä»":2723,"łĪìĬ¤":2724,"ĠFIFA":2725,"ë¬´ë":2726,"198":2727,"Ģë¹Ħ":2728,"ĪëıĦ":2729,"op":2730,"Ġë§¨":2731,"Įëĵľ":2732,"Ġê°ľìĽĶ":2733,"ĠìĿ¸ì§Ģ":2734,"Ġëįķ":2735,"ĠæŃ":2736,"ìĬ¬":2737,"ëŀĺ":2738,"ĠíĿĳ":2739,"Ġë§ĪìĿĮ":2740,"łµ":2741,"ĠëįĶìļ±":2742,"ì²Ļ":2743,"ĠìĬ¤íı¬":2744,"Ġë§Īë¦¬":2745,"Ġì§Ģëªħ":2746,"²¨":2747,"ì¡°ë":2748,"į´":2749,"Ġê°ľíĺģ":2750,"ĠìĿĺìĤ¬":2751,"Ġìŀīê¸Ģëŀľëĵľ":2752,"Ġë²ķìĽĲ":2753,"íĨ¨":2754,"Ġg":2755,"ĠìĶ©":2756,"Ġë¶ĦìĦĿ":2757,"íĻį":2758,"Ġë¶Ģë¬¸":2759,"Ġê³¤":2760,"ĠìĿµ":2761,"Ġëĭ¹íķĺ":2762,"ĠëĤ´ëł¤":2763,"Ġìµľì¢ħ":2764,"Ġmm":2765,"ĠCh":2766,"Ġë©ĶìĿ´":2767,"Ġíıīê·ł":2768,"Ġê²°ìĬ¹":2769,"Ġì²´ê³Ħ":2770,"Ġë¹ł":2771,"ì¹¸":2772,"Ġë°°ì¹ĺ":2773,"§¹":2774,"ĠìĦ¤ê³Ħ":2775,"Ġ188":2776,"Ġê°ľë´ī":2777,"Ġê´Ģìĭ¬":2778,"ĠìĦłë°ľ":2779,"Ġì²Ļ":2780,"Ġë¹Ħíĸī":2781,"ìķĦëĵ¤":2782,"Ġìĸ¸ê¸ī":2783,"ĠíĹĮ":2784,"ce":2785,"ĠíĺĦìĥģ":2786,"Ġìłķìĭł":2787,"Ġë§º":2788,"ĵĿ":2789,"ĠíŀĪë":2790,"ĠìĮį":2791,"Ġë§ģ":2792,"Ġ\"(":2793,"Ġê°Ģë¦¬íĤ¨ëĭ¤":2794,"Ġë¶Ħë¦¬":2795,"Ġì½ľë":2796,"ì§¸":2797,"Ġê°ķíĻĶ":2798,"Ġìĸ´ìķ¼":2799,"ver":2800,"Ġíĳľì¤Ģ":2801,"Ġê´Ģíķł":2802,"ë§Ĳ":2803,"Ġì§ĳëĭ¨":2804,"Ġ1980":2805,"ĠìŀĶ":2806,"¨ëĿ¼":2807,"ëĮĢíķľë¯¼êµŃ":2808,"Ġë°¤":2809,"íĺľ":2810,"Ġíİ¸ìĦ±":2811,"Ġë´":2812,"íĹĪ":2813,"Ġë¶Ģìĥģ":2814,"äº":2815,"íĨ¤":2816,"ĠëıĦìĽĢ":2817,"ĠìļĶìĨĮ":2818,"Ġì²ĺë¦¬":2819,"ĠíĽĦë°ĺ":2820,"ĠíĿĶ":2821,"ãĥ":2822,"ĠìĥĪë":2823,"Ġê³łìŀĲ":2824,"ìĿ¼ë³¸":2825,"Ġê°Ħë":2826,"ĠíĻķìŀ¥":2827,"ĠëıĻìĿ¼":2828,"Ġë°ĶëĢ":2829,"ëįľë":2830,"Ġíľĺ":2831,"ĠëıĪ":2832,"ĠìĹĶì§Ħ":2833,"ĠíļįëĵĿ":2834,"ģ¼":2835,"Ġê³łëĮĢ":2836,"ìĦ¸ë":2837,"Ġì¡°ìłķ":2838,"Ġë£¨ë":2839,"©Ķë¦¬ì¹´":2840,"ĠìĿ¼ì¢ħ":2841,"ë¥´íģ¬":2842,"Ġëł¤ê³ł":2843,"Ġì¡°ì§Ģ":2844,"Ġëĵ¤ìĸ´ê°Ģ":2845,"Ġìŀħëĭ¨":2846,"Ġì§ĢìĨį":2847,"Ġ32":2848,"íħĲ":2849,"ë¸Į":2850,"Ġ1999":2851,"oc":2852,"ëĺ":2853,"Ġë¬¸ìŀĲ":2854,"ĠìľłìĤ¬":2855,"Ġìŀ¥êµ°":2856,"ĠìĨĮìľł":2857,"Ġê¸°ìĤ¬":2858,"ĠìłľíĴĪ":2859,"Ġê³µíķŃ":2860,"ĠìłĲëł¹":2861,"ëįľëŀĢëĵľ":2862,"Ġìŀĥ":2863,"Ġìĭ¤íĹĺ":2864,"įķ":2865,"ĠëĮĢì¤ĳ":2866,"Ġìŀ¬íĮĲ":2867,"Ġìĸ´ëł¤":2868,"Ġì£¼ìĿ¸":2869,"ĠëĽ°ìĸ´ë":2870,"ìĦ¯":2871,"ag":2872,"ìķ¼ë§Ī":2873,"ìĩĦ":2874,"Ġ1998":2875,"ĠIn":2876,"Ġê°Ģë¬¸":2877,"ĠìĹ¼":2878,"°ķ":2879,"ĠìĭľëıĦ":2880,"Ġëª°":2881,"íĬ¼":2882,"ĠìĨĮë¹Ħ":2883,"ê´ĳìĹŃìĭľ":2884,"Ġì±ħìŀĦ":2885,"Ġìłķê·ľ":2886,"Ġë¶ģíķľ":2887,"ĶĶìĸ´":2888,"Ġë©Ķë":2889,"Ġëĵ¯":2890,"ë©":2891,"Ġíķ¨ìĪĺ":2892,"ĠíĮ¬":2893,"ĠìĤ¬ëł¹":2894,"Ġì±ĶíĶ¼ìĸ¸":2895,"ĠíĸīìĤ¬":2896,"íĿĲ":2897,"Ġçİ":2898,"ĠêµŃë¦½":2899,"ĠìĪĺì¤Ģ":2900,"Ġë²¤":2901,"ĠìķĦìĭľìķĦ":2902,"Ġìŀ¥ì¹ĺ":2903,"ĠìĿ´íķ´":2904,"Ġëĭ¤ë©´":2905,"Ġë²¨":2906,"Ġ&":2907,"ĠåĪ":2908,"£¨ìĬ¤":2909,"ìĥ¤":2910,"Ġìķ¼ë":2911,"Ġê¸¸ìĿ´":2912,"Ġê²°íķ©":2913,"ĠëĤĺíĥĢëĤĺ":2914,"Ġìĸ¸ë¡ł":2915,"ìłĿ":2916,"íı°":2917,"ĠíĪ¬íĳľ":2918,"Ġê¹Ĭ":2919,"Ġê±°ì£¼":2920,"ĠíĢ":2921,"ĠìķĪìłķ":2922,"ĠìĻ¸êµŃ":2923,"Ġëĥ":2924,"Ġì£¼ë¯¼":2925,"¢°":2926,"Ġãģ":2927,"ĠìĬ¤íı¬ì¸ł":2928,"ĠíĽĪë":2929,"ë¦ī":2930,"ĠìĭľíĹĺ":2931,"Ġë¶Īêµ¬":2932,"ĠíķĻìŀĲ":2933,"ĠìĽĲìŀĲ":2934,"ĠíĮĮë¦¬":2935,"im":2936,"Ġëį°ìĿ´íĦ°":2937,"ĠëıĻë§¹":2938,"¡¤":2939,"ĠãĢĭ,":2940,"Ġê³µìĽĲ":2941,"ĠìĬ¬ë":2942,"Ġë¡ľìĬ¤":2943,"Ġë§ĮëĤĺ":2944,"Ġ35":2945,"ĠìŀĲëıĻì°¨":2946,"Ġì¤Ģë¹Ħ":2947,"Ġêµ¬ëĭ¨":2948,"ìĿį":2949,"Ġæ´":2950,"Ġê³µë¦½":2951,"ìĹĪ":2952,"Ľ¸":2953,"Ġê°Ķ":2954,"ĠëĶĶìŀĲìĿ¸":2955,"Ġê½ĥ":2956,"Ġë¹Ľ":2957,"Ġin":2958,"Ġìĭłë¬¸":2959,"Ġë¹Ħíķ´":2960,"ĠëĦ¤ëįľëŀĢëĵľ":2961,"Ġëª©íĳľ":2962,"Ġë²łìĿ´":2963,"Ġìµľê·¼":2964,"Ġ70":2965,"ëĺĲ":2966,"Ġìłľíķľ":2967,"ĠìĿ¸ëį°":2968,"Ġì¥Ĳ":2969,"ìĸ¼":2970,"íĬ¹ë³Ħ":2971,"Ġê¹Ģë":2972,"Ġë°©ë¬¸":2973,"ay":2974,"ĠìłķíĻķ":2975,"ìĿ¼ëŀľëĵľ":2976,"Ġìłķê¶Į":2977,"Ġì»¨":2978,"Ġê°Ĵ":2979,"Ġ1995":2980,"Ġêµ¬ë¶Ħ":2981,"em":2982,"Ġíı´ëŀĢëĵľ":2983,"ĠëĮĢë¡ľ":2984,"íĤ¬":2985,"ĠíĨµì¹ĺ":2986,"ìłĿíĬ¸":2987,"Ġw":2988,"Ġë¯¿":2989,"Ġë¬¸ìĦľ":2990,"ìĭŃ":2991,"Ĩį":2992,"Ġê²½íĹĺ":2993,"ul":2994,"ĠëĤĺë¬´":2995,"Ġì±Ħë":2996,"Ġê·¸ë¦¼":2997,"Ġê·¸ëłĩ":2998,"Ġê³łìĨį":2999,"Ġìĺ¬ëŀĲ":3000,"ìĬ¤ë¡ľ":3001,"Ġëł¤ëĬĶ":3002,"Ġë¹ĦëĶĶìĺ¤":3003,"Ġ500":3004,"th":3005,"ê°ĳ":3006,"ĠìĤ¬ì§Ħ":3007,"ëĿ¼ë":3008,"ĠìķĮëł¤ì§Ħ":3009,"Ġíı¬ë¥´":3010,"ĠíĨµê³¼":3011,"Ġê±°ëĳĲ":3012,"ĠíĨµìĿ¼":3013,"ä¸":3014,"ãĤ":3015,"60":3016,"Ġê¶Įë":3017,"Ġëª¬":3018,"Ġë²Īíĺ¸":3019,"ĠìĦ±ìłģ":3020,"Ġ1997":3021,"ĠìķĦì§ģ":3022,"Ł°ëįĺ":3023,"Ġìī½":3024,"Ġì¹ĺë£Į":3025,"ĢëĿ¼":3026,"Ġìļ©ìĸ´":3027,"Ġìĺ¤ëĬĺëĤł":3028,"Ĥľëĭ¤":3029,"Ġë³¸ìĦł":3030,"ĠìĽĲìĿ¸":3031,"Ġì´ī":3032,"Ġìłľì¡°":3033,"Ġë¶ĪêµĲ":3034,"ĠëĮĢêµ¬":3035,"Ġ1996":3036,"Ġë§ĮíĻĶ":3037,"ĠìĻľ":3038,"Ġìŀħìŀ¥":3039,"ë¦¬ìĺ¤":3040,"ĠìĽ¹":3041,"Ġê²½ìĺģ":3042,"Ġê°Ģìłķ":3043,"ĠìĺģìĹŃ":3044,"£¨ë":3045,"Ġê³Ħë":3046,"ì¹ł":3047,"ĠíļĮìŀ¥":3048,"Ġ80":3049,"ĠíıīíĻĶ":3050,"Ġìľłëŀĺ":3051,"Ġì°¬":3052,"Ġë²łíĬ¸ëĤ¨":3053,"Ġåº":3054,"ĠíıĲì§Ģ":3055,"ĠìĦľë¶Ģ":3056,"ĠëĦĲë¦¬":3057,"íĹ¤":3058,"ĠìĻķì¡°":3059,"Ġë°ľëĭ¬":3060,"ì£¼ìĭľ":3061,"Ġíķ´ìĦĿ":3062,"ìĭłë":3063,"Ġëħ¸ëł¥":3064,"Ġë³ĳìĽĲ":3065,"ĠíĪ¬ìĪĺ":3066,"ĠìĨĮìŀ¬":3067,"Ġì¹¼":3068,"ĠìľłìłĦ":3069,"·°":3070,"Ġë¯¼ì£¼ëĭ¹":3071,"ìĬ¤íĦ´":3072,"Ġë¶ĢìĿ¸":3073,"íģ¼":3074,"ĠìĪł":3075,"Ġå±±":3076,"ĠìĿ¸ì²ľ":3077,"ĠìĦ¸ìĽĮ":3078,"©ĺ":3079,"Ġë³´ëıĦ":3080,"ĵ¬íķ´":3081,"Ġï¼":3082,"Ġê²½ìŁģ":3083,"ĠìĻĦìłĦíŀĪ":3084,"Ġì¶Ķì§Ħ":3085,"ĠëĮ":3086,"ìĽ¨ìĿ´":3087,"ĠìĿ´ê³³":3088,"ĠìĻĦë":3089,"ĠìļĶì²Ń":3090,"²¤":3091,"Ġ1994":3092,"ĠìķĦìĿ´ë":3093,"łĢ":3094,"ì½©":3095,"Ġë°©ìĸ´":3096,"ĠìĺĪìĦł":3097,"ĠëĪĦë":3098,"ĠæĪ":3099,"ĠìĤ¬ëĿ¼":3100,"Ġ1970":3101,"Ġì¢ħíķ©":3102,"Ġ1992":3103,"ĠíĶĦë¡ľìłĿíĬ¸":3104,"ĠíĮĮê´´":3105,"ĠìĽĢì§ģ":3106,"ĠãĢı":3107,"ĠëĤĺëī":3108,"ĠìłľìķĪ":3109,"Ġì´Ŀë¦¬":3110,"Ġì£¼ìĹ°":3111,"Ġë²ķë¥ł":3112,"Ġê³¼ë":3113,"Ġíĳľê¸°":3114,"ĠíĺĪ":3115,"íĪ":3116,"ĠìĹ¬ê²¨":3117,"21":3118,"Ġê¶¤":3119,"Ġíİ¼":3120,"Ġ+":3121,"ìĵ":3122,"ĠíĸīìĦ±":3123,"Ġë¬´ê¸°":3124,"ë§İ":3125,"Ġê²½ê³Ħ":3126,"íĬ¸ë¡ľ":3127,"¹Ī":3128,"ĠìļĶë¦¬":3129,"ĠìĭłëĿ¼":3130,"Ġë¯¸ìĤ¬":3131,"Ġ187":3132,"ĠìĿĢíĩ´":3133,"Ġìłķë¦¬":3134,"Ġë°Ķíĥķ":3135,"ĠíĽĪëł¨":3136,"ĠìłĢë":3137,"ĠìĺģíĨł":3138,"¨¸ì§Ģ":3139,"ĠíĨµìĭł":3140,"Ġëĵ±ë¡Ŀ":3141,"Ġë¬´ëĮĢ":3142,"ĠìŀĲì£¼":3143,"Ġë¶Ģìłķ":3144,"ĠKBS":3145,"ĠëıĻë¶Ģ":3146,"ĠìĭĿë¯¼":3147,"³´ë":3148,"ĠìĿ¼ìłľ":3149,"íĹ¨":3150,"ĠìĪĺìļ©":3151,"nd":3152,"ĠëŁ°ëįĺ":3153,"Ġë¯¸ìĪł":3154,"ĠëįĶë¶Ī":3155,"ìłľë¡ľ":3156,"Ġìłķìĥģ":3157,"Ġ33":3158,"ì½ĺ":3159,"§¥":3160,"ìļĶìĿ¼":3161,"ĠìĬ¤ìĬ¤ë¡ľ":3162,"Ġìĺ¤ìĬ¤íĬ¸":3163,"ĠëĤĺë¨¸ì§Ģ":3164,"Ġç¾":3165,"íıŃ":3166,"Ġìºł":3167,"ĠìķĻ":3168,"íĨ¨ë¦Ń":3169,"Ġä½":3170,"ĠìĥĿë¬¼":3171,"Ġìŀĩ":3172,"Ġì¡°ê°ģ":3173,"ì°¬ê°Ģì§Ģ":3174,"ìĽ¨ë":3175,"ĠìĹ°êµ¬ìĨĮ":3176,"ĠìķĦìĦľ":3177,"ĠìĹħë¬´":3178,"Ġê¸Īì§Ģ":3179,"ĠëıĦìĦľ":3180,"Ġì£¼ìłľ":3181,"Ġë°ĽìķĦëĵ¤":3182,"10":3183,"ĠìķĦíĶĦë¦¬ì¹´":3184,"Ġì§ĢëĮĢ":3185,"ĠëĵĿìłĲ":3186,"ĠìłĦíķ´":3187,"ĠìĿ¸ìĭĿ":3188,"Ġ1991":3189,"ĠìłķìĭĿ":3190,"íĨłë¦¬":3191,"ìĭľì½Ķ":3192,"Ġëĭ¹íĸĪ":3193,"Ġê±°ë¶Ģ":3194,"ĠìĿ¸íĦ°ëĦ·":3195,"ĠìĹ°ë§¹":3196,"ĠëĿ¼ëĶĶìĺ¤":3197,"Ġë©Ģ":3198,"ĠêµŃíļĮìĿĺìĽĲ":3199,"Ġ;":3200,"Ġë°ķìĤ¬":3201,"Ġëª°ë":3202,"Ġìĺ¤ëŀĺ":3203,"Ġë°ľìĤ¬":3204,"Ġê·¸ëĮĢë¡ľ":3205,"Ġì²łíķĻ":3206,"Ġë¸Į":3207,"ĠìĻ¸êµĲ":3208,"ëĳ¥":3209,"Ġê²°ìĦ±":3210,"Ġ\",":3211,"Ġä¹":3212,"ĠìĨĮë¦¬":3213,"Ġê²¨":3214,"²½":3215,"Ġê²¬":3216,"ĤĺëĿ¼":3217,"Ġë¡ľìį¨":3218,"ëĭĺ":3219,"ìľµ":3220,"ĠãĢĭ()":3221,"ĠìĿĺìĭĿ":3222,"ĠëĮĢì²´":3223,"ìĽ¨ëį´":3224,"Ġë³´ìĪĺ":3225,"ĠìĿ´ëĿ¼ê³ł":3226,"Ġ1993":3227,"Ġë³µê·Ģ":3228,"ĠíĮ¨ë°°":3229,"ĠëĤ¨ìĦ±":3230,"Ġë°ĶëĢĮ":3231,"Ł³":3232,"Ġê¸°ìĹ¬":3233,"å·":3234,"Ġëĭ¤ìĪĺ":3235,"Ġê³ĦìĹ´":3236,"ëłĪìĬ¤":3237,"ìķĪë":3238,"ĠìĬ¤íħĮ":3239,"ëĵ¤":3240,"Ġìłĳê·¼":3241,"ĠìĿ´ëĵ¬íķ´":3242,"Ġe":3243,"Ġíĳľìĭľ":3244,"Ġìĺ¤ë¥¸":3245,"Ġì°¨ìĽĲ":3246,"ĠìºĲë¦Ń":3247,"ë¥¼":3248,"Ġìĥģíĺ¸":3249,"EFA":3250,"ë¯¸ë":3251,"Ġíģ¬ë¦¬ìĬ¤":3252,"ìķĦê°Ģ":3253,"ëŀµ":3254,"ĠìĦ±ê²©":3255,"Ġì§§":3256,"Ġì¶Ķë":3257,"Ġä¸Ń":3258,"ĠìĿ´ìĬ¤":3259,"ĠìĦľìĭĿ":3260,"Ġë§Īì°¬ê°Ģì§Ģ":3261,"Įëĭ¤":3262,"íĤ¹":3263,"Ġìĭ¤ìłľë¡ľ":3264,"Ġíķ´ê²°":3265,"Ġìŀ¥ìĨĮ":3266,"Ġå¹":3267,"Ġê°ķëł¥":3268,"Ġê²½ê¸°ìŀ¥":3269,"ìĹĨ":3270,"ĠìĿ¸ìĤ¬":3271,"ë°Ģ":3272,"Ġë²½":3273,"Ġ1988":3274,"Ġìĵ°ìĿ´":3275,"Ġê¸°ì´Ī":3276,"Ġê¿":3277,"Ġê°Ģë¥´":3278,"ìķĮ":3279,"íį¼ë":3280,"ĠìºĲë¦ŃíĦ°":3281,"ĠìŀĦìĭľ":3282,"Ġíķĺê³Ħ":3283,"Ġì£¼ìĿĺ":3284,"Ġì§ĢëıĦìŀĲ":3285,"Ġ38":3286,"Ġê³µìŀĳ":3287,"ëª¨ë":3288,"ë°Ľ":3289,"li":3290,"ĠæĻ":3291,"§Ĳ":3292,"ìĽħ":3293,"Ġëı¼":3294,"ĠìĹĲìĬ¤":3295,"íĺ¹":3296,"Ġë°ĶìĿ´ë":3297,"Ġëĭ¤ë¦¬":3298,"íŀĪë":3299,"Ĳĺ":3300,"Ġì´ĪëĮĢ":3301,"Ġê³¨ë":3302,"íĺ¸ë":3303,"ê³¤":3304,"Ġæĸĩ":3305,"ĠëŁī":3306,"ķìĭľì½Ķ":3307,"Ġë¬ĺìĤ¬":3308,"Ġë°ķë¬¼":3309,"197":3310,"íĬľë":3311,"ĠìĭĿë¬¼":3312,"Ġê·¼ì²ĺ":3313,"Ġìĺ¤ë¥´":3314,"ĠìĿĢíĸī":3315,"íķľêµŃ":3316,"ìĦŃ":3317,"Ġê²ĢìĤ¬":3318,"Ġë¨¸ë":3319,"194":3320,"Ġë°ľíĸī":3321,"Ġæ³":3322,"ìĬ¤íĬ¸ëłĪ":3323,"Ġëĭ¨ìĪľ":3324,"ĠìĹ¬ê°Ŀ":3325,"Ĥ¨ëıĦ":3326,"Ġê¸°ìŀĲ":3327,"Ġì°¨íĬ¸":3328,"Ġë°ĺë©´":3329,"Ġìľ¨":3330,"ĠìķĦìĿ¼ëŀľëĵľ":3331,"Ġê°ĢíĨ¨ë¦Ń":3332,"ĠëıĦì°©":3333,"ìĿ´íģ¬":3334,"Ġë§Įíģ¼":3335,"Ġì§Ģìłģ":3336,"ëªĩ":3337,"ŁŃ":3338,"ĠìĹ°ê·¹":3339,"Ġìĺ¤ëŀ":3340,"ĠíĻĶíķĻ":3341,"ĠìĬ¤ìĽ¨ëį´":3342,"ĠëĤĺíĥĢëĤ´":3343,"Ġì¹¨ë":3344,"ĠëłĪìĿ´ë":3345,"Ġê´Ģì¸¡":3346,"Ġ1989":3347,"ìĿ¼ë¦¬ìķĦ":3348,"Ġê¶Įëł¥":3349,"Ġê¸°êµ¬":3350,"og":3351,"íĬ¹ë³Ħìĭľ":3352,"ìĬ¤íĬ¸ëłĪìĿ¼ë¦¬ìķĦ":3353,"ħ¸ë":3354,"Ġ1960":3355,"Ġë°Ķëĭ¤":3356,"ìĽĮëĵľ":3357,"ĠíļĮìĽĲ":3358,"ĠíĻľìļ©":3359,"Ŀ¼ìĬ¤":3360,"Ġé«":3361,"ĠìĪĺíķĻ":3362,"Ġëĭ¤ìĿ´":3363,"ĠíĪ¬ë":3364,"Ġê°ľêµŃ":3365,"ìĿ¸íĬ¸":3366,"¦¬":3367,"Ġì´ĿìĦł":3368,"Ġìĭľíĸī":3369,"Ġë¯¼ë":3370,"ĠíĿ¡":3371,"Ġê¸°ê³Ħ":3372,"ĠìĦ¸ëĮĢ":3373,"ĠëģĮ":3374,"ĠìĿ¼ìłķ":3375,"§ī":3376,"åľ":3377,"Ġì§ĢëĤľ":3378,"Ġì¡°ìĦ±":3379,"Ġë¸ĮëĿ¼ì§Ī":3380,"Ġë¬´ìĹŃ":3381,"ĠUEFA":3382,"Ġë²ĪìĹŃ":3383,"Ġì§ĳíķ©":3384,"Ġëĭ¨ìĸ´":3385,"17":3386,"ëĬĺ":3387,"Ġë¨¼ìłĢ":3388,"ĠìĿ´ìĻ¸":3389,"Ġì¤ĳëĭ¨":3390,"ĠíĥĪë":3391,"ìĸµ":3392,"ìŀĶ":3393,"15":3394,"ĠìĿ´ëł":3395,"Ġë²łë¥´":3396,"Ġíı´":3397,"ap":3398,"Ġì¹´ëĵľ":3399,"ìŀĦìĬ¤":3400,"Ġë°ĺëŀĢ":3401,"ĠíĨµíķĺ":3402,"Ġ186":3403,"Ġ45":3404,"Ġíĺĳëł¥":3405,"ard":3406,"Ġ34":3407,"Ġë¶Ħíı¬":3408,"Łİ":3409,"ĠãĢİ":3410,"Ġê´ĳì£¼":3411,"Ġíĭ°ë":3412,"ĠìĤ¬ìĿ´íĬ¸":3413,"Ġíĺ¼ë":3414,"²ĦìĬ¤":3415,"Ġë°ķë¬¼ê´Ģ":3416,"ł¡":3417,"»į":3418,"ĠéĽ":3419,"ĠìĹ°ìŀ¥":3420,"ĠìĦľìļ¸íĬ¹ë³Ħìĭľ":3421,"NA":3422,"Ġìĭ¤ìłľ":3423,"Ġê²ª":3424,"ĠìĨĮíĶĦíĬ¸ìĽ¨ìĸ´":3425,"ĠìĹ¬ë¦Ħ":3426,"ê°Ħëĭ¤":3427,"ĠìľĦíĹĺ":3428,"ĠëĦĪë":3429,"Ġíĺķìłľ":3430,"Ĥ¸":3431,"ĠíĬ¸ë¦¬":3432,"Ġì£½ìĿĮ":3433,"Ġìłľìĭľ":3434,"ĠëĸłëĤĺ":3435,"ĠíĮĮê²¬":3436,"ĠìĥĿìĦ±":3437,"Ġë¹Į":3438,"Ġë¶ĢìĹ¬":3439,"ĠìĦ±ë¦½":3440,"ë¬´ìĽĲ":3441,"Ġê³µìŀ¥":3442,"ĠìķĪìłĦ":3443,"ĠìĹ¬íĸī":3444,"Ġì¤ĳê°Ħ":3445,"Ġê·¼ê±°":3446,"ĠìĬ¤ìľĦ":3447,"ìĽĮíģ¬":3448,"Ġíķ´ìķĪ":3449,"Ġìłľê¸°":3450,"ĠíĽĦê¸°":3451,"Ġë°Ķê¾¸":3452,"ê·¸ëŁ¬ëĤĺ":3453,"ĠìĪĺë§İ":3454,"ĠíĺĲ":3455,"Ġìĺ¤ìĬ¤":3456,"íĥĳ":3457,"Ġíı°":3458,"ĠìĿ´ëłĩ":3459,"Ġë¶ķ":3460,"Ġëĭ¤ë§Į":3461,"Ġìĺ¤ìĬ¤íĬ¸ë¦¬ìķĦ":3462,"ĠìķĮëłī":3463,"ĠíĻķëĮĢ":3464,"Ġë°Ķë¥´":3465,"Ġìĺ¤ë¸Į":3466,"Ġë³¸ë¶Ģ":3467,"Ġê·Ģì¡±":3468,"ì§Ģìħĺ":3469,"Ġìľłíĺķ":3470,"íļĮìĤ¬":3471,"Ġë°ĿíĺĢ":3472,"ĠìĬµëĭĪëĭ¤":3473,"ĠíŀĪë¡ľ":3474,"ê°ĢìĻĢ":3475,"Ġ90":3476,"ìķĦìĭľìķĦ":3477,"Ġëī´ìĬ¤":3478,"ĠíĪ¬ìŀĲ":3479,"ì°¸":3480,"ĠìĸĳìĭĿ":3481,"ĭĿ":3482,"ĠìĦ¸ìĽł":3483,"ìĽĥ":3484,"Ġì´¬":3485,"ĠíķĦë¦¬":3486,"Ġæķ":3487,"Ġëħ¼ëŀĢ":3488,"Ġ48":3489,"Ġå¿":3490,"Ġ36":3491,"Ġìľłë¡ľ":3492,"Ġëĭ¹ìĦł":3493,"Ġë¹ħ":3494,"Ġìłķì¹ĺìĿ¸":3495,"ëĲĺ":3496,"Ġë³´ìľł":3497,"ĠìĻĦìĦ±":3498,"Ġå¼":3499,"ĠëıĻìĥĿ":3500,"ĠìĤ¶":3501,"ê°Ģë¦¬":3502,"ĠìĪľìľĦ":3503,"Ġëĭ¨ìľĦ":3504,"Ġê°ķìĽĲ":3505,"Ġìĥģì§ķ":3506,"st":3507,"Ġê¾":3508,"Ġê·¹ìŀ¥":3509,"ĠìĬĪíį¼":3510,"´ë¡ľ":3511,"Ġëĵł":3512,"ie":3513,"Ġì§ĢìĭĿ":3514,"ĠëĮĢìĿĳ":3515,"ĠìĦ¸ìĥģ":3516,"ĠìĪĺìĤ¬":3517,"ì¡°ìĦł":3518,"ĺë¦¬":3519,"Ġì§Ģìĥģ":3520,"Ġë³´ìĺĢ":3521,"ĠìľĦê¸°":3522,"ĠëĤĺì¤ĳ":3523,"Ġë³´ì¡´":3524,"Ġì£¼ìĸ´":3525,"Ġìĺ¤ë¦¬":3526,"ĠíķĻìľĦ":3527,"ĠìłĦìĭľ":3528,"Ŀ¼ìĿ´ë":3529,"íĭ±":3530,"íŀĮ":3531,"ëĺĲíķľ":3532,"Ġì½Ķëĵľ":3533,"Ġì´¬ìĺģ":3534,"Ġì§Ģíķĺì²ł":3535,"Ġå»":3536,"íĳ¸":3537,"ë°°ìļ°":3538,"Ġëĭ¬ìĦ±":3539,"íķµ":3540,"Ġìĺģìĥģ":3541,"Ġìľ¼ë¯Ģë¡ľ":3542,"ĠìłĦëŀµ":3543,"ĠìĪ¨":3544,"Ġë¸Ķ":3545,"Ġê²½ìĥģëĤ¨ëıĦ":3546,"ĠëĤ´ê°ģ":3547,"ëĦ":3548,"ìī":3549,"Ġë²Įìĸ´":3550,"²łë¥´":3551,"ë¦¬ëĵľ":3552,"Ġãĥ":3553,"ëįĶ":3554,"íıīìĸĳ":3555,"ĠëĶĶì§Ģ":3556,"Ġìĵ´":3557,"Ġv":3558,"Ġê³ĦìĬ¹":3559,"Ġë¶Ģë¥¸ëĭ¤":3560,"ĠìĺĨ":3561,"Ġê·¼ë¬´":3562,"ĠëĦ¤íĬ¸":3563,"Ġê°ĲìĨĮ":3564,"ĠìľłëĮĢ":3565,"ìĭ¸":3566,"ine":3567,"Ġê´Ģê´ĳ":3568,"Ġì½Ķì¹ĺ":3569,"Ġë®¤ì§ģ":3570,"ĠéĿ":3571,"Ġìĺ¤ìĤ¬":3572,"ĠìĤ¼ìĦ±":3573,"Ġìĺ¹":3574,"ĠìłĦëĭ¬":3575,"ê¶":3576,"ê²Ĳ":3577,"ì°¨ë":3578,"Ġ1986":3579,"ĠíĥĢìĿ´íĭĢ":3580,"Ġìĭ¶":3581,"ĠìĽĲìĨĮ":3582,"ĠëĵľëŁ¬ë":3583,"Ġ300":3584,"Ġì²´ê²°":3585,"Ġë°ľë§¤ëĲĺ":3586,"âĢ":3587,"Ġëĭĺ":3588,"Ġç¥":3589,"ut":3590,"Ġì²´íı¬":3591,"Ńī":3592,"Ġand":3593,"Ġê²½ìĥģë¶ģëıĦ":3594,"ĠìĦ¤ìłķ":3595,"Ġ1987":3596,"16":3597,"ĠíĬ¹ìĪĺ":3598,"Ġì¸ł":3599,"ĠìĥĿëªħ":3600,"ĠìĬ¤ì½Ķ":3601,"ĠíĨ¤":3602,"Ġê°Ģìł¸":3603,"Ġì§ģíĽĦ":3604,"ì§ĳíĬ¸":3605,"Ġê°ľìłķ":3606,"ĠìĭĿë¯¼ì§Ģ":3607,"ess":3608,"ĠìĥģìĹħ":3609,"ĠêµŃìĻķ":3610,"ĠíĮĲëĭ¨":3611,"ëħ¸ë":3612,"±ħ":3613,"íĺĪ":3614,"ĠëĿ¼ìĿ´ë":3615,"Įë¦¬ìĹĦ":3616,"ĠëĦĪ":3617,"ĠìĿĺê²¬":3618,"ìłĦë":3619,"Ġä¸ī":3620,"Ġíİľ":3621,"Ġê¶Įë¦¬":3622,"Ġíķĺë£¨":3623,"ì¹´ìĿ´":3624,"Ġìĺ¤ìĬ¤íĬ¸ëłĪìĿ¼ë¦¬ìķĦ":3625,"ĠíĮĮìĿ¼":3626,"Ġë©ķìĭľì½Ķ":3627,"ìĨĮëħĦ":3628,"Ġæµ":3629,"ŀį":3630,"Ġë°ĳ":3631,"ĠìķĦëĤ´":3632,"Ġìł¸":3633,"Ġê°ľíĨµ":3634,"Ġê²°ë":3635,"ë£¡":3636,"ĠëĤ³":3637,"ĶĶë":3638,"ĠìĬ¹ê²©":3639,"Ġì¸¡ìłķ":3640,"ĠíĻĢ":3641,"Ġëĭ¤ë£¨":3642,"Ġì£Ħ":3643,"ĠìĮĵ":3644,"ĠëĶ°ë¥¸":3645,"į¤":3646,"Ġìŀ¥ìķł":3647,"íĴĢ":3648,"Ġìĭľì²Ń":3649,"ĠìķĦìĭľ":3650,"ĠìĿ´íķĺ":3651,"Ġìľłë¦¬":3652,"æľ":3653,"ĠëĶĶë":3654,"ĠìłĦíĻĺ":3655,"Ġìłľìłķ":3656,"ĠëĮĢëĮĢ":3657,"ĠìļĶë":3658,"Ġì±ĦëĦĲ":3659,"12":3660,"Ġì²ľíĻ©":3661,"Ġë¯¸ëŀĺ":3662,"Ġ37":3663,"ê¼":3664,"Ġëªĩëªĩ":3665,"ĠíĬ¹ìĦ±":3666,"íĭ°ëĤĺ":3667,"Ġê¸°íļį":3668,"ĠêµĲì²´":3669,"ion":3670,"ĠìĿ¼ìľ¼ì¼":3671,"ìłł":3672,"ĪëŁ°":3673,"ĠìŀĲë³¸":3674,"Ġì¢ħë£Į":3675,"Ġì¶ľìĥĿ":3676,"ŀ«":3677,"ì½Ķëĵľ":3678,"Ġæ°ı":3679,"Ġ1984":3680,"êµĲíļĮ":3681,"Ġë¯¸êµ°":3682,"ĠìĹĺë¦¬":3683,"Ġë°°ë":3684,"ĠêµĲë":3685,"Ġê´Ģì°°":3686,"Ġë¬¸íĻĶìŀ¬":3687,"Ġë§¹":3688,"Ġë§ĪìĤ¬":3689,"ì²łëıĦ":3690,"ëŀĮ":3691,"Ġì·¨ìŀĦ":3692,"Ġì£¼ìĿ¸ê³µ":3693,"ĠìĨĮìĪĺ":3694,"Ġì¹¼ë":3695,"Ġì§ĢìľĦ":3696,"ĠìĿ´ëŀĺ":3697,"íĢ":3698,"ĠëĮĢë¥Ļ":3699,"Ġë²Ĺ":3700,"ĠìĨĮê°ľ":3701,"Ġê°ķíķľ":3702,"Ġ',":3703,"ab":3704,"ĠìłĬ":3705,"ĠZ":3706,"Ġì§Ģì§Ħ":3707,"ì§Īë":3708,"Ġê³Ħê¸°":3709,"Ġë¯¸ìĤ¬ìĿ¼":3710,"ëĭ¤ìĿĮ":3711,"Ġëª»íķľ":3712,"Ġì¶ĺ":3713,"Ġçİĭ":3714,"Ġì·":3715,"ĠìĨĮìŀ¥":3716,"ĠíĻĪëŁ°":3717,"Ġíĺľ":3718,"ìĺ¹":3719,"Ġ1950":3720,"Ġê³µê¸ī":3721,"ìłĦíŀĪ":3722,"Ġë¥ł":3723,"Ġ1985":3724,"íģ¬ìĬ¤":3725,"Ġë¬¼ë¡ł":3726,"Ġë¹Ħìļ©":3727,"Ġì£¼ëª©":3728,"ĠìĬ¤íĬ¸ë":3729,"14":3730,"Ġë²Ķì£Ħ":3731,"Ġëĸ¨ìĸ´ì§Ħ":3732,"ĠëĤ©":3733,"Ġì£¼ìĭĿ":3734,"åŃ¸":3735,"ĠìĿ´ëłĩê²Į":3736,"Ġê°Ģë¦¬íĤ¤":3737,"Ġë³´ëĥĪ":3738,"ĠëıĦìĦľê´Ģ":3739,"Ġé«ĺ":3740,"Ġê·¸ë¦°":3741,"Ġ39":3742,"Ġìĭłê²½":3743,"íķľíİ¸":3744,"ìĤ°ëĭ¹":3745,"ĠìĿĢíķĺ":3746,"Ġê³µë¶Ģ":3747,"ĠëĶĶì§ĢíĦ¸":3748,"ĲëĿ¼":3749,"Ġëĵ£":3750,"Ġì¶©ëıĮ":3751,"Ġë°°ê²½":3752,"Ġìĺ¬ë¦¬":3753,"Ġë§Įëĵľ":3754,"Ġìĺ®ê²¨":3755,"Ġìľ¼ë©´ìĦľ":3756,"ĠëĩĮ":3757,"ĠëĲ¨":3758,"Ġíħį":3759,"Ġì¢ħëª©":3760,"Ġìłľê±°":3761,"ĠíĹĿ":3762,"ity":3763,"¡Ń":3764,"ìĶ":3765,"ĠìŀĲê²©":3766,"Ġê³µìĤ°":3767,"ë¹Ī":3768,"Ġíİĺë¥´":3769,"ĠìĿ´ì§ĳíĬ¸":3770,"Ġê°ģì¢ħ":3771,"ĠìĿ½":3772,"Ġl":3773,"Ġê¶¤ëıĦ":3774,"ĠìŀĳìĦ±":3775,"Ġëħ¹ìĿĮ":3776,"Ġìĭľíĭ°":3777,"Ġå¸":3778,"Ġíķ´ìĻ¸":3779,"Ġìī¬":3780,"ĠMBC":3781,"ĠìĪĺìłķ":3782,"Ġêµ°ìĿ¸":3783,"Ġì¤Ģëĭ¤":3784,"Ġì¦Ĳ":3785,"ĠìĤ¬íļĮì£¼ìĿĺ":3786,"Ġê°Ģìŀħ":3787,"ĠìĿĮìĭĿ":3788,"íĶ¼ë":3789,"ĠëĳĶ":3790,"Ġì¦īìľĦ":3791,"Ł´":3792,"Ġíķ©ë¥ĺ":3793,"ĠÎ":3794,"ĠìłĦì°¨":3795,"Ġíģ¬ë¡ľ":3796,"ë¸Įë":3797,"Ġìį¼":3798,"ĳĶ":3799,"Ġìĺ¤íĽĦ":3800,"Ġê±°ëĮĢ":3801,"ĠìŀħíķĻ":3802,"ĠëıĮë":3803,"Ġëŀĺ":3804,"Ġë³ĳëł¥":3805,"30":3806,"ak":3807,"Ġìŀ¥ê¸°":3808,"ĠëĤĺëĪĦ":3809,"ĠìĿ¸ê·¼":3810,"ìķ¤":3811,"Ġê³ĦìĤ°":3812,"ĠìĽĲìłķ":3813,"ìļ¸ë":3814,"for":3815,"ĠìĿ´ë£":3816,"ĭī":3817,"Ġíı¬ë¥´íĪ¬":3818,"Ġì§ĳì¤ĳ":3819,"ud":3820,"ĢëŁ¬":3821,"Ġëģ¼":3822,"ĠíĽĪ":3823,"Ġíģ´":3824,"Ġë¹Ħë°Ģ":3825,"Ġê°ľìĦł":3826,"ĠìĿ¸ìĪĺ":3827,"ĠìĿ´ë£¨ìĸ´ìł¸":3828,"ìĸ´ëĤĺ":3829,"Ġì§ĪëŁī":3830,"Ġ1982":3831,"ĠìĿ¼ìĸ´ëĤľ":3832,"ĠêµŃê²½":3833,"Ġê°Ģê¹Įìļ´":3834,"íĭ°ìķĦ":3835,"Ġë¶Ģëª¨":3836,"Ġ1945":3837,"ĠìĦ±ìļ°":3838,"Ġë³ĳìĤ¬":3839,"Ġê°ķì¡°":3840,"ĠìłĦìĤ¬":3841,"ĠëĿ¼ìĿ¸":3842,"ĠìłĢíķŃ":3843,"ìĹ½":3844,"Ġë§Īì¹ĺ":3845,"Ġë¸Įë¦¬":3846,"Ġì§ĢëĤ´":3847,"ĠìĺĪìĪĺ":3848,"Ġíĥľë":3849,"ìĿ´íĽĦ":3850,"ĠëĬĲ":3851,"Ġìĭ¤íĸī":3852,"ĠëĦ¤íĬ¸ìĽĮíģ¬":3853,"ĠìłĦëĿ¼ëĤ¨ëıĦ":3854,"Ġê°Ģê²©":3855,"ĠëªħìĺĪ":3856,"ĠëłĮ":3857,"Ġì¸¡ë©´":3858,"Ġde":3859,"Ġìłľëª©":3860,"ìĺ¤ì¹´":3861,"Ġê·ł":3862,"ys":3863,"Ġìķ½ê°Ħ":3864,"igh":3865,"ĠíĻįì½©":3866,"ĠII":3867,"ĠìľĪëıĦ":3868,"ìĦ¬":3869,"ì½ľ":3870,"ĠìĬ¤íĤ¤":3871,"ê²Ģ":3872,"ber":3873,"ĠâĪ":3874,"ĠëıĦì¤ĳ":3875,"Ġéĸ":3876,"Ġê²°ìĬ¹ìłĦ":3877,"ĠìŀĲìĽĲ":3878,"ĠìĭłíķĻ":3879,"2010":3880,"Ġíı¬ì§Ģìħĺ":3881,"Ġê°Ŀ":3882,"Ġëį¸":3883,"ìĨĮë¦¬":3884,"ëłĮ":3885,"ĥ¥":3886,"Ġìłķì°©":3887,"Ġê¸°íļĮ":3888,"Ġêº":3889,"Ġë³Ģíĺ¸":3890,"Ġëļ":3891,"ĠíķĻë¬¸":3892,"ĠëĤ¨ë¶ģ":3893,"ìĩ¼":3894,"ĠëĳĲë":3895,"ĠåĬ":3896,"Ġê°Ģì¡Į":3897,"´ëĭ¤":3898,"©¸":3899,"ĠæĿ±":3900,"ëĭ¥":3901,"ĠëĤĺìĻĶ":3902,"Ġëħ¸ëıĻìŀĲ":3903,"ìĿ´ìĸ´":3904,"Ġë¬´ëłµ":3905,"Ġì²ŃëħĦ":3906,"Ġëį´ë":3907,"ëıĦë¡ľ":3908,"ìķĦëħ¸":3909,"Ġìĭ¬ë¦¬":3910,"Ġë³¸ê´Ģ":3911,"ist":3912,"Ġë°ĢëıĦ":3913,"Ġì¹ł":3914,"ĠìĻ¼":3915,"Ġ'(":3916,"ì»·":3917,"Ġä¿":3918,"ë¦¬íŀĪ":3919,"Ġì§ĢìłĲ":3920,"Ġë§Īëł¨":3921,"Ġì§ĵ":3922,"ë¦¿":3923,"Ġè¡":3924,"Ġ1983":3925,"Ġìŀİ":3926,"Ġê³µêµ°":3927,"ĠìķĦíĤ¤":3928,"Ġíİ¸ì§ĳ":3929,"ĠìĿ´ìĬ¬ë":3930,"ĠìĪĺë¹Ħ":3931,"ĠçĽ":3932,"ĠíĺĲìĿĺ":3933,"ĠìĬ¬":3934,"Ġìĭłíĺ¸":3935,"ìħĶ":3936,"ĠìĿ´ì£¼":3937,"ĠìĭľíĤ¨":3938,"ĠìĿ´ëŀĢ":3939,"ĠìĻ¸ë¶Ģ":3940,"Ġå¥":3941,"Ġëªħëĭ¨":3942,"Ġê±´ê°ķ":3943,"íĶ¼ìķĦ":3944,"Ġëĭ¤ìĿ´ë":3945,"196":3946,"Ġì·¨ë":3947,"est":3948,"ë°Ķë":3949,"ĠíĹĪìļ©":3950,"Ġë¬´ìŀ¥":3951,"ĠìłĦë°ĺ":3952,"ĠëĿ¼ìļ´ëĵľ":3953,"Ġë¶Īë¦°ëĭ¤":3954,"Ġì¶©ë¶Ħ":3955,"ĠìĿ¸íķľ":3956,"ĠíĨµìłľ":3957,"Ġíĳľë©´":3958,"Ġê°ĸì¶Ķ":3959,"ì´ī":3960,"ĠíĭĢ":3961,"ĠëĵĢ":3962,"Ġì¦Ŀëªħ":3963,"éĻ":3964,"ĠìµľìĨĮ":3965,"åĲ":3966,"ĠìķĦë§Ī":3967,"ê²¨ë":3968,"Ġì²´ìľ¡":3969,"ĠìĺģíĻĶë°°ìļ°":3970,"ìĺ¤ìĬ¤":3971,"ĠíĦ°íĤ¤":3972,"Ġê±´ëĦĪ":3973,"Ġê´ĳê³ł":3974,"ë¶ķ":3975,"Ġç¦":3976,"Ġë²łëĦ¤":3977,"¼ë¦°":3978,"ĠëĴ·":3979,"ĢëŀĢëĵľ":3980,"ĭĪë":3981,"ran":3982,"íĶĪ":3983,"Ġê·¸ëł¤":3984,"íİľ":3985,"ĠíĺĦìĭ¤":3986,"ge":3987,"ĠìķĦì¹´ë":3988,"¶ģëıĦ":3989,"ĠìĹ¬ìłĦíŀĪ":3990,"Ġê¸°íĽĦ":3991,"ĠëıĻë£Į":3992,"ëĦĲ":3993,"¶Ļ":3994,"ĠìĿ¸ëĶĶ":3995,"Ġìŀ¬ìĤ°":3996,"Ġëĵ±ê¸ī":3997,"ĠìľĦìĽĲìŀ¥":3998,"ĠìĿĮëł¥":3999,"ĠìľĮë¦¬ìĹĦ":4000,"ĠAl":4001,"Ġìŀ¬ì§ģ":4002,"all":4003,"ìķĦíĶĦë¦¬ì¹´":4004,"ìħĢ":4005,"Ġë°ĶëŀĮ":4006,"Ġìłģê·¹":4007,"ĺë¦¬íı¬ë":4008,"¹Ħë":4009,"ĠêµŃë°©":4010,"ĠRe":4011,"ĠìłĦëł¥":4012,"¸Ĳ":4013,"Ġëŀĳ":4014,"íķĳ":4015,"Ġíķ©ë³ĳ":4016,"ĠìļĶìĭľ":4017,"2014":4018,"ĠèĪ":4019,"ĠëĤĺìĺ¨":4020,"ĠìĨĮìĨ¡":4021,"ë§ģ":4022,"ĠíĻĺìŀĲ":4023,"Ġìĺ¨ëıĦ":4024,"ĠëĳĺëŁ¬":4025,"ĠíķĻëħĦ":4026,"Ġê³Ħê¸ī":4027,"Ġëª¨ìĬ¤":4028,"Ġìŀ¡ì§Ģ":4029,"ĠìłĦìĹŃ":4030,"ĠëĨįìĹħ":4031,"qu":4032,"Ġ1981":4033,"Ġê¸Īìľµ":4034,"ph":4035,"Ġë³¸ëŀĺ":4036,"ì§ĵ":4037,"Ġ400":4038,"Ġë¯¸ëĶĶìĸ´":4039,"Ġë²ĶìľĦ":4040,"å¤":4041,"ĠìľĦíĺĳ":4042,"Ġìŀ¬ìłķ":4043,"ĠíĹĿê°Ģë¦¬":4044,"ĠÐ":4045,"ĠìŀĦë¬´":4046,"ìķ¼ë":4047,"ĠìĿ¸íķĺ":4048,"FC":4049,"ĺë¦¬íı¬ëĭĪìķĦ":4050,"Ġëħ¸ë¥´":4051,"ª¨íĨł":4052,"Ġåħ¬":4053,"ìĬ¤íĤ¤":4054,"ĠìľłëıĦ":4055,"¶Ģë¥´íģ¬":4056,"Ġì¶ľë°ľ":4057,"ĠíĻķë³´":4058,"ĠìłĦíķĺ":4059,"ĠíĦ°ë¯¸ë":4060,"ĠìĪ²":4061,"Ġæī":4062,"ĠìĹħì²´":4063,"íĺĦìŀ¬":4064,"Ġëł¹":4065,"ĠåĮ":4066,"ĠíķŃìĥģ":4067,"ĠìĿ´ìĬ¬ëŀĮ":4068,"ub":4069,"Ġë§ĪìĿ´íģ¬":4070,"ì§ľ":4071,"Ġë³´ê³ł":4072,"¬ëĭ¤":4073,"Ġíķ´ë°©":4074,"ĠíĦ¸":4075,"§Īíģ¬":4076,"Ġê²¨ìļ¸":4077,"Ġë¶Ģê·¼":4078,"ty":4079,"ĠìĭľìĿ¸":4080,"Ġëĭµ":4081,"Ġåī":4082,"Ġëĥī":4083,"ĠìĪĺìŀħ":4084,"ĠìłĲì°¨":4085,"Ġì³":4086,"2008":4087,"Ġë¶ķê´´":4088,"ĠâĢĵ":4089,"Ġêµ¬ì¶ķ":4090,"ĠìłĦìĦł":4091,"ĠìĸĳìĦ±":4092,"2011":4093,"Ġê¼¬ë¦¬":4094,"Ġê±°ëŀĺ":4095,"ìķłë":4096,"ĠìĿ´ë¯¸ì§Ģ":4097,"ìŀī":4098,"ĠæĹ":4099,"Ġì±ĦíĥĿ":4100,"ĠìĬ¹ìĿ¸":4101,"ĠìĪĺë¦½":4102,"Ġìŀ¥ë©´":4103,"ĠëĿ¼ë©°":4104,"Ġíĥľíıīìĸĳ":4105,"Ġëħ¼ë¬¸":4106,"Ŀ¼ëıĦ":4107,"ĭĪìĬ¤":4108,"íĬľëĶĶìĺ¤":4109,"Ġê°ľíİ¸":4110,"Ġ1979":4111,"ĠíļĮë³µ":4112,"2016":4113,"ĠíĬ¸ëłĪ":4114,"ĠëĥĪ":4115,"Ġë¯¼ê°Ħ":4116,"ìħľ":4117,"Ġë°ĶìĿ´ëŁ¬ìĬ¤":4118,"Ġë¡¤":4119,"ell":4120,"Ġì¡°ì¹ĺ":4121,"ĠåŃ¸":4122,"ĠåĽ":4123,"Ġëĭ¤ìĦ¯":4124,"Ġê°ĢìĬ¤":4125,"Ġ184":4126,"ĠëĮĢíķĻìĽĲ":4127,"ĠìĿ´ë²Ī":4128,"ìĿ´ëıĦ":4129,"Ġë§Įì¡±":4130,"ĠìĦłê±°êµ¬":4131,"Ġ42":4132,"tic":4133,"ĠìĹĶíĦ°":4134,"Ġì½©":4135,"Ġê°ķìĽĲëıĦ":4136,"ĠìĦŃ":4137,"ĠéĢ":4138,"Ġê³łìłĦ":4139,"Ġ64":4140,"Ġê°ķìĿĺ":4141,"ĠìłĦê°ľ":4142,"ĠMar":4143,"Ġíķ©ìĿĺ":4144,"Ġëĭ¤ëĭĪ":4145,"ĠAn":4146,"ĠêµĲìĤ¬":4147,"ĠíĦ°ë¯¸ëĦĲ":4148,"Ġë¹ĦíĬ¸":4149,"ëĭĮ":4150,"Ġê³µìĤ°ëĭ¹":4151,"ĠìħĢ":4152,"Ġê°ķìłľ":4153,"ª¨ë¦¬":4154,"Ġíı¬ë¥´íĪ¬ê°Ī":4155,"Ġê·¸íķ´":4156,"Ġë¸ĶëŀĻ":4157,"ĠìĬ¤íĬľëĶĶìĺ¤":4158,"Ġê·¸ëŀĺìĦľ":4159,"Ġêµ°ëĭ¨":4160,"ê³łë¦¬":4161,"ĠìľĦìĦ±":4162,"ĠìĽĲì¹Ļ":4163,"Ġ55":4164,"13":4165,"Ġæ²":4166,"Ġìŀ¥ë¹Ħ":4167,"Ġ1973":4168,"ĠíķĺìĿ´":4169,"Ġ1972":4170,"Ġê³µê³µ":4171,"Ġêµ°ì£¼":4172,"CA":4173,"Ġë¶ĪëłĢ":4174,"Ġë²Ħë¦¬":4175,"ëª¬":4176,"ª¬":4177,"ĠìĿ¼ìĽĲ":4178,"ĠìĪĺëĭ¨":4179,"ì£¼êµĲ":4180,"Ġì¶©ì²ŃëĤ¨ëıĦ":4181,"ĠëĿ¼ë©´":4182,"ĠëģĬ":4183,"ë¬¸íĻĶ":4184,"Ġì´Į":4185,"Ġê¸°ì§Ģ":4186,"Ġìı":4187,"ĠìĹĳ":4188,"Ġì§ĢëĤ":4189,"Ġì¹´ìĿ´":4190,"Ġì¤ĳìĭ¬ì§Ģ":4191,"ĠíĽĦì¿ł":4192,"ĠìĭłíĻĶ":4193,"Ġìŀ¥ìĭĿ":4194,"Ġå¯º":4195,"¥Ń":4196,"ĠìĸĳìŀĲ":4197,"ers":4198,"ĤĺìĿ´":4199,"ĠíĶĮë¡ľ":4200,"Ġìĸ¼êµ´":4201,"Ġê³µìĹħ":4202,"Ġå®ī":4203,"ne":4204,"ĠíĨłë¡ł":4205,"ĠíĻķìĭ¤":4206,"ĠëĦĪë¬´":4207,"Ġíķ´ëıĦ":4208,"¹ìĬ¤":4209,"ĠëıĻê³Ħ":4210,"ĠìĹĲê²ĮìĦľ":4211,"2013":4212,"ëł¸":4213,"ŀĺíĶĦíĬ¸":4214,"ĠTh":4215,"ë³¼":4216,"Ġbr":4217,"ĠëĤ¨íİ¸":4218,"ëłĪìĿ´":4219,"ìĿ´ëĦĪ":4220,"ê±°ë":4221,"Ġê°ķìłĲ":4222,"ĠíĨłì§Ģ":4223,"ë¬ĺ":4224,"Ġë½":4225,"ĠëĮĢìĪĺ":4226,"Ġê³łì¢ħ":4227,"Ġë¯¸ì¹ĺ":4228,"ĠìķĮëłīìĤ°ë":4229,"Ġèĩ":4230,"ĠåįĹ":4231,"Ġê·¼ëĮĢ":4232,"ĠìĤ¬ë¡Ģ":4233,"Ġê°Ħì£¼":4234,"Ġë¶Īê°Ģ":4235,"ĠíĤ¬":4236,"Ġìºĺë¦¬íı¬ëĭĪìķĦ":4237,"Ġê²½íĸ¥":4238,"2012":4239,"ĠìĿ¼ìĸ´ëĤ¬":4240,"íķ´ë":4241,"Ġ44":4242,"Ġë¶ĦìŀĲ":4243,"ĠëĮĢìŀ¥":4244,"Ġ180":4245,"ëĤĺë¬´":4246,"ĠìĿĺíķĻ":4247,"Ġ185":4248,"ĠëĮĢíĺķ":4249,"Ġê·¸ê³³":4250,"2018":4251,"Ġê²½ëł¥":4252,"ëĿ¼ìĹĺ":4253,"Ġì¢ħì¢ħ":4254,"ĠìĦ¸ìļ°":4255,"ìļĶìĭľ":4256,"Ġë§¤ëħĦ":4257,"Ġ47":4258,"Ġíķ´ì²´":4259,"Ġê¿Ī":4260,"ĠìĬ¤ëŁ¬":4261,"ĠìĹ´ëł¸":4262,"Ġíĥĳìŀ¬":4263,"uc":4264,"Ġì¢ħìĿ´":4265,"į°ë¯¸":4266,"Ġìķ¼ë§Ī":4267,"Ġì²´ë":4268,"Ġè¨":4269,"ìĦłë":4270,"Ġê¸°ìĸµ":4271,"ë¦´ë":4272,"Ġê·ľì¹Ļ":4273,"Ġë¹¼":4274,"ìĸ´ëĵ¤":4275,"Ġë¦°":4276,"ĠìĬ¤ë":4277,"ìļ°ëĵľ":4278,"Ġíĸ¥ìĥģ":4279,"ĠëĤ¨ëıĻ":4280,"êµ¬ëł¤":4281,"Ġå¤©":4282,"ĠíĿ¬ë":4283,"Ġíķłë":4284,"ĠìĦ±ìĿ¸":4285,"ĠíĶĦëłĪ":4286,"°±ì§Ī":4287,"ĠìĦ¸ì¢ħ":4288,"ĠìĦłìĥĿ":4289,"Ġìļķ":4290,"ëłĪë":4291,"ĠíķŃìĦ±":4292,"Ġëĸ¨ìĸ´ìł¸":4293,"íľ":4294,"ĠìĦłê³ł":4295,"Ġë¶Īê³¼":4296,"ĠìĭľìľĦ":4297,"Ġæ·":4298,"Ġî":4299,"ĠëĮĢê¸°":4300,"Ġì¦Ŀê±°":4301,"Ġë¥´ë":4302,"2015":4303,"Ġìļ¸ìĤ°":4304,"Ġëį°ìĿ´ë":4305,"ìķĦë©Ķë¦¬ì¹´":4306,"Ġë¡Ń":4307,"Ġìŀłìĭľ":4308,"ĠìķĦì£¼":4309,"ĠëĿ¼íĭ´":4310,"ëĭĿ":4311,"ìļ´ëıĻ":4312,"Ġìĸ´ëĸ»":4313,"ĠìĭłìĦ¤":4314,"ìĨĶ":4315,"ĠìĿĺíķ´ìĦľ":4316,"Ġëĳ¥":4317,"oun":4318,"ĠíķĢëŀĢëĵľ":4319,"Ġre":4320,"Ġìļ´ë":4321,"Ġæ±":4322,"ĠçĻ":4323,"ë¯¸êµŃ":4324,"Ġë³´ìŀ¥":4325,"Ġì¹¨ê³µ":4326,"Ġ1974":4327,"ë¯¼êµŃ":4328,"ĠìĬ¤ìľĦìĬ¤":4329,"Ġì§Ĳ":4330,"Ġë§Įìķ½":4331,"ĠíĿ°":4332,"Ġ75":4333,"íĤ¤ìķĦ":4334,"our":4335,"Ġì²łëıĦìĹŃ":4336,"ĠëıħìŀĲ":4337,"Ġìľµ":4338,"Ġì¡°íķ©":4339,"ĠìĿ´ëģĦ":4340,"Ġê°Ĳìłķ":4341,"Ġê°Ģë¡ľ":4342,"Ġì°¸ë":4343,"Ġê·ĢêµŃ":4344,"Ġë§Ĳë":4345,"Ġíİ¸ìŀħ":4346,"íĭĢëŀľëĵľ":4347,"ĠíĻľë":4348,"ĠëĮĢë¦½":4349,"ì½ľë":4350,"ìĿĮìĿ´":4351,"ĠíķĦë":4352,"Ĥ¸ëĭ¤":4353,"ĠíĻķìłķ":4354,"Ġì§ĦíĻĶ":4355,"ìĿ¼ëŁ¬":4356,"Ġê°ĸì¶ĺ":4357,"ĠìķĦë¦":4358,"Ġê¸°ëĮĢ":4359,"ĠëłĪì½Ķëĵľ":4360,"Ġ1978":4361,"Ġë¹łë¥´":4362,"2017":4363,"¾į":4364,"Ġì¢Ģ":4365,"Ġìħ°":4366,"Ġìĥģíķĺ":4367,"ĠíķĦë¦¬íķĢ":4368,"Ġëĭ¨ì§Ģ":4369,"¤Ħ":4370,"ĠìķĮëł¤ì¡Į":4371,"Ġâī":4372,"å·ŀ":4373,"ĠìĿ´ë£¨ìĸ´ì§Ħ":4374,"ê³łê¸°":4375,"ëª»":4376,"ìĺ¨ëĭ¤":4377,"ĠQ":4378,"ea":4379,"ĠìĦ±ê³¼":4380,"Ġìłľì£¼":4381,"Ġìĵ°ìĿ¸ëĭ¤":4382,"Ġíı¼":4383,"ĠìĤ´íķ´":4384,"Ġíķ¨ëĮĢ":4385,"Ġë³µìŀ¡":4386,"Ġ1971":4387,"ĠëĤĺëīĺ":4388,"Ġë³´ë³ĳ":4389,"Ġìĭľê°ģ":4390,"ĠìķĦì¹´ëį°ë¯¸":4391,"Ġë¹Ħìľ¨":4392,"Ġëª½ê³¨":4393,"ìĦ°":4394,"ĠëĬĲëĤ":4395,"ĠÃ":4396,"Ġë¶ī":4397,"ong":4398,"ĠëĿł":4399,"ĠìĿĺìŀ¥":4400,"Ġ150":4401,"Ġìļ°ìĪĺ":4402,"ĠìķĦëĤĺ":4403,"ip":4404,"Ġ43":4405,"ë§¨":4406,"ĠíĪ¬ìĸ´":4407,"ìħĶë":4408,"Ġê°ĲìĹ¼":4409,"ĠìĭłìķĻ":4410,"Ġë²ķìĿ¸":4411,"ĠìĤŃ":4412,"ĠìķĦëŀį":4413,"Ġ1976":4414,"ĠëĤŃ":4415,"ĠëĽ°ìĸ´ëĤľ":4416,"ĠìĿĺë£Į":4417,"Ġì°½ìĦ¤":4418,"Ĭ¬":4419,"íĬ¸ëĿ¼":4420,"ìĹĩ":4421,"ice":4422,"ĠìĿ´ìĬ¹":4423,"ìłķë¶Ģ":4424,"ĠìłľìŀĦìĬ¤":4425,"Ġê³µì£¼":4426,"ìľłëŁ½":4427,"ìĹ°ë":4428,"ª¨ë":4429,"ĠëĤĺì¹ĺ":4430,"ìĿĮìĿ´ìĿĺ":4431,"ìķĦë²Ħì§Ģ":4432,"³¼":4433,"ĠëıĻìĿĮìĿ´ìĿĺ":4434,"ĠëĦĺìĸ´":4435,"Ġåľĭ":4436,"Ġ1975":4437,"Ġì§Ģìĭľ":4438,"ĠìłĦíĻĶ":4439,"ëĦ¤ìĭľìķĦ":4440,"11":4441,"ĠìĭľíĤ¬":4442,"Ġë³´ê¸ī":4443,"ĠíĸĪìĹĪ":4444,"ìĹĨìĿ´":4445,"íı¬ë¥´":4446,"Ġë°ĺëıĦ":4447,"¨ëĿ¼ìĿ¸":4448,"ì¹¨ë":4449,"ĠæĶ":4450,"ŀŃ":4451,"ìĪŃ":4452,"ĠìľłëĭĪ":4453,"ĠìĻķìľĦ":4454,"ĠìĿ´ìĬ¤ëĿ¼ìĹĺ":4455,"¡±":4456,"ĠìŀĲê¸Ī":4457,"Ġì°¸ìĦĿ":4458,"ĠìĦľìĸĳ":4459,"ĠìĺĪìĥģ":4460,"Ġíĥľìĸ´ëĤľ":4461,"Ġì²ŃëĤĺëĿ¼":4462,"Ġ1969":4463,"ĠìĿ´ë£¨ìĸ´ì§Ģ":4464,"ì¤Ħ":4465,"Ġê²Įë":4466,"Ġì¹´ìļ´":4467,"ìĭ±íĦ´":4468,"Ġêµ´":4469,"ĠëĤĺìĻĢ":4470,"2009":4471,"ĠìĦłì¡°":4472,"ĠìĹĲìĦł":4473,"Ġë¸Įëŀľëĵľ":4474,"ìĿĺíļĮ":4475,"Ġì§ĳíĸī":4476,"Ŀ¼ëħ¸":4477,"Ġíıīìĸĳ":4478,"Ġê°ķìłĲê¸°":4479,"ê½ĥ":4480,"Ġê°ĢìĤ¬":4481,"Ŀ¼ë¹ĦìķĦ":4482,"ķ·":4483,"ĠìłĢìŀ¥":4484,"Ġê³łë¬¸":4485,"Ġì¹´ë©":4486,"ìĸĢ":4487,"Ġë§Įì£¼":4488,"Ġê³łêµ¬ëł¤":4489,"Ġê³łìĸĳ":4490,"Ġëĭ¨ë°±ì§Ī":4491,"Ġë³¸ê²©":4492,"Ġìĺ¬ëł¸":4493,"ĠìłĦíĺĢ":4494,"ìŀ¬ë":4495,"íģĲ":4496,"ik":4497,"ìľĪ":4498,"Ġìĸ¼ë§Ī":4499,"ĠëıĻìĿĺ":4500,"ĠìĪ«":4501,"ìĽĲêµ°":4502,"Ġë©ĶìĿ´ìłĢ":4503,"ĠìķĦë¬´":4504,"Ġë§Īëĵľ":4505,"ĵľë¡ľ":4506,"Ġëª¨ë¦¬":4507,"ĠíĽĦìĨĲ":4508,"Ġì§ĢíĤ¤":4509,"íĭ°ë¸Į":4510,"ĠìľłíķĻ":4511,"ĠíĿĺ":4512,"ĠìŀĲìĦ¸":4513,"íĻĢ":4514,"Ġê²Ģì°°":4515,"ìĹ¬ë":4516,"Ġëª¨ë¥´":4517,"ĠâĪ¼":4518,"Ġíģ´ëŀĺ":4519,"ĠëŀŃ":4520,"Ġìĭ¬ë":4521,"Ġë°ķì¥Ĳ":4522,"åħ":4523,"Ġëħ¸ìĺĪ":4524,"Ġíĥľìĸ´ëĤĺ":4525,"Ġ|":4526,"Ġ1968":4527,"Ã©":4528,"ĠìķĦìĬ¤":4529,"Ġê·¸ëŁ°":4530,"ĠíıŃë°ľ":4531,"Ġê³µìľł":4532,"ëı":4533,"ë°į":4534,"ĦĪë":4535,"Ġë°©ë©´":4536,"ìĹĲë¥´":4537,"ĠìĭľíĤ¨ëĭ¤":4538,"Ġì£¼êµĲ":4539,"Ġì°°":4540,"Ġíĺĳìĥģ":4541,"Ġì°¨ë³Ħ":4542,"åŃĲ":4543,"ìĵ°ë":4544,"íķĺëĿ¼":4545,"ê³±":4546,"ĠíĽĦì§Ģ":4547,"ST":4548,"Ġkg":4549,"Ġì¡°ê¸Ī":4550,"ĠëĨĢ":4551,"Ġ1963":4552,"Ġì¤ĳíĻĶë¯¼êµŃ":4553,"ĪĦìĬ¤":4554,"ĠLe":4555,"ĠìĹ°ê³ł":4556,"Ġìļ°ìĦł":4557,"Ġê³µíķĻ":4558,"Ġíķµìĭ¬":4559,"ë¹Ħë":4560,"ê°ģíĺķ":4561,"íĹ¨íĭ°ëĤĺ":4562,"ë²½":4563,"ĠìĪĺìĽĲ":4564,"ĠìĪĺì¶ľ":4565,"Ġåħĥ":4566,"ĠìĬ¤íĥĢìĿ¼":4567,"Ġë¶ĪëŁ¬":4568,"Ġëį´ë§Īíģ¬":4569,"ĬĦ":4570,"ĠíķĺëĬĺ":4571,"ĠìĦ¸ìļ´":4572,"ëĵĢ":4573,"ĠìķĦë¥´ë":4574,"ĠíĬĢ":4575,"Ġæħ":4576,"ĠUn":4577,"Ġìĵ°ë":4578,"Ġë§Īë¦¬ìķĦ":4579,"ĠíĮĲê²°":4580,"Ġì¤ĳë°ĺ":4581,"ĠëĮĢë¹Ħ":4582,"ĠìĤ¬íĽĦ":4583,"ĠíĥĦìĥĿ":4584,"ĠëĮĢíķŃ":4585,"ĠíĨµíķľ":4586,"ĠìķĦìķ¼":4587,"ìĶ¬":4588,"Ġ54":4589,"Ġr":4590,"Ġë¬»":4591,"íļĮë":4592,"Ġå¹³":4593,"Ġìĺ·":4594,"ĠíĮĲë":4595,"Ġì´Īë°ĺ":4596,"ĠìłĦìĦ¤":4597,"Ġê¶Įíķľ":4598,"ĠìĨĮëħĦ":4599,"Ġì²ŃìĨĮëħĦ":4600,"ĠìĿ¸ìĥģ":4601,"ĠìłĦìļ©":4602,"ëģ":4603,"ìĺ¤íĶĦ":4604,"ĠìĪŃ":4605,"Ġì½ľ":4606,"ĠìľĪëıĦìļ°":4607,"Ġë§Ĳê¸°":4608,"íĦ°ë¦¬":4609,"Ġêµ¬ì²´":4610,"Ġë²łìĿ´ìĬ¤":4611,"Ġ1977":4612,"ĠìĤ°ë§¥":4613,"ĠAr":4614,"¼ë¡ľ":4615,"ĠìĨĶë¡ľ":4616,"ĠìķĮë¦¬":4617,"ĠìĥģíĴĪ":4618,"ĠìĦ±ëĭ¹":4619,"Ġ46":4620,"ìĬ´":4621,"ĠìŀŃ":4622,"Ġç«":4623,"Ġìĩł":4624,"ĠëĤĺíı":4625,"195":4626,"ĠíĺĦë":4627,"Ġìĺ¨ëĿ¼ìĿ¸":4628,"ĠDe":4629,"Ġë´Ħ":4630,"ĠìĿ´ìĿµ":4631,"íı´":4632,"Ġx":4633,"ìħĶëĦĲ":4634,"ĠìĪľìĦľ":4635,"Ġì§ģìĽĲ":4636,"Ġìŀĺëª»":4637,"ĠìĪĺìĹ¬":4638,"Ġë³ĦëıĦ":4639,"Ġë¹ĦëĤľ":4640,"ìķĹ":4641,"¥¼ë¦°":4642,"ĠìĿĺë¬´":4643,"ĠìĹĲíĶ¼":4644,"íľ´":4645,"éĥ":4646,"ĠìķĦë©Ķë¦¬ì¹´":4647,"ĠNe":4648,"ĠìĬ¤ë¦¬":4649,"íķ´ì¡Į":4650,"ĠìĨĶ":4651,"Ġë£¨ìĿ´":4652,"Ġê²Ĳ":4653,"ìķĮë":4654,"Ġìŀ¥ì°©":4655,"å±±":4656,"ĠìĿ¸ì¡°":4657,"ĠìķĶìĤ´":4658,"Ġì¤ĳë¶Ģ":4659,"av":4660,"ĠìĤ¬ìłĦ":4661,"Ġê³łìłķ":4662,"Ġë³Ģíĺ¸ìĤ¬":4663,"Ġê³µíı¬":4664,"ìĤ´ë":4665,"ê±¸":4666,"¸Ķë":4667,"ìĺ¬ë":4668,"Ġëħ¼ë¦¬":4669,"íĶĦë¦¬":4670,"ìĨĮëĵľ":4671,"ĠìĨĮìĭĿ":4672,"ĠíĶĮëŀ«":4673,"ĠìĤ¬íķŃ":4674,"ì°į":4675,"ĠìĽĲìŀĳ":4676,"ĠíĪ¬ìŀħ":4677,"°Ķë":4678,"Ġìŀĳê³¡ê°Ģ":4679,"¹Ļ":4680,"Ġëį®":4681,"Ġç¸":4682,"ë©°":4683,"Ġë³¸ìĿ¸":4684,"Ġë¬´ë¦¬":4685,"Ġë§Īëĵľë¦¬ëĵľ":4686,"Ġìľ¡ìĥģ":4687,"Ġê³µë¬´ìĽĲ":4688,"íķĦë":4689,"Ġê³µê¸°":4690,"¥´íĬ¸":4691,"ĠíļĮìłĦ":4692,"Ġê°ģë³¸":4693,"ĠëıĮìķĦê°Ģ":4694,"ang":4695,"Ġèģ":4696,"ë²ĦíĬ¸":4697,"ĠìĹŃëĮĢ":4698,"ìļ°ë¦¬":4699,"ry":4700,"éģ":4701,"ê°ľë":4702,"ìŀĲê¸°":4703,"Ġê´Ģë£Į":4704,"Ġíĺĳìłķ":4705,"ĠíĿĶíŀĪ":4706,"ĠíĶĮëłĪìĿ´ìĸ´":4707,"¬ĺ":4708,"íģ¬ë°Ķ":4709,"ĠìľłìĹĶ":4710,"Ġë¹łë":4711,"Ġ1920":4712,"ĠíķŃë³µ":4713,"Ġê³łíĸ¥":4714,"ĠìłĢì§Ģ":4715,"¯¼ë":4716,"Ġst":4717,"ìĤ¬íĤ¤":4718,"ìĿ¼ë³´":4719,"se":4720,"Ġê°ķíķĺ":4721,"Ġëĭ¨ìĿ¼":4722,"Ġìĺ¤íŀĪë":4723,"Ġìĸ´ë¦°ìĿ´":4724,"Ġëį´":4725,"Ġê´ĳìĹŃìĭľ":4726,"Ġ1964":4727,"ĠìĬ¤ì¼Ģ":4728,"Ġ179":4729,"ĠìļĶìĥĪ":4730,"ĠíĽ¨":4731,"ĠìĤ¼êµŃ":4732,"°ĺëıĦ":4733,"ĠëĤĺëĪ":4734,"ĠìĤ¬ëł¹ê´Ģ":4735,"ìĸ´ìĬ¤":4736,"Ġìĺ¤ë¥¸ìª½":4737,"ê´Ħ":4738,"íį¼ìĬ¤":4739,"Ġì¶Ķì¸¡":4740,"ĠìĦłìĪĺëĭ¨":4741,"Ġìłķë³µ":4742,"ìĦľìļ¸":4743,"ĠíĤ¹":4744,"Ġë©¸ë":4745,"ich":4746,"ĠìĬ¤ì¹´":4747,"²Ħë":4748,"ĠìĿ´ìĦ±":4749,"Ġì¶ľë§Ī":4750,"ĠíĽ¨ìĶ¬":4751,"80":4752,"è¡":4753,"ĠìĤ°íķĺ":4754,"Ġì¾":4755,"ìķĦëĤ´":4756,"ĠìķĦë¥´íĹ¨íĭ°ëĤĺ":4757,"Ġ1940":4758,"¥¿":4759,"Ġä¸Ģ":4760,"ĠìĿ¸ìłķë°Ľ":4761,"Ġë²ķì¹Ļ":4762,"ë³´ë":4763,"Ġìľłìłģ":4764,"ë²łë":4765,"Ġìĺ¤ìĤ¬ì¹´":4766,"Ġë¶ģìĦľ":4767,"Ġëħ¼ìĿĺ":4768,"Ġ1967":4769,"ob":4770,"«ĵ":4771,"Ġë³´ì¡°":4772,"Ġë¶ģëıĻ":4773,"ĠìĻ¼ìª½":4774,"ĠìĿ¸ê°Ģ":4775,"ĠêµĲë¥ĺ":4776,"ìĤ°ìĭľ":4777,"ĠìķŀìĦľ":4778,"ë©Ķëĭ¬":4779,"ëłĢ":4780,"Ġì°į":4781,"Ġìĺ¤ìłĦ":4782,"ĠíĶĮ":4783,"Ġ1930":4784,"BO":4785,"Ġì¼Ģë":4786,"Ġìĸ´ëĸ»ê²Į":4787,"Ġ49":4788,"Ġêµ¬ë³Ħ":4789,"Ġì§ĢëĭĪ":4790,"Ġë½ĳ":4791,"ë¦¬ìĬ¤íĬ¸":4792,"ì£½":4793,"Ġê³µìĤ°ì£¼ìĿĺ":4794,"Ġìĺ¤íŀĪëł¤":4795,"ff":4796,"Ġë°©ì¶ľ":4797,"ight":4798,"ĠìĪ«ìŀĲ":4799,"Ġëĭ¤ì¹´":4800,"Ġìĭ¬ê°ģ":4801,"Ġê°Īëĵ±":4802,"ĠìĹ¬ê°Ŀì²łëıĦ":4803,"Ġêµ°ìĪĺ":4804,"ĠìĹ´ë¦¬":4805,"Ġì£¼ìľĦ":4806,"ë¨¸":4807,"ĠìĿ´ìłľ":4808,"ĠìĿį":4809,"Ġë¡ľëĵľ":4810,"ë§¥":4811,"ĠìķŀëĳĲ":4812,"ĠìŀħìŀĲ":4813,"2007":4814,"Ġìļ´ìłĦ":4815,"Ġ1962":4816,"Ġë¶Īëł¸":4817,"íĮĶ":4818,"íį¼ëĵľ":4819,"Ġçļ":4820,"ĳ¥":4821,"ĠìłľìŀĲ":4822,"Ġãĥ»":4823,"Ġì°½ë¦½":4824,"Ġë©¸ë§Ŀ":4825,"ĠìĿ¼ìľ¼íĤ¤":4826,"193":4827,"ĠëĿ¼ëıĦ":4828,"Ġì»¬ë":4829,"ĠìĹ°íķ©êµ°":4830,"ĠíĿ¡ìĪĺ":4831,"Ġì§Ħëĭ¤":4832,"Ġìļ°íģ¬ë":4833,"ĠíĪ¬ìŁģ":4834,"ëĵĢìĦľ":4835,"Ġê¸ĪìĨį":4836,"ĠCD":4837,"Ġëį°ìĿ´":4838,"ëŁ°":4839,"Ġìĺ¤íĶĪ":4840,"Ġ1948":4841,"¯¸ëĶĶ":4842,"Ġìļ´ìļ©":4843,"Ġê±´êµŃ":4844,"å¸":4845,"ĠìĭľìłĲ":4846,"Ġì§ĳìķĪ":4847,"Ġìłľì¶ľ":4848,"Ĩĵ":4849,"Ġëª©ìĤ¬":4850,"ĠëĤ´ëł¸":4851,"Ġíļ¨ìľ¨":4852,"±Ģ":4853,"Ġë¶ĻìĹ¬":4854,"Ġ53":4855,"ĠìłĦëĿ¼ë¶ģëıĦ":4856,"Ġ52":4857,"Ġì²ľë¬¸":4858,"Ġê¸Īë":4859,"ĠìĿ¸ê¶Į":4860,"ì¸łë":4861,"Ġë°ĸìĹĲ":4862,"SA":4863,"Ġ65":4864,"ê·¸ë¦¬":4865,"ĠìĽĮìĭ±íĦ´":4866,"ĠìķĦìĭľìķĪ":4867,"ĠéĦ":4868,"Ġì·¨ê¸ī":4869,"ĠíĶĦë¡ľëĵĢìĦľ":4870,"Ġê±°ìłĪ":4871,"Ġê³µíĻĶ":4872,"ìī¬":4873,"Ġì¼Ħ":4874,"ĠìľłìłĦìŀĲ":4875,"ì²ľë":4876,"Ġé»":4877,"ĠåŁİ":4878,"ĠìĹ°ìĤ°":4879,"up":4880,"Ġì£½ìĿ´":4881,"Īë©Ķëĭ¬":4882,"ĠìłĦê³µ":4883,"Ġê°ľìĭľ":4884,"ìĿ´ëĿ¼":4885,"Ġë¡¯":4886,"Ġå·ŀ":4887,"ĠëĤ¸":4888,"Ġê¸Īë©Ķëĭ¬":4889,"ly":4890,"ĠìĦ±ì§Ī":4891,"Ġë§Ľ":4892,"Ġì£¼ê¸°":4893,"Ġëĵ¤ìĸ´ê°Ķ":4894,"ĠìĦľê¸°":4895,"ìł¤ëłĪìĬ¤":4896,"Ġä¼":4897,"ĠìłĪëĮĢ":4898,"Ġíķ©ìĦ±":4899,"ĠíĨµíķ´ìĦľ":4900,"art":4901,"ä½":4902,"Ġì§Ģë¦¬":4903,"ĠíĻľë°ľ":4904,"ĠìķĦíĮĮ":4905,"ĠìĿ¸ë¥ĺ":4906,"ĠìĪĺìĨ¡":4907,"ĠìĿ´ìĸ´ì§Ģ":4908,"Ġë°ĺë³µ":4909,"ĠìĿ¸íĦ°ë·°":4910,"Ġíĺ¸íħĶ":4911,"Ġ1965":4912,"Ġíı¬ê¸°":4913,"Ġìħĭ":4914,"ĠìĹĲìĿ´":4915,"ĠìķĪíĥĢ":4916,"Ġìłķë¹Ħ":4917,"Ġíģ´ëĿ¼":4918,"ss":4919,"ĠìķĦì¹¨":4920,"Ġåĸ":4921,"Ġêµ¬ìĨį":4922,"Ġë©¸":4923,"çĶ":4924,"ĠíĺĦìŀ¥":4925,"Ġ1966":4926,"¹Į":4927,"Ġê´´ë":4928,"ĠìĿ¸íĦ°":4929,"Ġíķ´ìĥģ":4930,"Ġì¤ĳëĮĢ":4931,"ì¹´ìĻĢ":4932,"ĠìłĦë¶Ģ":4933,"Ġç¶":4934,"ìģ":4935,"Ġíļ¨ìĨĮ":4936,"ĠìłĦì²ł":4937,"Ġìĸ´ëłµ":4938,"ĠìłĦíĽĦ":4939,"Ġë²¡":4940,"ĠìĥĿê¸°":4941,"ĠìĿ¸ì¢ħ":4942,"ĠìĿ¼ì¹ĺ":4943,"Ġëª¨ìĬ¤íģ¬ë°Ķ":4944,"ĠíĥľíĴį":4945,"å°":4946,"ĠìĹ°ê´Ģ":4947,"Ġë³Ģë":4948,"Ġè«":4949,"ĠìłĢìĦľ":4950,"ĠëĮĦ":4951,"Ġê±´ë¦½":4952,"Ġëħ¼ìŁģ":4953,"Ġê±´ì¡°":4954,"ĠëĤ´ë¦¬":4955,"ħ¼":4956,"Ġè¦":4957,"Ġì¶ľìŀ¥":4958,"ĠíĶĮëłĪìĿ´ìĺ¤íĶĦ":4959,"Ġê±¸ë":4960,"Ġê¹¨ë":4961,"Ġ183":4962,"ĠìĬ¤ì½ĶíĭĢëŀľëĵľ":4963,"Ġë³µíķ©":4964,"Ġì°½ì¡°":4965,"ĠíķľëķĮ":4966,"Ġì·¨ëĵĿ":4967,"Ġë¹Ļ":4968,"ĠëįĶëĿ¼ëıĦ":4969,"Ġ00":4970,"ĠëŁ¬ë":4971,"Ġë¶Ģìŀ¥":4972,"Ġê¹¨":4973,"ĠìĤ¬ë²ķ":4974,"äºº":4975,"Ġåİ":4976,"Ġë®":4977,"ĠìĦ±ê²½":4978,"Ġì¶ľìŀħ":4979,"ĠSh":4980,"end":4981,"´ĩ":4982,"ue":4983,"ain":4984,"¼Ī":4985,"ĠíĥĿ":4986,"Ġ1946":4987,"ëĭµ":4988,"Ġíķĺëĵľ":4989,"ĠìĿ¼ëĮĢ":4990,"ĠëıĻìĽĲ":4991,"Ġì§ģìłĦ":4992,"2019":4993,"ĠìĽĲë¦¬":4994,"Ł°ëį°":4995,"ĠìĹĲíĶ¼ìĨĮëĵľ":4996,"Ġíķ´ì¡Į":4997,"Ġìŀ¥ìķħ":4998,"ĠëªħìĦ±":4999,"ĠLG":5000,"ĠìĤ¬íĥľ":5001,"ìĦľíĬ¸":5002,"ĠìĨįíķľëĭ¤":5003,"Ġíĥģ":5004,"Ġì§Ģì¼":5005,"ì²©":5006,"ĠSBS":5007,"Ġë»":5008,"Ġë¶ĢíĻľ":5009,"Ġíĺ¼ëŀĢ":5010,"ĠìĺĪìĤ°":5011,"Ġì§ĢëĤ¸":5012,"¡ľëĵľ":5013,"Ġì½Ķë¯¸ëĶĶ":5014,"´ëłĪ":5015,"ìĿ´íĶĦ":5016,"ĠëĿ¼ìĿ´ë¸Į":5017,"Ġì´Ŀëıħ":5018,"ìĬ¤ì¹´":5019,"ĠìĿ¸ê³µ":5020,"Ġè²":5021,"Ġìĺ¤ëŀľ":5022,"Ġê¾¸":5023,"ìĦ±êµ°":5024,"ëī´":5025,"Ġ1961":5026,"ate":5027,"Ġ99":5028,"ĠíķľìŀĲ":5029,"ĠëıĦëĭ¬":5030,"ĠèĢ":5031,"Ġìĥģëĭ¹íŀĪ":5032,"Ġë³´íĹĺ":5033,"Ġå¤ª":5034,"Ġìķ½ìĨį":5035,"ĠìĤ¬ëł¹ë¶Ģ":5036,"Ġíİ¸ì§Ģ":5037,"Ġ1949":5038,"Ġê¸Ģë¡ľ":5039,"Ġì£¼íĥĿ":5040,"Ġì·¨íķĺ":5041,"ì»´":5042,"åľĭ":5043,"ê¸°ìĹĲ":5044,"ĠìĨĮëħĢ":5045,"2006":5046,"Ġëħ¸ë¥´ìĽ¨ìĿ´":5047,"Ġê²¬íķ´":5048,"Ġíĳ¸ë":5049,"ĠìŀĦê¸Ī":5050,"Ġê´Ģì§ģ":5051,"Ġë²łìĿ´ì§ķ":5052,"åı":5053,"ĳĳ":5054,"Ġëħ¸ìĬ¤":5055,"Ġì½ĶìĬ¤":5056,"ĠìĿ¼ìľ¼ì¼°":5057,"Ġ..":5058,"Ġê³łìľł":5059,"ĠíĮĲìĦľ":5060,"Ġìĭłì²´":5061,"Ġì§ģìĹħ":5062,"ĠíĻľìĦ±":5063,"ĠíĥľêµŃ":5064,"ĠíĺķìĤ¬":5065,"ĠCom":5066,"Ġëħ¸ë¶Ģ":5067,"Ġìļ°ìĬ¤":5068,"ì£¼ë¯¼":5069,"Ġë³´ê´Ģ":5070,"ĠíĽĦìĽĲ":5071,"ĠíĶĦëĿ¼":5072,"ĠìĹĲëĵľ":5073,"Ġ57":5074,"Ġê²½ì£¼":5075,"ĠìķĦë¦Ħëĭ¤":5076,"Ġë¶ĦìŁģ":5077,"Łĵ":5078,"ĠíĥĢë":5079,"°Ľ":5080,"Ġë¶Īë²ķ":5081,"Ġëªħëªħ":5082,"OS":5083,"ìķ¤ìł¤ëłĪìĬ¤":5084,"Ġì²łìĪĺ":5085,"Ġíķ´ìĸĳ":5086,"ĠëĸłëĤ¬":5087,"Ġìŀ¥êµĲ":5088,"ìĻĢë":5089,"Ġì£¼ê´Ģ":5090,"ĠìĺģìĹħ":5091,"ĠìĦ±ëĬ¥":5092,"Ġë³¸ëªħ":5093,"Ġê³łìļ©":5094,"Ġê°Ħëĭ¨":5095,"åĪ":5096,"ĤĺìĿ´íĭ°":5097,"åº":5098,"ĠìĤ¬ë":5099,"Ġë³¸ìĤ¬":5100,"Ġì¹´ë¥":5101,"ĠìĥģìĬ¹":5102,"ìĹĲíĬ¸":5103,"Ġë©ĺ":5104,"Ġë°ĺìĺģ":5105,"ĠëĮĢë¦¬":5106,"Ġ56":5107,"ĠêµĲíĻĺ":5108,"Ġëª¨ëĵľ":5109,"ãĢĪ":5110,"Ġìłĳíķĺ":5111,"ĠìĪĺì§ĳ":5112,"¥¨":5113,"Ġì¹¼ë¦¬":5114,"ĠíĨµê³Ħ":5115,"ian":5116,"ĠìĹ¬ë¶Ģ":5117,"łĪìĿ´ìħĺ":5118,"Ġto":5119,"ĠíķŃê³µê¸°":5120,"Ġë¶ĢìŀĦ":5121,"ĠìĨĮìĬ¤":5122,"Ġæº":5123,"ĠìĤ¬ìŀ¥":5124,"ĠìĤ¼ë":5125,"Ġìŀ¬ëĭ¨":5126,"Ġì²ľì²´":5127,"ĠíķĺìľĦ":5128,"ĠëıĦêµ¬":5129,"Ġìĥģë¥Ļ":5130,"Ġë¯¸íĦ°":5131,"Ġë²łë¥¼ë¦°":5132,"Ġê²½ìĦ±":5133,"¡ľëĤĺ":5134,"ĠíĬ¸ëŀĻ":5135,"íĭ¸":5136,"Ġê°ľì²´":5137,"ĠìĬ¤íĥ":5138,"Ġì§ľ":5139,"ĠìĿ´ê¸°":5140,"Ġi":5141,"íĶĦëŀĳ":5142,"ê³½":5143,"ĠëĨįë¯¼":5144,"ĠìĹ°ìŀ¬":5145,"oh":5146,"ĠëĮĢëŀµ":5147,"ĠíıŃëł¥":5148,"¤¼":5149,"æł¡":5150,"Ġìĺģìŀħ":5151,"ĠìĿ´ë¯¼":5152,"ĶĶìķĦ":5153,"Ġì¤ĳìĦ¸":5154,"Ġê±°ê¸°":5155,"Ġì¢ģ":5156,"ĠìĬ¬ë¡ľ":5157,"ë¬¸íĻĶìŀ¬":5158,"ĠíĻĶë¬¼":5159,"ĠíķĻë¶Ģ":5160,"©į":5161,"Ġê´ĢìłĲ":5162,"ĠãĢī,":5163,"Ġë¬´ìĹĩ":5164,"ĠPC":5165,"ĠìľłëĤĺìĿ´íĭ°":5166,"ĠíħĲ":5167,"ĠíķĻìĪł":5168,"Ġì½ĺìĦľíĬ¸":5169,"Ġë°ĺë°ľ":5170,"ĠìľĦë°ĺ":5171,"Ġìłķì²´":5172,"ĠíĮĮíģ¬":5173,"ì²ľêµ°":5174,"łëłĪ":5175,"Ġì§Ħìŀħ":5176,"´ëĮĢ":5177,"Ġ58":5178,"Ġç´":5179,"ĠëĮĢíĻĶ":5180,"ĠìŀĳìĤ¬":5181,"TV":5182,"ì¤Ģëĭ¤":5183,"Ġíı¬ëıĦ":5184,"Ġë¹łë¥¸":5185,"ĠìĬ¹ì§Ħ":5186,"ĨĴ":5187,"Ġëĭ¹íķľ":5188,"ĠìĹ°ì¶ľ":5189,"Ġìĺģíĸ¥ëł¥":5190,"ĠíĹĪê°Ģ":5191,"ĠìĭłìĦ±":5192,"ĠíĹ¬ë":5193,"ê°Ļ":5194,"ĠíķľêµŃìĸ´":5195,"Ġìŀ¬ìľĦ":5196,"Ġë©Ķìĭľ":5197,"ĠíķĻìĬµ":5198,"ĠíŀĪëį°":5199,"ì²ľìĭľ":5200,"ĠëıĦë§Ŀ":5201,"ì¤ĳêµŃ":5202,"ì¿łëĿ¼":5203,"ĠìĬĪë":5204,"ĠìĹ°ë£Į":5205,"ĠêµĲíĨł":5206,"Ġë¡ľìļ´":5207,"Ġìłķì§Ģ":5208,"ì¹´ìĿ´ëıĦ":5209,"Ġéģĵ":5210,"ĠíķĢ":5211,"ĠíķŃêµ¬":5212,"22":5213,"ĠìĭŃìŀĲ":5214,"¨¹":5215,"Ġë°±ìŀĳ":5216,"Ġê·¸ë¦¬ìĬ¤ëıĦ":5217,"Ġíı¬ìľĦ":5218,"Ġë°±ìłľ":5219,"Ġìŀ¬ë£Į":5220,"Ġê¼Ń":5221,"Ġè¥¿":5222,"ĠíĥĪì¶ľ":5223,"Ġì±Ħìļ©":5224,"ĠìĪĺìĪł":5225,"ĠìłĦë¬¸ê°Ģ":5226,"ĠíĹ¬":5227,"Ġë³´ìĬ¤":5228,"ĠæŃ£":5229,"ãĢĭ":5230,"Ġçľ":5231,"Ġë¦¬ëįĶ":5232,"Ġå½":5233,"ìĭľìĬ¤":5234,"ëĵł":5235,"ĠíĹ¨ë¦¬":5236,"Ġë³´ìķĪ":5237,"Ġ160":5238,"ill":5239,"Ġ1958":5240,"ĠìĦłë³´":5241,"ĠìŀĲìĤ´":5242,"Ġíķ©ê²©":5243,"ĠíĥĪëĿ½":5244,"Ġì£¼ëħĦ":5245,"Ġì°½ëĭ¨":5246,"©Ķë¦¬":5247,"Ġë³¼ë":5248,"Ġë§Īíģ¬":5249,"Ġë°©ìĤ¬":5250,"ĠíĺĦì§Ģ":5251,"ìķĦëĤĺ":5252,"íħĮëĦ¤":5253,"ìĿ´ë²Ħ":5254,"Ġ1000":5255,"ov":5256,"ĠìĦłêµĲ":5257,"Ġë¯¸ëĭĪ":5258,"íĤ¤ìĬ¤íĥĦ":5259,"Ġê´´":5260,"Ġëĭ¤ìĬ¤":5261,"ĠìĨĮë°©":5262,"Ġì£¼ê°Ħ":5263,"ĠíĶĦë¡ľìĦ¸":5264,"Ġìĭłì²Ń":5265,"Ġê¸°ëıĦ":5266,"ĠìĬ¤ëŁ¬ìļ´":5267,"Ġìłľìĸ´":5268,"æĸ":5269,"ĠSp":5270,"Ġì§Ģë¶ķ":5271,"Ġå£":5272,"Ġë¶Īìĥģ":5273,"ì»¨":5274,"Ġë¯¸ëĵľ":5275,"Ġì¶ķìłľ":5276,"ĹëĤł":5277,"Ġìĭľë¦¬ìķĦ":5278,"Ġì§Ħìķķ":5279,"Ġìĭłë¶Ħ":5280,"Ġêµ¬ìĦ±ìĽĲ":5281,"ĠêµŃìŀ¥":5282,"ĠìłĦíĮĮ":5283,"ĠìķĦìļ°":5284,"Ġê°ĲìĤ¬":5285,"Ġì§Īë³ĳ":5286,"Ġì°¸ìłĦ":5287,"ok":5288,"ĠìĿĺëıĦ":5289,"2020":5290,"ĠíķĻíļĮ":5291,"Ġì£¼ìłĦ":5292,"Ġê³ĦíĨµ":5293,"ĠíķĻê³¼":5294,"ĠëĶĶìĬ¤":5295,"ìĿ´ì¹ĺ":5296,"Ġê¹Ģìłķ":5297,"ĠìĺģíĻĶìłľ":5298,"ĠíĿĲë¥´":5299,"Ġê³µíĨµ":5300,"ëł´":5301,"Ġëª¨ìķĦ":5302,"ĠíĮĿ":5303,"Ġê¸°íĺ¸":5304,"ìĪĺë¡Ŀ":5305,"Ġì¶ľê°Ħ":5306,"ĠëĤ¨ìĦľ":5307,"ì¶°":5308,"ĠíĥĢìĿ´ìĻĦ":5309,"Ġë°ľìĸ¸":5310,"Ġéķ·":5311,"ë¦¬íĬ¸":5312,"Ġì²¨":5313,"êµ¬ëĭ¨":5314,"ĠëĦ·":5315,"Ġì§Ģê¸ī":5316,"Ġë³µë¬´":5317,"Ġíı´ë¦¬":5318,"ĠìĶ":5319,"ìłĢìļ°":5320,"Ġéł":5321,"Ġíı¬ë¡ľ":5322,"ĠâĢĻ(":5323,"ĠìĿĳìļ©":5324,"Ġì¹ľìĿ¼":5325,"ĠíķĻìĽĲ":5326,"ĠìĦ¸ë¥´ë":5327,"Ġë³ĢíĻĺ":5328,"ĠìłķìĽĲ":5329,"Ġë³´ì»¬":5330,"Ġê³łëıĦ":5331,"Ġë³´ëĤ¸":5332,"Ġì¹´ìļ´íĭ°":5333,"ĠìĺĪì¸¡":5334,"Ġ~)":5335,"ĠìĿĺì¡´":5336,"Ġë°°ì¶ľ":5337,"Ġì£¼ëĳĶ":5338,"ĠìłľìĿ¼":5339,"ĠìĤ´ë":5340,"Ġéĥ¡":5341,"ĠíĨµìĥģ":5342,"ìłķìĭĿ":5343,"Ġ41":5344,"ens":5345,"ĠìĬ¤ëŁ½":5346,"ĠíĥĦìĨĮ":5347,"ĠçĦ":5348,"ĠìĺĪë¹Ħ":5349,"Ġë©ľë":5350,"íĥĢë¥´":5351,"ĠëĥĲ":5352,"ĠëĬĶê°Ģ":5353,"Ġìĭľíĺ¸":5354,"ĠëłĪëĵľ":5355,"Ġå§":5356,"Ġë§Ŀëªħ":5357,"ìľĦëĮĢ":5358,"Ġ159":5359,"Ġë²łìĬ¤íĬ¸":5360,"ĠëĪĦêµ¬":5361,"¹Ħëĵľ":5362,"Ġ1956":5363,"ĠíĶĦëŀĢ":5364,"Ġíİł":5365,"Ġìŀ¥ë¥´":5366,"Ġëĭ¤ë£":5367,"Ġë°©ìĨ¡êµŃ":5368,"ë¯¼ë":5369,"Ġì¡°ìłĪ":5370,"Ġê³łë¦¬":5371,"ĠìĤ¬ìļ´ëĵľ":5372,"Ġìĸ´ëĸł":5373,"Ġë¬¸íĹĮ":5374,"Ġì·¨ìĨĮ":5375,"Ġíĥľìĸ´ëĤ¬ìľ¼ë©°":5376,"ĠâĦ":5377,"Ġë§īë¶Ģ":5378,"Ġê³µëıĻì²´":5379,"Ġì«ĵ":5380,"Ġè³":5381,"Ġê¸°ë²ķ":5382,"Ġì¡°ìŀĳ":5383,"íĥĢìĿ´":5384,"Ġèª":5385,"ĠëıĻìŀĳ":5386,"ĠFA":5387,"ĠìļĶìĿ¸":5388,"Ġê¸ĢìŀĲ":5389,"Ġíķĺìļ°ìĬ¤":5390,"ì§Ħë":5391,"Ġë¹Ħë¡Ŀ":5392,"ĠëĤĺê°Ķ":5393,"ĠCon":5394,"ê¹¨":5395,"ĠìĬ¤íĨłë¦¬":5396,"ĠíĿī":5397,"Ġëĭ¬íķĺ":5398,"ĠìłľëĮĢë¡ľ":5399,"Ġëī":5400,"ĠìŀĦëĮĢ":5401,"Ġæĸ°":5402,"ĠìĽĲëħĦ":5403,"Ġë³Ģíĺķ":5404,"ĠìłĪì°¨":5405,"ĠëĤ¨ê²¼":5406,"Ġì¶©ì²Ńë¶ģëıĦ":5407,"Ġì²Ńêµ¬":5408,"ĠìĻ¸êµŃìĿ¸":5409,"Ġë¬¸ìŀ¥":5410,"ĠìłĢìŀĳ":5411,"ER":5412,"ëĵľìĭľ":5413,"ĠíĻĶë©´":5414,"ë®¤":5415,"lan":5416,"Ġ%,":5417,"Ġë²¨ê¸°ìĹĲ":5418,"ĠíħĮëŁ¬":5419,"ë¶Ļ":5420,"ĠíĶ¼ìķĦëħ¸":5421,"ĠìĦľë²Ħ":5422,"ĠæĢ":5423,"Ġë°ĺëĵľìĭľ":5424,"ĠPro":5425,"ĠìĿ¸ëıĦëĦ¤ìĭľìķĦ":5426,"Ġæ³ķ":5427,"ìĦ¸ìĿ´":5428,"Ġæ¼":5429,"ĠìĬ¤íģ¬":5430,"ĠëĬ¦":5431,"ĠìĥĿì¡´":5432,"Ġì²ĺíĺķ":5433,"Ġçī":5434,"Ġê°ĢìĿĦ":5435,"ĠëĭĮ":5436,"Ġìºłíį¼ìĬ¤":5437,"ort":5438,"Ġë¬´ëį¤":5439,"Ġë¶ĦìĹ´":5440,"ant":5441,"Ġíķ´ìĤ°":5442,"Ġíļ¡":5443,"ĠíĹ¤ìĿ´":5444,"Ġ1959":5445,"ĠìļĶíķľ":5446,"ĠíĽĹëĤł":5447,"ĠìĹ°ìķĪ":5448,"íİĺëĿ¼":5449,"ĠíĶĦë¦¬ë¯¸":5450,"ĠíĿĳìĿ¸":5451,"Ġ600":5452,"ĠíĮĮìķħ":5453,"Ġë°©ì§Ģ":5454,"ĠëģĿëĤĺ":5455,"Ġåĳ":5456,"Ġì¹´ë¥´":5457,"ĠLi":5458,"³´ëĵľ":5459,"Ġêº¾":5460,"ĠìĿ´ìĬ¹ë§Į":5461,"Ġì£¼ìĭĿíļĮìĤ¬":5462,"ä»":5463,"ĠìĭĿíĴĪ":5464,"¥íĦ°":5465,"Ġìį¨":5466,"Ġìĭ¸ìĽĢ":5467,"Ġê´ĳìŀ¥":5468,"Ġ95":5469,"Ġëª©ìĨĮë¦¬":5470,"ĠíķĺëĤĺëĭĺ":5471,"ìĿ´ë¸Ķ":5472,"Ġê¸°íķĺ":5473,"Ġê¸°ì²´":5474,"Ġë§Īì¼Ģ":5475,"Ġë§ŀìĿ´":5476,"ĠìĹĦì²Ń":5477,"ĠíĺĦìĹŃ":5478,"Ġë¶Ħëªħ":5479,"Ġì§Ħë³´":5480,"ĠìĭľëĤ´":5481,"Ġë¶Ģë¶Ģ":5482,"ĠëĲľëĭ¤ëĬĶ":5483,"Ġë¡ľì¼ĵ":5484,"ĠíĮĲìĤ¬":5485,"Ķĺ":5486,"Ġêµ¬íķĺ":5487,"íķĻìĥĿ":5488,"Ġê°ľì¡°":5489,"Ġëıħë¦½ìļ´ëıĻ":5490,"man":5491,"ĠìĨĮë¹ĦìĹĲíĬ¸":5492,"Ĥĺë¬´":5493,"Ŀ¼ëĵľ":5494,"ĠìĿ´ë¤Ħ":5495,"Ġëĵ±ì§Ģ":5496,"ĠìĿ¼ë³¸êµ°":5497,"Ġ1941":5498,"24":5499,"Ġ120":5500,"Ġë©Ķëª¨ë¦¬":5501,"Ġìĭ¤ìĪĺ":5502,"ĠìŀĲëħĢ":5503,"Ġê·¸ëłĪ":5504,"ĠìĿ´ë£¬ëĭ¤":5505,"ĠìĦ±íĸ¥":5506,"Ġìĭ¸ìļ°":5507,"Ġê°¤":5508,"Ġìķķëł¥":5509,"Ġë³Ħëªħ":5510,"AR":5511,"Ġ800":5512,"ĠìĹ¬ëĭ¨":5513,"ĠëĤĺíĥĢëĤ¬":5514,"íĥĢìĿ¸":5515,"Ġë¬¼ì²´":5516,"Ķëĭ¤":5517,"ĭĪìĸ´":5518,"Ġåħī":5519,"Ġë¬¶":5520,"åį":5521,"Ġê»":5522,"Ġ1944":5523,"Ġìļ°ëł¤":5524,"Ġë¶ĢìĤ¬":5525,"Ġìŀ¥ìĪĺ":5526,"Ġìłķê¸°":5527,"io":5528,"ħģ":5529,"Ġë¿Įë¦¬":5530,"ON":5531,"Ġíķľë°ĺëıĦ":5532,"ë¦ŃìĬ¤":5533,"Ġë°ķìłķ":5534,"Ġ1947":5535,"Ġ59":5536,"ĠíĶĮëĿ¼":5537,"Ġìĭ¤ì§Ī":5538,"ĠëıħíĬ¹":5539,"ĠìĥģìĽĲ":5540,"ë¥¸ë":5541,"ê³µíķŃ":5542,"Ġë°Ģë":5543,"ĠíŀĪíĬ¸":5544,"ĠìĤ¬ìļ°ë":5545,"ĠìĦłìłĦ":5546,"Ġë³´ë¬¼":5547,"ĠìĹ¬ìķ¼":5548,"ĠíĦ°ëĦĲ":5549,"Ġë¹¨":5550,"Ġë¦¬ìĬ¤":5551,"ìĭłêµĲ":5552,"Ġê²½ë¡ľ":5553,"ĠìĪĺìĨĮ":5554,"ĠíĥĢê²©":5555,"Ġíķĳ":5556,"ĠìĬ¤ë§Ī":5557,"ĠìĭłìĿ¸":5558,"Ġëª¸ë":5559,"ĠèĹ":5560,"ĠìłĦë©´":5561,"ĠëĤĺíĥĢëĤľëĭ¤":5562,"Ĥ¼":5563,"ĠæĪĲ":5564,"ment":5565,"70":5566,"ĠìķĦìĤ¬":5567,"Ġì¹´ë©ĶëĿ¼":5568,"Ġì½¤":5569,"Ġë²Ħëł¸":5570,"ĠìĻķìŀĲ":5571,"Ġê°ĪëĿ¼":5572,"Ġë¡¯ëį°":5573,"Ġìĺ¤ìĬ¤ë§Į":5574,"AT":5575,"Ġë¹¼ìķĹ":5576,"Ġì²ĺë²Į":5577,"Ġíĺ¸ìĪĺ":5578,"ure":5579,"Ġë¯¸êµŃìĿ¸":5580,"Ġê°Ħíĸī":5581,"ĠìļĶì½Ķ":5582,"Ġ68":5583,"Ġ66":5584,"§¨":5585,"Ġì¶Ķêµ¬":5586,"ĠëĨįêµ¬":5587,"ord":5588,"ĠìĦľêµ¬":5589,"Ġ74":5590,"Ġë²ķìłķ":5591,"Ġìĺ¬ëł¤":5592,"ì¹¨ëĤ´":5593,"ĠëģĿëĤľ":5594,"ĠìĪĺë¦¬":5595,"Ġ63":5596,"ĠSK":5597,"Ġì¦Ŀìĥģ":5598,"25":5599,"ìĤ¬ìĬ¤":5600,"ìľĦê¸°":5601,"Ġ1954":5602,"Ġ88":5603,"ĠëĿ½":5604,"Ġê³µìłķ":5605,"ae":5606,"ĠÂ°":5607,"ĠëĤľë":5608,"ĠìĽĢì§ģìŀĦ":5609,"Ġíĸ¥íķ´":5610,"Ġíĸ¥íķĺ":5611,"ĠìĻĦë£Į":5612,"ìĭľìĺ¤":5613,"ĠìłĦíĺķ":5614,"ĠìĦľìĽĲ":5615,"ĠëłĪìĬ¤":5616,"ĠìĿ´ìĺ¨":5617,"ĠíĴįë¶Ģ":5618,"ì§Ģì»¬":5619,"one":5620,"ct":5621,"ĠíĨ±":5622,"Ġë¶Ģíķĺ":5623,"ì§Īëŀľëĵľ":5624,"ĠíĿ¬ë§Ŀ":5625,"ĠíĶ½":5626,"íĮĢ":5627,"Ġìľłë¬¼":5628,"Ġëª¨ìĹ¬":5629,"ìĤ¬ìŀĲ":5630,"ĠìŀĲëĿ¼":5631,"Ġê²ĮìĿ´":5632,"Ġä»ģ":5633,"ĠìĤ½":5634,"ìĹĲìĿ´":5635,"Ġë°©íķ´":5636,"Ġë¡ľìĬ¤ìķ¤ìł¤ëłĪìĬ¤":5637,"Ġê·¸ëŁ°ëį°":5638,"Ġì¹ĺëŁ¬":5639,"ĠìĹĲëıĦ":5640,"Ġê³łì§Ģ":5641,"Ġì§ĢëĭĮ":5642,"Ġ1952":5643,"Ġå·Ŀ":5644,"ĠìĨĲìŀĲ":5645,"ĠìĬ¤íĥĢë":5646,"ĠëıĻìĦ±":5647,"Ġê½":5648,"ĠìĤ¬ë¦½":5649,"Ġæ¨":5650,"ĠíĬ¹ìĿ´":5651,"Ġíķľìłķ":5652,"ĠëıĦìłĦ":5653,"Ġç¸£":5654,"ĠìķĦíĮĮíĬ¸":5655,"ĠëĮĢê°ľ":5656,"Ġæ¬":5657,"ë²Ī":5658,"ĠìĹĳìĬ¤":5659,"ĠìĿĺì§Ģ":5660,"Ġìĥĺ":5661,"ê²½ê¸°":5662,"íĳ¸ë":5663,"Ġë§¤ìĿ¼":5664,"ĠíĬ¸ë¡ľ":5665,"Ġëħ¹ìĥī":5666,"Ġç¾©":5667,"íĶĦë¡ľ":5668,"Ġëĸł":5669,"Ġë¶Ħíķł":5670,"ìĿ´ìĸ¸":5671,"ĠìĿ´ì¤ĳ":5672,"Ġìľłê¸°":5673,"Ġê¸¸ë":5674,"Ġê¸°ëĳ¥":5675,"ĠíĿ¬ìĥĿ":5676,"ë§Īë¥´":5677,"íĪ¬ë":5678,"£¡":5679,"æĽ¸":5680,"¨¸ìĬ¤":5681,"ĠìłĦëıĻ":5682,"ĠìłĲìłĲ":5683,"Ġëĭ¨ëıħ":5684,"Ġë¸Ķë£¨":5685,"ĠìĿ´ëĭĿ":5686,"Ġìľ¼ëł¤":5687,"ìĿĢíĸī":5688,"SS":5689,"ĠëĳĺëŁ¬ìĭ¸":5690,"Ġìľłíĸī":5691,"Ġì¢Įìļ°":5692,"ĠíĻĶìĦ±":5693,"Ġë°Ķëĳĳ":5694,"ĠìĿ´ì¹ĺ":5695,"Ġë¡ľë²ĦíĬ¸":5696,"ëĭ¤ë¦¬":5697,"ĠëıĻê¸°":5698,"ìĬ¤íĭ°ë":5699,"Ġë²¨ë":5700,"ĠìĻĦê³µ":5701,"Ġíķľê³Ħ":5702,"ĠëĤ¬":5703,"Ġë¶Ģì§Ħ":5704,"å¾":5705,"ĦëıĦ":5706,"Ġêµ¬íĺĦ":5707,"ĠìĤ¬ëĥ¥":5708,"Ġì§ķìĹŃ":5709,"íİĻ":5710,"Ġì¤ĳê¸°":5711,"ĠãĢī(":5712,"ĠëĮĢë²ķ":5713,"ì¹ĺìķĦ":5714,"ĠãĤ":5715,"Ġëĳĺì§¸":5716,"Ġë°©ìłķìĭĿ":5717,"Ġì¶©ê²©":5718,"ĠìłĦìĽĲ":5719,"ìĹ°íŀĪ":5720,"Ġäºĭ":5721,"ld":5722,"Ġë°ĿíŀĪ":5723,"ë²łë¥´":5724,"Ġë§ŀì¶Ķ":5725,"ĠíĬ¸ëĿ¼":5726,"Ġë¶Ħê¸°":5727,"Ġ1955":5728,"ç¾":5729,"íķĺë§Ī":5730,"Ġ1939":5731,"ĠCoun":5732,"ĠìłĦìĭł":5733,"íĭĢëŁ¬":5734,"Ġæĺİ":5735,"Ġíķ´ë¦¬":5736,"£©":5737,"Ġíİĺë¥´ë":5738,"¨ëĮĢ":5739,"ĠíĻĶìŀ¬":5740,"Ġ1957":5741,"ĠìĪľê°Ħ":5742,"ĠëĵĿíĳľ":5743,"23":5744,"Ġì²´ì½Ķ":5745,"Ġìµľëĭ¤":5746,"ì¹´ê³ł":5747,"Ŀ¼ìĿ´ìĸ¸":5748,"ì§Ĳ":5749,"ĠëĦĵìĿ´":5750,"ĠìĬ¤íĮĮ":5751,"ĠìĤ¬íĺķ":5752,"ĠëªħíĻķ":5753,"ĠìĿ¼ë³¸ìĿ¸":5754,"ĠíĬ¸ëŀľ":5755,"ĠíŀĲ":5756,"BA":5757,"IA":5758,"Ġçķ":5759,"Ġíļ¨ë":5760,"ĠëĿĦ":5761,"Ġ178":5762,"ĠìĥĪê²¨":5763,"Ġë§Īì¹¨ëĤ´":5764,"Ġëª¨ìŀĦ":5765,"ĠìľĦìĥģ":5766,"ĠìĤ´ìĿ¸":5767,"Ġ1953":5768,"Ġì¹ĺëłĢ":5769,"ĠçŁ³":5770,"Ġ86":5771,"ĠíĮĮìĿ´":5772,"ĠíĻĭ":5773,"Ġë¨¹ìĿ´":5774,"ľëŀĢ":5775,"Ġì¶Ķì²ľ":5776,"Ġë¡ľë":5777,"ì½¤":5778,"ĠëıĦìĻĢ":5779,"ĠëĬĲëģ¼":5780,"Ġë³µì§Ģ":5781,"Ġëĭ¤ë©°":5782,"Ġíİ¸ì°¬":5783,"ĠìłģìłĪ":5784,"ĠìķħíĻĶ":5785,"ĠæŃ¦":5786,"Ġë¬´ê²Į":5787,"ĠìľĮ":5788,"ĠëıĻëĤ¨":5789,"Ġë¹Ħíıī":5790,"Ġëĵ±íĮĲ":5791,"Ġì¶ľë²Ķ":5792,"å¹":5793,"Ġë¯¼ë²ķ":5794,"ĠìĿĺìĭ¬":5795,"ĠìĦľëªħ":5796,"Ġëª¨íĺķ":5797,"ĠìĪľíĻĺ":5798,"Ġê°Īìĥī":5799,"ĠìĥĪë¡Ń":5800,"ĠìĥĿê²¨ë":5801,"ĠìĤ¬ìŀĦ":5802,"Ġë©ĶìĿ¸":5803,"iver":5804,"ĠìĿ¸ìłĳ":5805,"ĠMe":5806,"Ġíķ¨ëĿ½":5807,"ĠìŀĲìľłë":5808,"Ġê°ģì§Ģ":5809,"Ġì½ĺìĬ¤íĥĦ":5810,"Ġë¶Ħíķ´":5811,"ĠìłĢìĪł":5812,"ĠëĿ¼ìĿ´íĬ¸":5813,"ë°©ìĨ¡":5814,"Ġíı¬ìĿ¸íĬ¸":5815,"íĪ¬ìĬ¤":5816,"Ġ%)":5817,"æŃ":5818,"Ġìķħê¸°":5819,"ĠæĽ":5820,"Ġ98":5821,"Ġêµ¬ìĽĲ":5822,"ĠëĮĢê³µ":5823,"Ġë°Ķê¿":5824,"ĠìŀĦìĿĺ":5825,"Ġìľłì¹ĺ":5826,"formula":5827,"ith":5828,"íĿ¡":5829,"Ġê¸°ìĥģ":5830,"2005":5831,"Ġë²Ķì£¼":5832,"Ġæľ´":5833,"Ð°":5834,"Ġê·¸ëķĮ":5835,"Ġìĸ´ëıĦ":5836,"ĠíĥĢìŀĦ":5837,"ĠìĦ±ë¶Ħ":5838,"ĠíļĮëĭ´":5839,"Ġ85":5840,"ĠìŀĲê·¹":5841,"Ġìłķíķĺ":5842,"ĠKBO":5843,"ĠìĺģìĽħ":5844,"ĠìŀħëĭĪëĭ¤":5845,"ĠìĤ¬ìĭ¤ìĥģ":5846,"ĠíĥľëıĦ":5847,"Ġê°Ģìĥģ":5848,"Ġì¡°ì¢ħ":5849,"ĠëĤ´ìłĦ":5850,"ĠìĤ¬ìĽĲ":5851,"į°ìĬ¤":5852,"ĠìĤ¬ìłķ":5853,"Ġìĺ¤íİĺëĿ¼":5854,"ĠèŃ":5855,"Ġíķľëĭ¤ë©´":5856,"ëıĻìķĪ":5857,"Ġë§Īë²ķ":5858,"Ġìĭ¤íĺĦ":5859,"ĠåĮĹ":5860,"ĠíĻķìĤ°":5861,"¹ł":5862,"ĠìĿ¼ì°į":5863,"Ġíķ©ì³Ĳ":5864,"¨¼íĬ¸":5865,"ĠçĦ¡":5866,"Ġê¼½":5867,"Ġë¶ĦìľĦê¸°":5868,"ĠìŀĦê¸°":5869,"Ġìķµ":5870,"ĠëĤłê°ľ":5871,"Ġê³łìĨįëıĦë¡ľ":5872,"Ġì¯":5873,"ĠìĥģìľĦ":5874,"ĠåĴ":5875,"ĶĶìħĺ":5876,"Ġê³µë¡ľ":5877,"Ġë°ľêµ´":5878,"Ġë¬¸ëªħ":5879,"Ġê°Ģì§Ħëĭ¤":5880,"Ġë³µìĪĺ":5881,"ë¯¸ìĬ¤":5882,"Ġê¹Ģìĺģ":5883,"Ġë§ĲëłĪìĿ´":5884,"Ķëĵľ":5885,"Ġë¬¼ë¦¬íķĻ":5886,"ëĨį":5887,"ore":5888,"ĠìĹ°êµ¬ìĽĲ":5889,"Ġ1942":5890,"Ġë¬µ":5891,"Ħ¤ìĬ¤":5892,"ĠëĤĺìķĦê°Ģ":5893,"Ġìłĳì´ī":5894,"«ëıĻìķĪ":5895,"ħ¸ìĬ¤":5896,"ĠêµŃìłľê³µíķŃ":5897,"Ġ1919":5898,"Ġæł¡":5899,"ĠìĹĲìĸ´":5900,"Ġê°ľìŀħ":5901,"ĠìĪĺìĺģ":5902,"Ġëį§":5903,"ĠëıħìĿ¼êµ°":5904,"Ġëĸ¨ìĸ´ì§Ģ":5905,"Ġë¯¸ëĤĺ":5906,"ëħĶ":5907,"ì½ĶìĬ¤":5908,"Ġë°±ìĦ±":5909,"çŃī":5910,"ĠëĲľëĭ¤ê³ł":5911,"íħĲì¸ł":5912,"Ġê¸°ê¸°":5913,"Ġê¸°ìĺ¨":5914,"ĠìĹ¬ë¡ł":5915,"ĠìĹĲìĦľë¶ĢíĦ°":5916,"Ġëħ¸ë²¨":5917,"ĠLo":5918,"¬¼ë":5919,"Ġìĸĳìª½":5920,"íģ´ë¦¬":5921,"Ġì§ĳê¶Į":5922,"Ġë§ĪìĿ´íģ´":5923,"Ġë°ľìĿĮ":5924,"Ġ76":5925,"Ġì¹¨ëŀµ":5926,"ì¼ĢìĿ´ìħĺ":5927,"Ġë²¡íĦ°":5928,"ĠíĻįë³´":5929,"ĠìĿ´ìŀĲ":5930,"ĠíĨµìĤ°":5931,"Ġê³µíĹĮ":5932,"ĠìĪľìĪĺ":5933,"ĠìķĦëĿ¼":5934,"Ġê¹ĢìĿ¼":5935,"ĠåŃĲ":5936,"ĠìĦ¸ë¥´ë¹ĦìķĦ":5937,"Ġê¸°ë³ĳ":5938,"ìĤ¬ìĿ´":5939,"ĠìĪĺìĦĿ":5940,"Ġë¬´ìĭľ":5941,"Ġì¶ľëł¥":5942,"Ġ73":5943,"ĠDNA":5944,"Ġ51":5945,"Ġë¡±":5946,"ĠìĹ°ê°Ħ":5947,"ĠSe":5948,"ê¹¥":5949,"ĠéĻ¢":5950,"Ġåºľ":5951,"Ġëī´ì§Īëŀľëĵľ":5952,"ìĹĲë¥¸":5953,"Ġì¶¤":5954,"Ġìĭ¬ìĤ¬":5955,"Ġìķī":5956,"ĠêµŃë¬´":5957,"Ġì¶ĶìĤ°":5958,"Ġìĸ¼ë":5959,"Ġcom":5960,"ĠìĿ¸ì¦Ŀ":5961,"Ġä¸Ĭ":5962,"28":5963,"ĠåĿ":5964,"Ġåł":5965,"Ġëĭ¨íİ¸":5966,"Ġëľ¨":5967,"ĠíĥĲìĤ¬":5968,"Ġê·łíĺķ":5969,"Ħĺ":5970,"Ġë§¤ìŀ¥":5971,"Ġë³ĢìĪĺ":5972,"Ġì§Ħìłķ":5973,"Ġä¸ĸ":5974,"Ġ2021":5975,"Ġìŀħë²ķ":5976,"Ġë®¤ì§Ģì»¬":5977,"ĠìĽħ":5978,"ĠíĨ°":5979,"ĠíĥĢìŀĲ":5980,"Ġìĭłë¢°":5981,"190":5982,"ê±°ìļ´":5983,"Ġìĺģì§Ģ":5984,"ĠíĻĶìĤ°":5985,"ĠìĦŀ":5986,"Ġå³":5987,"Ġë¦¬ê°Ģ":5988,"Ġê°ľìĭłêµĲ":5989,"ĠìŀĳìľĦ":5990,"ĠíĿĲë¦Ħ":5991,"ĲĨ":5992,"ĠíĮ½":5993,"Ġë°Ķê¹¥":5994,"ĠìŀĦì§Ħ":5995,"Ġë³´ê±´":5996,"ĠíĶĮëŀĺ":5997,"Ġ1943":5998,"Ġìħĺ":5999,"ĠìĽĲíĺķ":6000,"¬´ë¦¬":6001,"ĠìħĶ":6002,"įĶìĬ¤":6003,"Ġë²Īë":6004,"Ġ77":6005,"ĵŃ":6006,"ĠíĮĮëĿ¼":6007,"Ġìŀħëł¥":6008,"ìķĦíĭ°ìķĦ":6009,"ŀĹ":6010,"Ġíı¬íĬ¸":6011,"Ġìĭłë¶Ģ":6012,"ê¸´ëĭ¤":6013,"Ġìĺ¬íķ´":6014,"ĠìĽĢì§ģìĿ´":6015,"ìĬ¤íĭ°":6016,"ìºĲ":6017,"ĠëıĻëªħ":6018,"ĠìķĦëıĻ":6019,"ĠBe":6020,"Ġì¹¨ìŀħ":6021,"Ġìĺ¤ëŀ«ëıĻìķĪ":6022,"ĠìĿĺíĺ¹":6023,"ĠìĬ¹ë¶Ģ":6024,"éģĵ":6025,"ĠëªħëĤĺëĿ¼":6026,"Ġë°ľë°ľ":6027,"Ġå´":6028,"Ġè¶Ļ":6029,"ĠíĻķë¦½":6030,"ĠìłĢëħģ":6031,"Ġê²½ìłĦ":6032,"Ġê°ĢëŁī":6033,"Ġë³µìĽĲ":6034,"ħìĬ¤":6035,"ìĿ´ìĦ¼":6036,"ĠìĻķìĭ¤":6037,"Ġíģ¬ë¦¬":6038,"Ġìķ¡ìħĺ":6039,"Ġë°ĿíĺĢì¡Į":6040,"ĠìłľìĤ¬":6041,"ĠíĶĦë¡ľê·¸ëŀĺ":6042,"Ġë°ĽìķĦëĵ¤ìĹ¬":6043,"Ġíİ¼ì³Ĳ":6044,"Ġê¸°ìļ¸":6045,"éĸ":6046,"ĠìĪĻì¢ħ":6047,"Ġë°ĶìľĦ":6048,"ìĿĮë":6049,"Ġë³´ê³łìĦľ":6050,"ĠåŃ¸æł¡":6051,"Ġìĭľì¡°":6052,"ìħī":6053,"ĠíĨłë§Ī":6054,"Ġíıīë¡ł":6055,"ìŀĦë":6056,"Ġì²ľìĹ°":6057,"ĠìĬ¹ê°Ŀ":6058,"Ġìŀ¬ê±´":6059,"Ġíıīëĵ±":6060,"Ġëĭ¬ëĿ¼":6061,"ĠíķľêµŃìĿ¸":6062,"26":6063,"Ġìłķíķ´":6064,"ĠSS":6065,"ĠëĮĢëŁī":6066,"Ġë³ĳíķ©":6067,"¡¬":6068,"27":6069,"Ġì¼ĢìĿ´":6070,"Ġëĵ¯ìĿ´":6071,"Ġë²łë¥´ë":6072,"ë¥´íĬ¸":6073,"ĠìĺĪìłĦ":6074,"ind":6075,"ĠíħįìĤ¬ìĬ¤":6076,"æ°":6077,"íĶ¼ìĬ¤":6078,"Ġê³¼íķĻìŀĲ":6079,"Ġë²ĮìĺĢ":6080,"²łë":6081,"Ġê¶ĮìľĦ":6082,"Ġth":6083,"Ġíĺ¼íķ©":6084,"Ġê·¸ëŀĺíĶ½":6085,"ĠìŀĲìĭĿ":6086,"Ġë¬´ìĤ¬":6087,"Ġì°¸ê³ł":6088,"Ġê¸°ìĨĮ":6089,"Ġê¸°ìĹĲ":6090,"Ġë§Īìĭľ":6091,"ĠíĻ©ê¸Ī":6092,"§ĪëĭĪìķĦ":6093,"Ġèĭ":6094,"è¨":6095,"ĠìķĦíĭ°":6096,"åŁİ":6097,"Ġíĥľì¡°":6098,"Ġì¤Ħê¸°":6099,"ĠìĪĺìĿµ":6100,"ĠìĹ¬ìĻķ":6101,"ĠíĽĦìĨį":6102,"Ġä¸į":6103,"ìĿ¼ìĬ¤":6104,"Ġê°ľë§ī":6105,"ì§Ģìĸ´":6106,"ĠëıĮìķĦìĻĶ":6107,"ĠíĬ¹ë³Ħìĭľ":6108,"°į":6109,"Ġë£¨ìĬ¤":6110,"ĠëĶĶë¹Ħ":6111,"Ġìĸ´ëĶĶ":6112,"ĠRo":6113,"ìĪŃìĿ´":6114,"ĠìĹĦë":6115,"íģ¬ë¡ľ":6116,"Ġæµ·":6117,"íķĺìĹ¬":6118,"Ġéļ":6119,"ë®¤ëĭĪ":6120,"Ġ67":6121,"Ġê°Ģëĭ´":6122,"ĠìĿ¼ìĭľ":6123,"ĠìĭłìŀĲ":6124,"ĠëĭĪë":6125,"Ġê²¹":6126,"ĠíķĻìĤ´":6127,"Ġë²¼":6128,"Ġëĭ¹êµŃ":6129,"Ġ84":6130,"Ġëıķ":6131,"ĠíĢ¸":6132,"ath":6133,"íķĺì§Ģë§Į":6134,"EC":6135,"ast":6136,"Ġê¾¸ë":6137,"Ġê±°ëĵŃ":6138,"Ġë©Ģë¦¬":6139,"ĠåİŁ":6140,"ĠëĤĺìĺ¨ëĭ¤":6141,"ĠëłĪìĺ¤":6142,"ĠëģĿëĤ´":6143,"ĠìŀĲìłĦ":6144,"ìĻľëŀĢ":6145,"Ġë²Ĺìĸ´ëĤĺ":6146,"Ġìĭľìĥģ":6147,"ĠìłĲìĪĺ":6148,"Ġíĸīëł¬":6149,"Ġìĸ´ëł¤ìļ´":6150,"ë¸Ķë":6151,"ĠìĨįíķľ":6152,"ìķĦë¥´":6153,"Ġì°½ìŀĳ":6154,"ĠìĿ¼ìĥģ":6155,"ĠéĤ":6156,"Ġì£¼ë¦":6157,"ìĤ°ë¬¼":6158,"ĠAm":6159,"ìľĦë":6160,"ĮëĳĲ":6161,"Ġìĭ¤ëł¥":6162,"Ġíĺ¸ì£¼":6163,"ational":6164,"Ġì§Ģíĺķ":6165,"´ëłĪìĺ¹":6166,"ì¡°íķ©":6167,"Ġë§Īë¬´ë¦¬":6168,"Ġìŀ¬ë°°":6169,"Ġê¸į":6170,"ĠëĤĺëĵ¤":6171,"Ġê°Ĳìĭľ":6172,"Ġë¹ĦìĦľ":6173,"Ġê¸īìłľ":6174,"Ġì½Ķë¡ľëĤĺ":6175,"Ġì»¤ë®¤ëĭĪ":6176,"ĠëĶ°ë¡ľ":6177,"ĠêµŃëıĦ":6178,"ĠÃĹ":6179,"ê¶Ĳ":6180,"Ġì£¼ìµľ":6181,"Ġë³µìĿĮ":6182,"ìĦ¸íı¬":6183,"ĠëĤĺíĥĢëĤ¸ëĭ¤":6184,"Ġì¢ĭìķĦ":6185,"Ġë©ĶìĿ´ì§Ģ":6186,"ìĿĺìłķ":6187,"Ġë¯¼ì¤ĳ":6188,"ĠìĭľìĤ¬":6189,"ĠíĶĦë¦°":6190,"Ġê³łíĨµ":6191,"ì²´ìĬ¤íĦ°":6192,"Ġë£¨ìĿ´ìĬ¤":6193,"ĠìĿ¼ìĭĿ":6194,"Ġåĭ":6195,"VD":6196,"ĠêµĲíĸ¥":6197,"Ġon":6198,"ĠíıĲìĩĦ":6199,"ì¹¼":6200,"Ġë¶Ģì§Ģ":6201,"ĠìłĦì£¼":6202,"Ġèı":6203,"Ġë°±ë§Į":6204,"ĠíĽĦê³Ħ":6205,"Ġê³Ħì¸µ":6206,"Ġä¹ĭ":6207,"Ġê°Ģê³µ":6208,"Ġíĺģìĭł":6209,"Ġæ°¸":6210,"ĠëĮĢìĦł":6211,"Ġåı¸":6212,"ĠìłĪë°ĺ":6213,"Ġìľłíĺķë¬¸íĻĶìŀ¬":6214,"ì£¼êµ°":6215,"ĠìĿ´ëĿ¼íģ¬":6216,"ĠëıĦì¿ł":6217,"ory":6218,"¬¸ë":6219,"Ġê°ĢëĤĺ":6220,"ĠëĪĪë":6221,"Ġíį¼ë":6222,"Ġëĭ¤ìĨĮ":6223,"Ġ1938":6224,"Ġê¹ĥ":6225,"Ġë¹Ħìĥģ":6226,"ĠìĤ¬ìĿ¸":6227,"Ġê°ľìĦ¤":6228,"Ġä¾":6229,"ê°ĢìĬ¤":6230,"ĠPar":6231,"ĠìŀłìĪĺ":6232,"æ³":6233,"ĠëĤĺëīľëĭ¤":6234,"2004":6235,"Ġìĥģê´Ģ":6236,"ĠìĥĮ":6237,"Ġê·¸ëłĩê²Į":6238,"ĠìĤ¬ìŀĲ":6239,"æĺ":6240,"łĺ":6241,"ĠëĭĽ":6242,"ê¹Ŀ":6243,"ĠëĤĺëĵ¤ëª©":6244,"Ġê³±":6245,"Ġíģ¬ë¡ľìķĦíĭ°ìķĦ":6246,"ĠíĥĪíĩ´":6247,"Ġë¹Įë³´ëĵľ":6248,"Ð¾":6249,"ĠHe":6250,"ock":6251,"Ġãİ":6252,"Ĥ´ë":6253,"ĠìĪĺëıĦìĽĲ":6254,"Ġ1951":6255,"Ġìĭľì¹´ê³ł":6256,"Ġë°Ķëĭ¥":6257,"iv":6258,"Ġëł¥":6259,"Ġë±ħ":6260,"ĠíıŃíĥĦ":6261,"ĭ¬ë":6262,"ĠìĿ¸ìļ©":6263,"Ġë²ĮìĿ´":6264,"Ġê°Ģê¹ĮìĿ´":6265,"æĪ":6266,"Ġ170":6267,"íİĺìĿ¸":6268,"ĠìķĦë¦¬":6269,"ĠíĶĦë¦¬ë¯¸ìĸ´":6270,"Įëł¤":6271,"ê°ĢëĿ½":6272,"ĠìĨĮëĵĿ":6273,"ì¹´ë¥´":6274,"Ġìĺ®ê²¼":6275,"Ġç¥ŀ":6276,"ĠëıĻìķĦ":6277,"Ġì´ĿíļĮ":6278,"Ġìŀ¬íķĻ":6279,"Ġ177":6280,"Ġíİĺë¥´ìĭľìķĦ":6281,"¬ë¹ĦìķĦ":6282,"ĠìĬ¤ë§ĪíĬ¸":6283,"ug":6284,"Ġë³´ìĥģ":6285,"Ġì¡°ë³Ħ":6286,"per":6287,"Ġê°ĢìĦ¤":6288,"Ġæĥ":6289,"Ł¼ë":6290,"Ġë¶Ģëĭ´":6291,"Ġíķľê¸Ģ":6292,"ì²´ë¡ľ":6293,"ĠêµŃìłķ":6294,"ê¸Ģë":6295,"Ġë°©ìľĦ":6296,"ond":6297,"æĿ":6298,"Ġå¿ł":6299,"ĠíĽĪìŀ¥":6300,"ëĤ¨ë":6301,"Ġ700":6302,"ĠìºĦ":6303,"ìĤŃ":6304,"ĠìĬ¹ëł¤":6305,"ĠçĶ°":6306,"Ġì£¼ëł¥":6307,"ĠíĶ¼íķĺ":6308,"Ġë¶Īë§Į":6309,"íĨłëĭĪ":6310,"ì²ĺëĵľ":6311,"Ġ1936":6312,"²łìĿ´":6313,"ust":6314,"ĠéĦŃ":6315,"BM":6316,"Ġì´Ŀìŀ¥":6317,"ĠéŁĵ":6318,"ĠìĿĮìķħê°Ģ":6319,"ĠìĦĿìľł":6320,"ack":6321,"ĠãĨį":6322,"ĠìĥģìĹŃ":6323,"ĠIC":6324,"ĠìĨĲìĥģ":6325,"ĠìĤ¬ìłľ":6326,"ĠìĿ¼ì»":6327,"ĠìĿ¼ì»«":6328,"Ġê³½":6329,"Ġìĸ´ê¹¨":6330,"ĠíĶĦëŀĳíģ¬":6331,"ĠìķĦìĿ´ëıĮ":6332,"íķĦëįĶ":6333,"Ġìĥģìĭ¤":6334,"Ġ96":6335,"ĠìĦ¤ëĵĿ":6336,"íĢ´":6337,"°ĶìĿ´":6338,"ĠíħĮìĬ¤íĬ¸":6339,"Ġì§Ģíĸ¥":6340,"Ġíĥľì¢ħ":6341,"Ġì°¾ìķĦ":6342,"Ġê³µì¤ĳ":6343,"ì§ģìŀĲ":6344,"ĠìĿ¼ë³¸ìĸ´":6345,"Ġì²ĺë¶Ħ":6346,"Ġå®Ĺ":6347,"ĠìĹ¬ìĦ¯":6348,"Ġë¬¸ìĭł":6349,"ĠíĻĶíķ©":6350,"ĠëĮĢìĻķ":6351,"Ġê¸°ë¦¬":6352,"ì¹ľëĭ¤":6353,"Ġ69":6354,"ë¦¬ê·¸":6355,"Ġê»ĺ":6356,"ĠíİĺìĿ´":6357,"ĠìĮĢ":6358,"íķ´ìĦľ":6359,"çİ":6360,"Ġìŀ¥ëĤ¨":6361,"ĠìŀĳëıĻ":6362,"ĠAP":6363,"ì¿¨":6364,"Ġê´ĳë³µ":6365,"èĩ":6366,"ĠìĹĦì²ŃëĤľ":6367,"ĠìĹ°ìĺĪ":6368,"ĠìłķìĪĺ":6369,"ĠìĦłìŀĦ":6370,"ĠìľłíĨµ":6371,"ĠìĤ°íĻĶ":6372,"Ġì¤ĳëł¥":6373,"Ġë¯¸ëĵľíķĦëįĶ":6374,"ĠFM":6375,"Ġë¡ľë´ĩ":6376,"ĠêµĲë¦¬":6377,"Ġì°¸ì¡°":6378,"Ġìĭ¬ìŀ¥":6379,"Ġìĵ¸":6380,"ĠSc":6381,"Ġê²ĢíĨł":6382,"Ġê³łê¸°":6383,"ĠìĹ°ìĬµ":6384,"Ġìĭ¬ì§Ģìĸ´":6385,"Ġë§ŀìĦľ":6386,"ĠíĶ¼íķ´ìŀĲ":6387,"©Ķë¦¬ì¹¸":6388,"ĠëħĢ":6389,"Ġëĭī":6390,"ĠëŁ°":6391,"Ġ1937":6392,"Ġê´ĢìĹ¬":6393,"íŀĪë¡ľ":6394,"ìºĲë":6395,"ood":6396,"Ġì§ĢìĤ¬":6397,"ĠëĬĶëĭ¤ëĬĶ":6398,"¥¸ëĭ¤":6399,"Ġë¹ĮëĶ©":6400,"Ġë©Ķìĭľì§Ģ":6401,"Ġ78":6402,"ĠëĪĦë¥´":6403,"ìŀĲì¹ĺ":6404,"ĠìĿ´ë¥¸ëĭ¤":6405,"Ġìĺ¬ëĿ¼ê°Ģ":6406,"ĠìľĹ":6407,"Ġy":6408,"ĠìķĦíħĮëĦ¤":6409,"Ġäºº":6410,"sh":6411,"Ġì§Ħì£¼":6412,"Ġêµ¬ë§¤":6413,"ĠëĮĢì§Ģ":6414,"ĠëĤ´ìħĶëĦĲ":6415,"ĠìĹ¼ë":6416,"ĠìłĦì§ģ":6417,"ĠåŁ":6418,"Ġëħ¸ì¶ľ":6419,"ìĿ¸ë¬¼":6420,"Įë¡ľ":6421,"ĠìĿ´íĺ¼":6422,"ĠìĦłë°ķ":6423,"å¯":6424,"å£":6425,"æĹ":6426,"Ġìłģíķ©":6427,"Ġê°ľì¹Ń":6428,"ton":6429,"Ġê°ľë°©":6430,"Ġëį°ìĿ´ë¹Ħëĵľ":6431,"ĵľëĿ¼":6432,"íķĺìĿ´":6433,"Ġìłķì°¨":6434,"Ġì¡°ì¡°":6435,"Ġì½ĶíĮĮ":6436,"Ġìĺ¤ì§ģ":6437,"ìĦ¸ê³Ħ":6438,"Ġìĭłê³ł":6439,"Ġë¹Ħë¡Ģ":6440,"Ġë¶Ħëħ¸":6441,"ĠêµĲêµ¬":6442,"ĠMa":6443,"ĠæĹ¥":6444,"ĠíĻĶìŀ¥":6445,"Ġê°Ģìĭľ":6446,"Ġë³¸ì§Ī":6447,"ĠëıĮìķĦìĻĢ":6448,"Ġë°ķìłķíĿ¬":6449,"Ġç§":6450,"ĠìĿ´ìĸ´ì¡Į":6451,"ĠìĺĢìĿĦ":6452,"Ġì¡°ì°¨":6453,"ĠìĬ¤íĨł":6454,"ĠëĳĲëł¤":6455,"Ġë°¥":6456,"ĠìĥĿê¸´":6457,"Ġéİ":6458,"ect":6459,"ĠìĹ¬ê²¨ì§Ħëĭ¤":6460,"Ġëĭ¹ì´Ī":6461,"Ġê²°ìĿĺ":6462,"Ġê²°ë¡ł":6463,"ĠèĻ":6464,"ĠEn":6465,"Ġì§ĪíĻĺ":6466,"íĨ±":6467,"Ġë³¸ëĭ¤":6468,"ĠëĤĺíı´ëłĪìĺ¹":6469,"Ġíı¬íķŃ":6470,"íĶĦëĿ¼":6471,"AN":6472,"Ġíģ´ë¦¬":6473,"Ġ87":6474,"ĠìĪĺìļĶ":6475,"ĠæĦ":6476,"ĠìłĦíĪ¬ê¸°":6477,"ëĶ°ë":6478,"ĠìĿ¸ìĽĲ":6479,"ë¯¸íĦ°":6480,"ĠëıĦëįķ":6481,"Ĳë¡ľ":6482,"ĠìĥĿë¬¼íķĻ":6483,"ĠìĤ¬ìľł":6484,"Ġì°¸ëª¨":6485,"ĠìķĦë¦Ħëĭ¤ìļ´":6486,"ĠíķĺìĽĲ":6487,"íĨłìĬ¤":6488,"ë§ĪìĬ¤":6489,"Ġë¹łìł¸":6490,"éĢ":6491,"Ġê·ľìłľ":6492,"Ġ97":6493,"ĠëĮĢì±ħ":6494,"Ġå¼µ":6495,"Ġìĭ¬íĮĲ":6496,"Ġêµ³":6497,"Ġê·¸ëŁ¬ë":6498,"ìĹĲëıĦ":6499,"ĠíķĺìĿ´ë":6500,"Ġì¼Ī":6501,"íĭ°ëħ¸":6502,"ĠåĲĽ":6503,"ì¿łìĬ¤":6504,"ĠìĹŃíķĻ":6505,"Ġæ´ŀ":6506,"ĠëıĦëª¨":6507,"ĠíĶ¼ë¶Ģ":6508,"ìĹ¬ê¸°":6509,"ĠìĻķë¹Ħ":6510,"ìľłìĤ°":6511,"Ġ1935":6512,"ĠìĨĮë©¸":6513,"Ġìĵ°ìĹ¬":6514,"ĠìĤ¬ë¬´ìĭ¤":6515,"ĠìĻķíĽĦ":6516,"Ġé¾į":6517,"Ġë°ĶìĿ´ìĹĲë¥¸":6518,"ĠìĤ°ìĨĮ":6519,"Ġë°ľíĥģ":6520,"Ġ94":6521,"Ġë¸ĮëĿ¼ìļ´":6522,"Ġë§¤ì²´":6523,"iz":6524,"ìĭ¬ë":6525,"Ġëĭ¹ëĤĺëĿ¼":6526,"Ġì§Ħìĺģ":6527,"29":6528,"åĭ":6529,"ç¥":6530,"ĠíĶĦë¡ľìĿ´ìĦ¼":6531,"ĠëłĪìĿ¸":6532,"Ġêµ¬ìŀħ":6533,"ĠíĻķë¥ł":6534,"ĠäºĶ":6535,"Ġè»į":6536,"Ġëª¨íĦ°":6537,"ĠIS":6538,"ëĦĪ":6539,"ĠëıĻìĸĳ":6540,"ĠìĿ¸ìĩĦ":6541,"ĠëıĻíķ´":6542,"íı¼":6543,"íħĮë¥´":6544,"Ġê¹ĬìĿ´":6545,"ĠéĮ":6546,"Ġ89":6547,"ìĸ´ëıĦ":6548,"Ġëį°ìĬ¤":6549,"Ġëĸ¨":6550,"Ġì¦īìĭľ":6551,"ìłľêµŃ":6552,"ary":6553,"Ġê·¼ë³¸":6554,"Ġë¬´ë£Į":6555,"Ġìĸ´ëł¤ìĽĢ":6556,"Ġíı¬ì¼ĵ":6557,"Ġë¶Ģì¹ľ":6558,"ĠìĦ¸ìŀĲ":6559,"ĠëĬĲëĤĮ":6560,"ĠçĻ½":6561,"Ġì¡Įìľ¼ë©°":6562,"ĠíĦ´":6563,"Ġæ°´":6564,"ĠìĤ¬íļĮë":6565,"Ġë¹Īë":6566,"Ġë§īëĮĢ":6567,"ĠíĨµíĻĶ":6568,"Ġíĺ¼ìĿ¸":6569,"³ĳëĮĢ":6570,"Ġéĥ½":6571,"ĠìĨįíķ´":6572,"ĠAT":6573,"¸Įë¦¬":6574,"Ġê¹ĢìĿ¼ìĦ±":6575,"ìĤ°íĻĶ":6576,"ĠNH":6577,"è»į":6578,"Ġê·¸ëłĪìĿ´":6579,"ĠëĿ¼íĭ´ìĸ´":6580,"ĠìķĶíĺ¸":6581,"ĠíıŃê²©":6582,"ĠìľĦëĮĢ":6583,"ĠíĻĭì¹´ìĿ´ëıĦ":6584,"Ġì°½ëĭ¹":6585,"ĠLa":6586,"ĠìĿ¼ê¸°":6587,"Ġ93":6588,"ĠëıĻìĦľ":6589,"ĠÂ²":6590,"ĨĢ":6591,"ĠêµŃêµ°":6592,"ĠìĽ¨ìĬ¤íĬ¸":6593,"ĠíĮ¨ìħĺ":6594,"tern":6595,"Ġë©ľ":6596,"ĠìĭłìĤ¬":6597,"íĶĦëŀĢ":6598,"Ġ164":6599,"ìĭ¼":6600,"ĠìķĦìĽĥ":6601,"ĠYou":6602,"ëıħë¶Ģ":6603,"Ð¸":6604,"ì§ĢìĤ¬":6605,"Ġê°ľìĦ±":6606,"ì´Ŀë¦¬":6607,"Ġì§Ħëĭ¨":6608,"ĠìĬ¤íĬ¸ë¦¬":6609,"å®Ĺ":6610,"ĠìĦľìĭĿì§Ģ":6611,"ric":6612,"ĠíķĻìĤ¬":6613,"íĮĮë¥´":6614,"ĠìĦ¸ë¦¬":6615,"ê²Įë":6616,"ìħĢë¡ľ":6617,"2002":6618,"ë¦¬íķĻ":6619,"Ġ1914":6620,"ê°Ģíı¬ë¥´":6621,"ê¹Ķ":6622,"Ġíķ´ë°ľ":6623,"ĠìĹħìłģ":6624,"ĠìĬ¤íĶĦë":6625,"Ġê¸Ģë":6626,"Ġåľ°":6627,"ĠëĮĢìĦ±":6628,"ĠëĶĶìĬ¤íģ¬":6629,"ĠíĻ©íĽĦ":6630,"ĠëįĶë¸Ķ":6631,"Ġæģ":6632,"ĠíĥĢìĽĮ":6633,"ĠëĪĦë¦¬":6634,"ĠìĹ°ìĦ¤":6635,"Ġë°ľëªħ":6636,"Ġê¸įìłķ":6637,"ìĬ¬ëŁ¬":6638,"Ġì°°ìĬ¤":6639,"ĠìĤ¬ëıĦ":6640,"ĠìŀĲìĿ´ìĸ¸":6641,"Ġì¹ľë":6642,"ĠëıĻë°©":6643,"Ł¥":6644,"êµ¬ë¦¬":6645,"Ġì§Ħê²©":6646,"ĠAFC":6647,"ĠëłĢëĭ¤":6648,"Ġíĥ±":6649,"ĠíĮĮìĽĮ":6650,"Ġì²ľë§Į":6651,"ĠìľĪ":6652,"Ġè©":6653,"ĠëĵľëŀĺíĶĦíĬ¸":6654,"ĥı":6655,"ĠëĮĢì²´ë¡ľ":6656,"Ġìłķì¡°":6657,"Ġì¶ķêµ¬ëĭ¨":6658,"ĠìĭľëĤĺ":6659,"ĵ¬":6660,"Ġë³´ìĤ´":6661,"ìĿ´ëĤĺ":6662,"ĠìĽĲì£¼ë¯¼":6663,"Ġ1918":6664,"Ġì£¼ìĦĿ":6665,"ĠìĻĢìĦľ":6666,"ĠìĤ¬ê¸°":6667,"ĠCo":6668,"ĠJoh":6669,"Įëĭ¤ê°Ģ":6670,"ª°":6671,"ë¦¬ìĸ´":6672,"ĠìĿ¼ì²´":6673,"Ġë§ĲëłĪìĿ´ìĭľìķĦ":6674,"ĠìĥģìĨį":6675,"ĠíŀĻ":6676,"Ġê°ĢìĬ´":6677,"ìĪ¨":6678,"Ġë¶ĪìķĪ":6679,"ĠíĽĦì¿łìĺ¤ì¹´":6680,"ĠíĥĢìļ´":6681,"ê¸Īë":6682,"ĠíİĺìĿ´ì§Ģ":6683,"ĠíĤ¬ë¡ľ":6684,"ìĺ¤ë¥´":6685,"Ġ1910":6686,"ë²¨":6687,"ĠìŀĲëĬĶ":6688,"ĠìķĦë¬´ë":6689,"ĠìĿ´ëĤ´":6690,"°ĶìĿ¼":6691,"ĠìŀĦì§ĦìĻľëŀĢ":6692,"ıĪ":6693,"łĪëĵľ":6694,"Ġìľłíķľ":6695,"ence":6696,"Ġëł¤ë©´":6697,"pe":6698,"íĮ©":6699,"ĠíĶĦëŀĳìĬ¤ìĸ´":6700,"ĭĽ":6701,"Ġëıħìŀ¬":6702,"Ġì¶Ķë°©":6703,"Ġë¹ļ":6704,"Ġìĺģì¡°":6705,"ck":6706,"íķ´êµ°":6707,"ë¦¬ëĤĺ":6708,"Ġ79":6709,"Ġê¸īê²©":6710,"Ġë®Į":6711,"ial":6712,"ĠíĽĦìŀĦ":6713,"Ġíı¬ìĬ¤":6714,"Ġë¬¼ê±´":6715,"ìĬ¤íĬ¸ëĿ¼":6716,"ĠìĹ¬ìļ°":6717,"Ġëĺĳ":6718,"ĠìĻĦë²½":6719,"2000":6720,"ìĭľìĬ¤ì½Ķ":6721,"į°íĥĢ":6722,"Ġë¶ĢìĤ°ê´ĳìĹŃìĭľ":6723,"ĠíķĦìĪĺ":6724,"Ġæ¥":6725,"Ġì±ĶíĶ¼ìĸ¸ìĭŃ":6726,"ê¸°ìĽĲ":6727,"Ġëĭ«":6728,"ĠìĦľìĪł":6729,"ĠìĹ°ëĿ½":6730,"ĠìĦĿìĤ¬":6731,"Ġ1933":6732,"ĠëĤ´ìĦ¸":6733,"ass":6734,"ĠìłĦìĨ¡":6735,"Ġì§Īë¬¸":6736,"Ġå¾·":6737,"ìĺĮ":6738,"¯¸ë¥´":6739,"ĠëĿ¼ìĬ¤":6740,"ĠìĪĺìĹħ":6741,"Ġíĸīë³µ":6742,"Ġê¹ĢëĮĢ":6743,"ĠìĽĥ":6744,"Ķëĵ¤":6745,"ĠìļĶê¸Ī":6746,"ĠìłĦìĪł":6747,"ĠìķĦíĶĦ":6748,"ĠëıĮëł¤":6749,"¸ëĿ¼":6750,"ìĽ°":6751,"ìĿ´ëŁ¬":6752,"Ġë°°íı¬":6753,"Ġ1932":6754,"ĠCounty":6755,"Ġë¸ĮëłĪ":6756,"Ġæ®":6757,"ĠíĶĦë¦¬ëĵľ":6758,"ĠìŀĲêµŃ":6759,"ĠìłĦëĭ¹":6760,"ê³łë¦¬ì¦ĺ":6761,"ĠìĿ¸ìĥĿ":6762,"ĠíŀĪíĭĢëŁ¬":6763,"ĠíħĮë§Ī":6764,"Ġê³¨ëĵł":6765,"Ġë°Ģëł¤":6766,"Ġë£¨ë§ĪëĭĪìķĦ":6767,"Ġë³Ģíķĺ":6768,"ì´Ŀëıħë¶Ģ":6769,"ris":6770,"Ġê³łê¸ī":6771,"Ġçµ":6772,"Ġë§ĮëĤ¬":6773,"ìĻĢìĿ´":6774,"Ġê°Ģë§Ī":6775,"Ġ140":6776,"ĠìĪĺíĺ¸":6777,"Ġë³´ìĹ¬ì¤Ģëĭ¤":6778,"Ġìĸ¸ëįķ":6779,"AM":6780,"Ġê°ĳìŀĲê¸°":6781,"IN":6782,"Ġê¶ģìłĦ":6783,"Ġì°¾ìķĦë":6784,"Ġì¡°ì§ĢìķĦ":6785,"Ġëĭ¬ëł¤":6786,"Ġë¶ĢìľĦ":6787,"ĠíĻĶíıĲ":6788,"ĠìĤ¬íĩ´":6789,"ìĹ¬ìĦľ":6790,"Ġæħ¶":6791,"Ġë¶ĢëıĻ":6792,"íĶĮë¦¬":6793,"äºĭ":6794,"Ġì¡°ìĥģ":6795,"Ġì¡°ì¹´":6796,"ĠìĿ¸ëĶĶìĸ¸":6797,"land":6798,"ë³¸ë":6799,"Ġê°ľëŁī":6800,"Ġíľ´ëĮĢ":6801,"Ġê²Ģìĥī":6802,"¤¾":6803,"ĠëıĻë¶ģ":6804,"ĠìĨĲìĭ¤":6805,"Ġê²©íĮĮ":6806,"Ġë¶Īê°Ģë¦¬ìķĦ":6807,"ĠíĥĢìľ¨":6808,"ĠìĤ¬ë¬´ìĨĮ":6809,"ĠìŀĲëŀ":6810,"ĠìĤ¬ê²©":6811,"Ġìľłíļ¨":6812,"Ġìľłê³ł":6813,"Ġ1934":6814,"ĠìĥĿê²¼":6815,"ĠPh":6816,"Ġ=\"":6817,"Ġë°ľê°Ħ":6818,"Ġê°ģêµŃ":6819,"ĠâĨĴ":6820,"Ġê¸°ëıĻ":6821,"ìŀİ":6822,"íħį":6823,"Ġê·¸ë¦¬ìĬ¤ìĸ´":6824,"ĠâĦĥ":6825,"êµ¬ì¹ĺ":6826,"ĠìĥģìĿ¸":6827,"ĠìĹĲëĵľìĽĮëĵľ":6828,"ĠëĵľëĿ¼":6829,"ĠìĽĲìĪĺ":6830,"ib":6831,"Ġì°½ìĽĲ":6832,"ĠëĭĪì½ľë":6833,"ĠëłĪìķĮ":6834,"Ġê°ĢìļĶ":6835,"ĠìĦ¸ìĿ¸íĬ¸":6836,"ĠìĦ¸ë¶Ģ":6837,"ë°ĶíĤ¤ìķĦ":6838,"çİĭ":6839,"Ġì¿łëį°íĥĢ":6840,"Ġë²Įìĸ´ì§Ħ":6841,"Ġëĭ¹íķ´":6842,"ê³µìĤ¬":6843,"ĠWor":6844,"ĠìĦ¸íĬ¸":6845,"ìĤ¬ìłĦ":6846,"Ġì£¼ì²´":6847,"ĠìĤ¬ìĸĳ":6848,"Ġì¤Ħìĸ´ëĵ¤":6849,"Ġë°©ìĸ¸":6850,"ĠíĥĢìĿ¸":6851,"ĠìķĮê³łë¦¬ì¦ĺ":6852,"Ġìłĳíķľëĭ¤":6853,"Ġ83":6854,"ë²łìĬ¤":6855,"Ġåīį":6856,"ĠìķĪëıĻ":6857,"ĠíķĦëĵľ":6858,"ìĮ":6859,"Ġë©´ë":6860,"ìĽĲê²½":6861,"ëĭ¤ìĪĺ":6862,"ĠíĻĶëł¤":6863,"Ġèģĸ":6864,"Ġì¶Ķê¸°":6865,"ĠêµŃìłģ":6866,"ìĺ¤ë¦¬":6867,"©Ķë":6868,"ĠìĦłíı¬":6869,"Ġìĭ¤ì²ľ":6870,"ŀĢìĥī":6871,"ĠìĤ¬ìļ°ìĬ¤":6872,"ìķĦìĿ´":6873,"Ġê°ľëªħ":6874,"ĠëĬĳ":6875,"ìķĺ":6876,"Ġíĺ¸ìĨĮ":6877,"ĠìĦ¤ì¹ĺë¥ĺ":6878,"łëĭ¤":6879,"ìłĢìĬ¤":6880,"Ġãħ":6881,"ĠíĥĢìĿ´ê±°":6882,"²³":6883,"ìŀĲíĤ¤":6884,"łë¡ľ":6885,"ire":6886,"Ġëĭ¹ìĽĲ":6887,"ĠTe":6888,"ìķ¼ìĬ¤":6889,"ĠìĿ´ëªħ":6890,"Ġçı":6891,"²łíĬ¸":6892,"Ġì£¼ìĨĮ":6893,"Ġì§ĦíķĻ":6894,"ìĹ¬ê¸Ī":6895,"Ġëįľ":6896,"Ġì´ĪìłĲ":6897,"Ġë¯¸ë¦¬":6898,"ĠëĤ´ëĨĵ":6899,"Ġë©Ķë¦¬":6900,"Ġë¦¬ë²Ħ":6901,"ide":6902,"íķĦëĵľ":6903,"Ġë°ĽìķĦëĵ¤ìĿ´":6904,"son":6905,"Ġê´ĳë²Ķ":6906,"ĠìĿ¼ëł¨":6907,"Ġê°Ĳê°ģ":6908,"ĠìĨĮíĺķ":6909,"åĮ":6910,"ĠíĻĺìĬ¹":6911,"Ġìłł":6912,"Ġëį©":6913,"Ġìŀ¬ì¦Ī":6914,"Ġ110":6915,"Ġë·°":6916,"ĠíĪ¬ë¥´":6917,"Ġæ¢":6918,"Ġì°¬ìĦ±":6919,"¬ëĵľ":6920,"ĠCP":6921,"Ġë°ĺìĤ¬":6922,"ĠìķĶì»·":6923,"ê·¸ë¦¬ê³ł":6924,"Ġê³łìĭľ":6925,"ìĿ´ë¨¸":6926,"ĠìĨĮìľĦ":6927,"ĠâĢĻ,":6928,"2003":6929,"ìħĢë¡ľëĤĺ":6930,"ë°Ķë¡ľ":6931,"Ġì¥":6932,"Ġ1928":6933,"Ġì¹Ńíĺ¸":6934,"Ġíķĺë":6935,"Ġæ±Ł":6936,"ĠìłķêµĲíļĮ":6937,"Ġ175":6938,"æķ":6939,"Ġëĭ¤ìļ´":6940,"ĠíķŃìĿĺ":6941,"Ġíŀĺëĵ¤":6942,"ĠéĩĮ":6943,"ĠëĬĺìĸ´ë":6944,"Ġìµľìļ°":6945,"ĠBo":6946,"ë²ĦìĬ¤":6947,"ĠíķŃê³µìĤ¬":6948,"Ġê³Ħê³¡":6949,"ĠíĶĦëŀĳìĬ¤êµ°":6950,"ĠìĬ¤íĥĢëĶĶ":6951,"Ġëĵľëŀĺ":6952,"íİĺìĿ´ìĬ¤":6953,"ĠíĹĪëĿ½":6954,"ĠSch":6955,"Ġë¹Ħíĸīê¸°":6956,"ĠíĻĶìĿ´íĬ¸":6957,"Ġëª¨íĨł":6958,"Ġê±°ì§ĵ":6959,"ĠìĺĪë°©":6960,"ĠìĬµê²©":6961,"Ġå°ı":6962,"ĠìĿ´ë¥¸ë":6963,"ĠìľłìĤ°":6964,"ĠìĿ´ë¥¸ë°Ķ":6965,"ĪĪ":6966,"Ł¿":6967,"íĤ´":6968,"Ġì°¨ëĭ¨":6969,"Ġëŀ©":6970,"íģĲë":6971,"ĠíĿ°ìĥī":6972,"ĠëıĦìļĶ":6973,"ë¯¼ëĭ¹":6974,"ë°ľë":6975,"Ġìĭ±ìĸ´":6976,"Ġê¾¸ì¤Ģ":6977,"ĠìĪľë":6978,"ann":6979,"Ġì§ĳíļĮ":6980,"Ġì¶Ķê¸°ê²½":6981,"ĠìłĢìŀĲ":6982,"ĠíĥĦìķķ":6983,"Ġå´Ķ":6984,"ivers":6985,"Ġì¦Ŀìĸ¸":6986,"Ġ1924":6987,"Ġê¸Ģë¡ľë²Į":6988,"Ġì§ĪìĦľ":6989,"ĠíĽĦê³ĦìŀĲ":6990,"ĠìĹł":6991,"age":6992,"ont":6993,"ĠìłĦëıĻì°¨":6994,"Ġëª¨ë°ĶìĿ¼":6995,"Ġì¤ĳì¶Ķ":6996,"ĠëĤ¨ê¸°":6997,"Ġê±°ì¹ĺ":6998,"Ġê°ľë³Ħ":6999,"ĠíĨłë¡łíĨł":7000,"Ĥľë":7001,"ĠëĤĺì¹´":7002,"ĠíĻĶìłľ":7003,"Ġêµ¬ë©į":7004,"ĠìĨĮë¹ĦìŀĲ":7005,"Ġìķ½ì¹Ń":7006,"Ġì³Ĳ":7007,"Ġì½ĺíħĲì¸ł":7008,"íĶĦëŀĳìĬ¤":7009,"Ġíģ¬ë¡ľìĬ¤":7010,"Ġìĸµìłľ":7011,"ĠìĿ¼ìľ¼ì¼ľ":7012,"ìĸ´ë¡ľ":7013,"ĠìĿĮìĦ±":7014,"ĠìŀĲë³¸ì£¼ìĿĺ":7015,"ĠìķĦíĬ¸":7016,"ĠìĿ´ëħĲ":7017,"Ġìĵ°ìĺĢ":7018,"ĠëĮĢìļ°":7019,"ĠìĥĿíĥľ":7020,"Ġëħ¸ë¦¬":7021,"ĠíĬ¸ëłĪìĿ´ëĵľ":7022,"Ġ163":7023,"Ġê¸°ë¶Ģ":7024,"Ġë¹Įë¦¬":7025,"Ġë¯¸ìĪłê´Ģ":7026,"Ġæľ¬":7027,"ĠìĥģìĪĺ":7028,"Ġì¡°ìĦłì´Ŀëıħë¶Ģ":7029,"ĠæĶ¿":7030,"ĠíĹĪë¦¬":7031,"ĠíĻĶìĦĿ":7032,"Ġæľĥ":7033,"Ġë°±ìĿ¸":7034,"Ġë¬´ë¦":7035,"ĠìĤ¬ë§Ī":7036,"tive":7037,"ĠCol":7038,"Ġìĭ±ê°Ģíı¬ë¥´":7039,"ĠìµľíĽĦ":7040,"íıīê·ł":7041,"Ġla":7042,"ĠìĿĺë¬¸":7043,"ĠìĪĺë°±":7044,"ê¹Ģë":7045,"Ġë¶ĦíĻĶ":7046,"ĠíļĮë¡ľ":7047,"Ġåħ¨":7048,"Ġì¶©ë¶ĦíŀĪ":7049,"ê³¼ìĿ´":7050,"amp":7051,"ĠìĽĮë":7052,"ĠìĨĮì§ĳ":7053,"Ġê³łìľĦ":7054,"ĠíķĺìĿ¸":7055,"íĶĮëłĪìĿ´":7056,"Ġê²ī":7057,"ID":7058,"Ġå¦":7059,"Ġëª¨ìĿĮ":7060,"ê³łìĨį":7061,"ĠWW":7062,"Ġê³łê°Ŀ":7063,"Ġëª©ìĦ±":7064,"AC":7065,"ĠíĽĮë":7066,"Ġëĭ¤ëĭ¤":7067,"ĠëıĮìķĦìĺ¤":7068,"ft":7069,"Ġìķ½íĻĶ":7070,"ĠìĿ´ìĽĥ":7071,"Ġê°ľì²Ļ":7072,"Ġê°Ģê¹Ŀ":7073,"íĭ°ìĬ¤":7074,"ĠìĬ¤íĥĪ":7075,"Ġë²ķíķĻ":7076,"ìĿ¼ë°ĺ":7077,"ĠïĶ":7078,"OR":7079,"Ġ154":7080,"Ġì§Ŀ":7081,"íĳľë":7082,"Ġê°Ħë¶Ģ":7083,"Ġâī«":7084,"Ġ130":7085,"Ġëĵ±ìŀ¥ìĿ¸ë¬¼":7086,"ĠìķĦíĭ°ìĬ¤íĬ¸":7087,"Ġë¹Ħì¹ĺ":7088,"Ġë°ĺì§Ģ":7089,"Ġì¶ķìĨĮ":7090,"²¤íĬ¸":7091,"ìĬĪíĥĢìĿ¸":7092,"Ġê³łìĸĳìĿ´":7093,"ĠìĨĮíĻĶ":7094,"Ġì²ľì£¼êµĲ":7095,"¬´ëĿ¼":7096,"ĠíĶĦë¦¬ëĵľë¦¬íŀĪ":7097,"Ġëŀľëĵľ":7098,"ame":7099,"Ġìļ´ìĨ¡":7100,"ĠUS":7101,"ah":7102,"Ġæ¯":7103,"Ġë§Īë¥´íģ¬ìĬ¤":7104,"Ġìķ½ë¬¼":7105,"êµĲìľ¡":7106,"§ĪëĤĺ":7107,"ĠìľĻ":7108,"ĠìĤ´ìķĦë":7109,"Ġìľłë°°":7110,"ê·¸ëłĪ":7111,"ìĦ¼íĬ¸":7112,"µ·":7113,"Ġìĭ¤ìĹħ":7114,"ë¦¬ëĭ¤":7115,"ĠìĪĺì¹ĺ":7116,"ê°Ĵ":7117,"Ġíĺ¼ìŀĲ":7118,"ĠCar":7119,"ĠìŀĲìĤ°":7120,"Ġì²©":7121,"Ġìľ¼ëĭĪ":7122,"Ġì¢ħìĤ¬":7123,"Ġ176":7124,"Ġê²½ëĤ¨":7125,"çĽ":7126,"Ġé¡":7127,"Ġê³¡ìĦł":7128,"Ġë°Ķë¥´ìħĢë¡ľëĤĺ":7129,"ĠíĭĪ":7130,"Ġíı¬ìĬ¤íĬ¸":7131,"Ġìĸ¸ìĬ¤":7132,"Ġì§Ģë¶Ī":7133,"ĠìĬ¤íĥĢëĶĶìĽĢ":7134,"²Ħê·¸":7135,"ĠìłĦíķľ":7136,"Ġì¡°íķŃ":7137,"ĳ¤":7138,"ĠMS":7139,"ĠíĥĦíķµ":7140,"ĠìķĦëĭ":7141,"Ġìĭłìŀ¥":7142,"ĠëĤ¨ìķĦíĶĦë¦¬ì¹´":7143,"ĠìŀħëĮĢ":7144,"Ġì´īì§Ħ":7145,"ĠìłĦìłģ":7146,"ĠìķĦìĿ´ìĬ¤":7147,"Ġì¤ĦìĿ´":7148,"Ġìŀ¬ëĬ¥":7149,"Ġ09":7150,"Ġë¸Ķë¡Ŀ":7151,"Ġìķ¼ìĬ¤":7152,"Ġëĭ¨ìĪľíŀĪ":7153,"ëĭ¤ëŀĢ":7154,"Ġìļ©ëıĦ":7155,"Ġê·¹ëĭ¨":7156,"Ġíģ¬ë£¨":7157,"ĠíĢĺ":7158,"ĠìĪĺìĭŃ":7159,"Ġì£¼ìĿ¼":7160,"íĬ¸ëĦĪ":7161,"Ġê±¸ì¹ľ":7162,"Ġë¦½":7163,"Ġìķ¡ì²´":7164,"Ġê²Įëĭ¤ê°Ģ":7165,"ê°ĢëĭĪ":7166,"ìĻ¸ë":7167,"Ġë»Ĺ":7168,"Ġëĭ¥íĦ°":7169,"ĠíķĺìĹ¬ê¸Ī":7170,"Ġì¹łëłĪ":7171,"Ġë¯¸ìĵ°":7172,"Ġìļ´íķŃ":7173,"Ġë¦¬ëĵľ":7174,"Ġ1931":7175,"Ġêµ°ë¶Ģ":7176,"ĠíĨłëĮĢ":7177,"Ġê²½ìłľíķĻ":7178,"Ġê°Ħëĭ¤":7179,"ì§Ŀ":7180,"ê³µìĹħ":7181,"Ġ1929":7182,"Ġj":7183,"Ġæĩ":7184,"Ġíı¬ì¼ĵëª¬":7185,"Ġê°ĢìĨį":7186,"ëª½":7187,"Ġë¬´ìļ©":7188,"Ġì¹ĺë¥´":7189,"ĮëłĪ":7190,"Ġíĺķìĥģ":7191,"ĠWh":7192,"ĠëĮĢë²ķìĽĲ":7193,"ĠìĬ¤ë¯¸ìĬ¤":7194,"Ġêµ¬ìĥģ":7195,"Ġë¯¸ìĭľ":7196,"íĤ¤ëĤĺ":7197,"tt":7198,"Ġíĸīíķĺ":7199,"IS":7200,"ĠìĨĮë¬¸":7201,"Ġëĵ¤ìĸ´ìĺ¤":7202,"Ġë²Īì§Ģ":7203,"iss":7204,"Ġê´ĳë²ĶìľĦ":7205,"ĠìķĪëĵľë¡ľ":7206,"Ġìļ°íģ¬ëĿ¼":7207,"ĳł":7208,"Ġë©Ī":7209,"ĠìłķíĨµ":7210,"Ġëª»íķľëĭ¤":7211,"Ġæ¸":7212,"Ġë®ĮíĹ¨":7213,"Ġìŀħêµ¬":7214,"ëħķ":7215,"ĠìĤ¬ì°°":7216,"Ġê²½ìĤ¬":7217,"Ġê·¸ëĿ¼":7218,"ĠìĿ´íĸī":7219,"Ġêµ¬ê¸Ģ":7220,"Ġìŀ¬ê°ľ":7221,"ĠìĦ¸ë¡ľ":7222,"ĠìłķíĻķíŀĪ":7223,"¦¬ë":7224,"íĥĦë":7225,"Ġì¤ĳì§Ģ":7226,"Ġë§ĪìĬ¤íĦ°":7227,"Ġæľī":7228,"Ġíķ´ìłľ":7229,"Ġìĺ¤íĨł":7230,"ĠìĬ¤íħĮìĿ´ìħĺ":7231,"Ġè¼":7232,"Ġæ¼¢":7233,"Ġê°ľìŀ¥":7234,"ĠåĸĦ":7235,"ĭµ":7236,"Ġë²¼ìĬ¬":7237,"ĠìŀłìĪĺíķ¨":7238,"Įë¦°":7239,"ĠìŀĲëŀĳ":7240,"Ġìłķë©´":7241,"²łë¦¬ìķĦ":7242,"Ġì£¼ìĸ´ì¡Į":7243,"ĠíĸĦ":7244,"ê²Ķ":7245,"Ġë³´íİ¸":7246,"ĠìĹ´ë§¤":7247,"ĠëĮĢë§Į":7248,"Ġì§ģë¬´":7249,"Ġ158":7250,"ĠíĿĶìłģ":7251,"ĠìĦ¸ìĽĮì¡Į":7252,"Ġ62":7253,"ĠíĨłì°©":7254,"Ġì½Ķë¦¬ìķĦ":7255,"Ġë¨¸ë¬¼ë":7256,"íĨłë¦¬ìķĦ":7257,"Ġëĵľë¬¼":7258,"Ġë¬´ëł¥":7259,"ëĮĢë¶Ģ":7260,"Ġíģ´ëŀĺìĭĿ":7261,"Ġ1923":7262,"ĠëĮĢì¹Ń":7263,"olog":7264,"Ġìĺµ":7265,"ĠìĤ°ì§Ģ":7266,"Ġë§Īì£¼":7267,"ë¦°ë":7268,"Ġíķ©ëıĻ":7269,"Ġì¹´ëĿ¼":7270,"Ġìĭľìĭł":7271,"Ġë¶ĢìĦľ":7272,"íĺĦë":7273,"ìĦ±ê¸°":7274,"ĠìķĪìª½":7275,"ĠMy":7276,"ĠìķĮë°Ķ":7277,"ìłĦìŀĲ":7278,"ĠìĨĲë":7279,"Ġë§ĪìłĢ":7280,"èŃ":7281,"ĠìķłíĶĮ":7282,"Ġ1922":7283,"ĠìĬ¤íĶĦë§ģ":7284,"Ġíİ¸ë":7285,"Ġ>,":7286,"ìĦ¸ëĮĢ":7287,"ĠAd":7288,"Ġíķ©ëĭĪëĭ¤":7289,"íĦ°ë²ł":7290,"Ġë§Īê°Ĳ":7291,"ĠëıĻì§Ģ":7292,"Ġì¾Į":7293,"ìļ°ì¹ĺ":7294,"Ġìĺģìĸĳ":7295,"ìķĪêµ°":7296,"¼ëĵľ":7297,"Ġ1900":7298,"ĠìĬ¤íĭ°ë":7299,"Ġë°°ìĹ´":7300,"Ġìĺ¬ìĬ¤íĥĢ":7301,"ìĬ¬ë§ģ":7302,"Ġê´Ģê°Ŀ":7303,"Ġ165":7304,"íĪ°":7305,"ĠíĶĦë¡ľê·¸ëŀĺë°į":7306,"ĠìŀŃìĬ¨":7307,"Ġè£":7308,"Ġë²ķìķĪ":7309,"Ġìį":7310,"Ġë¬¼ëŁ¬ë":7311,"íħĮìĬ¤":7312,"Ġê°ľì°°":7313,"Ġì´Ŀìŀ¬":7314,"Ġê¹ĢìĦ±":7315,"Ġì»¤ë²Ħ":7316,"Ġì§Ħìĭ¤":7317,"ĠDVD":7318,"Ġ1921":7319,"Ġ1925":7320,"ĠíĴįìĨį":7321,"ĠìĦ±ìĶ¨":7322,"ĠìĦłíĺķ":7323,"ĠìĦłë¡ľ":7324,"ĠìĹĦê²©":7325,"ĠìĿ´ë²¤íĬ¸":7326,"Ġë¦¬ì²ĺëĵľ":7327,"Ġëĩ":7328,"Ġç¿":7329,"ĠíĮĲìłķ":7330,"Ġë³¸íĨł":7331,"êº":7332,"ĠìłĦìłľ":7333,"Ġê±°ëĬĲ":7334,"Ġìĺģêµ¬":7335,"Ġéĺ":7336,"ĠëĬĳëĮĢ":7337,"rom":7338,"Ġ04":7339,"Ġë¶ĢìĨį":7340,"ĠæĽ¸":7341,"íĹ¬":7342,"ĠìĭłëıĦ":7343,"Ġ>(":7344,"ì¼Ģë":7345,"ĠëĤĺìĦ°":7346,"Ġìŀ¬ìĥĿ":7347,"ĠìĤ¬ê³¼":7348,"Ġê²½ê³ł":7349,"ĠìĦ¸ìĽĶ":7350,"Ġì¡°ê¸°":7351,"Ġíĥĵ":7352,"Ġ250":7353,"ĠéĻ½":7354,"Ġíİĳ":7355,"Ġê°ķëıĦ":7356,"Ġ156":7357,"Ġcod":7358,"ĠìĹ°íĺ¸":7359,"Ġ72":7360,"Ġë°Ģë¦¬":7361,"Ġê±°ìłĲ":7362,"ĠëĪĦìĬ¤":7363,"ĠìĺģìĽĲ":7364,"Ġê¹Ģì¢ħ":7365,"Ġíķ«":7366,"ľëł":7367,"ĠìķĦë©Ķë¦¬ì¹¸":7368,"Ġê°ķìļĶ":7369,"ĠíŀĻíķ©":7370,"ê¿":7371,"íĤ¤íį¼":7372,"Ġ*":7373,"Ġê³µìĭł":7374,"ĠëĶĺ":7375,"IC":7376,"ĠìķĦë§Īë":7377,"Ġë²łëĦ¤ì¹ĺìķĦ":7378,"Ġë¹ĦìĬ¤":7379,"Ġìķ¼ëĭ¹":7380,"ĬĲëĭĺ":7381,"Ġë§¤ì¹ĺ":7382,"ĠëĮĢê°Ģ":7383,"łĪìĺ¤":7384,"Ġíĺ¸íĿ¡":7385,"Ġå¢":7386,"Ġì¤ĳì¢ħ":7387,"Ġê°ķëĤ¨":7388,"Ġë¹Ħì¤ĳ":7389,"íĤ¤ìĬ¤":7390,"ìĩł":7391,"ĠæĺĮ":7392,"Ġì¶Ķìłģ":7393,"ĠìĿ¸ë¯¼êµ°":7394,"Ġç¶ĵ":7395,"ĠìĪĺì»·":7396,"Ġìŀ¥ë¡ľ":7397,"Ġê´Ģê³ĦìŀĲ":7398,"ĠNew":7399,"ĺê¸°":7400,"Ġìĺ¤ê°Ģ":7401,"ĠëĮĦìĬ¤":7402,"Ġê²½ì°°ìĦľ":7403,"ĠéŃ":7404,"ĠìķĦë¯¸":7405,"ĠìŁģ":7406,"ĠJR":7407,"Ġëĭ¹ëĮĢ":7408,"ĠíĮ©":7409,"Ġì²´íĹĺ":7410,"ĠìĬ¤íİĻ":7411,"Ġä½¿":7412,"Ġìĭ¤ëĤ´":7413,"Ġ1926":7414,"ĠíĴĭ":7415,"ĠêµŃê¸°":7416,"ĠìĤ¬ë§ī":7417,"ĠëıĶ":7418,"¼ëĭ¤":7419,"ĠìľĦíĤ¤":7420,"Ġë¹ĦìŀĶ":7421,"ìĺĪë":7422,"ĠëıĻíĻĶ":7423,"Ġì½Ķë¯":7424,"Ġ139":7425,"Ġêµ¬ìĤ¬":7426,"ĠèĲ":7427,"Ġê²¬ë":7428,"ìķĦë¦¬":7429,"ĠëĦ¥":7430,"íİł":7431,"Ġch":7432,"Ġìĺģì£¼":7433,"íĭ°ìĺ¤":7434,"ĠìĦ¸ì¡°":7435,"me":7436,"Ł¬ìļ´":7437,"Ġê³¨íĤ¤íį¼":7438,"ìĬ¬ë¡ľ":7439,"PS":7440,"ĳĲë":7441,"ĠìŀĲë§¤":7442,"ìķĦìĬ¤":7443,"ĠìĥĪëģ¼":7444,"Ġë©´ìĹŃ":7445,"Ġìļ©ìĿ¸":7446,"ĠíķŃíķ´":7447,"Ġë©Ķëĭ¬":7448,"ëįĺ":7449,"Ġê¾¼":7450,"ĠìĬ¤íģ¬ë¦°":7451,"ĠíĥĢìłĲ":7452,"Ġ168":7453,"ĠíĻĶíķ©ë¬¼":7454,"ìĤ¬ë¥´":7455,"íŀĮëĭ¤":7456,"OM":7457,"Ġâīª":7458,"ĠíķľìĦ±":7459,"ĠìĬ¤íĶ¼ë":7460,"ĠíķłìķĦë²Ħì§Ģ":7461,"Ġë°´":7462,"ĠëĮĢê²°":7463,"Ġì²´ìľ¡ê´Ģ":7464,"Ġê·¸ë¦¬íķĺìĹ¬":7465,"ëį°ë":7466,"Ġíľĺíķĺ":7467,"Ġì¯¤":7468,"ĠìĦ±ì¢ħ":7469,"īģ":7470,"Ġíİ¸ìĿĺ":7471,"Ġë¯¸ìķ¼":7472,"Ġë¶ģë¯¸":7473,"ĠíĽĮë¥Ń":7474,"Ġìľłëł¥":7475,"ĠJohn":7476,"ľ¨ë¦¬":7477,"íĸīìĦ±":7478,"Ġé©":7479,"Ġë¶ĦìĤ°":7480,"ìĥĿë¬¼":7481,"ĠìĬ¤íĨ¤":7482,"ĠìłĦëĤ¨":7483,"Ġìıĺ":7484,"Ġê°ĢëĤľ":7485,"Ġì§Ģì¤ĳ":7486,"íĭĢë":7487,"ĠíĶĦëŀŃ":7488,"æ³ķ":7489,"ĠìĹī":7490,"Ġìĺ¤ë¥ĺ":7491,"ì¹¼ë":7492,"Ġê°Ħê²©":7493,"ĠìºĶ":7494,"ĠìĦ¸ìĿ´":7495,"ĠêµŃíĨł":7496,"Ġì´Īìĥģ":7497,"èª":7498,"ŀĦ":7499,"Ġì§Ģì¹Ń":7500,"AS":7501,"Ġë°ĶëĿ¼":7502,"Ġê°ĢìĻĢ":7503,"Ġë¶ĢíĴĪ":7504,"Ġë¹µ":7505,"Ġë¸Įë¡ľ":7506,"Ġê·¼ìľ¡":7507,"ĠíĬ¹ë³ĦíŀĪ":7508,"Ġ1927":7509,"Ġíģ´ë¡ľ":7510,"Ġì²łíķĻìŀĲ":7511,"ĠìŀĲì¹ĺêµ¬":7512,"Ġë¶Ģíĺ¸":7513,"Ġì²łê±°":7514,"åł":7515,"ĠëĮĢìĽĲ":7516,"Ġë¶Ģì²ĺ":7517,"ĠìłĳìĨį":7518,"ĠìĥĪë²½":7519,"ĠìĦ¸ê¸Ī":7520,"Ġèī":7521,"ĠìĦ±ìĦľ":7522,"íģ¬ëŀĺíĶĦíĬ¸":7523,"íģ´ë¦°":7524,"Ġíİ¼ì³¤":7525,"ĠìĦ±ëĤ¨":7526,"Ġì´Īì²Ń":7527,"Ġë§¤ì£¼":7528,"189":7529,"ĠOS":7530,"Ġìĺ¤ì¼Ģ":7531,"ìĤ¬ê´Ģ":7532,"ĠëĨįìŀ¥":7533,"Ġì°©ìļ©":7534,"Ġì½ľë¡":7535,"Ġë¬´íķľ":7536,"ĠìĦłíĺ¸":7537,"ĠMan":7538,"Ŀ¼ìĿ´ëĤĺ":7539,"ĠíķĺëĬĲëĭĺ":7540,"Ġê°ĢìĿ´":7541,"ĠíĶ¼íĬ¸":7542,"ëıħìĿ¼":7543,"ĠíģĲ":7544,"Ġç¯":7545,"Ġè±":7546,"Ġëĭ¨ìŀ¥":7547,"ĠìĸĳêµŃ":7548,"Ġëį§ë¶Ļ":7549,"Ġì§ĢìĪĺ":7550,"Įë¶Ģ":7551,"Ġì¤ĳìĦ±":7552,"Ġë³µìĤ¬":7553,"Ġ61":7554,"ĠíŀĪìĸ´ë¡ľ":7555,"ĠìĬ¤íĥĪë¦°":7556,"Ðµ":7557,"ë²Ħë":7558,"Ġì»¤ëĭ¤ëŀĢ":7559,"Ġì½ľë¡ľ":7560,"ĠëıĻêµ´":7561,"Ġì²Ńì£¼":7562,"Ġëįķë¶Ħ":7563,"Ġíıīë¡łê°Ģ":7564,"ĠëıĻìĿ¼ë³¸":7565,"eb":7566,"ìĪĺëŁī":7567,"Ġê³¤ì¶©":7568,"ĠìļĶì½Ķíķĺë§Ī":7569,"Ġãģ®":7570,"ĠìĽĲìŀĲëł¥":7571,"ĠåĨ":7572,"Ġ\"\"":7573,"ëıĦë¥´":7574,"Ġë¦¼":7575,"Ġìŀ¥ë¡Ģ":7576,"Ġë´īíķ´ì¡Į":7577,"Ġíĭ°ë²łíĬ¸":7578,"ëĭī":7579,"ĠíĶ¼íĦ°":7580,"ĠíĪ¬ìĬ¤":7581,"ĠëłĪëĭĮ":7582,"ľëł·":7583,"ĠìĤ¬ìĿ´ëĵľ":7584,"ĠíĨłë¦¬":7585,"Ġíķ¨ê²½":7586,"Ġì§Ģíľĺê´Ģ":7587,"ëģĶ":7588,"ìĬ¤ì¼Ģ":7589,"ĠëĮĢëĭ¤ìĪĺ":7590,"Ġì£¼ìŀĲ":7591,"íĬ¸ëĭĪ":7592,"ì°¨ë¡ľ":7593,"Ġìłķë¥ĺ":7594,"ìĺģêµŃ":7595,"łĪëĤĺ":7596,"ì¦ĪëĭĪ":7597,"ĠëĬĲëĥĲ":7598,"ĠåĴĮ":7599,"Ġë¯¸ìĬ¤":7600,"ì¼Ħ":7601,"Ġì§ĳíķĦ":7602,"ĠèĪĪ":7603,"Ġì½ĶëĦĪ":7604,"ĠíĺĪìķ¡":7605,"ĠêµŃë°©ë¶Ģ":7606,"²ĦíĬ¸":7607,"Ġ174":7608,"ĠìĽĲìŀ¥":7609,"ĠëıħìłĲ":7610,"Ġëļľëł·":7611,"Ġë¶Ģëĵľë":7612,"Ġì£¼ë¬¸":7613,"Ġë©¸ì¢ħ":7614,"ĠìĿĺìłķë¶Ģ":7615,"ĠìĦľë°©":7616,"¥´ë§Į":7617,"ĠíĮĮë¥´":7618,"Ġå®¶":7619,"Ġìŀ¬íĮĲìĨĮ":7620,"Ġëª¨ìŀĲ":7621,"Ġë°°ìĽł":7622,"Ġë´īê¸°":7623,"ĠìŀĲìĿ´ìĸ¸ì¸ł":7624,"Ġæ²³":7625,"ĠåĽĽ":7626,"ĠíİĺìĿ´ìĬ¤":7627,"Ġë¬´ëĬ¬":7628,"ì¾":7629,"ĠìĿ¼ìŀĲ":7630,"Ġë¬¼ëł¤":7631,"Ĳëĵľ":7632,"íĬ¸ë¹Ħ":7633,"ĠìĦłë¬¼":7634,"ĠíļĮìĥī":7635,"Ġíıīë©´":7636,"ĠëıĦì¿łê°ĢìĻĢ":7637,"Ġíķ©ë¦¬":7638,"Ġëĭ¤ìĿ´ë¬ĺ":7639,"ĠíĮĲíĥĢ":7640,"Ġë°ľìłĦìĨĮ":7641,"ula":7642,"Ġê°Ĳìĺ¥":7643,"ĠEx":7644,"ĠST":7645,"ĠìķĪëĤ´":7646,"Ġë¬¼ê³łê¸°":7647,"ĠìĨĮìĦ¤ê°Ģ":7648,"ìĺģíĻĶ":7649,"ĠëĨįì´Į":7650,"Ġ1912":7651,"Ġëħ¸ëıĻëĭ¹":7652,"ĠëĨĢëĿ¼":7653,"ĠíĶĦë¡ľíĨł":7654,"ëĭ¹ìĭľ":7655,"ĠìĦĿë°©":7656,"ĠìļĶìĽĲ":7657,"Ġë¹łì§Ģ":7658,"Ġ08":7659,"ĠæľĿ":7660,"ìĿ´ëįĶ":7661,"Ġëª©ìĪ¨":7662,"ĠëıħìĿ¼ìĸ´":7663,"ĠíıŃíĴį":7664,"Ġå°¹":7665,"tem":7666,"ĠëĮĢë³Ģ":7667,"ìķ¼ìĪĺ":7668,"Ġ145":7669,"ìĬ¤íħĮë":7670,"ìļ°ìĬ¹":7671,"íĨłë¥´":7672,"ĠìĤ´ìķĦëĤ¨":7673,"ĠìĿĢë©Ķëĭ¬":7674,"Ġê³µë£¡":7675,"Ġë°ĶëĿ¼ë":7676,"Ġëĭ®":7677,"ĠìĤŃìłľ":7678,"Ġëĺĳê°Ļ":7679,"Ġìŀ¥ìłĲ":7680,"Ġë¡ľë§¨":7681,"ĠìĿ¼íĻĺ":7682,"ĠíŀĪë¡ľìĭľë§Ī":7683,"Ġìĭľê³Ħ":7684,"Ġëªħìĭľ":7685,"ĠçĽ¸":7686,"ìľłíĤ¤":7687,"ĠëĤ¨ëħĢ":7688,"ĠìĽ¨ìĿ´":7689,"Ġ155":7690,"Ġìĸ´ëĳĲ":7691,"ìĹĲìĬ¤":7692,"ĠìĭĿëŁī":7693,"Ġê·¹ë³µ":7694,"ĠæīĢ":7695,"Ġíķ´íĺĳ":7696,"ĠëıĻë©Ķëĭ¬":7697,"Ġìļ´ëıĻê°Ģ":7698,"Ġëŀľë":7699,"ì¹´ìĬ¤":7700,"Ġë°ľíľĺ":7701,"ung":7702,"Ġal":7703,"èĩ£":7704,"ì°Į":7705,"Ġè¡Į":7706,"ĠìĿ¸ì¹ĺ":7707,"Ġìĺģíĺ¼":7708,"ê°Ģìĭľ":7709,"ite":7710,"ë©¸":7711,"ĠìŀĲì±ħ":7712,"¯¼ì£¼ëĭ¹":7713,"Ġëĭ¹ìĭł":7714,"Ġê°ķë¦ī":7715,"Ġìŀ¬ìŀĦ":7716,"Ġíĳľì§Ģ":7717,"Ġì¦Ŀê¶Į":7718,"Ġê°ķìłĦ":7719,"Ġì¡´ìĬ¤":7720,"ĠëłĪë²¨":7721,"ì½ĶíĶĦ":7722,"íĽĦë":7723,"ĠëĮĢìĤ¬ê´Ģ":7724,"ĠëıĻêµ¬":7725,"Ġìĥģì£¼":7726,"Ġì£¼ëĭĪìĸ´":7727,"ê³Ħë":7728,"íĨ¡":7729,"ĠíĽĦíĩ´":7730,"Ġê³¨ëĵľ":7731,"Ġìºĺë¦¬íı¬ëĭĪìķĦì£¼":7732,"ĠìĹ°ìĥģ":7733,"Ġë¶ģìĦľìª½":7734,"Ġì¢Įìĥģ":7735,"ĠêµĲëıĦ":7736,"Ġè¾":7737,"ëĤ©":7738,"ĠAC":7739,"¬´ê²Į":7740,"®¬ë":7741,"ED":7742,"Ġê³ĦìĪĺ":7743,"ĠëĤ¨ê·¹":7744,"ê¸°ìĽĲìłĦ":7745,"Ġìļ¸ë":7746,"ĠìľłëĮĢìĿ¸":7747,"ĠìĦ±ëªħ":7748,"ĠèĬ":7749,"ĠëĵľëŁ¬ëĤĺ":7750,"ĠìĿ¼ê³±":7751,"Ġì²ľìķĪ":7752,"ĠWil":7753,"ëĬ":7754,"Ġì¹Ļ":7755,"ere":7756,"ĠìļĶìĭľë":7757,"Ġë²łë¦¬":7758,"ĠìĿ´ìĸ´ìĦľ":7759,"Ġë¶Ģìŀĳ":7760,"ĠLove":7761,"ë¢°":7762,"ĠíĥĢìŀħ":7763,"ìķłëĤĺ":7764,"Ġì¡°ë¬¸":7765,"ìĺ¬ë¦¬":7766,"ëĤĺê°Ģ":7767,"ìĬĪë":7768,"Ġìķ½íĥĪ":7769,"Ġì£¼ìŀ¬":7770,"ìĺģìĥģ":7771,"ĠìĤ¬ìĭł":7772,"ĠìĦ±ì§ģìŀĲ":7773,"Ġë¸Įë£¨":7774,"ĠEP":7775,"ĠìĿµìĬ¤":7776,"Ġì¢ħìłĦ":7777,"ìķĦëĭĪìķĦ":7778,"ıĮíĶĦ":7779,"íĤ·":7780,"Ġíķ´ìĦ¤":7781,"Ġìĭľë§Ī":7782,"ical":7783,"ĠìĨĲíķ´":7784,"Ġë§Īìĵ°":7785,"ĠíĺĦì¡´":7786,"ĠìĪĺë°ĺ":7787,"ile":7788,"°ĶëĿ¼":7789,"ĠíĻĶê°Ģ":7790,"ĠBl":7791,"Ġ1907":7792,"Ġëī´ë":7793,"ê°Īë":7794,"Ġë¶ĪíĻĶ":7795,"ê·¼íĺľ":7796,"Ġë§¨ì²´ìĬ¤íĦ°":7797,"Ġê°ĢëģĶ":7798,"Ġê´ĳìĤ°":7799,"Ġë©ĶíĥĪ":7800,"£¬":7801,"ĠìĿĺìĦĿ":7802,"Ġìĺ¨ë":7803,"Ġì¤ĳëıĻ":7804,"ĠìĿ´ì¡°":7805,"ĠëĨĵìĹ¬":7806,"¯¸ìķ¼":7807,"Ġì¢ĮíĮĮ":7808,"ĠìŀĲìľłì£¼ìĿĺ":7809,"ĠëŀĮ":7810,"Ġêµ¬ë¦Ħ":7811,"ë¯¸ëĭĪ":7812,"Ġê³µìĦ¸":7813,"Ġëª¨íĹĺ":7814,"ëĶķ":7815,"Ġìĭ¬ë¦¬íķĻ":7816,"ĠUnivers":7817,"ĠíĮĮìļ´ëĵľ":7818,"Ġ157":7819,"ĠìŀħìĤ¬":7820,"ĠìĨĮìļĶ":7821,"Ġê²°ìĭ¬":7822,"ĠëıĮìķĦê°Ķ":7823,"ľ»":7824,"ĠBr":7825,"Ġë§Īíĭ´":7826,"ĠìĪĺë¹ĦìĪĺ":7827,"Ġë¹Ħíķĺ":7828,"ìĭľìĬ¤íĬ¸":7829,"Ġìŀ¥ê°ĳ":7830,"ĠíĥĢìĽĲ":7831,"Ġê¹Įë":7832,"ĠìľłìķĦ":7833,"Ġë¶Ģíĥģ":7834,"Ġë¦Ń":7835,"ĠìĽĲì¡°":7836,"Ġë°°ê¸ī":7837,"Ġì§ĦëıĻ":7838,"les":7839,"íĬľ":7840,"Ġê·¸ëł¤ìł¸":7841,"ĠìĤ¬ê´Ģ":7842,"Ġê°ķëĵ±":7843,"Ġì¹¼ë¦¬ì§Ģ":7844,"Ġê°Ģêµ¬":7845,"Ġì§Ģë¶Ģ":7846,"ì§ĢëĭĪìķĦ":7847,"Ġì¤ĳìĭľ":7848,"ĠìĦ¸ë¥´":7849,"ĠìķĮíĮĮ":7850,"ĠëıĻë°ĺ":7851,"Ġìľłë°ľ":7852,"Ġê´Ģë¦¬ìŀĲ":7853,"ĠìķķëıĦ":7854,"Ġë£Į":7855,"Ġëį°ë¦¬":7856,"Ġì¿łë°Ķ":7857,"Ġì§ĦíĿ¥":7858,"Ġ1917":7859,"ĠëĿ¼ìĿ´íĶĦ":7860,"ĠëĮĢìĬ¹":7861,"ìĸĳêµ°":7862,"ĠæĿ¾":7863,"Ġë³´ìĬ¤íĦ´":7864,"Ġìĺ¤ìĹ¼":7865,"ĠíĹ¤ë¥´":7866,"¨ëĵľ":7867,"Ġë¼Ī":7868,"ĠëĤĺìĦľ":7869,"ound":7870,"ìģľ":7871,"§Īë¥´":7872,"Ġì¡°íĻĶ":7873,"bert":7874,"Ġë©ĶíĬ¸ë¡ľ":7875,"Ġì§ĢìĹŃêµ¬":7876,"ĠëĬĶëĭ¤ê³ł":7877,"ĠìĿ¸íĦ°íİĺìĿ´ìĬ¤":7878,"ĠëıĦë§Īë":7879,"Ġé¤":7880,"¸ĮëĿ¼":7881,"Ġì²łìłĢ":7882,"ì£¼ëıĦ":7883,"ĠíĿĺëŁ¬":7884,"ëĤ¬":7885,"Ġêµ¬ë¡ľ":7886,"ĠìĹ°ê³Ħ":7887,"ìķĦëŀĺ":7888,"Ġë§Īë£¨":7889,"Ġëª¸ë¬´ê²Į":7890,"ĠìĦ¤ë¹Ħ":7891,"Ġ166":7892,"íŀĲ":7893,"Ġíĥķ":7894,"Ġíģ¬ëĿ¼":7895,"ë§ĪìĿ´":7896,"Ġ05":7897,"ĠìĤ¬ê±°ë¦¬":7898,"Ġê²½ìľł":7899,"ê±´ë":7900,"ĠìĽĲìĭľ":7901,"Ġì½Ķìĸ´":7902,"ĠìłĦë¶ģ":7903,"ĠëıĮíĮĮ":7904,"Ġë¶ģìķĦë©Ķë¦¬ì¹´":7905,"Ġìĭ¤ìłĲ":7906,"und":7907,"ĠëŀĦ":7908,"ĠìĪĺìŀ¥":7909,"Ġìłľìķ½":7910,"ke":7911,"ĠìĪĺì§ģ":7912,"ĠåĤ":7913,"ì¡¸":7914,"Ġåı¤":7915,"ĠëłĪìĿ´ë¸Ķ":7916,"DP":7917,"ìŀł":7918,"ĠìĿ¼ëĭ¨":7919,"íİĺìĿ´ì§Ģ":7920,"Ġíİĺë¦¬":7921,"ĠåĬī":7922,"íħľ":7923,"Ġìľ¤ë¦¬":7924,"Ġìĺģê°Ĳ":7925,"ĠíıīìĥĿ":7926,"Ġê¸°ìĥĿ":7927,"ĠëĨĢìĿ´":7928,"Ġê°ģìŀĲ":7929,"Ġê¹Ģêµ¬":7930,"ĠìķĦê³¼":7931,"ĠíĮĮíĭ°":7932,"ern":7933,"ĠìĦ¬ìľł":7934,"ĠíĻĢë¡ľ":7935,"Ġë§ĿìĽĲê²½":7936,"aw":7937,"ë¸Ķ":7938,"ĠëıĦìĸ´":7939,"Ġê³µêµŃ":7940,"Ġë§¤ëĭĪ":7941,"Ġíı¬ëĵľ":7942,"Ġê¹ĢëĮĢì¤ĳ":7943,"Ġì¶ĶëĮĢ":7944,"Ġcodice":7945,"Ġë¬¸ìĿ¸":7946,"Ġë³Ģìĭł":7947,"Ġê³łêµĲ":7948,"ĠìķĮìķĦë":7949,"ĠìĿ¼ìĸ´ëĤľëĭ¤":7950,"ë¬´ëĿ¼":7951,"Ġì¤ĳë¦½":7952,"Ġëª¨ìĭľ":7953,"Ġì¢ħë¡ľ":7954,"Ġìķķì¶ķ":7955,"ĠìĿ¼íĸī":7956,"Ġ1905":7957,"ies":7958,"ĠWWE":7959,"Ġar":7960,"Ġë¡ľëłĮ":7961,"ĠìĭľíĬ¸":7962,"ĠíĮĮíĤ¤ìĬ¤íĥĦ":7963,"ĠíķŃëª©":7964,"Ġë°ķìĬ¤":7965,"Ġë¬´ë¦İ":7966,"ì©":7967,"ĠëłĪì§Ģ":7968,"ìĹ¼ë":7969,"ĠìľłìĹŃ":7970,"íĥĢìļ´":7971,"ĠëĤ¨ëıĻìª½":7972,"ĠìĦłêµĲìĤ¬":7973,"Ġì§ģìľĦ":7974,"ĠíĶĦë¡ľìĦ¸ìĦľ":7975,"ĠìĦľìłģ":7976,"Ġë¬¸ìŀ¬":7977,"Ġpro":7978,"Ġì§ĦìĪł":7979,"ĠåĲĮ":7980,"Ġê¸ĢìĶ¨":7981,"ĠGr":7982,"Ġë¸Ķë¡ľ":7983,"sp":7984,"ëłī":7985,"ĠìĬ¤íĬ¸ëĿ¼ìĿ´":7986,"Ġë¶ģëıĻìª½":7987,"ĠëĶ±":7988,"Ġìĺ®ê¸°":7989,"Ġå²":7990,"ì½§":7991,"2001":7992,"ĠìĽ¨ìĿ¼ìĬ¤":7993,"Ġê³łìķĪ":7994,"Ġì¹´ìĬ¤":7995,"Ġä¸»":7996,"ì¶Ķìĸ´":7997,"ĠëıĻìĦ±ìķł":7998,"íĶĦëŀĢìĭľìĬ¤ì½Ķ":7999,"Ġìĭ«":8000,"ĠìķĦìĿ¸":8001,"ĠíĶĮë¡ľë¦¬ëĭ¤":8002,"íģĲë©ĺ":8003,"ĠìºłíĶĦ":8004,"ĠKT":8005,"ìĵ°ëĭ¤":8006,"Ġê·¸ëŁ¬ë¯Ģë¡ľ":8007,"Ġê°±":8008,"Ġê¸°ê°ĳ":8009,"Ġë¹ĦíĭĢ":8010,"ĠíĹĺ":8011,"Ġê°ĢíĨ¨ë¦ŃêµĲíļĮ":8012,"ĠìĬ¤íĭ°ë¸Ĳ":8013,"ĠìĤ¬ëĭ¹":8014,"Ġì§ģìĦł":8015,"ĦĪë¨¼íĬ¸":8016,"ìĬ¤íĮħ":8017,"ĠíĬ¹íĹĪ":8018,"Ġíĸīíķ´":8019,"Ġ153":8020,"¥Ļ":8021,"Ġì¤ĳê³Ħ":8022,"ĠUN":8023,"Ġëĵľë¦¬":8024,"¼ìĨĲ":8025,"Ġìĥģì²ĺ":8026,"ĠíķľëĤĺ":8027,"Ġê³¼ìŀ¥":8028,"Ġèĥ":8029,"Ġì£¼ë¥ĺ":8030,"ĠìĨ¡ëĿ¼":8031,"Ġå¾Į":8032,"ĠìĹĺë¦¬ìŀĲ":8033,"íģĲë©ĺíĦ°ë¦¬":8034,"Ġìĵ´ëĭ¤":8035,"Ġíģ´ëŀĺìĬ¤":8036,"Ġë¹Ĺ":8037,"ĠìĥĿìķł":8038,"ÑĢ":8039,"Ģëĵľ":8040,"Ġë¦¬ìĬ¤íĬ¸":8041,"Ġì¢ħì¡±":8042,"Ġìĺ¬ë¦°":8043,"Ġëĵ¤ìĸ´ìĦľ":8044,"Ġê°ĦìĦŃ":8045,"Ġ167":8046,"Ġê·¼ë¡ľ":8047,"ħķ":8048,"Ġ1908":8049,"Ġë³Ħë¡ľ":8050,"Ġëĸ¼":8051,"ĠæĻĤ":8052,"ìĭĿë¬¼":8053,"ĠëģĪ":8054,"ĪħìĬ¤":8055,"ĠêµŃë¯¼ëĭ¹":8056,"ĠìĤ½ìŀħ":8057,"ĠìĿ´ìĬ¤íĬ¸":8058,"Ġë±Ģ":8059,"ĠìłĦë§Ŀ":8060,"Ġëį°ëł¤":8061,"íĨłë¯¸":8062,"ìĿ¸ëıĦ":8063,"Ġê¸°ìķķ":8064,"Ġê´Ģíķĺ":8065,"ĠEd":8066,"ET":8067,"ĠëĮĢëıĻ":8068,"ĠçĪ":8069,"ĠëĿ¤":8070,"ĠíĨµë¡ľ":8071,"ìļ´ìĦľ":8072,"ĠéĸĢ":8073,"ĠíķĺìĤ¬":8074,"Ġìľłìļ©":8075,"Ġì¶ľíĺĦ":8076,"ost":8077,"Ġìľłê°Ģ":8078,"ĠíĪ¬êµ¬":8079,"ĠíĨłëĦĪë¨¼íĬ¸":8080,"ì¹´ëĵľ":8081,"ĠìĹ°ìĨĮ":8082,"Ġì¹´ë¦¬":8083,"Ġíĺĳìķ½":8084,"Ġçļĩ":8085,"ĠìĿ¸ëł¥":8086,"©ĶëĭĪìķĦ":8087,"ĠëĤ¸ëĭ¤":8088,"Ġíĭ´":8089,"²łë¥´íĬ¸":8090,"Ġë³µêµ¬":8091,"Ġê¸°ê´Ģì°¨":8092,"ĠìĨ¡ëĿ¼ìĿ´íĦ°":8093,"Ġë¤¼":8094,"ĠíĮĮíĬ¸ëĦĪ":8095,"ĠãĢĬãĢĭ":8096,"ĠíĶĦëłĪìŀĦ":8097,"ĠìĿ´ìĭľ":8098,"inc":8099,"Ġê³łìĦľ":8100,"ì¶ľë":8101,"¬´ë¥´":8102,"ĠìłĦíĸ¥":8103,"Ġë§¤ê°ģ":8104,"IT":8105,"ĠìĹŃìłĦ":8106,"Ġ07":8107,"ĠåŃĿ":8108,"ĠíķĦë¦Ħ":8109,"ase":8110,"íĬ¸ë¹ĦíŀĪ":8111,"Ġì¤ĳêµ¬":8112,"¹Ħì¹ĺ":8113,"Ġê²½ë¹Ħ":8114,"Ġéĥ¨":8115,"Ġ82":8116,"Ġì¡´ìĬ¨":8117,"Ġê³µê²©ìĪĺ":8118,"ĠìĤ¬ëĿ¼ì§Ģ":8119,"éĻ½":8120,"ì°¾":8121,"ĠêµĲìĹŃ":8122,"ĠëĦĺê²¨":8123,"ĠìĦ¸ìĽĮì§Ħ":8124,"ì¹´ëĿ¼":8125,"ĠMV":8126,"¥´ëĵľ":8127,"Ġé½":8128,"Ġìº¡":8129,"Ġì°½ê°Ħ":8130,"ps":8131,"Ġë¶Ģìľł":8132,"ĠëªħìĤ¬":8133,"Ġì§Ģë¦Ħ":8134,"íĭ°ìĽĢ":8135,"ĠìĭľìĥģìĭĿ":8136,"Ġæķİ":8137,"ĠêµĲì°¨ë¡ľ":8138,"ì¹´ìĺ¤":8139,"Ġ149":8140,"ë©ĶìĿ¸":8141,"ìĺ¬ë¦°":8142,"Ġì§ĢìĹ°":8143,"ĠíĬľë":8144,"Ġë¬¸ë²ķ":8145,"ĠëĤ©ì¹ĺ":8146,"íļĮìĿĺ":8147,"ìĬ¬ë¦¬":8148,"ĠëķĮë¡ľ":8149,"Ġì²«ì§¸":8150,"Ġíģ¬ëłĪ":8151,"Ġíĭ±":8152,"Ġë¥´ëĦ¤":8153,"ĠìķĦë¬´ëŁ°":8154,"Ġå±":8155,"Ġê±·":8156,"ĠìłĢëĦĲ":8157,"ĠçĶŁ":8158,"íħĲëıĦ":8159,"Ġë§ŀì¶°":8160,"Ġëĭ¤ìĸĳì²´":8161,"Ġìłģìĸ´ëıĦ":8162,"ĠìĹ¬ìĿ¸":8163,"ë¹Ľ":8164,"ĠìĤ¬ì´Į":8165,"Ġë³´ì¢Į":8166,"Ġê·ľìĬĪ":8167,"ick":8168,"Ġìµľìĥģ":8169,"ĠìĺĪìĻ¸":8170,"ĠíĥľìŀĲ":8171,"Ġê³¼ìĿ¼":8172,"Ġìļ°ìĿµ":8173,"Ġê±´ì¶ķë¬¼":8174,"Ð½":8175,"Ġìĥģìĺģ":8176,"ĠìľłëĭĽ":8177,"Ġè¿":8178,"Ġë¯¼ìĨį":8179,"ĠëĮĢíĸī":8180,"ĠìĻ¸ê³Ħ":8181,"ĠìļĶë¯¸":8182,"ĠìķĦëĤĺìļ´ìĦľ":8183,"yn":8184,"ĠëĮĢíķľìłľêµŃ":8185,"Ġêµ½":8186,"Ġì¹¨íķ´":8187,"Ġëª¨ëŀĺ":8188,"ĠíĥĳìĬ¹":8189,"ĠëĤ¼":8190,"ĠìĿ´ëĤł":8191,"Ġíĳľë³¸":8192,"Ġì¶ĶëĿ½":8193,"ĠìĹ¬ìĦľ":8194,"©ĺíĬ¸":8195,"1990":8196,"Ġæ·¸":8197,"ĠWorld":8198,"if":8199,"ë¦ĩ":8200,"ĠìĦľìĿ¸":8201,"ĠHD":8202,"íĨłë²¤":8203,"lo":8204,"Ġë°°ìĥģ":8205,"ìĬ¤íĥĢìĿ¸":8206,"ĠìłĦìĬ¹":8207,"ìĤ°êµ°":8208,"Ġì¤¬":8209,"Ġê·¸ëŀĺíĶĦ":8210,"Ġìł¤":8211,"Ġì¹Ńíķĺ":8212,"AP":8213,"Ġor":8214,"êµ°ë":8215,"Ġì½Ķë¥´":8216,"Ġì±Ħê¶Į":8217,"Ġå³¶":8218,"Ġíĺ¸ì¡°":8219,"ĠìĹ°ê³łì§Ģ":8220,"ier":8221,"ĠåĢ":8222,"Ġê·¸ëŁ¼":8223,"ĠëĤ¨ìķĦë©Ķë¦¬ì¹´":8224,"ìĿ´ëĭ¤":8225,"Ġë¬¸íķĺ":8226,"Ġìľłë¹Ħ":8227,"ĠìĿĺë³ĳ":8228,"ĠìłģìĿĳ":8229,"ĠíĻĪíİĺìĿ´ì§Ģ":8230,"ĠãĢģ":8231,"old":8232,"ign":8233,"Ġì§Ģíĳľ":8234,"ê°ĢëĭĪìĬ¤íĥĦ":8235,"Ġë¬¸ê³¼":8236,"ì¼Ī":8237,"ace":8238,"Ġëĭ¨íĸī":8239,"Ġìĥīê¹Ķ":8240,"ĠìĿ´ë£¨ìĸ´ì§Ħëĭ¤":8241,"Ġìĩłíĩ´":8242,"Ġê°Ģíķ´":8243,"ĠíĿĻ":8244,"ĠíĨłë²Į":8245,"Ġì¡°ëªħ":8246,"Ġëĭ¨ì¢ħ":8247,"ĠìĤ¼ê°ģ":8248,"Ġë´īìĤ¬":8249,"Ġìĭľì§ĳ":8250,"ĠìŀĲë¬¸":8251,"Ġë¸ĮëĿ¼ë":8252,"Ġì¤Ģìļ°ìĬ¹":8253,"Ġëªħë¬¸":8254,"Ġê²¨ìļ°":8255,"Ġçĩ":8256,"ĠâĢ¦":8257,"ĠíĮĶëłĪ":8258,"Ł¬ë¦¬":8259,"ĠíĨłìĬ¤":8260,"ĠíĮ¨íĦ´":8261,"ıĻìĥĿ":8262,"ĠìŀĦìĭł":8263,"ĠPr":8264,"ì´Ŀìŀ¥":8265,"ĠëłĪìĿ´ëĭ¤":8266,"Ġæ´ª":8267,"ĠíķĺìĻĢìĿ´":8268,"ì²¨":8269,"ĠìĻķê°Ģ":8270,"Ġëļ«":8271,"Ġë¶ĢëıĻìĤ°":8272,"Ġìĺ¤ë²Ħ":8273,"ĠêµĲì°¨":8274,"Ġëĭ¨ìĦł":8275,"Ġ169":8276,"Ġë£¸":8277,"OC":8278,"ìĦľìĸĳ":8279,"ĠìłľíĽĦ":8280,"ĠìĬ¤ìĬ¹":8281,"Ġê´Ģì¤ĳ":8282,"Ġé»ĥ":8283,"ì§ĢëĦĲ":8284,"Ġë°ķê·¼íĺľ":8285,"ê²°ìĬ¹":8286,"ìĹĺëĿ¼":8287,"ĠìķĦê¸°":8288,"ĠíĺĳìĿĺíļĮ":8289,"ĠíĥĲíĹĺ":8290,"ëĿ¼ëĭ¹":8291,"Ġìľ¡ìĦ±":8292,"Ġê¸īìĨį":8293,"Ġì¢ĮìĿµ":8294,"Ġê³¼ëıĦ":8295,"ĠìĹ½":8296,"ĠìĪĺê°Ĳ":8297,"Ġê¸°ì¢ħ":8298,"Ġê°Ģë¥´ì¹ĺ":8299,"ĠSM":8300,"íĬ¸ëŁ¼":8301,"Ġë²Ħì§ĢëĭĪìķĦ":8302,"Ġë¬¸íĻĶìľłìĤ°":8303,"Ġíĸ¥íĨł":8304,"Ġì¶ľíĮĲìĤ¬":8305,"Ġìĺ¹íĺ¸":8306,"ĠëĿ¼ìĿ´ë²Į":8307,"Ġìļ°íģ¬ëĿ¼ìĿ´ëĤĺ":8308,"Ġë¦´":8309,"Ġëħ¸ë¬´":8310,"ĠíĬ¸ëŁŃ":8311,"ĠìĿ´ìĸ´ìł¸":8312,"ĠíĿ¥ë¯¸":8313,"ì§ĢëĭĪ":8314,"ĠìķĦìĺ¤":8315,"Ġê¾¸ì¤ĢíŀĪ":8316,"Ġíķ´ì§Ħ":8317,"ë¦¬ìķĪ":8318,"ĠïĶ·":8319,"ma":8320,"ĠìĹŃê³¼":8321,"Ġëª¨ë¡ľ":8322,"ĠìĦłìłľ":8323,"Ġìľłìŀħ":8324,"ĠìĿ¸ì²ľê´ĳìĹŃìĭľ":8325,"Ġèĩª":8326,"ĠëĬĺìĸ´ëĤĺ":8327,"ĠëŁ¬ë¸Į":8328,"íĦ°ë²łìĿ´ìĬ¤":8329,"ĠíĬ¸ëŁ¼":8330,"Ġì§Ģì§Ī":8331,"Ġì§Ħì§Ģ":8332,"ì§Ģë§Ī":8333,"ĠëĤ´ìŀ¥":8334,"ì£¼ë¡ľ":8335,"Ġê³§ë°Ķë¡ľ":8336,"ĠëĤ¨ìĦľìª½":8337,"Ġíķĺì²ľ":8338,"ĠìĤ¬ë£Į":8339,"ë¶Ģë¥´íģ¬":8340,"Ġíİ¼ì¹ĺ":8341,"ĠëŀŃíĤ¹":8342,"Ġê³łê³ł":8343,"Ġë¬´ìĤ°":8344,"Ġ06":8345,"ĠëĤĺìĦł":8346,"ì¦ĪíĤ¤":8347,"Ġìĥīìĥģ":8348,"ĠêµĲíĸ¥ê³¡":8349,"Ġë¬´ìĿ¸":8350,"Ġê¸Īê°ķ":8351,"Ġë²łíĥĢ":8352,"ĠìłĦíķ´ì§Ħëĭ¤":8353,"Ġä¿¡":8354,"ĠìĤ¼ê°ģíĺķ":8355,"ĠCl":8356,"ĠìĭľìĬ¤":8357,"ìľ¼ë¯Ģë¡ľ":8358,"Ġëª¨ì§ĳ":8359,"Ġëª©ê²©":8360,"ĠëıĮìķĦìĺ¨":8361,"Ġê¸°ëħĲë¬¼":8362,"ĠíĺĳìĿĺ":8363,"ĠìĪĺìĥģìŀĲ":8364,"int":8365,"Ġë°ĢëĿ¼ëħ¸":8366,"Ġìĸ´ìĽĮëĵľ":8367,"Ġåĵ":8368,"Ġêµ¬ë¦¬":8369,"Ġê¸Ģë¦¬":8370,"Ġìĭ¬íķĺ":8371,"ëª¨ëĵł":8372,"çī":8373,"Ġ03":8374,"Ġê¸°ìļ©":8375,"Ġë¬´ê´Ģ":8376,"íĥĢì¹´":8377,"íĬľë¸Į":8378,"ĭīìĬ¤":8379,"íĥ±":8380,"ĠëĲĺì°¾":8381,"Ġê·¸ì³¤":8382,"Ġì£¼ìĤ¬":8383,"ĠìĤ°ìķħ":8384,"Ġëħ¸ë¹Ħ":8385,"Ġ1906":8386,"ĠíĿ¬ê·¹":8387,"Ġíķ©ìŀĳ":8388,"ĦĪìĬ¤":8389,"Ġë°ĺíĻĺ":8390,"Ġëª¨ëĵ":8391,"ala":8392,"Ġä¸ŃåŃ¸":8393,"Ġro":8394,"ĠìĤ¬ë¡ľ":8395,"ê°Ģë¯¸":8396,"ĠìĤ´íİ":8397,"Ġê¹Į":8398,"ĠAM":8399,"ĠìĹ°ì£¼ìŀĲ":8400,"Ġì§Ģì¤ĳíķ´":8401,"ĠíĤ¨":8402,"Ġìµľìļ°ìĪĺ":8403,"Ġë°©ìķĪ":8404,"ĠìķĪë³´":8405,"Ġë¶Ļìŀ¡":8406,"ĠìĹĲëĭ¤":8407,"ĠìĦ¼íĬ¸ë":8408,"Ġíİĺë£¨":8409,"ĠìķĦë§Īì¶Ķìĸ´":8410,"ç«":8411,"íĿ¬ë":8412,"TC":8413,"Ġì£¼íĮĮ":8414,"ìļ¸ëŁ¬":8415,"ĠìľłìĿ¸":8416,"íģ¬ë¦¬ìĬ¤":8417,"ĠSF":8418,"ìĬ¬ëĿ¼ë¹ĦìķĦ":8419,"Ġëĭ¤íģĲë©ĺíĦ°ë¦¬":8420,"íĮ½":8421,"ĠSC":8422,"ĠíĤ¬ë¡ľë¯¸íĦ°":8423,"ool":8424,"²łë¥´íģ¬":8425,"ĠìĥģíķĺìĿ´":8426,"ĠNA":8427,"ìĿ¸ì§Ģ":8428,"Ġìļ´ëªħ":8429,"ìĭľëĭ¤":8430,"ĠæŀĹ":8431,"Ġë²Īì£¼":8432,"Ġìŀħë¬¸":8433,"Ġì£¼ìĿĺìŀĲ":8434,"ĠìłķìŀĲ":8435,"ĠëĿ¼ìļ°":8436,"ĠçĨ":8437,"Ġíĸ¥ëħĦ":8438,"íİĺìĿ´":8439,"ë¬´ë¶Ģ":8440,"ëıĪ":8441,"Ġê°Ģíķĺ":8442,"ĠåĦ":8443,"Ġåĩ":8444,"ĠLC":8445,"Ġì§ĢíľĺìŀĲ":8446,"ĠìķĦë¥´ë©ĶëĭĪìķĦ":8447,"Ġë§ĪìĿ¼":8448,"Ĥ´ë²ĦìĬ¤":8449,"Ġìķ¨":8450,"ê°ĢíĥĢ":8451,"ĠëıĻì¹ĺ":8452,"ĠìĿ¼ìľ¼íĤ¨":8453,"ĠëĶ´":8454,"ish":8455,"Ġìľ¤ì¹ĺ":8456,"ear":8457,"ĠìĪĺì§Ģ":8458,"ĠSN":8459,"ç¾©":8460,"Ġìłģìĥī":8461,"ĠìĬ¤íĶ¼":8462,"íĮ¬":8463,"íĨłìĭľ":8464,"ĠíıĲê¸°":8465,"å·Ŀ":8466,"ĠìĿ´ìĪĺ":8467,"Ġìłľì£¼ëıĦ":8468,"Ġæ¿":8469,"Ġì£ł":8470,"ĠäºĮ":8471,"ëıĦëĭĪìķĦ":8472,"Ġë¶ĦêµĲ":8473,"Ġë¯¼ì¡±ì£¼ìĿĺ":8474,"de":8475,"íĥĪë":8476,"ĠìķĦëıĦ":8477,"ĠOr":8478,"Ġê´Ģìŀ¥":8479,"Ġë°Ķìĺ¤":8480,"å¿":8481,"Ġê¸°ìŀ¬":8482,"ìĦ¸ìĬ¤":8483,"Ġíį¼ìĭľ":8484,"Ĥ©":8485,"ĠëĭĲ":8486,"Ġêµ¬ìŀ¥":8487,"ĠëĤĺíĥĢëĤľ":8488,"Ġìļ´ë°ĺ":8489,"ĠæĢ§":8490,"ĠëıĻìĺģìĥģ":8491,"Ġëĭ¹ìĤ¬ìŀĲ":8492,"Ġê°ľìĪĺ":8493,"Ġë°°ìłľ":8494,"Ġê´ĳìĹŃ":8495,"att":8496,"Ġì£¼ê±°":8497,"ĠëĵľëŁ¬ëĤ´":8498,"Ġì¹©":8499,"Ġë¦¬ëĪħìĬ¤":8500,"Ġê¸°ìłĲ":8501,"ĠìĹ¬ëıĻìĥĿ":8502,"Ġ146":8503,"Ġê±´ëĭ´":8504,"ĠìłķìĦľ":8505,"ĠìĹ°ê¸Ī":8506,"Ġìŀ¬ë¬´":8507,"Ġíĺ¸ëĤ¨":8508,"Ġê²½ë¶ģ":8509,"ĠëĿ¼ìĿ´ìĺ¨":8510,"Ġì¹´ë¥¼":8511,"Ġì²ŃëıĻ":8512,"Ġåħ«":8513,"Ġì¡°ìĦłìĿ¸":8514,"ĠëĭĪìĭľ":8515,"¥¼":8516,"Ġê³łë¶Ħ":8517,"ĠìłĲìĦ±":8518,"ĠëŃ":8519,"íĬ¸ëŀĻ":8520,"Ġë¬ĺì§Ģ":8521,"íĪ¬ìķĦëĭĪìķĦ":8522,"ĠíĮĮìĥĿ":8523,"ance":8524,"ëª°":8525,"Ġë°ľëłĪ":8526,"Ġë¦¬ëĵ¬":8527,"Ġ105":8528,"Ġì¢ĮìĦĿ":8529,"¦®":8530,"ĠìłķìĤ¬":8531,"Ġê±¸ëł¤":8532,"Ġç¢":8533,"Ġëį°ìĿ´íĦ°ë²łìĿ´ìĬ¤":8534,"ĠìĭŃìŀĲêµ°":8535,"ĠìľłìĦ±":8536,"Ġë¹¨ê°Ħ":8537,"ĠìĿĮëª¨":8538,"Ġìŀ¥ìĤ¬":8539,"ĠìĦľìĿ¼ë³¸":8540,"ĠíĺĦì¢ħ":8541,"ĠìĭľëĤ´ë²ĦìĬ¤":8542,"ĠìĺĪìĸ¸":8543,"Ġìŀħì¦Ŀ":8544,"ĠìŀĲìĤ¬":8545,"ìķĦì§Ģ":8546,"ĠëıĻê²½":8547,"Ġì¹´ìŀĲ":8548,"Ġëĭ¤ëħĶ":8549,"ina":8550,"ĠíķľëĤĺëĿ¼ëĭ¹":8551,"ĠìŀĲíļĮìĤ¬":8552,"ĠìĿĺê±°":8553,"Ġìĺ¤ë¡ľ":8554,"Ġê±°ì¹ľ":8555,"ĠìĦłë³´ìĺĢ":8556,"ĠëĶĶìŀĲìĿ´ëĦĪ":8557,"ĠìĬ¤íħĮìĿ´ì§Ģ":8558,"Ġë¡ľì¦Ī":8559,"ĠìľłíĤ¤":8560,"Ġë£¨íĬ¸ë¹ĦíŀĪ":8561,"ĠìłķêµĲ":8562,"ë¬´ëĦ¤":8563,"ĠìĭłìŀĦ":8564,"Ġë²łíĨłë²¤":8565,"ĠëĶĶì¦ĪëĭĪ":8566,"éĥ¨":8567,"íĶĦìĬ¤":8568,"ĠíĬ¹ê¸ī":8569,"Ġ900":8570,"ĠìĪĺìĪĺ":8571,"ëĭĲ":8572,"Ġ71":8573,"ĠìĻķì¡±":8574,"ĠåĲī":8575,"ĠëĮĢì¡°":8576,"Ġê³°":8577,"ĠêµĲê³¼":8578,"Ġìĭłíķĺ":8579,"SP":8580,"Ġì¤ĳêµŃìĸ´":8581,"ĠëĮĢëł¹":8582,"ê¸°ìķķ":8583,"Ġë¶ĢìĪĺ":8584,"ìĤ´ëłĺ":8585,"Ġìŀ¥íİ¸":8586,"Ġ1911":8587,"ĠìĬ¤ì¼ĢìĿ´":8588,"ìĺ·":8589,"Ġç©":8590,"ĠìĿ´ìłķ":8591,"ĠëĤ¨ê²¨":8592,"ĠìĹ¬ìĭł":8593,"ĠìĺĪìĪłê°Ģ":8594,"Ġìĺ¤ë¦¬ì§ĢëĦĲ":8595,"Ĳģ":8596,"ĠìľłëĭĪë":8597,"Ġìķķë°ķ":8598,"Ġë¹Ħíıīê°Ģ":8599,"ĠìĽĲìĤ°":8600,"Ġìļ©ê¸°":8601,"Ġë´Ĳ":8602,"Ġìĩ¼êµ°":8603,"ree":8604,"Ġê±¸ë¦¬":8605,"ĠëĮĢêµĲ":8606,"ĠíĻ©íĥľ":8607,"ĠëĶĶìĺ¤":8608,"ĠëĭĮíħĲëıĦ":8609,"·¯":8610,"ĠìĦłì§Ħ":8611,"Ġëı¼ì§Ģ":8612,"ĠëĮĢëĭ¨":8613,"Ġì»¤ë®¤ëĭĪíĭ°":8614,"Ġ144":8615,"ĠëĤĺíı´ë¦¬":8616,"£¨ìĤ´ëłĺ":8617,"Ġì°¨ê´Ģ":8618,"ìĮį":8619,"Ġë§Īì³¤":8620,"Ġëłī":8621,"Ġê¸°ë¦Ħ":8622,"ĠåŁº":8623,"ĠëĤĺìĿ´íĬ¸":8624,"Ġìĺ¤ëĶĶìħĺ":8625,"ëŁ¬ë":8626,"Ġì§Ģë°Ķ":8627,"Ŀ¼ë¸Į":8628,"Ġì¢ĭìķĦíķĺ":8629,"ĠìĦľë¶ģ":8630,"ĠíķĦë¦½":8631,"ĠìĬ¤íİĺìħľ":8632,"Ġë²Įìĸ´ì§Ģ":8633,"Ġë°ľëłĮ":8634,"ĠíĮĲíĥĢì§Ģ":8635,"ĠìĻĢì¤ĳ":8636,"ĠBBC":8637,"Ġê¸īíĸī":8638,"æĸĩ":8639,"íĺĦëĮĢ":8640,"ĠPD":8641,"ĠìłĦìŀĳ":8642,"íĺģëªħ":8643,"Ġëĵľëŀĺê³¤":8644,"ê³¼ë":8645,"ĠíķŃìĿ¼":8646,"Ġìĺ¤ì¹´":8647,"Ġëª¨ìĪľ":8648,"ëĭĪë":8649,"ĠìĤ¬ë§ĿìŀĲ":8650,"ì¦Īë¯¸":8651,"Ġë¨¸ë¬¼":8652,"è¡Į":8653,"ron":8654,"ìĬ¤íĨł":8655,"ĠëĽ°ìĸ´ëĤĺ":8656,"ê¾¸":8657,"Ġì°¸íĮĲ":8658,"ous":8659,"ê¸¸ìĿ´":8660,"Ġê°Ģê²Į":8661,"ĠíĶĮëłĪ":8662,"Ġì´Īëŀĺ":8663,"Ġå®ĺ":8664,"Ġë°ľíļ¨":8665,"ĠíĬ¸ëŀľìĬ¤":8666,"Ġï½":8667,"az":8668,"ĠìĿ´ìĻĢ":8669,"ĠìĤ¬ë©´":8670,"ĠìľłíĬľë¸Į":8671,"¯¸ëħ¸":8672,"éĽ":8673,"ĠìĿ¼ìļĶìĿ¼":8674,"ĠìłľìĿ´":8675,"ĠìĥģìŀĦ":8676,"ĠíĴĪì§Ī":8677,"ĠëĳĲëł¤ìĽĮ":8678,"Ġì¹´íİĺ":8679,"Ġë¯¸ë¶Ħ":8680,"ìĤ°ë©´":8681,"ì¡°ë¬¼":8682,"ĠëĤ±":8683,"Ŀ¼ë¦¬":8684,"Ġìľłìĭł":8685,"ĠêµĲìłĦ":8686,"Ġì§ģìŀ¥":8687,"ä½¿":8688,"ĭ¤ëĭĪ":8689,"ĠìĤ¬ì§ģ":8690,"ĠìĹ°ëł¹":8691,"ìĿ´ì¦Ī":8692,"§ŀ":8693,"ĠíĽ¼ìĨĲ":8694,"ĠGe":8695,"ĠéĢļ":8696,"Ġì£¼ë§Ĳ":8697,"Ġê°Ħìłĳ":8698,"ĠìķĦíĶĦê°ĢëĭĪìĬ¤íĥĦ":8699,"íı´ë¦¬ìĬ¤":8700,"ĠìĽĲë¡ľ":8701,"Ġ103":8702,"Ġíĺ¸íĻĺ":8703,"Ġê¹Ģíķ´":8704,"Ġìķ±":8705,"íı´ë¦¬":8706,"ĠëĦ¤ìĿ´ìħĺ":8707,"ì§ĳíķ©":8708,"1999":8709,"łĮì²´":8710,"Ġê³Ħëĭ¨":8711,"ĠìľĦì£¼":8712,"Ġë§ĪìĬ¤":8713,"íĨłëª¨":8714,"Ġë¦¬ì¹ĺ":8715,"łĪìĿ´íģ¬":8716,"Ġå°ĩ":8717,"ĠìķĮëłīìĤ°ëįĶ":8718,"Ġë§ĮëĤľ":8719,"Ġìĭłë¹Ħ":8720,"Ġìĭ¸ìĽł":8721,"ëĦĲëĵľ":8722,"ĠëĮĢìķĪ":8723,"íĶĮë¦¬ì¼ĢìĿ´ìħĺ":8724,"ĠìĤ¬ìļ°ëĶĶ":8725,"ĠíĤ¤ìĬ¤":8726,"Ġì§Ħìĥģ":8727,"Ġìłķë¥ĺìŀ¥":8728,"ìĦłê±°":8729,"Ġíĺķë²ķ":8730,"Ġë§Īì¼ĢëıĦëĭĪìķĦ":8731,"ĠíĨłë§ĪìĬ¤":8732,"Ġêµī":8733,"ì¾Į":8734,"íĺ¸ì¿ł":8735,"ĠëĨįëıĦ":8736,"Ġíķ¸ë":8737,"Ġë¯¸ë§Į":8738,"ĠëĤ´ë¥Ļ":8739,"Ġë°Ģìłĳ":8740,"eth":8741,"ĠìĨĮìŀ¬ì§Ģ":8742,"ë¨¼":8743,"ĠìŀĲìłĦê±°":8744,"ìķħê¸°":8745,"Ġæ°ĳ":8746,"Ġë¬´íļ¨":8747,"ĠìķĦìĿ´ëĶĶ":8748,"§·":8749,"ĠìĻķë¦½":8750,"Ġì§Ģì£¼":8751,"êµŃìłľ":8752,"ĠêµĲìĦŃ":8753,"ĠIs":8754,"ĠìĨĮìĨ¡ë²ķ":8755,"Ġìľłê³łìĬ¬ëĿ¼ë¹ĦìķĦ":8756,"¥ľ":8757,"Ł°ìĬ¤":8758,"Ġë§Īê·¸ë":8759,"ĠFran":8760,"Ġê¸´ê¸ī":8761,"ĠìŀĲë©´":8762,"íĥľë":8763,"Ġì±Įë¦°":8764,"Ġë¶Ħë°°":8765,"ä¸»":8766,"°·":8767,"ĠçŁ¥":8768,"ĠìºĦë":8769,"ley":8770,"Ġê°ĢëĵĿ":8771,"ĠëıĻìĤ¬":8772,"Ġë¬´ìĦł":8773,"Ġ1909":8774,"ëĶ°ëĿ¼":8775,"ê·ľë":8776,"Ġê¸°íķĺíķĻ":8777,"Ġì¼ĢìĿ´ë¸Ķ":8778,"Ġë¶ĢíĮ¨":8779,"Ġëª©íı¬":8780,"Ġì»¤íĶ¼":8781,"Ġë£¨ìĪĺ":8782,"Ġëįĺì§Ģ":8783,"Ġë¹ĦìłĦ":8784,"ose":8785,"ìŀ¡ìĿ´":8786,"Ġìħĭì§¸":8787,"ĠìĬ¤íĥł":8788,"ĠëŁŃ":8789,"Ġë¹¨ë¦¬":8790,"ĠíĥĢìĿ´ë":8791,"ĠìĤ¬ëĿ¼ì¡Į":8792,"Ġë¶ģëıĻë¶Ģ":8793,"ĠìĬ¤ì¼ĢìĿ´íĮħ":8794,"¬´ë¶Ģ":8795,"ìĸ´íĬ¸":8796,"ì¦ĪëĭĪìĬ¤":8797,"ĠëłĮì¦Ī":8798,"Ġì½ĺìĬ¤íĥĦíĭ°ëħ¸":8799,"ĠìĪĺì²ľ":8800,"ĠíıīìĨĮ":8801,"Ġëħ¸ìĿ¸":8802,"Ġê¸°ëĭ¨":8803,"ë²¤":8804,"Ġì¶ľêµ¬":8805,"Ġê¶Įê³ł":8806,"Ġë°ĶìĿ´ìĺ¬ë¦°":8807,"Ġë¹Ħëĭ¨":8808,"¡¤ëĿ¼":8809,"Ġê´Ģì°°ìĤ¬":8810,"ĠëıĦë¥´":8811,"Ġ81":8812,"íĨ¨ë":8813,"Ġë³µìłľ":8814,"Ġíģ¬ë¦¼":8815,"Pa":8816,"ëŁŃ":8817,"Ġê³łë¦½":8818,"Ġìĺģê´ĳ":8819,"Ġì£¼íķľ":8820,"ĠìĦłëĳĲ":8821,"Ġë²Įìĸ´ì¡Į":8822,"ĠìĬ¤ì¹´ìĿ´":8823,"ëį°ìĿ´íĬ¸":8824,"</":8825,"ĠìŀĲë§Ī":8826,"Ġì¡°ë¥ĺ":8827,"ĠìĬ¤íİĻíĬ¸ëŁ¼":8828,"Ġë³´ìłĦ":8829,"ìĨĮìĪĺ":8830,"Ġê·ľëªħ":8831,"ĠìŀĬ":8832,"Ġìĸ´íķŃ":8833,"°Ķë¥´":8834,"¼ìļ´":8835,"Ġì§Ģì¼ľ":8836,"Ġêµ¬ë¯¸":8837,"Ġìĭ¬íķľ":8838,"Ġëĭ¤ë£¬":8839,"ìĬ¤íĭ°ë²Į":8840,"ML":8841,"åĬ":8842,"Ġè»":8843,"ĠìļĶë¯¸ìļ°ë¦¬":8844,"Ġëŀ¨":8845,"¶Ħë":8846,"Ġë¶ģê·¹":8847,"ĠìĺĪëĬ¥":8848,"ĠìĪĺíķĻìŀĲ":8849,"Ġê°ľë°ľìŀĲ":8850,"ĠíļĮìĽĲêµŃ":8851,"Ġì½ľë¡¬ë¹ĦìķĦ":8852,"įŁ":8853,"ĠæŁ³":8854,"ĠíİĦ":8855,"ĠíİĺìĬ¤íĭ°ë²Į":8856,"ĠíķľíĻĶ":8857,"ĠëĤłë":8858,"Ġå¿ĥ":8859,"iel":8860,"Ġë¶ĢíĨµëł¹":8861,"Ġëĵ¤ìĸ´ê°Ħ":8862,"Ġå®ļ":8863,"ç§":8864,"ĠIP":8865,"ë£¨ë":8866,"Ġë¹ĦìŀĶíĭ°ìĽĢ":8867,"ĠìłľìĿĺ":8868,"ĠìłĦë¥ĺ":8869,"ê·łê´Ģ":8870,"ĠìĬ¤ë§ĪíĬ¸íı°":8871,"ĠìĭĿìĤ¬":8872,"Ġ1896":8873,"Ġì°©ë¥Ļ":8874,"ĠíĿ¥íĸī":8875,"Ġê¶Įìľł":8876,"Ġìķ¼ìĥĿ":8877,"ĠíĮĮëıĻ":8878,"Ġë¨¸ë¬¼ëłĢ":8879,"pp":8880,"Ġìĭľì²´":8881,"Ġëªħì¢ħ":8882,"Ġë°ľì¡±":8883,"Ġë¦¬íĪ¬ìķĦëĭĪìķĦ":8884,"ĠMus":8885,"Ġì¶©ìĦ±":8886,"Ġì°©ìĪĺ":8887,"Ġì½©ê³ł":8888,"Ł¼ë¹ĦìķĦ":8889,"ìĬ¬ë¦¼":8890,"ĠìķĮëł¸":8891,"ì»¤ìĬ¤":8892,"Ġëĵ¤ìĸ´ìĻĢ":8893,"ĠíĺľìĦ±":8894,"Ĳľ":8895,"Ġê³µìłĦ":8896,"Ġ125":8897,"1998":8898,"Ġé«ĺçŃī":8899,"Ġìłķê³Ħ":8900,"Ġë²Ħê·¸":8901,"ica":8902,"ëª¨ë¦¬":8903,"Ġë³ĢëıĻ":8904,"Ġì¹ľìłķ":8905,"Ġê¸°íĥĢë¦¬ìĬ¤íĬ¸":8906,"ìĤ°ë¦¬":8907,"ĠëłĪìĿ´ìĬ¤":8908,"ĠéİŃ":8909,"ĠìĿ´ë§Ī":8910,"Ġìľµíķ©":8911,"ĠëıĦìĭ¬":8912,"Ġìłķë²Į":8913,"ale":8914,"Ġìĺ¤ì¼ĢìĬ¤íĬ¸ëĿ¼":8915,"Ġíĸīìłķë¶Ģ":8916,"Ġíĺ¸íıī":8917,"Ġè¬":8918,"Ġìĭłìļ©":8919,"Ġíİ¸ê³¡":8920,"ĠìĹħëį°ìĿ´íĬ¸":8921,"Ġ135":8922,"ome":8923,"ĠìŀĲì±ħìłĲ":8924,"ĠëıĻìłĦ":8925,"ĠìłĲìľł":8926,"Ġì¿¼":8927,"ĠìķĪíĨłëĭĪ":8928,"Ġëħ¸íĬ¸":8929,"Ġíı¬ë§·":8930,"Ġìļ°ë£¨":8931,"Ġìļ°ëĵľ":8932,"Ġêµ¬ëıĻ":8933,"ĠëĳĲëĵľë":8934,"Ġê·¸ëŀľëĵľ":8935,"ĠAc":8936,"Ġê·ĢíĻĺ":8937,"Ġìĺ¤ìĿ´":8938,"ĠìķłêµŃ":8939,"ĠíĪ¬ëªħ":8940,"Ġì§Ļ":8941,"Ġëª¨ëĭĪ":8942,"ĠìłĦëıĦ":8943,"íĬ¸ë¡¤":8944,"Ġ1500":8945,"Ġë¯¸ëĦ¤":8946,"Ġë¶ĻìĿ´":8947,"Ġë§ģíģ¬":8948,"ĠëıĦë©ĶìĿ¸":8949,"íķŃê³µ":8950,"ìĻ¸ìĦł":8951,"ĠëĮĲ":8952,"Ġê»į":8953,"æ´":8954,"ĠìĥģìĨĮ":8955,"ĠìķĪìĸĳ":8956,"ìłľë¥´ë":8957,"Ġle":8958,"Ġì°¾ìķĦê°Ģ":8959,"ë©ĶìĿ´":8960,"Ġíķłëĭ¹":8961,"ĠìĥĮíĶĦëŀĢìĭľìĬ¤ì½Ķ":8962,"Ñģ":8963,"ĠëĤĺì¹´ë":8964,"Ġë£©":8965,"1980":8966,"Ġë¹ħíĨłë¦¬ìķĦ":8967,"ĠìĪĺë©´":8968,"ĠìłĦìŀĦ":8969,"Ġìļ©ëŁī":8970,"ĠDJ":8971,"Ġä¾¯":8972,"ium":8973,"Ġìµľìĭł":8974,"ĠëĶ°ìľĦ":8975,"ĠíıīìķĪë":8976,"Ġç¤¾":8977,"ĠíķĻíĮĮ":8978,"å®¶":8979,"ĠìıŁ":8980,"Ġ5000":8981,"Ġëģ¼ë¦¬":8982,"oph":8983,"Ġì¦Ŀê¸°":8984,"Ġë¬¼ëŁ¬ëĤĺ":8985,"tor":8986,"ĠìĿ¸ìŀĲ":8987,"Ġê°ķìĹ°":8988,"ĠìĦ¼íĬ¸ëŁ´":8989,"ëĭ¤ë¥¸":8990,"ES":8991,"Ġå¸Ĥ":8992,"Ġë¶ĢíĿ¥":8993,"ĠíļĮìĪĺ":8994,"Ġì¡´ê²½":8995,"ìĻĢëĮĢ":8996,"ĠìĸĢ":8997,"Ġë¹Ħì¦ĪëĭĪìĬ¤":8998,"ĠìĹ¬ëįŁ":8999,"¼ìĭľ":9000,"ĠìĬ¤ìĻĢ":9001,"ê·¸ëŀĺ":9002,"Ġê´Ģê´ĳê°Ŀ":9003,"MS":9004,"ĠìĽĶê°Ħ":9005,"ì£¼ê³¡":9006,"ĠíĨµì¹Ń":9007,"ĠìĤ¬ë²Ķ":9008,"ìĸ´ë¦¬":9009,"Ġë¯¸ì¹´":9010,"ĠìĺĽëĤł":9011,"ĠMVP":9012,"Ġëħ¸ì¡°":9013,"Ġë©Ķë¥´":9014,"ĠíķĺëĵľìĽ¨ìĸ´":9015,"Ġê²¨ë":9016,"į°ìĿ´":9017,"ìĭľëĮĢ":9018,"ĠìĿ´ìĺ¤":9019,"łëĵľ":9020,"ê°Ģë£¨":9021,"ìħ°":9022,"ĠíħĮíģ¬ë":9023,"ĵľëĭĪ":9024,"Ġ92":9025,"ì´Īë":9026,"Ġíķ©ê³Ħ":9027,"Ġìĸ¼ë§ĪëĤĺ":9028,"Ġìĥģë¬´":9029,"Ġìļ°ì§Ģ":9030,"Ġê²Ģì¦Ŀ":9031,"ľ¨ë":9032,"ìĽĲëŀĺ":9033,"ĠìĪĺëªħ":9034,"Ġíı¬ìľł":9035,"ìĺĪíĶĦ":9036,"CC":9037,"ìĪĺìĪĺ":9038,"ĠíĹĮë":9039,"Ġê·ľê²©":9040,"Ġë¬ĺìĨĮ":9041,"Ã¡":9042,"Ġê³ģ":9043,"ĠìĦľìļ¸ìĭľ":9044,"Ġì¤Ģê³µ":9045,"ĠíĶ¼ëłĮì²´":9046,"ĠìĺĪë£¨ìĤ´ëłĺ":9047,"Ġì¸¡ê·¼":9048,"ìļ°ëĿ¼":9049,"Ġì²¸":9050,"ĠåĶ":9051,"Ŀ¼ëį¸":9052,"Ġ1913":9053,"Ġå¯§":9054,"ĠìĹĦë§Ī":9055,"Ġ1904":9056,"Ġë±ħíģ¬":9057,"è¦":9058,"ĠìĻĦíĻĶ":9059,"ìłľëĤĺ":9060,"Ġé©Ľ":9061,"¨ëĭ¨":9062,"Ġê±°ìĿ¸":9063,"Ġë´¤":9064,"Ġ101":9065,"ĠìĹĲìĬ¤íĮĮë":9066,"Ġë¬´ìĬ¬ë¦¼":9067,"Ġë§Īì¼ĢíĮħ":9068,"ĠìłģëĮĢ":9069,"ĠíıŃìĬ¤":9070,"Ġì§Ģë¶Ħ":9071,"ĠëĤ´ì§Ģ":9072,"Ġê·¸ëŁ¼ìĹĲëıĦ":9073,"ĠìĤ¬ëªħ":9074,"Ġì¡°êµŃ":9075,"éĸĢ":9076,"Ġê°Ģì§Ī":9077,"ê¸°ëĭĪ":9078,"Ġë¹Ħë¡ľ":9079,"ìļ°ìĺĮ":9080,"ĠìĦ±ë²½":9081,"ai":9082,"èĢ":9083,"ëĮĢêµ¬":9084,"ĠíĿ©":9085,"ĠíĬ¸ìľĪ":9086,"ĠíĶĦëłĪë":9087,"Ġë¶Ħì§Ģ":9088,"ĠUniversity":9089,"ìĨĮìĬ¤":9090,"ìĵ°ëĭ¤ìĿ´ëĿ¼":9091,"æĥ":9092,"ork":9093,"Ġëħ¸ëĵľ":9094,"ĠíĮĲë§¤ëŁī":9095,"Ġì²ľë¬¸ë":9096,"Ġëħ¸ë¬´íĺĦ":9097,"Ġëª©ì¡°":9098,"ĠëĲĲìľ¼ë©°":9099,"Ġëħ¸ëıĻì¡°íķ©":9100,"Ġex":9101,"Ġè¨ĺ":9102,"éĿ":9103,"ĠíĨ¨":9104,"ê¼´":9105,"ĠìĦľëıħ":9106,"ĠMC":9107,"ĠìŀĲë°Ķ":9108,"¬´ëĬ¬":9109,"Ġæ¬Ĭ":9110,"ıĦë¥´":9111,"Ġ147":9112,"Ġë²łìĿ´ìĬ¤ë³¼":9113,"IV":9114,"Ġëł¨":9115,"Ġìĸ¼ìĿĮ":9116,"ĠìłĢê¸°ìķķ":9117,"Ŀ¼ëĶĶë":9118,"ĠìĦľìĹ´":9119,"ĠìķłíĶĮë¦¬ì¼ĢìĿ´ìħĺ":9120,"Ġíľ©":9121,"Ġæ¨Ĥ":9122,"Ġìłĸ":9123,"ë¹ĦìķĦ":9124,"ĠìĬ¤íĬ¸ë¦¬íĬ¸":9125,"ĠìĥĿìĤ°ë":9126,"Ġì°¨ì²´":9127,"Ġë¬¸ìłľìłĲ":9128,"§Īëª¨íĨł":9129,"Ġëıħë¦½ìļ´ëıĻê°Ģ":9130,"¢°ë":9131,"Ġíĩ´ê°ģ":9132,"çĲĨ":9133,"Ġíĵ¨":9134,"Ġìĭ¤ìļ©":9135,"ĠíŀĪìĬ¤":9136,"ĠíĮħ":9137,"ĠëıĻìķĦìĭľìķĦ":9138,"ª¬ëĵľ":9139,"ola":9140,"Ġê³³ê³³":9141,"Ġê³łê°ľ":9142,"ĠêµŃìĸ´":9143,"ĠìĹĺë¦¬ìŀĲë²łìĬ¤":9144,"Ġë°°ìłķ":9145,"Ġæľ¨":9146,"çĶŁ":9147,"ĠìĿ´ìĹĲ":9148,"Ġíķ´ìŀĦ":9149,"ĠìŀĲìĨĲ":9150,"Ġë¶Ģë¦¬":9151,"Ġê³µìļ©":9152,"ĠëĿ¼ë§Ī":9153,"º«":9154,"Ġë¶ĢìŀĲ":9155,"Ġ3000":9156,"ìłľíĶĦ":9157,"Ġì°©ê³µ":9158,"ìĸĢë§Ī":9159,"°ľë":9160,"ì²´ë":9161,"ĠìĥģëĮĢìĭĿ":9162,"ĠéĿĳ":9163,"ķĮë¡ľ":9164,"ĠìĤ¬ìĤ¬":9165,"ĠìĹĨìķł":9166,"Ġìķ¼ê¸°":9167,"ĠìĦĿíĥĦ":9168,"Ġê´ĢìĬµ":9169,"ĠìĦ±ê³µíļĮ":9170,"Ġë©Ģíĭ°":9171,"Ġê³µê³¼":9172,"Ġê²½ìĦł":9173,"enn":9174,"Ġê²¸ìŀĦ":9175,"Ġìłľíľ´":9176,"Ġìĸĩ":9177,"Ġåħ§":9178,"ĠìĤ´íİ´ë":9179,"êµ¬ìŀ¥":9180,"ĠìĬ¹ì°¨":9181,"ĠìķĦìĿ´ëĶĶìĸ´":9182,"ĶëıĻ":9183,"ì½ķ":9184,"Ġëŀ´":9185,"Ĥĺë§Ī":9186,"ĠìłĦìŀ¥":9187,"Ġè¶":9188,"ĠìĿ¸ë¬¸":9189,"ŀĳìĿ´":9190,"Ġì¢Įíĳľ":9191,"ĠìłĦë¬¸íķĻêµĲ":9192,"au":9193,"Ġìĥģìĥģ":9194,"Ġå»£":9195,"ons":9196,"ĠíĶĮëĿ¼ìĬ¤":9197,"Ġì£¼ë¦½":9198,"Ġë²ĪìĭĿ":9199,"Ġ1915":9200,"ì§ĢìĬ¤":9201,"ŀĢíĬ¸":9202,"Ġì²ŃìĻĢëĮĢ":9203,"Ġìłķì¹ĺê°Ģ":9204,"ä¸Ń":9205,"Ġíĳ¸ë¥¸":9206,"ĠìĿ´ì¢ħ":9207,"ìĽĲìĪŃìĿ´":9208,"íĮ¡":9209,"Ġz":9210,"ĠëĲĺëıĮ":9211,"Ġê³¼ìłľ":9212,"ĠGre":9213,"Ġë¦¬ë©Ķ":9214,"Ġìĩ¼íķĳ":9215,"Ġæī¿":9216,"ìĭľíĭ°":9217,"Ġê¼´":9218,"ìłĢë":9219,"Ġì¤ĳìŀ¥":9220,"ĠìĭłìłĦ":9221,"TA":9222,"ìĿ¼ëĵľ":9223,"Ġì£¼ìĸ´ì§Ħ":9224,"ĠíļĮê²¬":9225,"Ġíķ´ìłĦ":9226,"íħĮë¥´ë":9227,"ì¹¸ìĦ¼":9228,"ìłĦëĵľ":9229,"ĠìłĦì§Ħ":9230,"ĠìĹ°ìĪĺ":9231,"Ġìķħë§Ī":9232,"Ġìļ°ì£¼ìĦł":9233,"íĭ¸ë":9234,"ĠíĿĶëĵ¤":9235,"Ġê¸Īìķ¡":9236,"ĠNHK":9237,"ll":9238,"ĠíĨµíĸī":9239,"ĠìłĢíĥĿ":9240,"ĠëĤ´ëĤ´":9241,"ì¼ĢìĿ¸":9242,"ĠìĿ´ëªħë°ķ":9243,"ê·¸ëħĢ":9244,"Ġ||":9245,"Ĳë¹Ħ":9246,"ĠìĦľìĦľ":9247,"ĠíħĮë¥´":9248,"Ġì§Ģê°ģ":9249,"ë¸Įë¦¬":9250,"Ġêµ¿":9251,"ĠìĹ°ë£¨":9252,"Ġåįģ":9253,"ĠìķĮë°ĶëĭĪìķĦ":9254,"ĠìĹĶë":9255,"Ġëª°ëĿ½":9256,"íĤ¨ìĬ¤":9257,"ĠìĨĮì§Ģ":9258,"ĠíĬ¹ìľł":9259,"ĠëĮĢëĭµ":9260,"Ġæ©":9261,"ĠìłĦëĳĲ":9262,"Ġì¡°ìĸ¸":9263,"Ġíķłë¦¬":9264,"Ġå»º":9265,"Ġê°ķìĤ¬":9266,"ĠFor":9267,"²łë¦¬":9268,"Ġì¤ĳëıĦ":9269,"Ġíħľ":9270,"Ġìĸ¸ìłľ":9271,"ĠíĨłë¨¸ìĬ¤":9272,"Ŀ¼ëį¸íĶ¼ìķĦ":9273,"Ġìĥģë¥ĺ":9274,"ìļ°ìłĢ":9275,"Ġì°½ìĹħ":9276,"ãĥ¼":9277,"Ġìŀ¥ìĿ¸":9278,"Ġç·":9279,"Ġë¯¿ìĿĮ":9280,"ix":9281,"¨ë²ķ":9282,"Ġìľłê²©":9283,"Ġë¹Ħê·¹":9284,"ëĳĺ":9285,"Ġä½Ľ":9286,"Ġë§ĪëĿ¼":9287,"Ġíı¬íģ¬":9288,"ĠëĶĶë¹ĦìłĦ":9289,"ìķµ":9290,"ĠëĤĺìĹ´":9291,"Ġì¿łìĬ¤":9292,"Ġë³´íĨµíķĻêµĲ":9293,"iki":9294,"ê³łìĨįëıĦë¡ľ":9295,"ìł¸ìĦľ":9296,"Ġê°ģë³¸ê°Ģ":9297,"Ġë¡ľê³ł":9298,"ĠìĭľìķĦ":9299,"ĠæĨ":9300,"ĠìĹ°ìķł":9301,"íı¬íĬ¸":9302,"Ġê°ķìĪĺëŁī":9303,"Ġì¢Įë":9304,"ĠëĭĪìĬ¤":9305,"ystem":9306,"ee":9307,"ĠíĽĦìŀĲ":9308,"ìħ°ë":9309,"ĠìĸĳìĤ°":9310,"Ġëĭ¨ìĽĲ":9311,"ĠíļĮíĻĶ":9312,"Ġíĸīì§Ħ":9313,"Ġì§Ģì§ĢìŀĲ":9314,"Ġê²Įìĭľ":9315,"Ġë°ĺê²©":9316,"Ġë³Ħê°ľ":9317,"Ġå®ĭ":9318,"gr":9319,"ĠìĦłìĤ¬":9320,"ĠìĨĮê´Ģ":9321,"ìĤ¬ê¸°":9322,"Ġì±ħë´ī":9323,"ĠìĹ¼ìĥī":9324,"ëĳ¥ìĿ´":9325,"Ġç¨":9326,"Ġë¶ĵ":9327,"Ġæ¡":9328,"ĠíĮ¨ìłĦ":9329,"Ġëĸ¨ìĸ´ì¡Į":9330,"Ġì¤ĳìłĲ":9331,"Ġ01":9332,"ĠìĤ¬ë¡ľìŀ¡":9333,"íĥĢëĤĺ":9334,"ĠíĻĺìĽĲ":9335,"ĠçļĦ":9336,"¹Ľ":9337,"Ġåĥ":9338,"ĠìĦ±ê·łê´Ģ":9339,"ĠíĨłë¥´":9340,"ìĻĢëĿ¼":9341,"ìĬĺ":9342,"Ġëŀľ":9343,"Ġì§Ģëª©":9344,"Ġ173":9345,"Ġìķħìŀ¥":9346,"ĠìĿĳëĭµ":9347,"ĠIntern":9348,"MA":9349,"ĠìĹĲë¥´":9350,"Ġëª»íķ´":9351,"Ġì¶©ì¡±":9352,"âĢ»":9353,"ê³łìķ¼":9354,"Ġ148":9355,"åĥı":9356,"ĠìŀĲìľ¨":9357,"ëŁŃìĭľ":9358,"Ġê³¼ëª©":9359,"Ġä¹Ŀ":9360,"Ġå¡":9361,"ĠIt":9362,"Ġíķľìĸĳ":9363,"ë¥ľ":9364,"ĠìĿ´ë³µ":9365,"Ġëĵľë¦¼":9366,"æľĥ":9367,"ach":9368,"ì¸łíĤ¤":9369,"Ġé¦¬":9370,"ĠìĹ°êµ¬ìŀĲ":9371,"Ġëª¨ìľ¼":9372,"å®ĺ":9373,"Ġì£¼íĮĮìĪĺ":9374,"Ġê²Įìŀ¬":9375,"Ġ143":9376,"íĹ¬ë¦Ħ":9377,"Ġë³´ë¥´":9378,"ìħĪ":9379,"ĠëĶĶìł¤":9380,"Ġê°ģê¸°":9381,"Ġë²ķëł¹":9382,"ĠíĶ¼ìĬ¤":9383,"ĠëĳĲëĵľëŁ¬":9384,"íŀĺ":9385,"Ġê´ĳëħĦ":9386,"íĨ°":9387,"íĬ¹íŀĪ":9388,"ĠìĿ´ìĤ¬ìŀ¥":9389,"łĽ":9390,"ìĤ°ëıĻ":9391,"ĠìłĦì§Ģ":9392,"ĠìķĦêµ°":9393,"Ġíķ´ìĿ¸":9394,"Ġìĺ¤ëĭ¤":9395,"ë²Ħëĵľ":9396,"ĠìķĪëĵľë":9397,"Ġì²ľë¬¸íķĻ":9398,"Ġå®Ī":9399,"ĠíĮ¨ëŁ¬ë":9400,"íĪ¼":9401,"ĠíĶĦë¡ľìĦ¸ìĬ¤":9402,"Ð¾Ð":9403,"ìĥĿíĻľ":9404,"ĠëĸłëĤľ":9405,"íĿĳ":9406,"Ġè«ĸ":9407,"ë¡±":9408,"ìķĦëĿ¼ë¹ĦìķĦ":9409,"Ġì·¨ìķ½":9410,"Ġë°Ń":9411,"ĠìŀĲê³ł":9412,"Ġì¶Ķê²©":9413,"ë¹ĦìĬ¤":9414,"Ġ1895":9415,"ude":9416,"¹Įë":9417,"ĠìĹ°ìĿ¸":9418,"oth":9419,"å¤«":9420,"EN":9421,"Ġê´ĢíĺĦ":9422,"ì»¬ë":9423,"ëĭ¤ìĿ´":9424,"Ġì¡°ìļ©":9425,"ĠíĻĺìĥģ":9426,"Ġì¶ľìŀħêµ¬":9427,"Âł":9428,"ĠëıĦë¦¬":9429,"Ġç¦®":9430,"ven":9431,"ì·":9432,"Ġì¤ĳëıħ":9433,"Ġìķ½íķľ":9434,"ĠìĨĮëĤĺ":9435,"Ġèı¯":9436,"æī":9437,"ë¬¸ë":9438,"Ġê°ľìĹħ":9439,"Ġìĺģë¬¸":9440,"Ġå°Ļ":9441,"Ġìĸ´ëĳĲìļ´":9442,"Ġê³µëŀµ":9443,"Ġêµ¬ìłľ":9444,"Ġìļ°ìłķ":9445,"ĠëłĪìłĦëĵľ":9446,"Ġì·¨ìŀ¬":9447,"ëĮĢìłĦ":9448,"are":9449,"íĶĮëŁ¬":9450,"ĠìĬ¤íĶ¼ëĵľ":9451,"Ġè§":9452,"Ġë¯¼êµŃ":9453,"ĠìĿ¼ê´Ģ":9454,"ĠìķĦì¹´":9455,"ĠèĤ":9456,"ì¼Ģëĭ¤":9457,"íĮĮë¦¬":9458,"1997":9459,"Ġì£¼ë¨¸ëĭĪ":9460,"Ġéĩį":9461,"Ġë§¤ìĤ¬":9462,"Ġì»¸":9463,"Ġë²ĦíĬ¼":9464,"Ġan":9465,"Ġì¹ľì²Ļ":9466,"ĠÏ":9467,"Ġæİ":9468,"ism":9469,"ĦĮ":9470,"Ġë°ĺê²½":9471,"Ġ91":9472,"ĠìĦľìĦľíŀĪ":9473,"Ġë¶Ģìĭľ":9474,"ë¶ĢìĤ°":9475,"Ġëª¸ê¸¸ìĿ´":9476,"ĠìĿ¸íĺķ":9477,"ëłĮì§Ģ":9478,"ĠìĨĮì´Ŀ":9479,"ĠìĭĿëĭ¹":9480,"ĠìłľëĦ¤":9481,"ëª¨íķ¨":9482,"Ġìĥģë¶Ģ":9483,"Ġë©Ķê°Ģ":9484,"Ġì¹ľìĦł":9485,"ë¦¼ë":9486,"ĠêµĲìŀ¥":9487,"ĠíĮĮíĬ¸":9488,"ĠëĤľëĭ¤":9489,"¥´ëħ¸":9490,"Ġíĳ¼":9491,"ĠìĥģëĮĢë°©":9492,"ë°Ľì¹¨":9493,"ë¨¸ë¦¬":9494,"âĸ":9495,"ì¶¤":9496,"ĠìĬ¹ë¬´ìĽĲ":9497,"ĠìĿ´ìĬĪ":9498,"ìł¸ë":9499,"ĠìĿ¸ê³¼":9500,"íķĺë¥´íĬ¸":9501,"¥µ":9502,"Ġíı¬ìĪĺ":9503,"ĠìĥĮë":9504,"Ġì²ŃìĤ¬":9505,"ĠíŀĪëį°ìļĶìĭľ":9506,"Ġê±°ëĳĶ":9507,"ĠíĹ¤ëĵľ":9508,"Ġëĭ´ë°°":9509,"Ġë§Īì¹ľ":9510,"ĠíĶĮë£¨":9511,"Ġíķľê°ķ":9512,"ĠTr":9513,"Ġê·¼ìłĳ":9514,"Ġsp":9515,"Ġë³ĦìŀĲë¦¬":9516,"Ġå®®":9517,"Ġìĭ¤ì¢ħ":9518,"Ġê±°ìĬ¬ëŁ¬":9519,"ĠMP":9520,"į°ë¥´":9521,"oci":9522,"che":9523,"ìĥģìĬ¤":9524,"Ġ1916":9525,"ĠëĮĢì£¼êµĲ":9526,"à¸":9527,"Ġëĵ¤ìĹ¬":9528,"ĠìķĦìļ¸ëŁ¬":9529,"ĠìĨĮëĭĪ":9530,"Ġê°Ģë¥´ì¹¨":9531,"Ġêµīìŀ¥":9532,"Ġê²©ëł¬":9533,"Ġê·¸ëŀĳ":9534,"tis":9535,"Ġíį¼ìĭľíĶ½":9536,"ĠìŀĲë§ĪìŀĲ":9537,"ĠìĪľì¡°":9538,"íĤ¤ëĤĺìĻĢ":9539,"ĠìłĦìĿ´":9540,"Ġì£¼ê¶Į":9541,"ëĩ":9542,"Ġë³´ì¶©":9543,"ĠìľĦìŀ¥":9544,"ĠCO":9545,"ĠìĿ´ìĸ´ë":9546,"ĠíļĮê³Ħ":9547,"Ġê±´ìĿĺ":9548,"ĠìºłíİĺìĿ¸":9549,"Ġì¦Ĳê¸°":9550,"fe":9551,"Ġå·¦":9552,"Ġìĵ°ëŁ¬":9553,"Ġì§ľë¦¬":9554,"ê²ģ":9555,"Ġíĺ¸ì¹Ń":9556,"II":9557,"íĸīìľĦ":9558,"Ġë¬´ëł¤":9559,"å®ī":9560,"Ġë¶ģìĦľë¶Ģ":9561,"ĠíĶĦëŀľ":9562,"Ġê³łë°ľ":9563,"ĠìĹ¬ì§Ħ":9564,"Ġìĭłì¹¸ìĦ¼":9565,"ĠìķĪëĵľë¡ľìĿ´ëĵľ":9566,"Ġê³µìĿ¸":9567,"ĠìĬ¤ì¿¨":9568,"Ġê·¸ë§":9569,"Ġë¬¼ìŀĲ":9570,"ĠComp":9571,"ĠìĿ´íĨł":9572,"Ġíı¬ìŀ¥":9573,"ìļ´ëĭ¤":9574,"Ġê°ĢëĿ¼":9575,"Ġë¶ĢëıĦ":9576,"ĠìŀĦìĥģ":9577,"ĠèĶ":9578,"Ġëª¨ëħ¸":9579,"Ġìµľìłģ":9580,"ĠìĥĿëªħì²´":9581,"Ġê¸°ëĭ¤ë¦¬":9582,"Ġìĸ´ë¦´":9583,"Ġåģ":9584,"Ġê²ĮìĿ´íĬ¸":9585,"ĠëıĻëĵ±":9586,"ĠìĦłìĽĲ":9587,"ĠìĹ°íıīê·ł":9588,"ĠìĤ¬ìļ©ìŀĲ":9589,"Ġì§ģì±ħ":9590,"ìĭľë¡ľ":9591,"ĠëĭĪìķĦ":9592,"Ġì§ĦëĤĺëĿ¼":9593,"Ġë°Ķíĭ°":9594,"Ġ119":9595,"ê·¸ëĿ¼ëĵľ":9596,"ìķħëĭ¨":9597,"ĠíĮ¨ìĬ¤":9598,"ĠìĦĿì¡°":9599,"ĠìĹ¬ìĿĺ":9600,"ĠìłĦíķ¨":9601,"Ġ127":9602,"Ġíķľëį°":9603,"ì¡°ë¶Ģ":9604,"ĠíĶĦë¡ľíĨłì½ľ":9605,"Ġìŀłë":9606,"Ġìłķë°Ģ":9607,"Ġë§¥ìĬ¤":9608,"åºľ":9609,"Ġì§Ħë¦¬":9610,"ĠìĻ¸ê³½":9611,"Ġë£¨íĦ°":9612,"Ġíıīíĸī":9613,"Ġë¹ĦíĭĢì¦Ī":9614,"Ġìĥģìŀ¥":9615,"Ġçħ":9616,"íĮ©íĬ¸":9617,"ĠìĤ¬ë¦¬":9618,"Ġ128":9619,"Ġìŀłìŀ¬":9620,"ĠëĪĪë¬¼":9621,"ìĦľë¦¬":9622,"ìŀĲìĬ¤":9623,"ìĪĺìĹĺëĿ¼":9624,"ĠìĿ¼ì¡±":9625,"íĥľìļ°":9626,"ĠhPa":9627,"Ġê¾Ģ":9628,"ĠæĮ":9629,"ĠíĨłëĭĪ":9630,"ĠìºĲìĬ¤íĮħ":9631,"Ġë°©ì¹¨":9632,"ĠíĹĪë¸Į":9633,"Ġìĸĳìĥģ":9634,"ĠìĥģìŀĲ":9635,"1996":9636,"Ġì»¨íĬ¸ë¡¤":9637,"ĠìłĦë¡Ģ":9638,"Ġë§¤ëł¥":9639,"ĠDS":9640,"Ġì°¨ëĤ¨":9641,"Ġê³łìĽĲ":9642,"ĠCE":9643,"ĠOn":9644,"ĠìĤ¬ë¬¼":9645,"Ġìĸ´ëĵľë":9646,"ĠëķĮëķĮë¡ľ":9647,"Ġê´ĳíķ´êµ°":9648,"ê³łëł¤":9649,"Ġì§ĢëĤĺì¹ĺ":9650,"éĻ¢":9651,"Ġìľłíķ´":9652,"ĠAnd":9653,"Ġê±´ì¶ķê°Ģ":9654,"ëģĦë":9655,"ĠìĿ¼ëłī":9656,"ĠëĤ¨ê¸´":9657,"Ġê¸īì§Ħ":9658,"ì°½ê¸°":9659,"ìĦłëĮĢ":9660,"Ġê°ľì°°êµ¬":9661,"ĶëĶĶ":9662,"ĠGo":9663,"ĠíĨłìļĶìĿ¼":9664,"ĠìłľìŀĳìŀĲ":9665,"ĠíĮ¨íķĺ":9666,"ĠåłĤ":9667,"ìĭ¬ë¶Ģ":9668,"Ġë§ĪìĿ´ëĦĪ":9669,"ĠíĥľìĥĿ":9670,"Ġë°ķíĥĪ":9671,"Ġë¦¬ë©ĶìĿ´íģ¬":9672,"ëĭ·":9673,"ìķĦëĪĦìĬ¤":9674,"Ġë²Ħë¦°":9675,"ìĿ´ëĭĪìķĦ":9676,"ĠíĺĳëıĻ":9677,"Ġåĳ¨":9678,"enc":9679,"Ġíķ©ë²ķ":9680,"Ġê¶ģìłķ":9681,"ì¹łë¦¬ìķĦ":9682,"ĠíķľëıĻ":9683,"§ĪìĿ´":9684,"ĠëĵľëŁ¼":9685,"Ġë¦¬ìķĦ":9686,"ĠíķŃê³µëª¨íķ¨":9687,"ì°¨ë¡Ģ":9688,"Ġë¬¼ëŁ¬ëĤ¬":9689,"ìĸ´ìł¸":9690,"ĠIT":9691,"ê¸Ģë¦¬":9692,"¶ĻìĿ´":9693,"ìļĶë":9694,"å½":9695,"Ġë¶Ģì°©":9696,"ĠëıĻìĿ¸":9697,"Ġì¶Ķì¦Ŀ":9698,"ĠìħĪ":9699,"Ġíı´ë¦¬ìĬ¤":9700,"ĠéĽ²":9701,"íĥĲ":9702,"Ġìĭľë¦½":9703,"ĠìķĦìĦ¸":9704,"ĠëıĻìľĦ":9705,"Ġìľłì¶ľ":9706,"ĠíĻĶìĤ´":9707,"ĠìłĦëĮĢ":9708,"own":9709,"Ġì±Ħë¬´":9710,"Ġåķ":9711,"ĠëªħìĿĺ":9712,"ìĹ°íķ©":9713,"ĠìĦľë¸Į":9714,"ĠìĿ´ë¥¸":9715,"ëĭĮëĭ¤":9716,"Ġë³´ëĵľ":9717,"łĪìĿ´íĦ°":9718,"ĠìĦĿíĥĳ":9719,"íĨłëĭĪìķĦ":9720,"Ġê¸´ìŀ¥":9721,"ë¬¼ë":9722,"Ġì¤ĦìĹ¬ìĦľ":9723,"ĠìĿ´ë¦¬":9724,"ê¸°ìĹħ":9725,"ëĶĺ":9726,"Ġê±´ëĦĪê°Ģ":9727,"ê¾":9728,"Ŀ¼ìĿ´ë²Ħ":9729,"Ġë¬¸ìŀ¬ìĿ¸":9730,"ction":9731,"íĶĦëłĪ":9732,"Ġèĭ±":9733,"Ġì§Ģìŀ¥":9734,"Ġëĭ¬ë¦°":9735,"Ġë²ĪëĩĮ":9736,"ĠëĮĢêµ°":9737,"ĠìĻ¸êµŃìĸ´":9738,"Ġç¾ħ":9739,"Ġå¥³":9740,"ward":9741,"ìĸ´ì§Ħ":9742,"íĻĶìłĲ":9743,"ĠæĻ¯":9744,"ĠCPU":9745,"Ġìłľê³±":9746,"Ġë°ľíĺĦ":9747,"Ġéº":9748,"Ġì£½ìĺĢ":9749,"Ġë³Ħì¹Ń":9750,"ĠìĿ¸ê²©":9751,"ĠìĪĺìĭł":9752,"ëĤĻ":9753,"Ġì²ľìĤ¬":9754,"Ġæĺ¥":9755,"ĠìĦŃì·¨":9756,"ĠìŀĲë°ľ":9757,"Ġë°ľìĽĲ":9758,"ĠêµĲëĭ¨":9759,"ĠëģĬìŀĦ":9760,"Ġë·Ķ":9761,"ĠìķĶë":9762,"Ġì¡´ì¤ĳ":9763,"ì¡°ì§Ģ":9764,"íı¬êµ¬":9765,"Ġë§¤ì¶ľ":9766,"ĠTim":9767,"ì¿łë¥´":9768,"Ġìĸ¸ë¡łìĿ¸":9769,"Ġç¾İ":9770,"ĠìĦ¸ê·ł":9771,"ëĤĺìĿ´":9772,"Ġê°¤ëŁŃìĭľ":9773,"ë³´ëĵľ":9774,"Ġì´īêµ¬":9775,"ìŀĲìĻĢ":9776,"Ġì§Ħêµ°":9777,"Ġå®£":9778,"¸Ķë¡ľ":9779,"ìĸ´ì§Ģ":9780,"Ġèĺ":9781,"ĠíĮ½ì°½":9782,"Ġìļ©ìĤ°":9783,"Ġì·¨ì§Ģ":9784,"ĠèĲ¬":9785,"æĶ":9786,"Ġè²ŀ":9787,"ox":9788,"ë¶ĢìĿ¸":9789,"Ġìĭľì²ŃìŀĲ":9790,"Ġì£¼ì¶ķ":9791,"ĠìĦ±ìłĦ":9792,"Ġë§Īìĺ¤":9793,"Ġì»¬":9794,"Ġì¤ĳêµŃìĿ¸":9795,"ĠìĨĲê°ĢëĿ½":9796,"ĠìĿ´ìĬ¬ëŀĮêµĲ":9797,"Ġê¸°ìĥģì²Ń":9798,"Ġëĭ¤ì¼Ģ":9799,"ĠìĽĲíķĺ":9800,"ĠìĨįìĦ±":9801,"ĠìĪŃë°°":9802,"ìĿ´ë¡ľ":9803,"Ġíĺĳì¡°":9804,"ĠìĪłíĥĦ":9805,"ĠìĬ¤íĬľ":9806,"ĠíĽĦìĿ¼":9807,"Ġìĥ¹":9808,"ì¦Īì¹´":9809,"Ġê°Ĳì§Ģ":9810,"ĠìĤ¬ëĭ¤":9811,"íĬ¸ë¥´":9812,"íĬ¸ë¦Ń":9813,"ä¾":9814,"Ġì£¼ì§ĢìĤ¬":9815,"ĠìĬ¤íİĺìĿ¸ìĸ´":9816,"ĠìĻľìĦ±":9817,"ç¶":9818,"Ġë¶Ģë¥¸":9819,"Ġê´ĳë¶Ģ":9820,"Ġ136":9821,"ĠåĽ½":9822,"ĠSte":9823,"ìĤ¬ì¹´":9824,"ĠìĪĺêµ°":9825,"Ġìłķì°°":9826,"Ġìķ¨ëŁ°":9827,"ĠìĿ´ìĸ´ë°Ľ":9828,"ë²łìĿ´":9829,"ìĦ¸ë¥´":9830,"ĠìĿ´ë¸Į":9831,"Ġë¬¸ìĸĳ":9832,"Ġë¬´ì£Ħ":9833,"ĠìĬ¤íĥĢíģ¬ëŀĺíĶĦíĬ¸":9834,"ĠìĿ´ìĪľ":9835,"ë¦¬íģ¬":9836,"ĠíĶ¼ê³ł":9837,"ĠíķĻëªħ":9838,"ê¶¤":9839,"Ġåī¯":9840,"Ġëĭ¿":9841,"Ġìķ¼ê°Ħ":9842,"ĠìłĦëĳĲíĻĺ":9843,"ĠìķĪìŀ¥":9844,"ìĦĿê¸°":9845,"Ġíĸ¥íķľ":9846,"Ġì°¸ê°ĢìŀĲ":9847,"Ġì²Ńìŀ¥":9848,"Ġê¸ĪìĦ±":9849,"Ġë§Īìļ´":9850,"Ġè°·":9851,"ì¼ľ":9852,"Ġì¹ĺìĦ¸":9853,"Ġê³¨íĶĦ":9854,"Ġì²¨ê°Ģ":9855,"ĠìľłêµĲ":9856,"Ġìĺ¤ëĶĶìĺ¤":9857,"ĠìµľìĨĮíķľ":9858,"Ġëº":9859,"ĠíķĺíĬ¸":9860,"ĠëĳĲìĤ°":9861,"Ġë²Ħëł¤":9862,"ĠéĿ¢":9863,"ĠìĿ´ê¸Ģ":9864,"ĠìĥģìĦ¸":9865,"Ġëĭ¨ê¸°":9866,"ĠìķĦìĿ´íħľ":9867,"ĠìŀĲìľłëĭ¹":9868,"ĠíĥĦë":9869,"ĠìłĲíĶĦ":9870,"Ġê°Ģìł¸ìĻĶ":9871,"ìļ¸ëĮĢ":9872,"Ġç«ĭ":9873,"ĠëıĻëĤ¨ìķĦìĭľìķĦ":9874,"IM":9875,"ĠëĤĺë¦¬":9876,"Ġë¬´ëĦĪ":9877,"ëĦ¤ìĬ¤":9878,"Ġëªħëª©":9879,"ë²łìĿ´íĦ°":9880,"ĠíħįìĬ¤íĬ¸":9881,"Ġíļ¨ëł¥":9882,"co":9883,"Ġé³":9884,"tit":9885,"Ġæ´¾":9886,"łĲ":9887,"ĠìĽ°":9888,"ĠëĤ¨íķľ":9889,"Ġäº¬":9890,"Ġåı²":9891,"Ġëª¨ëĵĪ":9892,"ĪĦë":9893,"Ġê³µìŀĲ":9894,"Ġê¸°ìĬµ":9895,"ê²ĮìĿ´ë¨¸":9896,"ĠìļĶíģ¬":9897,"Ġëĵłì§Ģ":9898,"è«":9899,"ìķĦíĤ¤":9900,"Ġëĭ¨ìłĲ":9901,"ĠìĿĮìĽĲ":9902,"Ġë²Ħë¦°ëĭ¤":9903,"Ġë¬´ëĿ¼":9904,"Ġëĭ¤ìļ´ë":9905,"íĶĦë¡ľìĬ¤":9906,"ĠìľĮìĬ¨":9907,"Ġë¶Ģìŀ¬":9908,"ĠìĨĶë":9909,"ìħĪë":9910,"Ġì´ĪìĹ°":9911,"Ġì¤Ħë":9912,"Ġê³łì²´":9913,"out":9914,"ĠìľłëĭĪíı¼":9915,"Ġë°ľíķ´":9916,"Ġë¦¬ìĺ¤":9917,"ì°½êµ°":9918,"Ġê°Ŀê´Ģ":9919,"ìĻ¸ë²ĦìĬ¤":9920,"ĠìĨĮê¸Ī":9921,"ĠìĽĲì£¼":9922,"ĠLP":9923,"Ġnow":9924,"Ġê°ĳìŀĳ":9925,"Ġì¶Ķëª¨":9926,"Ġíı¬ëıĦì£¼":9927,"Ġê¸°ê¸Ī":9928,"ìĿ¸ëªħ":9929,"íģ´ëĿ¼":9930,"ĠìĪĺíıī":9931,"ĠCor":9932,"ĠíĻįìĪĺ":9933,"ĠëĤĻìĦł":9934,"Ġìĭľëĵľ":9935,"¼ë¦¬ë":9936,"Ġæĸ¹":9937,"Ġêµµ":9938,"Ġë¯¸ìĸĢë§Ī":9939,"mer":9940,"Ġìĥģëĭ¹ìĪĺ":9941,"ake":9942,"ĠëĵľëĿ¼ìĿ´ë¸Į":9943,"ĠíĥľìĪĺ":9944,"ê·¸ë¡ľ":9945,"Ġì°¬ë":9946,"ìĸ¸ë":9947,"¨¸ë¦¬":9948,"ĠìĽĲëĤĺëĿ¼":9949,"íĮĮë¥´íĥĢ":9950,"ĠìĦ¹":9951,"AL":9952,"Ġê³ĦìłĪ":9953,"Ġê±°ëĬĲë¦¬":9954,"erv":9955,"Ġì°½ê±´":9956,"å¾·":9957,"Ġíģ´ë¦°":9958,"Ġê³łì¡°":9959,"ĠìĻĢìĿ¸":9960,"Ġìĸ´ìļĶ":9961,"êµ¬ìĬ¤":9962,"ëĤĺì¹´":9963,"ĠíĴĢëł¤":9964,"Ġê¹ĢìĺģìĤ¼":9965,"ĠìķĦë¯¸ëħ¸":9966,"Ġë¯¼ìĤ¬":9967,"Ġê°Ģë¥´ì³¤":9968,"ì²¸":9969,"Ġê³łë¬´":9970,"ĠìĨĮìĭ¤":9971,"ĠíĥĢë§Ī":9972,"ĠìĤ°ëĭ¤":9973,"ê»´":9974,"ene":9975,"ĠìłľíĬ¸":9976,"ì¶ĶìĦ¸":9977,"Ġëĭ¤ëħĢ":9978,"Ġì°½ìĭľ":9979,"Ġì§ĦëıĦ":9980,"ÑĤ":9981,"ĠëĶ°ëľ»":9982,"Ġì´Ŀê´Ħ":9983,"ĠíĦ±":9984,"Ġë¸ĶëłĪ":9985,"ë°Ķëĭ¤":9986,"ĠìłĦíķľëĭ¤":9987,"ë¡ľìĬ¤":9988,"ĠíħĮìĿ¼ëŁ¬":9989,"ĠìĭľìĻ¸ë²ĦìĬ¤":9990,"ĠìĪĺëł¹":9991,"Ġì¤ĳìŀ¬":9992,"ĠçĲ":9993,"ĠNo":9994,"ĠìĦ¼ìĦľ":9995,"Ġíį¼ìł¸":9996,"ĠíķĦëĿ¼ëį¸íĶ¼ìķĦ":9997,"Ġë§Īì°°":9998,"ìĿ´ë²Ī":9999,"ĠëĤłì§ľ":10000,"ĠíŀĮëĳĲ":10001,"ĠíĬ¸ëŁ¼íĶĦ":10002,"ëĮ":10003,"Ġìŀħì²´":10004,"ĠíĥĲì§Ģ":10005,"íĬ¸ë¦¬ìĺ¬":10006,"GC":10007,"Ġë¶Ģê³¼":10008,"Ġë¶Ħê´ĳ":10009,"ĠíĮĮìĿ´ë":10010,"Ġæ³°":10011,"ĠíĥĪíĻĺ":10012,"Ġæ®¿":10013,"ĠìĬ¤ë¦´ë":10014,"Ġë³´ìŀī":10015,"Ġì»´ë":10016,"Ġëĳ¥ê·¼":10017,"ìĪĺìķĦ":10018,"ĠëıĻëıħ":10019,"Ŀ¼ëĬĦ":10020,"Ġìĸ¸ìłľëĤĺ":10021,"IP":10022,"ĠíķĺìĸĢ":10023,"Ġê±±":10024,"íıīêµ°":10025,"Ġá":10026,"łëĿ¼":10027,"ĠìµľìłĢ":10028,"ëª¨íĨł":10029,"ĠéłĨ":10030,"Ġë©Īì¶Ķ":10031,"ì¶ĶìĦ¸ì¸ł":10032,"è³":10033,"ĠìĪĺìĤ°":10034,"ĠìĤ¿":10035,"Ġ138":10036,"ëĳĶ":10037,"ĠìĦŃìłķ":10038,"ĠëıĻëĭ¹":10039,"Ġ104":10040,"Ġë¶ģêµ¬":10041,"ĠìĹ°ëıĦ":10042,"Ġëĭ¤ìļ´ë¡ľëĵľ":10043,"Ġíı¬ê´Ħ":10044,"Ġë³ĳì¡°":10045,"ĠåħŃ":10046,"Ġë¡ľë¹Ī":10047,"ĠBar":10048,"ĠìĹĺë¦¬ë²łìĿ´íĦ°":10049,"ĠìĦľìĤ¬":10050,"íģ¬ë¦¬íĬ¸":10051,"Ġ106":10052,"Ġì¤Ģê²°ìĬ¹":10053,"Ġë¬¸íķĻìĥģ":10054,"Ã¼":10055,"Ġê³łë²ł":10056,"Ġë°ĺë°ķ":10057,"æµ·":10058,"ĭ«":10059,"ĠìĿ´íĭĢ":10060,"OP":10061,"ĠíĶĦë¡ľê²ĮìĿ´ë¨¸":10062,"ĠìłģìŀĲ":10063,"®®":10064,"ĠAb":10065,"ìłľë¦¬":10066,"Ġìĺ¤ëłĮì§Ģ":10067,"Ġê²©íĪ¬":10068,"Ġìį¨ìĦľ":10069,"Ġë¯¸ì³¤":10070,"Ġë£¨íĬ¸":10071,"Ġì£¼ì°¨":10072,"Ġë¶Īëªħ":10073,"ìĬ¤íĬ¸ë¡ľ":10074,"Ġíķĺë¶Ģ":10075,"Ġê²½ë¶Ģ":10076,"Ġì¦ĿíĽĦ":10077,"Ġë¸ĮëĿ¼ìĿ´ìĸ¸":10078,"Ġë¿Ķ":10079,"ĠëĤĺê³łìķ¼":10080,"Ġë¯¸ìĬ¤íĦ°":10081,"ĠìĽĲë°ĺ":10082,"Ġì¶ľíĨł":10083,"ì¤ĳìķĻ":10084,"Ġìĺģë¦¬":10085,"ĠìĽĲê³ł":10086,"ĠìĹĲìĿ´ìĬ¤":10087,"ĠìĿ¸íħĶ":10088,"ĠìĤ¼ì§Ħ":10089,"Ġíĸ¥íĽĦ":10090,"Ġì§ĢëĥĪìľ¼ë©°":10091,"Ġì¤ĳìĪľ":10092,"ĠëĦĺìĸ´ê°Ģ":10093,"Ġì²ľë¬¸íķĻìŀĲ":10094,"Ġë¡ľë§¨ìĬ¤":10095,"ĠìĬ¤ë¦´ëŁ¬":10096,"Ġìĭľê³µ":10097,"ĠìĹ¬ê²¼":10098,"Ġê³µì±Ħ":10099,"Ġê·¸ëł¸":10100,"Ġçĳ":10101,"ĠâĢ¤":10102,"Ġì§ĢëĤĺê°Ģ":10103,"lic":10104,"ĠëıĻëł¥":10105,"ĠSP":10106,"Ġì¢ħê²°":10107,"Ġ137":10108,"Ġê·Ģì¤ĳ":10109,"Ġë¨¸ìĭł":10110,"Ġåľĸ":10111,"Hz":10112,"ĠìĭĿë³Ħ":10113,"Ġ360":10114,"ĠìĦ±ëª¨":10115,"³´ëĶĶìķĦ":10116,"Ġ108":10117,"ĠìłľìĪĺ":10118,"íı¬ìĬ¤":10119,"ë§ĪìĤ¬":10120,"Ġê°ķê³¼":10121,"ìĭ¤ë¡Ŀ":10122,"ìħĭ":10123,"ĠìĽĲìŀĲë¡ľ":10124,"Ġì»¨ë":10125,"ĠìŀĲê¸°ìŀ¥":10126,"Ġë©ĶëĶĶ":10127,"Ġì¶ľìĤ°":10128,"Ġíİ¸ë¦¬":10129,"Ġê¼¬":10130,"£¸":10131,"Ġê¸°ìĪĺ":10132,"ĠìĬ¹ìłĲ":10133,"ĠíĬ¸ìľĦ":10134,"ĠíħĶëłĪ":10135,"å¼":10136,"ëĭĪì¦ĺ":10137,"ĠìĻľë":10138,"ĠìĬĲ":10139,"Ġê°ľê´Ģ":10140,"Ġì¶©ìĭ¤":10141,"sk":10142,"æ¥Ń":10143,"ĠìĹĲë¦Ń":10144,"Ġëªħë°±":10145,"ĠëĳĺëłĪ":10146,"Ġê³łê°Ģ":10147,"Ġìļ°ìĹ°íŀĪ":10148,"ĠìĿ´ë¯¼ìŀĲ":10149,"Ġë¥´ëĦ¤ìĥģìĬ¤":10150,"Ġìĭ¬ìĿĺ":10151,"Ġë¸Ķë£¨ìĬ¤":10152,"Ġê±±ìłķ":10153,"ĠçĽ´":10154,"èģ":10155,"ĠìľłìĨĮëħĦ":10156,"íĶĮë¡ľ":10157,"Ġë²łë¥´íģ¬":10158,"ĠìĤ¬ìĿ´ë":10159,"ĠìĦłì¢ħ":10160,"Ġìŀ¥ëĤľ":10161,"ĠíħĮìĬ¤":10162,"Ġíģ¬ë¦¬ìĬ¤íĭ°":10163,"ĠëĤ±ë§Ĳ":10164,"Ġê´ĢíĨµ":10165,"íĤ¤ì§Ģ":10166,"íĬ¸ë¹ĦìķĦ":10167,"ĠDC":10168,"Ġì¦Ŀì§Ħ":10169,"1995":10170,"ĠåĲ³":10171,"Ġìĺ¤íĤ¤ëĤĺìĻĢ":10172,"ë¬´ê¸°":10173,"Ġíģ´ëłĪë":10174,"Ġëª°ëł¤":10175,"ìĭľìĺ¨":10176,"Ġì¹´ìŀĲíĿĲ":10177,"Ġë¶Īíİ¸":10178,"ĠìŀĲëŀĲ":10179,"Ġê³łìĤ¬":10180,"ĠëĮĢìĹŃ":10181,"Ġì±ħìŀĦìŀĲ":10182,"Ġíģ¬ë¦¬ìĬ¤ë§ĪìĬ¤":10183,"å¸Ŀ":10184,"Ġê½¤":10185,"Ġë°Ķê¿Ķ":10186,"Ġì´ĪìĥģíĻĶ":10187,"Ġë°±ìĭł":10188,"Ġì²ľëıĦ":10189,"ta":10190,"ĠëĮĢìĻ¸":10191,"ĠìĹŃëªħ":10192,"ĠíķľëıĻìķĪ":10193,"yl":10194,"ìķĦìĿ¼ëŀľëĵľ":10195,"Ġì´ĿìĤ¬":10196,"Ġì¹´ëĤĺ":10197,"188":10198,"Ġì¤ĳëŁī":10199,"Ġê²¸íķĺ":10200,"ł¬":10201,"Ġê°Ģë²":10202,"ë³´ìĿ´":10203,"Ġìĺ¤ë¹ł":10204,"¬µ":10205,"ĠìĦľíķ´":10206,"Ġë°°ìĭł":10207,"ìķĦëĭĪ":10208,"ĠìĿĺìĥģ":10209,"Ġìĸ´ìĹħ":10210,"Ġê³µì§ģ":10211,"íĦ°ìĬ¤":10212,"Ġìŀ¥ìĦ±":10213,"ĠìĤ°íĥĢ":10214,"Ġê»ĺìĦľ":10215,"Ġë§ĮìĦ¸":10216,"Ġëĭ¹ìĿ¼":10217,"ê³µìĭł":10218,"Ġëª¨ë°©":10219,"ç¥ĸ":10220,"Ġì¹¨ëª°":10221,"Ġå¤«":10222,"Ġì¦ĿíĽĦêµ°":10223,"ĠëĮĢìłľ":10224,"ìłĦê¸°":10225,"ê¸ĭ":10226,"ĠçĲĨ":10227,"Ġë²ķì¡°":10228,"row":10229,"ĠìĿ¸ìŀ¬":10230,"ìĪĺë¦¬":10231,"ìĤ¼ë":10232,"ĠìĪĺìļ©ìĨĮ":10233,"ĠIII":10234,"ĠíĥĢì¹´":10235,"Ġë¹ĮíĹ¬ë¦Ħ":10236,"ĠëĮĢì²ĺ":10237,"Ġìĸĺê¸°":10238,"Ġë³´ìĬ¤ëĭĪìķĦ":10239,"Ġë°ĶëĿ¼ë³´":10240,"ìĹ¼ë³ĳ":10241,"ľ¨":10242,"ìĿ¸ì²ľ":10243,"ĠìĨ¡ëĤĺëĿ¼":10244,"ĠëĳĺëŁ¬ìĭ¼":10245,"Ġì§Ģë¥ĺ":10246,"Ġìŀ¬ë¯¸":10247,"ìĿ¸ëªħìĤ¬ìłĦ":10248,"íĶĦëĭĿ":10249,"ĠíĥĪëĭ¹":10250,"ĠíĽĦëĮĢ":10251,"ĠQu":10252,"ii":10253,"Ġëĵ±ìŀ¬":10254,"Ġíľ´ìĭĿ":10255,"ĠìĦłêµ¬":10256,"ĠìĨĮíĻĺ":10257,"Ġç¬":10258,"ìĬ¬ëŀĢëĵľ":10259,"ĠìĻ¸êµĲê´Ģ":10260,"åı²":10261,"Ġì¡°ë¦¬":10262,"ì¦Ĳ":10263,"Ġì´ĿëĮĢ":10264,"Ġì½Ķë¬´ëĦ¤":10265,"ĠìĦĿê°Ģ":10266,"Ġìļ´ëıĻìŀ¥":10267,"ĠìĿ¼ìĸ´ëĤł":10268,"ĠìĭŃìŀĲê°Ģ":10269,"Ġê¸°ìķĦ":10270,"ĠëĤ¨ìĿ¸":10271,"--":10272,"Ġë§ĪìĤ°":10273,"Ġìŀ¥íķĻ":10274,"Ġì¡°ëĭ¬":10275,"ĠíıĲìľĦ":10276,"Ġë²łëĦ¤ìĪĺìĹĺëĿ¼":10277,"ĠìķĦì¢ħ":10278,"Ġëĭ¨ì¸µ":10279,"ĠíĮĮìŀ¥":10280,"ĠìĸĳëıĦ":10281,"Ġê³µë¯¼":10282,"Ġíıīìķ¼":10283,"ĠìĻ¸ë¬´":10284,"Ġë³´ìĻĦ":10285,"ìĭ¤ë²ł":10286,"âĢĺ":10287,"Ġì¹ľìĿ¼ìĿ¸ëªħìĤ¬ìłĦ":10288,"æŃ£":10289,"Ġë°Ķê·¸ë":10290,"Ġíĳľëªħ":10291,"Ġéĸĭ":10292,"åĲĽ":10293,"ĠìĿ¼ì°įìĿ´":10294,"Ġë±":10295,"Ġë²Īìĺģ":10296,"Ġë°Ķì¹ĺ":10297,"¨¼ëĵľ":10298,"Ġê°ĵ":10299,"ĠìĭľëĿ¼":10300,"æľ¬":10301,"ĠëĤľë¯¼":10302,"ĠìĪĺìĦ±":10303,"Ġë¶ģë°©":10304,"ĠìĨĮëĭī":10305,"ĠìĭľëĤĺë¦¬ìĺ¤":10306,"ĠìĿ´ìŀ¬":10307,"Ġê³łë°±":10308,"ª¨ìĸ´":10309,"ħ¸ìĿ´":10310,"TS":10311,"Ġê³łë¯¼":10312,"ìĿĺìŀĲ":10313,"Ġìľłìĸ¸":10314,"Ġëĵ¤ìĸ´ìĻĶ":10315,"Ġê³Ħëª½":10316,"ĠêµĲìĽĲ":10317,"ĠìĬ¤íĭ°":10318,"ology":10319,"Ġê»įì§Ī":10320,"ì£¼ìĿĺìŀĲ":10321,"ĠëĤ¨ëıĻë¶Ģ":10322,"Ġnowiki":10323,"ĤĻ":10324,"Ġ109":10325,"ĠAS":10326,"Ġì§ĳê³Ħ":10327,"ts":10328,"įĶë":10329,"Ġê°ķê²½":10330,"Ġì°¨ê¸°":10331,"Ġìĵ°ìĿ¸":10332,"Ġìľ¨ë¦¬":10333,"íķĺë£¨":10334,"ĠëĤ´ìĻ¸":10335,"ames":10336,"Ġì¤ĳìĭ¬ë¶Ģ":10337,"ĠíĻĢë":10338,"ĠíĬ¼":10339,"Ħ¤ëĶĶ":10340,"ĠëĪĦêµ°":10341,"Ġë©ľë¡ľ":10342,"ĠìĤ¬ìļ°ëĶĶìķĦëĿ¼ë¹ĦìķĦ":10343,"ĠìłĦìķķ":10344,"Ġé¦":10345,"Ġë³ĳìĹŃ":10346,"Ġìķŀë©´":10347,"Ġë¬¼ë¦¬íķĻìŀĲ":10348,"Ġ\"(\"":10349,"Ġìī¬ìļ´":10350,"Ġë¦¬ë²ĦíĴĢ":10351,"ê¸°ì§Ģ":10352,"ĠìĭłíķĻìŀĲ":10353,"Ġíķ´ë³ĳëĮĢ":10354,"ëģ¼":10355,"ìĬ¹ì§Ģ":10356,"ĠëĶĶìķĦ":10357,"ë°ĶìĿ´":10358,"å¸«":10359,"ĠìĿ´ë¥¼":10360,"íĻī":10361,"Ġë³µìŀ¥":10362,"ĠìķĦë¦¬ìĬ¤":10363,"ĠìĨĮíĨµ":10364,"Ġê°ľë¯¸":10365,"Ġíķĺë²Ħëĵľ":10366,"ĠìłĦìĦ±ê¸°":10367,"ĠìĥģìĦľ":10368,"ê²¸":10369,"Ġê´ĢëŀĮ":10370,"Ġë°ķìĺģ":10371,"ĠëĤĺê°ĢìĤ¬íĤ¤":10372,"Ġê·¸ë§Į":10373,"Ġë£¡":10374,"íħĮëĤĺ":10375,"Ġì»¬ëŁ¬":10376,"å¹´":10377,"Ġê¸°ìŀ¥":10378,"ĠPS":10379,"Ġhe":10380,"Ġê³µëª¨":10381,"ĠíĴįê²½":10382,"ì¹ĺìĺ¤":10383,"íĶĶ":10384,"ìĦłìĬ¤":10385,"ì¦ī":10386,"Ġë¬´ê±°ìļ´":10387,"Ġì¹ĺìĹ´":10388,"Ġcol":10389,"Ġì¦ĪìĿĮ":10390,"ĠìĬ¤íĮĮë¥´íĥĢ":10391,"ëį´":10392,"Ġë¸ĶëĿ¼ëĶĶë":10393,"ĠìĭľëĵľëĭĪ":10394,"Ġì¶Ķìĥģ":10395,"ĠTra":10396,"ĠìĹħê³Ħ":10397,"Ġçİī":10398,"íĳ¸ìĬ¤":10399,"ĠìĪĺëıĻ":10400,"Ġíį¼ìĦ¼íĬ¸":10401,"ìķĮëłī":10402,"ĠìľĦìŀĦ":10403,"ĠíħĮëĭĪìĬ¤":10404,"Ġíķ´ìĹŃ":10405,"ì°°ë":10406,"Ġë°Ł":10407,"ĠëıĦìĻĶ":10408,"Ġçģ":10409,"ĠPa":10410,"ĠNBA":10411,"ĠìĨĮìľłìŀĲ":10412,"Ġë©°ì¹ł":10413,"ĠìĹ°íĮ¨":10414,"Ħ¤ìĬ¤ì½Ķ":10415,"íķĺë©´":10416,"Ġëħ¸ëŀĢìĥī":10417,"ĠëĶĶìĬ¤íĶĮëłĪìĿ´":10418,"ĠëĲĺê²Į":10419,"Ġë¹ĦìķĦ":10420,"ĠìĭłíķĻêµĲ":10421,"lass":10422,"ĠìĹĲìĬ¤íĮĮëĥĲ":10423,"íļĮìŀ¥":10424,"Ġë¬¸íĻĶë°©ìĨ¡":10425,"Ġì¢ĮìłĪ":10426,"Ġë§Īë¦¬ìĺ¤":10427,"¤ĺ":10428,"ĠìĻĢì¹´":10429,"ì²«":10430,"ĠìľĦíĥģ":10431,"Ġë¬´ìłľ":10432,"Ġêµ´ë":10433,"1994":10434,"Ġìłķë¬´":10435,"Ġë°°êµ¬":10436,"ĠìĿ´ê¸ĢìĬ¤":10437,"Ġì¤ĳì¶ĶìĽĲ":10438,"ê³łì¿ł":10439,"Ġë§¤ì¹´":10440,"ĠWe":10441,"Ġìŀ¦":10442,"ĠíķŃìĨĮ":10443,"ĠìĦľìļ¸ëĮĢ":10444,"ĠíħĮìĺ¤":10445,"EE":10446,"Ġë¹łì¡Į":10447,"ĠíķľìĦ±ë¶Ģ":10448,"ĠìľĦìķĪ":10449,"Ġìŀħì§Ģ":10450,"ê³łëŀĺ":10451,"Î±":10452,"ìĳ¤":10453,"ĠìĿĺë¢°":10454,"ĠìĿ¸ìĹ°":10455,"ĠêµŃìĤ¬":10456,"ĠíĮĮìĹħ":10457,"Ġì´Īê³¼":10458,"ĠëģĮëł¤":10459,"ìĸ¸ìĬ¤":10460,"ì¶ķêµ¬":10461,"ĠëıĦíĺ¸ì¿ł":10462,"Ġë¹Ħë¬¸":10463,"Ġë²Ĺìĸ´ë":10464,"ĠìĿ¼íĻĶ":10465,"ĠìķĦê°Ģ":10466,"ĠìĥĿìĿ¼":10467,"ĠíļŁ":10468,"ĠëłĪìĿ´ìłĢ":10469,"Ġíı¬ê²©":10470,"ĠìĹĶì§ĢëĭĪ":10471,"1992":10472,"ĠìĪĺëł´":10473,"ĠåĪĿ":10474,"Ġê¹¨ëĭ¬":10475,"ĠìĿ¸ìĤ°":10476,"Ġíķ´ìĨĮ":10477,"Ġë§Īë¹Ħ":10478,"Ġ1894":10479,"Ġë§¤ìĤ¬ì¶ĶìĦ¸ì¸ł":10480,"Ġê³łëŀĺ":10481,"ĠìķĮëłĪ":10482,"Ġì°½ê³ł":10483,"ì¹´ë¯¸":10484,"Ġéĩİ":10485,"ĠìķĮëłīìĤ°ëĵľë":10486,"OL":10487,"ìĭ¤ë²łìĿ´ëĭĪìķĦ":10488,"ata":10489,"Ġíķ´ìĪĺ":10490,"ëĵ¬":10491,"ĠìķĦíĭĢ":10492,"Ġë³ĳíĸī":10493,"ĠìłĢëªħ":10494,"ĠéĽĨ":10495,"ĠìľłìĹ°":10496,"Ġëīĺ":10497,"å£«":10498,"ĠëĤ´ë¦°":10499,"Ġå¼ĺ":10500,"ĠêµĲìĻ¸":10501,"ĠìķĮì½Ķ":10502,"Ġíĥ¤":10503,"Ġìĺģìŀ¥":10504,"ìľĦìĽĲ":10505,"Ġíıīë²Ķ":10506,"Ġì²ŃìĽĲ":10507,"ĠOp":10508,"Ġë¶ĻìĺĢ":10509,"Ġåº·":10510,"Ġì§Ģíĺľ":10511,"Ġì§Ħì§ľ":10512,"Ġíķ©ì°½":10513,"ĠEl":10514,"ĠìķĦìļ°ë":10515,"ĠëĶ©":10516,"ê²ĮìŀĦ":10517,"íĹĮë¶Ģ":10518,"ĠåĪ¤":10519,"ĠìķĦë§ĪëıĦ":10520,"Ġíľ´ìłĦ":10521,"Ħ¬":10522,"Ġê³µìĿĺíļĮ":10523,"Ġ115":10524,"Ġì½ĺíģ¬ë¦¬íĬ¸":10525,"ĠëĭŃ":10526,"Ġìĺ¤íĥĢ":10527,"Ġìĺ¤íĶĦ":10528,"ĠíıīìĿ¼":10529,"Ġìľ¡ì§Ģ":10530,"ĠìĹ¬ì§Ģ":10531,"Ġì´ĿìĦłê±°":10532,"Ġ$":10533,"Ġì¼ĢìĿ´ìĬ¤":10534,"Ġìĺ¨ì²ľ":10535,"ĠåŃ«":10536,"Ġ1890":10537,"åĮĸ":10538,"ĠëıĦì£¼":10539,"Ġë°ĺê°Ĳ":10540,"ĠëıĮë¦¬":10541,"Ġìĸ´ì":10542,"Ġê´ĢëħĲ":10543,"1960":10544,"ĠæĿĳ":10545,"ĠëĿ¼ìĿ´ìĦłìĬ¤":10546,"ëĦĵ":10547,"ĠêµĲìĸĳ":10548,"ĠMo":10549,"ĠAll":10550,"éĩ":10551,"į´ë":10552,"ĠìĭłìĨį":10553,"ĠìķĶìĦĿ":10554,"Ġìĭłíĥģ":10555,"ĠPla":10556,"ĠHar":10557,"ĠíĶ¼ëĤľ":10558,"1945":10559,"ĠìºĦë³´ëĶĶìķĦ":10560,"Ġìĭ¤ëł¤":10561,"Ġê°Ħíĺ¸":10562,"Ġê·¹íŀĪ":10563,"Ġíĥ±íģ¬":10564,"ĠíķĺìĿ¸ë¦¬íŀĪ":10565,"ĠìĬ¤íķĢ":10566,"ìĬŃ":10567,"Ġìĭ¤ìłĦ":10568,"ĠëĤ¨ìĸĳ":10569,"íĬ¸ë£¨":10570,"Ġé¤¨":10571,"ĠìľłìĪĺ":10572,"Ġìĭłì¤ĳ":10573,"ĠíķĺëĿ½":10574,"ĠìĹŃìĦ¤":10575,"Ġìĭ¤ìŀ¥":10576,"Ġê±°ë¡ł":10577,"Ġì³Ĳë":10578,"ĠìĹ°ìĦ¸ëĮĢ":10579,"Ġë¦°ë":10580,"Ġê¸īê²©íŀĪ":10581,"íīģ":10582,"ans":10583,"Ġê¸°ìĹħìĿ¸":10584,"ĠëĤ´ëł¤ê°Ģ":10585,"ĠìľĮë¦¬ìĹĦìĬ¤":10586,"Ġíĺ¸ê¸°":10587,"oll":10588,"Ġê²©íĩ´":10589,"Ġì§ĢëĬ¥":10590,"ĠëĤĺìģľ":10591,"íģ°":10592,"ĠëĦ¬":10593,"Ġëª¨ë¥¸ëĭ¤":10594,"íĥĢë¡ľ":10595,"Ġìĺ¥ìĬ¤":10596,"ıĻìķĪ":10597,"ĠíĺĦê¸Ī":10598,"ëŁ¬ìĭľìķĦ":10599,"íģ¬ëĿ¼":10600,"ĠPe":10601,"ĠëıĮìķĦë":10602,"ĠìĤ¬ì§Ģ":10603,"ĠìĤ¬íĹĮë¶Ģ":10604,"Ġæ¹":10605,"Ġìŀ¥ëł¤":10606,"Ġë°Ķë¦¬":10607,"Ġíĺĳì£¼ê³¡":10608,"Ġìĥģëĭ´":10609,"å¥":10610,"Ġ#":10611,"ĠìĹ¬ìĪĺ":10612,"ìĪĺìĨĮ":10613,"Ġëģĵ":10614,"Ġìļ°ëĿ¼ëĬĦ":10615,"HE":10616,"Ġê¸°ìĿ¸":10617,"ĠíĽĦë°©":10618,"ĠëĤĺíĥĢëĤ¼":10619,"ìĿ´ìĥģ":10620,"ŀĺìĬ¤ì¹´":10621,"que":10622,"ĠìĦ¸ìĿ´ë":10623,"ĠìĦ±ì£¼":10624,"ë²¡":10625,"ì¹´íĥĢ":10626,"Ġë¬´ìĥģ":10627,"ë¦´ëĿ¼":10628,"AD":10629,"¯¸íĦ°":10630,"£¨ìħĺ":10631,"ĠìłĦëĿ¼ëıĦ":10632,"£¨ë¯¸ë":10633,"ĠíĺĪíĨµ":10634,"Ġì§ĢíıĲ":10635,"ĠìłĦëħĲ":10636,"ĠìŀĲì¹ĺì²´":10637,"åľ°":10638,"Ġåħµ":10639,"Ġ</":10640,"ë©Ķë":10641,"ĠíĮĶëłĪìĬ¤íĥĢìĿ¸":10642,"ĠìĤ¬ìĬ¬":10643,"ĠåĬŁ":10644,"Ġê°¤ëŁ¬":10645,"ĠInternational":10646,"Ġë³Ħëĭ¤":10647,"ĠìĪĺìĬµ":10648,"Ġæ½":10649,"Ġ113":10650,"ĠêµŃë¬´ì´Ŀë¦¬":10651,"Ġìłķëł¬":10652,"Ġì¹ĺëªħ":10653,"Ġìļ°ëĿ¼":10654,"Ġìŀħëĭ¹":10655,"æ¨":10656,"łĪìķĦ":10657,"Ġìłľëıħ":10658,"ĠíĻĺìĺģ":10659,"Ġìµľìķħ":10660,"Ġìŀħìĥģ":10661,"ĠìĹ¬ëĭ¹":10662,"ç´":10663,"ì°¨ê¸°":10664,"Ġíŀĺìŀħ":10665,"ĠæĨ²":10666,"é«":10667,"Ġë©ĭ":10668,"Ġì£¼íĸī":10669,"ĠíļŁìĪĺ":10670,"ĠíĨµê·¼":10671,"Ġì¤ĳìĦ±ìŀĲ":10672,"Ġë§Īìķ½":10673,"ĠBla":10674,"Ġë§Īëł¥":10675,"Ġçľŀ":10676,"Ġíķ´ìłģ":10677,"ĠíĽĦíķľ":10678,"ĠìĿĳìļ°ìĺĮ":10679,"ĠëĮĢìľĦ":10680,"ĠìĨŁ":10681,"Ġë¯¸ìĥģ":10682,"ĠëĨĢë":10683,"Ġíķ´ë³Ģ":10684,"Ġëĭ¤ìĬ¤ë¦¬":10685,"ĠëĩĮë":10686,"Ġìļ°ë£¨ê³¼ìĿ´":10687,"ĠëĦ¨":10688,"ê°Īìĥī":10689,"Ġë°±ìĥī":10690,"ĠìĹ´ëĮĢ":10691,"Ġac":10692,"Ġë°Ķëĭ·":10693,"Ġë°©ìĨ¡ìĤ¬":10694,"ŀĢëĭ¤":10695,"Ðº":10696,"ëĮĢê¸°":10697,"Ġì²Ńíķĺ":10698,"1970":10699,"ĠìķĦëŀįìĸ´":10700,"Ġì§Ģì¼ľë":10701,"ĠíĽĦìĦ¸":10702,"ĠéĬ":10703,"ĠëıĻëħĦ":10704,"ĠíĮ¨íĤ¤ì§Ģ":10705,"ash":10706,"Ġç¦ı":10707,"ĠìĦľëĤ¨":10708,"Ġì½ĶíĬ¸":10709,"ĠìĥĪê²¨ìł¸":10710,"ĠìĿ´ìĽĲ":10711,"Ġìĭľì´Ī":10712,"Ġë¯¸ìħĺ":10713,"Ġëªħìłľ":10714,"ëĤ´ë":10715,"ĠìĭľìĦł":10716,"ĠíĶĦëĿ¼ìĿ´":10717,"ĠëĦ¤ìĿ´ë²Ħ":10718,"Ġë³Ħëĭ¤ë¥¸":10719,"ķħ":10720,"íķ¨ë":10721,"Ġìķĵ":10722,"Ġë¶Ģìłģ":10723,"Ġêµ¬ì¡°ë¬¼":10724,"Ġë¦¬ìĸ´":10725,"Ġê±°íĸī":10726,"ìĿ´ì§Ģë¦¬ìķĦ":10727,"ìĭľíĶ¼":10728,"Ġìļ©ë³ĳ":10729,"íĬ¹ë³ĦìŀĲì¹ĺ":10730,"Ġê°ĢëıĻ":10731,"Ġê³µì²ľ":10732,"Ġë´īìĩĦ":10733,"Ġì¹´ìĿ´ìĤ¬ë¥´":10734,"Ġê¹ĢëıĻ":10735,"Ġëĭ¤ì¤ĳ":10736,"Ġìłģëĭ¹":10737,"Ġå¤§å¤«":10738,"íĬ¹ë³ĦìŀĲì¹ĺëıĦ":10739,"ĠëıĻëŀĺ":10740,"Ġíķłì§Ģ":10741,"ĠìĭłíĿ¥":10742,"ĠìĥĿìłĦ":10743,"ìĬ¹ë¶Ģ":10744,"Ġëª»íķł":10745,"ĠìĪľíļĮ":10746,"ĠìłĦíĸĪ":10747,"ë¥¼ë":10748,"ĠìĺģìĿĺìłķ":10749,"ĠìłĢíķĺ":10750,"Ġê²°íĺ¼ìĭĿ":10751,"ê¶Įë":10752,"Ġis":10753,"Ġëį¤":10754,"ĠìľłëĦ¤ìĬ¤ì½Ķ":10755,"Ġêµ¬ëıĦ":10756,"§ĲëĿ¼":10757,"Ġìļ°ìĦ¸":10758,"Ġì°¨ì¢ħ":10759,"ĠìĦľë¨¸":10760,"Ġ1902":10761,"Ġìĭ¤ìĭľê°Ħ":10762,"Ġëĥīê°ģ":10763,"ĠìĿĮë£Į":10764,"Ġì¼ĢëĦ¤ëĶĶ":10765,"°ĶìĿ´ìŀĶ":10766,"Ġì¢ħë¡ľêµ¬":10767,"ëĿ¼ëıĦ":10768,"ĠìµľìĥģìľĦ":10769,"ĠìĦ¬ë":10770,"íĭ°ìĺ¤íĶ¼ìķĦ":10771,"ĠìĿ´ìĹĲìķ¼ìĬ¤":10772,"Ġíķľìª½":10773,"ëį¸":10774,"ìĤ´ìĿ´":10775,"Ġì¤ĳìĨĮ":10776,"Ġë¯¸íĨł":10777,"Ġì´Īì°½ê¸°":10778,"Ġì¹´íĥĢ":10779,"ĠëłĪëħ¼":10780,"ĠìĹ¬ê²¨ì¡Į":10781,"ì§Ģë¶ķ":10782,"Ġê´Ģíķ´ìĦľ":10783,"ë¯¸ìĤ¬":10784,"Ġæı":10785,"ĠëĦĲ":10786,"1991":10787,"Ġì»´íį¼ë":10788,"íĢĺ":10789,"ĠæºĲ":10790,"Ġì»´íį¼ëĭĪ":10791,"Ġê²¬ìłľ":10792,"íĭĢëŀľ":10793,"åĳ":10794,"Ġë©´íĹĪ":10795,"Ġä¸ĭ":10796,"ìłľë¥´ë°ĶìĿ´ìŀĶ":10797,"ĤŃ":10798,"ĠëıĦìŀ¥":10799,"Ġêµ¬ë¦ī":10800,"ĠíĤ¥":10801,"Ġìĸ¸ëįĶ":10802,"ĠíİĢ":10803,"ĠìĹ¬ëŀĺ":10804,"Ġì¦ĿëĮĢ":10805,"Ġë¸ĮëĿ¼ìļ°ìłĢ":10806,"Ġ1899":10807,"Ġï¼Į":10808,"ĠìĬ¬ë¡ľë°ĶíĤ¤ìķĦ":10809,"ĠëĿ¼íĬ¸ë¹ĦìķĦ":10810,"íı¬ëĵľ":10811,"Ġëħ¸ë¶ĢëĤĺê°Ģ":10812,"¢¨":10813,"Ġë¡ľíĶĦ":10814,"íĤ¥":10815,"Ġë°ľíĬ¸":10816,"Ġ107":10817,"ĠChar":10818,"Ġì¡°ìĹ°":10819,"Ġë³´ìĿ¼":10820,"ĠAg":10821,"Ġéĺ¿":10822,"Ġê°ľìĽĲ":10823,"Ġ123":10824,"ĠìķĪíĭ°":10825,"ĠíıīìĽĲ":10826,"Ġì¶ĶìĦ¸":10827,"Ġë¶ģìľĦ":10828,"Ġå¸Ŀ":10829,"ĠìĿĺìķ½":10830,"ĠëıĻìłĲ":10831,"ĠJe":10832,"Ġë¡ľë²łë¥´":10833,"ĠìĦľìŀ¬":10834,"Ġë°ĶíĢ´":10835,"íķ¨ìĪĺ":10836,"ĠëıĦë£¨":10837,"Ġìĭľìĺ¤":10838,"Ġ350":10839,"Ġê²½ìĹ°":10840,"Ĥ´ìħĶëĦĲ":10841,"ë¦¬ìĹĲ":10842,"ĠìĦ¸ë¡Ģ":10843,"Ġê°Ŀì²´":10844,"Ġì¶ķìłģ":10845,"ê·¸ë§Ī":10846,"ĠìĿ´ìĤ¬íļĮ":10847,"ĠìĪ¨ê²¨":10848,"ĠEC":10849,"Ġíģ¬ë¦¬ìĬ¤íĨł":10850,"ì´¨":10851,"ë¦¼íĶ½":10852,"ĠHer":10853,"ëª¨ëĭĪ":10854,"ĠëĤ¨ìĦľë¶Ģ":10855,"ĠìķĦìĤ¬íŀĪ":10856,"ĠëĶľë":10857,"ê¶ĮìŀĲ":10858,"Ġ1901":10859,"ius":10860,"æĽ":10861,"ĠíĮĮìĬ¤":10862,"ë°±ê³¼":10863,"ëŀĮì¥Ĳ":10864,"ì¤Ħê¸°":10865,"Ġì»¬ëŁ¼ë¹ĦìķĦ":10866,"åįĹ":10867,"ê·ľëª¨":10868,"ĠëĮĢíı¬":10869,"Ġìĥģê³µ":10870,"Ġì¡´ìĨį":10871,"Ġì¶©ëĤ¨":10872,"ì©Įë":10873,"Ġì¤ĳìľĦ":10874,"ĠëĦĪë¹Ħ":10875,"ĠíĴĪì¢ħ":10876,"ëĩĮ":10877,"ĠíĮĮìĿ´íĦ°":10878,"ĠìĹĲìĬ¤íĨłëĭĪìķĦ":10879,"Ġêµīìŀ¥íŀĪ":10880,"Ġê°ĩ":10881,"°ë¡ľ":10882,"íķĺìĭľ":10883,"ĠìĦľê²½":10884,"Ġë¦¬ìļ°ìĬ¤":10885,"Ġ124":10886,"ĠçĶº":10887,"ĠëĭĽíı°":10888,"ĠìĿ´ìĭĿ":10889,"ĵľë¦¬ìķĦ":10890,"ĠìĦ¸ìħĺ":10891,"ĠíĺĦìłĢ":10892,"Ġìĭ¤ë¦¬":10893,"Ġne":10894,"Ġê³łì¹ĺ":10895,"ĠìĦ±ìĪĻ":10896,"Ġì°¨ìŀ¥":10897,"ìķ¼ìĭľ":10898,"ìħ¸":10899,"Ġìļ°íİ¸":10900,"ĠSou":10901,"ĠìĿ¼ëŁ¬":10902,"Ġìķ½ìŀĲ":10903,"ĠíŀĲë":10904,"ĠæľĪ":10905,"Ġê³µìĤ°ì£¼ìĿĺìŀĲ":10906,"ĠìĿ´ìĿ´":10907,"Ġê·Ģë":10908,"ê·¼ë":10909,"Ġíĸīìłģ":10910,"Ġìķ¼êµ¬ìŀ¥":10911,"ĠíĻ©íĥľìŀĲ":10912,"é¦¬":10913,"ĠìĻĵ":10914,"Ġíķ¨ìľł":10915,"Ġë³µìĦł":10916,"Ġê´Ģíķ´":10917,"Ġìĩ¼íĬ¸":10918,"ĠìĹĲëĶĶ":10919,"ìĹĲëĭ¤":10920,"Ġëŀĺíį¼":10921,"ĠìĤ¬ìļ°ë£¨ìĬ¤":10922,"Ġê°ĳìŀĳìĬ¤":10923,"Ġê°Ģìĵ°":10924,"Ġìļ°ìľĦ":10925,"Ġì¶ķíķĺ":10926,"ĠìĮįëĳ¥ìĿ´":10927,"ä¿":10928,"æĻ":10929,"ĠìĦ±ìĤ¬":10930,"Ġìĭłê¸°":10931,"Ġèĳ":10932,"ĠGu":10933,"Ġê·¼êµĲ":10934,"Ġï¼ŀ":10935,"HO":10936,"Ġë¶Ģëĭ¹":10937,"Ġê³µìĪĺ":10938,"Ġê²½ê´Ģ":10939,"ĠìķĦìĺĪ":10940,"ë°ĶëĿ¼":10941,"Ġëª¨ìķĺ":10942,"ĠAR":10943,"ener":10944,"ĪĦìĹĺ":10945,"Ĺĭ":10946,"ìłĪë":10947,"Ġê³µëĭ¨":10948,"Ŀ¼ìĿ´ëįĶ":10949,"ìĿĢìĿ´":10950,"ĠíĥĲêµ¬":10951,"ĠìĹ¼ê¸°":10952,"ìĸĳíķ¨":10953,"ìĺ¬ëĿ¼":10954,"ive":10955,"ĠëıĦëĿ¼":10956,"Ġë§Īíķĺ":10957,"Ġë²Įê¸Ī":10958,"ĠëĮĢìłĦê´ĳìĹŃìĭľ":10959,"Ġbe":10960,"ĠåĮĸ":10961,"Ġê·¸ëŀĳíĶĦë¦¬":10962,"Ġê³łë¥´":10963,"ĠìŀĦìļ©":10964,"Ġë°±íĻĶìłĲ":10965,"ise":10966,"Ġìľ¡ì²´":10967,"ĠìĤ¬ìĹħìŀĲ":10968,"Ġìĭľì¹łë¦¬ìķĦ":10969,"Ġë³´ìĿ¸":10970,"Ġë§¤ìŀħ":10971,"Ġê°Ĳë¦¬":10972,"Ġìĩ¼ë":10973,"¸ĮëŁ¬ë¦¬":10974,"Ġíķłë¦¬ìļ°ëĵľ":10975,"åĵ":10976,"ìĹ£":10977,"Ġë³´ë¦¬":10978,"ëĮĢêµ°":10979,"Ġä¾į":10980,"ĠíĶ¼ìĹĲë¥´":10981,"ĠëĬĺìĸ´ëĤ¬":10982,"ĠìĹĲë¥´ë":10983,"Ġìļ°ìļ¸":10984,"ĠíħĮìĿ´ë¸Ķ":10985,"Ġë¶Ħëĭ¹":10986,"Ġëª¬íĬ¸ë¦¬ìĺ¬":10987,"Ġê¹¨ëĭ«":10988,"ĠìĺĮ":10989,"ë¶ĢìĤ¬":10990,"ĠìĬ¤ìº":10991,"Ġíĸ¥êµĲ":10992,"ĠíĹ¤ë¥´ë":10993,"ĠìķĦìĿ´ìĬ¬ëŀĢëĵľ":10994,"Ġë§ģì»¨":10995,"ĠëŃī":10996,"ĠëıĦìĬ¤":10997,"Ġê·¸ë¡ľ":10998,"Ġëıĭ":10999,"Ġê³łìŀ¥":11000,"ĠìĥģìłĲ":11001,"Ġêµ¬ì¶ľ":11002,"Ġ1898":11003,"1988":11004,"Ġê¹Ģìļ©":11005,"ĠìľłëıĻ":11006,"Ġíĭ¸":11007,"Ġë°Ģìĸĳ":11008,"ĠìĻĢìĿ´":11009,"Ġíİľìĭ¤ë²łìĿ´ëĭĪìķĦ":11010,"Ġì¹ĺëŁ¬ì§Ħ":11011,"ĠìĦ¸ê³Ħê´Ģ":11012,"ĠíĨłìĦ±":11013,"±Ģë":11014,"ìļ¸ë¦¬":11015,"Ġëªħëł¹ìĸ´":11016,"Ġëª°ëŀĺ":11017,"íĳ¸ë¥´íĬ¸":11018,"Ġì½Ķë¯¹ìĬ¤":11019,"ĮíĶĦ":11020,"ĠìĽĲíĸĪ":11021,"Ġì¡°ë°ĺ":11022,"Ġê³łìĪĺ":11023,"êµŃê°Ģ":11024,"ĠìĬ¤ì½§":11025,"Ġë°Ķë¥¸":11026,"Ġìĸ´ìĬ¤":11027,"Ġìĥģë°ĺ":11028,"ĠìķĻë¦¬":11029,"ĠìĤ¬ìĿ´ë²Ħ":11030,"ĠìĦ±ì²´":11031,"ĠìĿ¼ì¡°":11032,"Ġë°°íĦ°ë¦¬":11033,"ĠêµĲíĻ©ì²Ń":11034,"ĠëĤĺëĪĮ":11035,"çŁ³":11036,"Ġìĸ´ìĽĲ":11037,"ĠíĨµì¦Ŀ":11038,"ĠìĭłìĥĿ":11039,"íİĺë¥´":11040,"ìĿ¼ë¶Ģ":11041,"Ġì°½ìĽĲìĭľ":11042,"åİ":11043,"Ġê³¡ìĿ¸":11044,"ĠìŀĶë¥ĺ":11045,"Ŀ¼ë¹Ħ":11046,"Ġë°©íĮ¨":11047,"ĠìĩĦ":11048,"Ġê´ĳë¬¼":11049,"ĠëıĻìķĦìĿ¼ë³´":11050,"ĠíĹ¬ë¦¬":11051,"Ġíĺ¸ìľĦ":11052,"Ġ117":11053,"ĠìĿ¸íĦ°ëĤ´ìħĶëĦĲ":11054,"ĨĪ":11055,"ĠìĹ¿":11056,"Ġíĸĩ":11057,"Ġìĸ´íľĺ":11058,"íı´ë":11059,"ĠëĤ´ë³´ë":11060,"Ġç½":11061,"Ġèį":11062,"Ġ118":11063,"ĠìķĶìĭľ":11064,"ĠìŀĳìĦ¼":11065,"Ġë²ķë¬´":11066,"Ġìĸµìķķ":11067,"Ġêµ¬íĺ¸":11068,"Ġì¹´ë¥¼ë":11069,"ĠëĪĦêµ°ê°Ģ":11070,"Ġê°Ģêµ°":11071,"Ġë§µ":11072,"ĠRNA":11073,"¨¸ë":11074,"ĠìĤ¬ë°Ķ":11075,"ĠìĺģëıĻ":11076,"Ġ1903":11077,"Ġìļ´íķĺ":11078,"Ġíķ´ëªħ":11079,"ĠìĹ°íķ©íļĮ":11080,"ĠìĿ´ìĺģ":11081,"ĠëĮĢíıŃ":11082,"ĠìĤ¬ì¹´":11083,"Ġë¹Ħìĭľ":11084,"ĠæĢĿ":11085,"Ġíĺĳë°ķ":11086,"red":11087,"ìĦľêµ¬":11088,"Ġê¸°ìĸ´":11089,"Ġì£¼ìĹŃ":11090,"ĠìĦ¤íĥķ":11091,"ãĥ³":11092,"ĠëĿ¼ìĿ´ë¸ĮëŁ¬ë¦¬":11093,"Ġê²Įë¥´ë§Į":11094,"ĠëĮĢíķĻìĥĿ":11095,"ĠìĨĮë§¤":11096,"ĠíĴĭë³¼":11097,"ye":11098,"ê³łëıĦ":11099,"ĠåĶĲ":11100,"±Ģë¶ĻìĿ´":11101,"ĠìĥĿìĭĿ":11102,"Ġë¹łì§Ħ":11103,"ĠìĿ´íĻĶ":11104,"Ġìĥģìļ©":11105,"ĠèĮ":11106,"ê³¡ë¦¬":11107,"Ġì¶ĺì¶Ķ":11108,"ĠìĪĺë²ķ":11109,"Ġì£¼ì£¼":11110,"Ġç®":11111,"ĠíĻĶíķ´":11112,"ĠìĨįíĸĪ":11113,"ĠìĨ¡ìĭľ":11114,"ĠåŃĹ":11115,"Ġìķ¤ëĵľ":11116,"Ġíķľì§Ģ":11117,"ĠìĹ¬ì£¼":11118,"Ġìĥģëĭ¨":11119,"Ŀ¼ëį°":11120,"Ġìĭłê·ľ":11121,"ĠìĺĪë°°":11122,"ĠíŀĪëĿ¼":11123,"Ġæ»":11124,"Ġíĺ¸ëŀĳìĿ´":11125,"ìĤ¬ë¦¬":11126,"ĠìķĦíĻī":11127,"Ġêº¼ë":11128,"ĠëĿ¤ëĭ¤":11129,"ĠìĻķë³µ":11130,"Ġíĺ¸ë¥´ë":11131,"Ġå¾¡":11132,"æ°ĳ":11133,"íı´ë¡ľ":11134,"ìŀĳê°Ģ":11135,"ĠAmer":11136,"ĠíĬ¸ìľĪìĬ¤":11137,"ble":11138,"Â·":11139,"ĠìĿ´ëħ¸":11140,"Ġê·¸ëĥ¥":11141,"Ġ02":11142,"ìĭľëħ¸":11143,"Ġë¹Įëł¤":11144,"ute":11145,"Ħ¨":11146,"Ġê²½ìĥģëıĦ":11147,"ŀľíĬ¸":11148,"Ġì³¤":11149,"ĠìĦ±ìļ´":11150,"Ġìľłì£Ħ":11151,"íĥĢì£¼":11152,"ĠëĪĦìĿ´":11153,"ê·¸ëłĪìĿ´ëĵľ":11154,"Ġê·¸ëĤł":11155,"Ġëĭ¨ëĭ¨":11156,"ĠíĨµíĭĢ":11157,"ê·¸ë£¹":11158,"Ġë¬¼ë¦¬ì¹ĺ":11159,"Ġëĭ¤ìĿ´ìķĦë":11160,"íı¬ìĭľ":11161,"ĥĲíķĺë©´":11162,"ĠCC":11163,"ĠìĹ´ìłķ":11164,"1993":11165,"ink":11166,"ream":11167,"ìĬ¬ë¡ľë°ĶíĤ¤ìķĦ":11168,"ĠëıĦë§Īë±Ģë¶ĻìĿ´":11169,"Ġê·¸ë§ĮëĳĲ":11170,"Ġë¶Ģì²ľ":11171,"ìµľê·¼":11172,"ĠëĵľëŁ¬ëĤ¬":11173,"Ġê°Ģì£½":11174,"Ġì§ĢìĦł":11175,"Ġëĭ¨ìĭĿ":11176,"ì£¼ë¦¬":11177,"ĠëĪĦëĤĺ":11178,"ĠëĬĲê»´":11179,"ĠìĿ´ê¸´":11180,"ìĭľíĥĢ":11181,"ĠìĿ¼ë°©":11182,"ĠìŀħìĽĲ":11183,"Ġë§¤ê°ľ":11184,"ìłĢì§Ģ":11185,"ĠìĥĿê²¨ëĤ¬":11186,"Ġì°¾ìķĦë³¼":11187,"©ìĿ´":11188,"ģĶ":11189,"ì¹¸ë":11190,"ĠìĿ¼ì»¬":11191,"Ġêµ¬ìĬ¤":11192,"ìĿ´ë£¨":11193,"ë¦°ìĬ¤":11194,"Ġê°Ģë¯¸":11195,"ê¼½":11196,"ê¿Ī":11197,"ĠìķĦë°Ķ":11198,"Ġë°°íĭĢ":11199,"186":11200,"ĠìĺĨë©´":11201,"æĺİ":11202,"Ġé£":11203,"Ġë²ĶìĿ¸":11204,"ĠìĿ´ìĿ¸":11205,"ĠìĭľíĿ¥":11206,"ĠKe":11207,"Ġëĭ·":11208,"Ġë¶Ģìłľ":11209,"Ġìĭľëª¨":11210,"Ġì¹Ńì°¬":11211,"Ġëľ¨ê±°ìļ´":11212,"ress":11213,"ym":11214,"ĠìĪľêµĲ":11215,"Ġì»´íĮĮ":11216,"Ġì°¨ìĿ´ìłĲ":11217,"ĠíĢ´":11218,"Ġê·¹ìŀ¥íĮĲ":11219,"ĠìĿ´ê´ĳ":11220,"ĠìĦ±ì·¨":11221,"íĮĮìĿ´ìĸ´":11222,"ëĶª":11223,"íģ´ëŀľëĵľ":11224,"ĠëĤ´ëł¤ìĺ¤":11225,"rans":11226,"ĠíĬ¸ìľĦíĦ°":11227,"ĠìĿ¼ê°Ģ":11228,"ĠìĭłëħĲ":11229,"ë¹Į":11230,"Ġë£¬":11231,"¡¯":11232,"éļ":11233,"ĠíķľìĿ¸":11234,"ĠëĴ¤ì§ĳ":11235,"Ġì¡°ìĦłìĿ¼ë³´":11236,"Ġê·¼ìĽĲ":11237,"Ġë¶Ģì±Ħ":11238,"Ġê²½ë³´":11239,"ĠìĦľìłķ":11240,"ĠìĤ¬íļĮíķĻ":11241,"Ġ1897":11242,"ĠíĻķìĭł":11243,"Ġë²łëĵľ":11244,"ë¶ĪêµĲ":11245,"ĠëĤŃë§Į":11246,"Ġë°ĺëıĦì²´":11247,"ĠíĥĢìĿ´ê±°ì¦Ī":11248,"Ġë¸Ķë¡ľê·¸":11249,"ĠìŁ":11250,"ĠíĻ©ìĭ¤":11251,"Ġëĭ¤ë£¬ëĭ¤":11252,"Ġì¹´ë¦¬ë¸Į":11253,"Ġê³µìĬµ":11254,"ê°Ĳë":11255,"Ġì£¼ê°Ģ":11256,"Ġ129":11257,"Ġìļ°ìĬ¹ìŀĲ":11258,"Ġìĺµìħĺ":11259,"æĢ":11260,"Ġìĺ¤íķ´":11261,"Ġë°ķíķ´":11262,"ĠíĹĪìľĦ":11263,"ĠëĪĦê°Ģ":11264,"Ġë°ĽìķĦëĵ¤ìĺĢ":11265,"ìĶĢ":11266,"ëŁ°íĬ¸":11267,"Ġìŀ¥ê±°ë¦¬":11268,"Ġâĳ":11269,"Ġëĭ¹ì£¼":11270,"2021":11271,"Ġëĭ´ê²¨":11272,"ä¸ĭ":11273,"Ġ114":11274,"Ġëĭ¬íĸĪ":11275,"Ġê·ľë²Ķ":11276,"ĠìĬ¤íİĺìĿ´ìĬ¤":11277,"°Ģë¦¬":11278,"ĠëĴ·ë©´":11279,"ĠëĤĺëĪł":11280,"Ġì£¼ë¦Ħ":11281,"way":11282,"Ħ£":11283,"Ġë³´ì¦Ŀ":11284,"Ġ134":11285,"ĠìĹħê·¸ëłĪìĿ´ëĵľ":11286,"ãĢİ":11287,"ĠìĬ¤íĬ¸ëłĪìĬ¤":11288,"Ġëĭ¤íķŃ":11289,"ĠëĭĿ":11290,"łĪê¸°":11291,"Ġë§ĮëĤ¨":11292,"¼ë¦¼":11293,"ĠNC":11294,"ĠìķĦíĭĢëłĪ":11295,"ĠìĤ°ë¦¼":11296,"ëŀĢíŀĪ":11297,"ĠBC":11298,"Ġë°ķëŀĮ":11299,"ĢëĿ¼ìĬ¤":11300,"ĠíĥĢë¥´":11301,"Ġì¹ľìĻķ":11302,"Ġë¦¬ë¹ĦìķĦ":11303,"ĠìĿ´ìĸ´ì§Ħëĭ¤":11304,"ult":11305,"Ġë¬¼ëł¤ë°Ľ":11306,"ĠìłķìłĲ":11307,"ìĥĺ":11308,"Ġì²ľìŀ¥":11309,"Ġë²łìĸ´ìĬ¤":11310,"Ġì²¼ìĭľ":11311,"Ġìłķíķľ":11312,"Ġìŀ¥ìķĪ":11313,"anc":11314,"Ġìºĺ":11315,"Ġê²½ì°°ì²Ń":11316,"Ġíľ´ìĬ¤íĦ´":11317,"ĠìĨĮìĽĲ":11318,"Ġìĭłì¡°":11319,"Ġì²łíļĮ":11320,"ĠíıŃíĸī":11321,"ıĦë°Ķ":11322,"Ġìłľìŀ¬":11323,"Ġìĸ¸ëĭĪ":11324,"ĠìĥĿìĤ°ëŁī":11325,"ger":11326,"ìĿĺìŀ¥":11327,"Ġê´Ģêµ¬":11328,"Ġë£¨íĶĦ":11329,"Ġíļ¨ì¢ħ":11330,"ĠìĻĶìľ¼ë©°":11331,"ĠìĿĳìĽĲ":11332,"ä»£":11333,"ĠìĻľëĥĲíķĺë©´":11334,"ì¡°ê±´":11335,"Ġìŀ¥ë¯¸":11336,"Ġ133":11337,"Ġå¥ī":11338,"Ġíķłë¨¸ëĭĪ":11339,"ë²łëĭĪìķĦ":11340,"Ġê²°ì½Ķ":11341,"ĠCF":11342,"Ġëª©ìŀ¬":11343,"Ġëĭ´ê¸´":11344,"Ġë¸Įëŀĺ":11345,"ìĿĢìĥī":11346,"Ġå£«":11347,"Ġì¹ľìĿ¼íĮĮ":11348,"èĻ":11349,"Ġli":11350,"Ġê²Ķ":11351,"Ġì¹ĺì¦Ī":11352,"Ġíĥľìĸĳê³Ħ":11353,"ĠëĥĦ":11354,"ĠíĽĦì¿łìĭľë§Ī":11355,"Ġì¤ĳìĿĺìĽĲ":11356,"ĠëĿ¼íĮĮ":11357,"Ġê°ľêµĲ":11358,"ĠìķĦë²ł":11359,"íĥĢë¦¬ìĺ¤":11360,"ĠìĤ´ìķĦê°Ģ":11361,"ë¥´ë°Ķ":11362,"ìģĺ":11363,"Ġì¶Ķì¶ľ":11364,"Ġê²°íķ¨":11365,"tiv":11366,"Ġê·¹ëıĻ":11367,"Ġë§īëĤ´":11368,"Ġìĸĳì£¼":11369,"Ġë§ĪëĶĶ":11370,"ê·¸ëŀ¨":11371,"ļĿ":11372,"ĠìĿĦì§Ģ":11373,"Ġê¸°ìłģ":11374,"ĠìĬ¤íħ":11375,"ĠëģĿëĤ":11376,"ĠìĪĺëł¨":11377,"Ġì¢ħì°©":11378,"Ġê°Ģìŀ¥ìŀĲë¦¬":11379,"Ġê°Ģì§ľ":11380,"ìĬ¤ë¶Ģë¥´íģ¬":11381,"Ġê´ĳíķĻ":11382,"ĠëĦ¤ìĬ¤":11383,"ë°¥":11384,"ĠéĻ³":11385,"ĠìĻľê³¡":11386,"Ġíİĳíģ¬":11387,"Ġëĭ¤ë°ľ":11388,"ĠíıŃëıĻ":11389,"Ġë§¥ì£¼":11390,"Ġê³¤ëŀĢ":11391,"Ġë¶Ħê¸°ìłĲ":11392,"Ġ126":11393,"Ġì£¼ìĸ´ì§Ģ":11394,"å¹³":11395,"ĠíĥĲìĤ¬ìĦł":11396,"ĠíĮľ":11397,"ĠìĤ¬ìľ¡":11398,"ĲëŁ¬ë":11399,"ĠìĿ¼ë¦¬ë":11400,"Ġìļ°íĺ¸":11401,"ĠìĺĪì¡°":11402,"ĠìĸĳíĤ¤ìĬ¤":11403,"ald":11404,"Ġêµ¬ì¶ķíķ¨":11405,"êµĲëıĦ":11406,"Ġì¿¤":11407,"Ã¶":11408,"Ġë²ķë¬´ë¶Ģ":11409,"ĠíħĮìĿ´íĶĦ":11410,"ê¼Ī":11411,"Ġë¯¸ëĤĺë¯¸":11412,"Ø§":11413,"ĠëĤĺë¯¸":11414,"Ġì§Ħê¸ī":11415,"Ġê±°ì³¤":11416,"ĠíŀĪê°Ģìĭľ":11417,"ëĪĦ":11418,"ĠíĨĪ":11419,"ĭĪì¹ĺ":11420,"ĠåĪ©":11421,"ĠìķĮì½Ķìĺ¬":11422,"ition":11423,"Ġë¬¸êµ¬":11424,"Ã³":11425,"Ġíķ´ê³ł":11426,"ģ¼ë¦¬":11427,"ĠìĿ´ìĤ°íĻĶ":11428,"¡ľìļ´":11429,"ĠìĪĺìĥī":11430,"Ġê±°ìļ¸":11431,"Ġwith":11432,"Ġë¹Ħë¦¬":11433,"ĠìĽĲìĪŃìĿ´":11434,"ĠíĬ¹ì§ĳ":11435,"ë§Īì¹ĺ":11436,"Ġì¹´ë¥´ë":11437,"Ġä»£":11438,"Ġìłľì£¼íĬ¹ë³ĦìŀĲì¹ĺëıĦ":11439,"ĠìĹ¬íĮĮ":11440,"Ġæ¤":11441,"Ġìĭľë®¬ë":11442,"ĠëįĶëĭĪ":11443,"ĠíĮĲë³¸":11444,"Ĥĺë¥´":11445,"Ġë¶ĢëĶª":11446,"Ġëĵ¤ìĸ´ê°Ħëĭ¤":11447,"ĠìµľëĮĢíķľ":11448,"ìĹŃìĤ¬":11449,"ĠìĬ¹ê³Ħ":11450,"ĠìĤ°ëŀĢ":11451,"¿Ķ":11452,"ĠëĤĺìĬ¤":11453,"ê²½ìĥģ":11454,"Ġë¬´ìĭł":11455,"Ġíŀĺëĵł":11456,"Ġë§ĲëĿ¼":11457,"Ġìłľìķķ":11458,"íĻĶë¬¼":11459,"Ġê·¸ëıĻìķĪ":11460,"orn":11461,"ĠìĻ¸ìķ¼ìĪĺ":11462,"ĠëĤĺìĿ´ì§Ģë¦¬ìķĦ":11463,"ê±°ì§Ħ":11464,"ĠìļĶê±´":11465,"ĠëĮĢíĳľìŀĳ":11466,"Ġæķ¬":11467,"°°ë":11468,"Ġê³łì³Ĳ":11469,"ì²ĺìĿĮ":11470,"ĠíĦ°ì¹ĺ":11471,"ĠìĪĺìļ©ì²´":11472,"uk":11473,"íķį":11474,"Ġë¡ľë¹Ħ":11475,"Ġë¹Ħìľł":11476,"ĠìĹĲíĭ°ìĺ¤íĶ¼ìķĦ":11477,"ĠíĶĮë¦¬":11478,"ĠíĨłíģ¬":11479,"Ġë¬ĺìĹŃ":11480,"Ġìķ¤ëĵľë":11481,"Ġëį°ìĿ´ë¹ĦìĬ¤":11482,"ê°ľë¯¸":11483,"pt":11484,"Ġæł":11485,"Ġë¦ī":11486,"ĠAss":11487,"Ġsc":11488,"æĿ±":11489,"Ġì§Ģíıī":11490,"Ġëª¨ì¹ľ":11491,"Ġë§Ĳë¦¬":11492,"ĠëıħìĿ¼ìĿ¸":11493,"ĠíĹ¤ëĿ¼":11494,"ĠåĪĨ":11495,"å¤©":11496,"ĠíĽĦìĤ¬":11497,"ì´Īê¸°":11498,"Ġë£½":11499,"ĠíĴįìŀĲ":11500,"ĠêµĲê³¼ìĦľ":11501,"ìį":11502,"ĠìķĦìłľë¥´ë°ĶìĿ´ìŀĶ":11503,"Ġê·¸ëŀ¨":11504,"Ġì²ĺëħĢ":11505,"Ġì¿¨":11506,"Ġíı¬ëŁ¼":11507,"ĠåħĪ":11508,"ĠìļĶëıĻ":11509,"¡¤ëĿ¼ìĿ´ëĤĺ":11510,"Ġìľ¼":11511,"Ġê³łìĨĮ":11512,"Ġê·¸ì¹ĺ":11513,"ĠìĬ¤íħĮë":11514,"ëħ¼":11515,"Ġíı¬ë³ĳ":11516,"Ġ%),":11517,"we":11518,"Ġìĺ¨ëĭ¤":11519,"Ġìĭľì¦Ī":11520,"Ġê³µë°±":11521,"ĠëķĦ":11522,"Ġìĭ¤ì²´":11523,"Ġë¬´ìĬ¹ë¶Ģ":11524,"ĭ¤ì§Ģ":11525,"ĠæŁ":11526,"ĠìľłìłĢ":11527,"Ġë°°íĽĦ":11528,"Ġë°Ķìĭ¤":11529,"Ġì¦īê°ģ":11530,"Ġå¤§é":11531,"ower":11532,"ĠìĿ¸íĶĮë":11533,"ins":11534,"Ġëħ¸ë¥´ë":11535,"ĠIBM":11536,"íĹ¤ìĿ´":11537,"Ġê´´ë¬¼":11538,"ĠíĮĶë":11539,"Ġë°ĶíĿĲ":11540,"ìĸ´ëĤ´":11541,"ìĦ¸ê¸°":11542,"Ġë¡¤ë§ģ":11543,"Ġì´Ŀëıħë¶Ģ":11544,"ĠISO":11545,"lex":11546,"ĠìĿ¼ë¦¬ëħ¸ìĿ´":11547,"ëĸ":11548,"ĠìĬ¤íĨ¡":11549,"Ġìĸĳì¸¡":11550,"ĠíĪ¬ìĺ¥":11551,"ĠíĤ¤ìļ°":11552,"Ġê·¹ìĭ¬":11553,"TP":11554,"Ġä¿Ŀ":11555,"Ġê°ľì¢ħ":11556,"Ġë§Īìĵ°ëĭ¤ìĿ´ëĿ¼":11557,"ëĮĢë¡ľ":11558,"ë¬¸ê´Ģ":11559,"ark":11560,"ĠìĿ¼ë°ĺìĿ¸":11561,"Ġëĵ¤ìĸ´ìĺ¨":11562,"ĠèĬ±":11563,"ĠíĥĢëĭ¹":11564,"Ġíİĺìĸ´":11565,"EL":11566,"Ġ`":11567,"Ġìĺ¤ë¹Ħ":11568,"ĠëŁ¬ìĭľìķĦìĸ´":11569,"Ġåıĥ":11570,"Ġê³¼ë°ĺ":11571,"Ġæ¢ģ":11572,"ĠìĬ¤íĬľìĸ´íĬ¸":11573,"ĠìĨ¡ìĭľìĹ´":11574,"Ġì§Ħê³µ":11575,"Ġë¨¼ì§Ģ":11576,"Ġì¡°ì¢ħìĤ¬":11577,"Ġì¾ĮìĨį":11578,"Ġë¸ĮëĿ¼ëįĶìĬ¤":11579,"Ġë³´ìĦĿ":11580,"ĠíĽĶ":11581,"Ġë¶ĻìĿ¸":11582,"Ġï¼ľ":11583,"Ġè¦ª":11584,"è©":11585,"Ġë¶ĢìĦ¤":11586,"ĠêµĲìłķ":11587,"Ġìĭłíķľ":11588,"Ġê³ĦìĹ´ìĤ¬":11589,"ĠìľĦíĤ¤ë°±ê³¼":11590,"Ġë°Ķìĺ¤ë¡ľ":11591,"GA":11592,"ĠãĢı(":11593,"Ġç¯Ģ":11594,"Ġë¯¸íķĺ":11595,"ê²ĮìĿ´":11596,"Ġë§ĲìĶĢ":11597,"enti":11598,"gh":11599,"Ġê·¼ë¡ľìŀĲ":11600,"ĠíĨµë³´":11601,"ĠíĻĶìŀ¥ìĭ¤":11602,"Ġë¯¼íļĮ":11603,"Ġìĭłë¯¼":11604,"Ġå¾Ĳ":11605,"MP":11606,"ĠëĮĢíĶ¼":11607,"Ġìĭľê³¨":11608,"Ġê²ĮìĬ¤íĬ¸":11609,"ìħ°ë¹Ħ":11610,"ĠëĮĢìĿĺìĽĲ":11611,"ĠëĶ°ë¥¸ëĭ¤":11612,"1989":11613,"Ġë§¤ëĭĪìłĢ":11614,"Ġê²ĮìĿ´ì§Ģ":11615,"liam":11616,"Ġìļķêµ¬":11617,"ĠëĿ¼ìĿ´ìĺ¨ì¦Ī":11618,"Ġìļ°ì¸¡":11619,"Ġìĭľë²łë¦¬ìķĦ":11620,"ĠìĹ°íķ©êµŃ":11621,"Ġëª¬ìĬ¤íĦ°":11622,"Ġë¦¿":11623,"Ġê±°ë¶ģ":11624,"Ġê³µì¡°":11625,"ĠìĥģìĤ¬":11626,"ĠìłĦìŀĲê¸°":11627,"Ġæĩī":11628,"Ġëĭ¤ìĿ´ìķĦëª¬ëĵľ":11629,"ĠìĦ±ëıĦ":11630,"Ġìŀ¬íĺĦ":11631,"Ġê¶ģê·¹":11632,"form":11633,"ĠíĿ¬ìĥĿìŀĲ":11634,"çī©":11635,"ìł¸ëĤĺ":11636,"Î¿":11637,"ì¹¼ë¦¬":11638,"ĠìķĦëłĪëĤĺ":11639,"Ġë°ĶìĬ¤":11640,"Ġíıīìłķ":11641,"Ġëĵľë¡ľ":11642,"ĠNational":11643,"íħĮë¥´ë¶Ģë¥´íģ¬":11644,"ŀ©":11645,"ĠëıĦì²Ń":11646,"ìŀĲëıĻ":11647,"ëĳĳ":11648,"ĠíĶĦëŀŃíģ¬":11649,"yc":11650,"Ġê¹ĢìĪĺ":11651,"åĭķ":11652,"¹Ĺ":11653,"ĠìĦ¸ìĿ´ë¸Į":11654,"ĠìłľëĮĢ":11655,"Ġì¹¨íĪ¬":11656,"uro":11657,"Ġìĭľê²Į":11658,"Ġêµ¬íķ´":11659,"ĠíĬ¸ëĿ¼ìĿ´":11660,"ĠìķłíĭĢëŀľ":11661,"ĠìķłëĭĪ":11662,"ĠìĤ¬ìĥģìŀĲ":11663,"åĲİ":11664,"ĠëĤĺìĺ¬":11665,"Ġêµ¬ìłĪ":11666,"ĠëĤ´ì£¼":11667,"enter":11668,"ê°ĢìĻĢíĺĦ":11669,"Ġå¦Ĥ":11670,"Ġë©ľë¡ľëĶĶ":11671,"ĠìĹ°ìĬ¹":11672,"Ġå¤ĸ":11673,"Ġê°Ħëĭ¨íŀĪ":11674,"ild":11675,"íİľíķĺ":11676,"Ġìĥģíķ´":11677,"ĠìĿ¸ëªħ":11678,"ĠìĨľ":11679,"Ġë°ĺíķ´":11680,"ĠëĳĶëĭ¤":11681,"Ġìħ¨":11682,"Ġíĭ°ìĬ¤":11683,"Ġë§¥ëĿ½":11684,"Ġê°Ģì¦Ī":11685,"Ġëĳ¥ì§Ģ":11686,"Ġë§¤ë§¤":11687,"1950":11688,"ĠìĤ´ë¦¬":11689,"ĠëĮĢê±°":11690,"íĿĺ":11691,"Ġíĥ¤ëŁ°íĬ¸":11692,"ĠìĽĮëĵľ":11693,"ĠìĦ±ëĭ¨":11694,"ĠìķĦëŀ«":11695,"ĠìĦľìŀĲ":11696,"Ġë¯¹ìĬ¤":11697,"íĻ©íĽĦ":11698,"ÃŃ":11699,"Ġê°Ģì¶ķ":11700,"ĠìŀĲíĥĿ":11701,"ĠëıĮê²©":11702,"éł":11703,"Ġìŀ¬ìĦł":11704,"Ġìĸĳíĺ¸":11705,"ĠìŀĲìĹ°ìĪĺ":11706,"Ġë¹Ħë¡ľìĨĮ":11707,"ĠíĶĮëŀĳ":11708,"Ġèī¯":11709,"ĠìĤ´íİ´ë³´":11710,"Ġìĭłì£¼":11711,"Ġêµ°ìłķ":11712,"Ġì¹ĺìķĪ":11713,"íı¬ë¡ľ":11714,"ĠíĥĲìĥī":11715,"Ġå»¶":11716,"ì§Ģë°©":11717,"Ġìłģë¶Ħ":11718,"£¨ìķĦ":11719,"ĠìķĦì¹´ëį°ë¯¸ìĥģ":11720,"Ġê¸°ëĭ¤":11721,"Ġìĸ´ê¸ĭ":11722,"ĠíĽĦê¶ģ":11723,"ĠPer":11724,"Ġ{":11725,"Ġê¹İ":11726,"Ġìŀ¬ìĥģ":11727,"Ġë§Įë£Į":11728,"Ġë§Īë¸Ķ":11729,"ĠìĿ¼ìĥĿ":11730,"Ġëª¨ìĿ´":11731,"Ġì´Ŀì¹Ń":11732,"ĠìĦłë¹Ħ":11733,"Ġ1884":11734,"ìłĦìŁģ":11735,"ĠçĤ":11736,"ĠSD":11737,"íĥĪë¦¬ìķĦ":11738,"ĠíĿ¬ê³¡":11739,"Ġè®":11740,"ĠCON":11741,"ĠGP":11742,"Ġë¶ĦëªħíŀĪ":11743,"ìĭłìĦ±":11744,"ĠTo":11745,"Ġë¶Ģë¥´íģ¬":11746,"Ġê³µë°©":11747,"©ľ":11748,"ĤĺìĬ¤":11749,"ĠìĦ¸ìĨį":11750,"ĠíıīìĿĺíļĮ":11751,"ê·¸ëŁ¬":11752,"íĹ¤ë¯¸":11753,"ĵľë¦¬":11754,"ëĶ°ëĿ¼ìĦľ":11755,"RO":11756,"Ļ¨":11757,"Ġë¯¸ë£¨":11758,"Ġëĭµë³Ģ":11759,"Ġê°Ģë§Īì¿łëĿ¼":11760,"ĠëıĻìĥģ":11761,"ĶĶìĬ¤":11762,"Ġíĥľíıī":11763,"Ġíķµë¬´ê¸°":11764,"ĠìĻĪ":11765,"íĸĦ":11766,"Ġç§Ģ":11767,"Ġcon":11768,"ĠìĬĪíĬ¸":11769,"Ġçľģ":11770,"¸Įë¦¬ì§Ģ":11771,"£¨ë¯¸ëĬĦ":11772,"Ġíľł":11773,"Ŀ¼ëį°ìĭľ":11774,"ĠìĭľìľĦëĮĢ":11775,"Ġë°ĶìĿ´ìĺ¤":11776,"ĠìĤ¼ìĦ±ìłĦìŀĲ":11777,"ĠíĹ¬ê¸°":11778,"ner":11779,"ĠìĦľë¯¼":11780,"Ġë°©ìĨ¡ìĿ¸":11781,"Ġì§ķê³Ħ":11782,"Ġì¥¬":11783,"Ġìĺ¤íĶĦëĭĿ":11784,"ĠëĵľëĿ¼ìĿ´ë²Ħ":11785,"ĠìĿ¸ì²´":11786,"Ġêµ°ì¤ĳ":11787,"ĠAK":11788,"Ġëĵľë¬¸":11789,"ĠëłĢ":11790,"ĠìĪľì²ľ":11791,"ĠëĤłìĶ¨":11792,"ĠOne":11793,"Ġëª°ë¦¬":11794,"Ġë¸ĶëŀĻíĻĢ":11795,"ì²ľë¦¬":11796,"ĠíĬ¸ëŀĺ":11797,"omys":11798,"RA":11799,"ìŀĪ":11800,"ĠêµŃìĨĮ":11801,"Ġìĭ¤ë§Ŀ":11802,"ana":11803,"rad":11804,"Ġä¿®":11805,"ê°Ħë":11806,"ĠìŀĲìĿĮ":11807,"ĠSU":11808,"ê·¸ë¦¬ìĬ¤":11809,"Ġì´Īë¡Ŀ":11810,"ì¹´ë¶Ģ":11811,"Ġäºķ":11812,"rist":11813,"ĠëĮĢë¶Ģ":11814,"Ġêµ¬ê²½":11815,"Ġêµ¬íķł":11816,"ìĨįê¸°":11817,"ĠSo":11818,"ìķĦëĿ¼":11819,"ĠíĺĪê´Ģ":11820,"íį¼ëŁ°ìĬ¤":11821,"Ġê²Ģì°°ì²Ń":11822,"ëĭ¬ë":11823,"ĠìĹ°ìĩĦ":11824,"Ġë´īê±´":11825,"Ġë°Ģì§ĳ":11826,"ĠìĿ´ìĪľìĭł":11827,"ĠìĤ¬ìľĦ":11828,"ì¹ĺê¸°":11829,"ĠíĨµìĭłë":11830,"Ġë¬¸ìĺĪ":11831,"Ġìļ°ìľł":11832,"ĠìĿ´ìľ¤":11833,"ĠìĿĢëį°":11834,"Ġê¸°ê°ģ":11835,"ĠëıĻêµŃ":11836,"ëĮĢë¶Ģë¶Ħ":11837,"ĠìĦľì§Ħ":11838,"ĠíĶĦëłĪìĬ¤":11839,"íĥĢìŀĦ":11840,"ĠìĺĪíķĺ":11841,"Ġìĸ´ë¯¸":11842,"Ġåı³":11843,"ĠìĬ¹ë¶Ģì°¨ê¸°":11844,"Ġë°Ŀê¸°":11845,"Ġë°ķëŀĮíļĮ":11846,"Äģ":11847,"Ġsh":11848,"Ġê¸°ì§Ī":11849,"ĠíıīíĥĿ":11850,"Ġìļ©ìĿ´":11851,"íĥĢë¯¼":11852,"Ġì¼Īë":11853,"Ġë°Ķê¾":11854,"Ġè¦ĭ":11855,"ĠíĥĿìĭľ":11856,"Ġë°ĺì§Ģë¦Ħ":11857,"Ġì´ĿìĤ¬ëł¹":11858,"ìĤ¬ìĹħ":11859,"ĠìļĶìłķ":11860,"ĠíĻķìĭ¤íŀĪ":11861,"ĠìĨĮëĤĺíĥĢ":11862,"ì§Ħêµ°":11863,"Ġìŀ¡ìķĦë":11864,"ĠSchool":11865,"ĠëĦ¤ìĿ´ìħĺìĬ¤":11866,"Ġê³Ħìłķ":11867,"Ġì»¨ìħī":11868,"ĠëĿ¼ìĿ´ëĦĪ":11869,"ì¹¼ëĿ¼":11870,"ĠëĤ´ìłķ":11871,"ĠDav":11872,"Ġì¶ķì¶ľ":11873,"Ġìľłë¡ľíĮĮ":11874,"ìĤ¬ê³ł":11875,"ĠìĨĮê·ľëª¨":11876,"Ġì§ĦìĤ¬":11877,"ĠíĶĮëŁ¬ìĬ¤":11878,"ê³łëĮĢ":11879,"Ġìĸ´ëł¤ìĽĮ":11880,"na":11881,"ĠíĶ¼ìķĦ":11882,"Ġê²½ì°°ê´Ģ":11883,"ìĤ¬íļĮ":11884,"ìķĦìĽĥ":11885,"ĠíĿĶíķĺ":11886,"ĠèĹ¤":11887,"Ġì»¤ë®¤ëĭĪì¼ĢìĿ´ìħĺ":11888,"ĠìłķìłĦ":11889,"ĠìĬ¤íĭ¸":11890,"ĠìĽĲì¢ħ":11891,"ĠíĶĦë¡ľëįķ":11892,"ĠìłĢì£¼":11893,"Ġå¯¶":11894,"ank":11895,"ĠëĶĶëłī":11896,"ĭŃ":11897,"Ġì´ĪìĽĶ":11898,"itt":11899,"Ġì¹´ìŀĲíĿĲìĬ¤íĥĦ":11900,"Ġë§ĳ":11901,"ìĤ¬ëŀĳ":11902,"Ġìĸ¹":11903,"Ŀ¼ë£¨ìĬ¤":11904,"Ġíĺķì¡°":11905,"Ġìĭľëĭ¬":11906,"Ġì¡°ë¶Ģ":11907,"ĠìĻ¸ëª¨":11908,"ĠColle":11909,"Ġë§ı":11910,"ĠRes":11911,"Ġìķħëĭ¨":11912,"°Ķëħ¼":11913,"ë°©ìĨ¡ê³µìĤ¬":11914,"Ð»":11915,"ĠëĶķ":11916,"Ġë£¨ìĿ´ì§Ģ":11917,"ĠíıŃëĦĵ":11918,"çµ":11919,"íĶ¼ìĸ´":11920,"Ġíľ´ë":11921,"ĠçĶ³":11922,"ĶĶëĤĺ":11923,"Ġë§Ĳë¯¸":11924,"ĠìĽĶìļĶìĿ¼":11925,"ĠçĴ":11926,"íĨµìĿ¼":11927,"Ġë³¸êµŃ":11928,"Ġê°Ĳíĸī":11929,"Ġëĭ¬íķľëĭ¤":11930,"ĠìķĦíģ¬":11931,"Ġë§ĮìĿ¼":11932,"ĠìĥĿëŀµ":11933,"ĠìķĮìķĦ":11934,"ĠWar":11935,"ç¶ĵ":11936,"Ġê³µë¯¼ìĻķ":11937,"ĠëıĻë¬¸":11938,"Ġê¹Ķ":11939,"ĠìĦľëĮĢ":11940,"©Ķë¥´":11941,"²Ħë¦°":11942,"ĠëĩĮë¬¼":11943,"ĠìĹ°ìĿ´":11944,"íĶĮëłī":11945,"ĠíķĺìĽĮëĵľ":11946,"ìķŀ":11947,"Ġëĭ¹íķľëĭ¤":11948,"Ġì½ĶíĶĦ":11949,"ĠéĹ":11950,"ĠíķĻê³Ħ":11951,"Ġì»¤ì§Ģ":11952,"ĠëģĮìĸ´ëĵ¤":11953,"ĠíĹĪë¦¬ì¼ĢìĿ¸":11954,"ĠìŀĲìĦł":11955,"Ġê³µìĿµ":11956,"Ġìĺ¤ë°Ķ":11957,"ĠSm":11958,"ĠíĮĶë¦¬":11959,"Ġíķĺìļ°":11960,"Ġë¶ĢíĶ¼":11961,"ĠìłķìĦ¸":11962,"ĠíļĮê´Ģ":11963,"Ġì²´ìĿ¸":11964,"ìĬ¬ëĿ¼":11965,"Ġë¹ĦìŀĲ":11966,"Ġê¸°ìĪłìŀĲ":11967,"Ġê³µìłģ":11968,"ĠíķĻê¸°":11969,"å»":11970,"Ġê³łëł¹":11971,"Ġìĭľê°Ģì§Ģ":11972,"Ġåĺ":11973,"Ġê¸ĪìļĶìĿ¼":11974,"ail":11975,"£½":11976,"Ġíķľì¡±":11977,"ĠSup":11978,"Ġëħ¸ë°Ķ":11979,"ëłĪìĬ¬ë§ģ":11980,"ĠìľłëĭĪë²Ħ":11981,"Ġì§ĢìĿ¸":11982,"ĠìłĦìĨį":11983,"ĠëĤĺì£¼":11984,"Ġëį°ëª¨":11985,"Ġíĥľê·¸":11986,"Ġë¶Ħë¹Ħ":11987,"Ġê¸°ì¦Ŀ":11988,"Ġëĭ¦":11989,"Ġë°ľê¸ī":11990,"Ġíĺ¸ì¶ľ":11991,"ĠìĿĳìĭľ":11992,"íĨ¨ëłĪë":11993,"Ġìĭłìķ½":11994,"ĠìľłëħĦ":11995,"ĠíĻ©ì¡±":11996,"ĠìĬ¬ë¡ľë²łëĭĪìķĦ":11997,"Ġì§Ģì¹¨":11998,"Ġìĭľê°Ģ":11999,"ĠìĬĪíĮħ":12000,"Ġëģ¼ì³¤":12001,"ëī´ìļķ":12002,"Ġê¹ĢìłķìĿ¼":12003,"ì§Ģë¦¬":12004,"ĠíĽĦìķĪ":12005,"ĠíĤ¤ë³´ëĵľ":12006,"Ġë´īìķĪ":12007,"ĠìĿ´ëģĪ":12008,"ĠìĹĶëĶ©":12009,"EM":12010,"Ġìĭľìłķ":12011,"ĠìŀĲë¯¼":12012,"Ġè§Ģ":12013,"Ġìºī":12014,"Ġë¹¨ê°Ħìĥī":12015,"ĠíķľíħĮ":12016,"ìĸĦ":12017,"ĠíķŃìŁģ":12018,"ë¹ĦëĮĢ":12019,"ĠëĮĢíĮ¨":12020,"ĠìłģíĺĢ":12021,"Ġæ¾":12022,"ĠìĿ´ìĸ´ì§Ħ":12023,"ê¸°ëħĲ":12024,"Ġê°ģëıĦ":12025,"Ġíį¼ì§Ģ":12026,"Ġì¤Ħë¬´ëĬ¬":12027,"Ġë¡ľìĹ´":12028,"ĠëıĻìłķ":12029,"Ġìĭ¬íķ´":12030,"Ġíĺ¼ëıĻ":12031,"Ġìĭľë°Ķ":12032,"Ġê¹Ģìĥģ":12033,"åĲĪ":12034,"ĠíĶĮëĿ¼ìĬ¤íĭ±":12035,"ĠæĬ":12036,"ĠìĹ°ê½ĥ":12037,"Ġëķĥ":12038,"Ġë¬´ìĸ´":12039,"Ġë§ĪìĿ´íģ¬ë¡ľ":12040,"ĠíĤ¤íĶĦë¡ľìĬ¤":12041,"ìĤ¼ìĦ±":12042,"Ġê³łê³łíķĻ":12043,"IL":12044,"ĠìŀĲìķĦ":12045,"Ġìłķì£¼":12046,"Ġê²°ìĦł":12047,"Ġìŀ¬íĺ¼":12048,"Ġì°¸ìĿĺ":12049,"ĠID":12050,"ĠìĦłë°°":12051,"eter":12052,"Ġìĺ¹ë¦½":12053,"¾°":12054,"ĠëĿ¼ìĺ¤ìĬ¤":12055,"ĠìĬ¹ìŀĲ":12056,"Ġíķ´ë°Ģ":12057,"ĠæĻº":12058,"è¨ĺ":12059,"ĠëĮĢë³ĢìĿ¸":12060,"ìĪĺìĽĲ":12061,"ĠìĦ±ë¦¬íķĻ":12062,"Ġê°ľìĨĮ":12063,"Ġìµľê°ķ":12064,"Ġì¹´ìĭľ":12065,"ĠëĶ°ìĺ¨":12066,"ì§ĵìłĲ":12067,"Ġå£½":12068,"Ġìĺ³":12069,"Ġê²½ìĭł":12070,"ë§Īë¦¬":12071,"Ġê°Ģê¹ĮìĽĮ":12072,"vel":12073,"ĠìĹĲìĿ´ë":12074,"ìłķìĽĲ":12075,"íĶĦëłĪìĬ¤":12076,"ual":12077,"ĴĢ":12078,"ĠCH":12079,"Ġë²½ëıĮ":12080,"Ġë¶ĢìĹ¬ë":12081,"Ġë¬´ì§Ģ":12082,"ì½ĶëĶ©":12083,"ĠìłĬìĿĢìĿ´":12084,"Ġæ¥Ĭ":12085,"Ġë¶ĢìĹ¬ë°Ľ":12086,"ĠìĹĲë°Ģ":12087,"Ġì¤ĳë³µ":12088,"íĦ°íĤ¤":12089,"ĠíĻĶëł¥":12090,"ĠíķĻìĹħ":12091,"ĠíĶ¼ìĭł":12092,"Ġì²Ńì£¼ìĭľ":12093,"ĠêµŃëĤ´ìĻ¸":12094,"Ġê°ľë§īìłĦ":12095,"êµŃë¯¼":12096,"ĠíĹ¨":12097,"ĠEm":12098,"Ġë°Ķê¹¥ìª½":12099,"Ġìłķë§Ĳ":12100,"Ġëĵ±ê¸°":12101,"Ġíģ´ëĿ¼ìļ°ëĵľ":12102,"íĥĢëĭĪ":12103,"ĠìĿ´ê²¼":12104,"ë¦Ħë":12105,"ì²¼":12106,"ĠëıĻëĮĢ":12107,"ini":12108,"Ŀ¼ìĿ´ìĸ´":12109,"Ġì»´ë°±":12110,"ìĭľê°Ħ":12111,"Ŀ¼ë°Ķ":12112,"Ġç¹":12113,"Ġì»¤ëĦĲ":12114,"ĠìĽ¹íĪ°":12115,"ìĽħìłĦ":12116,"ĠìĿ´ëĤ¨":12117,"Ġèµ":12118,"ĠìķĮë£¨ë¯¸ëĬĦ":12119,"ater":12120,"Ġåıį":12121,"íĭ±ìĬ¤":12122,"æ¼":12123,"ĠìłģëıĦ":12124,"Ġì¹ĺìķĦ":12125,"Ġì¶©ìłĦ":12126,"ĠìĪĻì²Ń":12127,"çĪ":12128,"ĠìĤ¬ë³¸":12129,"ë¥´ëĵľ":12130,"Ġå¤ļ":12131,"¸Ķë¦¬":12132,"Ġë¥Ļ":12133,"Ġì°Į":12134,"íı¬íĦ°":12135,"Ġê´ĳëĳ¥":12136,"Ġë¬¼íĴĪ":12137,"ĠíŀĪìĤ¬":12138,"ĠíĮ¨ëĦĲ":12139,"Ġë§ĺ":12140,"ĠìĤ¬ê°Ħ":12141,"Ġì²łë":12142,"Ġèİ":12143,"Ġì¢ħëŀĺ":12144,"Ġì°½ì¶ľ":12145,"íģ´ëłĪ":12146,"ĠíĺľíĥĿ":12147,"íĥĢë¦¬":12148,"ĠMc":12149,"Ġë²łìĬ¤":12150,"Ġë¨¸ë¬´ë¥´":12151,"ë§Įìķ½":12152,"Ġë°©íĻĶ":12153,"ĠìĺĪìĭľ":12154,"Ġì¶ķë¬¼":12155,"Ġê¸°ìĤ¬ëĭ¨":12156,"ħ¸ë¶Ģ":12157,"Ġìĺ¤íĨłë":12158,"Ġë§¤ìĪĺ":12159,"Ġìĺ¨íĥĢë¦¬ìĺ¤":12160,"¨¼ìĬ¤":12161,"ĠëĴ·ë°Ľì¹¨":12162,"æĪĲ":12163,"ĠìĹ°ìĺĪìĿ¸":12164,"ĠíĶĦë¡ľëįķìħĺ":12165,"ì½°ë":12166,"Ġì§ĢìĭĿìĿ¸":12167,"ĠìĽĲìłĦ":12168,"ĠAs":12169,"Ġê°ĪìĪĺë¡Ŀ":12170,"ìħ°ë¹ĦíĤ¤":12171,"ĠìĿĺìŀĲ":12172,"ëŀľë":12173,"ĠìķĮìłľë¦¬":12174,"ì¦Īë²ł":12175,"êµŃëıĦ":12176,"ĠíĮĮìĤ°":12177,"ĠíĶĦëŀĳìĪĺìķĦ":12178,"Ġì±ĦìĽĮ":12179,"ĠíĻĪêµ¬ìŀ¥":12180,"ĠíĿ¬ê·Ģ":12181,"Ġê±¸ëł¸":12182,"Ġë°¸ë":12183,"Ġëĭ¥":12184,"ìĿ¸ê³µ":12185,"Ġì§ģë©´":12186,"Ġëī´ìłĢì§Ģ":12187,"lor":12188,"Ġìĭľë¦¬":12189,"Ġì¤ĳíĺķ":12190,"Ġìŀħê°ģ":12191,"Ġìļ°ë¥´":12192,"irl":12193,"Ġê°Ģìĭł":12194,"ĠìľĦìª½":12195,"ëıĦìĭľ":12196,"ode":12197,"ĠëĬĲê¼Ī":12198,"ĠìĬ¤íĭ°ë¸Į":12199,"ê¸¸ë":12200,"Ġì·¨ìĹħ":12201,"ĠíĶĮëŀ«íı¼":12202,"ĠíĶĦëŀĳíģ¬íĳ¸ë¥´íĬ¸":12203,"Ġìĺ¤ë¦¬ì½ĺ":12204,"ĠíĨłì°©ì¢ħ":12205,"Ġìŀ¥ë¡ĢìĭĿ":12206,"Ġê°Ģë²¼ìļ´":12207,"Ġëķĥì¥Ĳ":12208,"ĠæĽ¹":12209,"Ġëįĺìł¸":12210,"ìľłíĸī":12211,"Ġë¦¬íĭĢ":12212,"ĠìĻķìĦ¸":12213,"ĠìĨĮëª¨":12214,"Ġì²´ë¥ĺ":12215,"Ġì¤ĳëł¹":12216,"ìĵ°ë§Ī":12217,"Ġê¹ĥë°ľ":12218,"ĠëģĬìŀĦìĹĨìĿ´":12219,"ĠëĮĢìĨĲ":12220,"Ġìłķë³Ģ":12221,"Ġ1885":12222,"Ġ220":12223,"ĠìĪĺë¶Ħ":12224,"Ġì²ľìŀ¬":12225,"ĠãĢĭ(\"":12226,"ĠìĮĵìķĺ":12227,"Ġì²´ì½ĶìĬ¬ë¡ľë°ĶíĤ¤ìķĦ":12228,"ìļ°íĬ¸":12229,"ĠíķĦìĤ¬":12230,"Ġíģ´ëłĪ":12231,"ĠëĳĲë£¨":12232,"Ġë¶ĢíļĮìŀ¥":12233,"ìłľìĿ´":12234,"ĠìĦľë¥ĺ":12235,"able":12236,"Ġìķ¼ë§ĪíĨł":12237,"ĠìºĶìŀĲìĬ¤":12238,"Ġì§Ģì¶ľ":12239,"ĠëĮĢì¹ĺ":12240,"ë¦½íĬ¸":12241,"ĠçİĦ":12242,"Ġê·¸ëĭ¤ì§Ģ":12243,"ĠìĺĪê³ł":12244,"Ġì£¼ë¶Ģ":12245,"ĠìĹ°ë´ī":12246,"ĠìĦłëıĦ":12247,"Ġ1871":12248,"Ġë°Ķíĭ°ì¹¸":12249,"ĠìĿĺìķ½íĴĪ":12250,"Ĳëĭ¤":12251,"ì¹´ê°Ģ":12252,"Ġíķ¨ìłķ":12253,"ĠíĶĦë¡ľëłĪìĬ¬ë§ģ":12254,"ĠëĤĺê°Ī":12255,"Ġéį":12256,"Ġíı¬íļį":12257,"ç¾ħ":12258,"ĠåĤ³":12259,"æĶ¿":12260,"IG":12261,"ĠìĿ´ëĵľ":12262,"ë¡ľë§Ī":12263,"Ġê³łìĸĳìĭľ":12264,"ëŁ½":12265,"ìķī":12266,"ĠìĨĮìĥĿ":12267,"ĠíĻĶìŀĲ":12268,"ĠìŀħìĦ±":12269,"å¤§":12270,"§ĪìĿ´ìĺ¤ìĬ¤":12271,"ĠíĨµì¹ĺìŀĲ":12272,"ìħĪë¶Ģë¥´íģ¬":12273,"Ġëĭ¨ìłĪ":12274,"Ġê¼Ńì§ĵìłĲ":12275,"ìºĲë¡¤ëĿ¼ìĿ´ëĤĺ":12276,"Ġìľ¤ì¹ĺíĺ¸":12277,"ìĥģëĮĢ":12278,"Ġì¢ħìĨį":12279,"ĠíĨłìĸĳ":12280,"ĠãĢĭ(,":12281,"Ġíĩ´ìŀĦ":12282,"ĠëĬĺë¦¬":12283,"Ġíļ¡ëĭ¨":12284,"MC":12285,"Ġì²Ńì¶ĺ":12286,"ë¥´ëĭ¨":12287,"Ġèĩº":12288,"ĠìĿ´ì§Ħ":12289,"ë°Ń":12290,"Ġìľłë°©":12291,"Ġë°ľë³ĳ":12292,"187":12293,"ĠìĹ°ê¸°ìŀĲ":12294,"Ġè¨±":12295,"Ġå°ĩè»į":12296,"ĠWilliam":12297,"ĠëĤĺë¹Ħ":12298,"ĠìĨĮìħľ":12299,"ê·¸ëĿ¼":12300,"ĠKIA":12301,"ĠEU":12302,"¸ë¦¬":12303,"Ġéľ":12304,"ĠìłľêµŃì£¼ìĿĺ":12305,"Ġï¼ļ":12306,"ĠëıħìĦľ":12307,"ĠëłĪìĿ¼":12308,"oup":12309,"ëĦ¬":12310,"Ġê´Ģìłľ":12311,"ĠíĹ¥":12312,"Ġìŀ¡íĺĢ":12313,"ĠìĤ¬ë¥´":12314,"Ġë°ľê¸°":12315,"Ġì¶ķì¡°":12316,"Ġë³ĳê¸°":12317,"Ġê¸°ì°¨":12318,"ê³łìĬ¤":12319,"Ġ102":12320,"Ġ116":12321,"Ġê¹Ģê¸°":12322,"ĠìĬ¨":12323,"Ĥĺë¦¬":12324,"íĥĢë§Ī":12325,"Ġëĭ¨ì¶ķ":12326,"Ġê²Ģìłķ":12327,"ĠíıŃíı¬":12328,"ĠìĹ°ìĤ°ìŀĲ":12329,"Ĵ¤":12330,"Ġìłķë¦½":12331,"ĠìķĦë¶Ģ":12332,"Ġåľ¨":12333,"ìī½":12334,"Ġê°±ìĭł":12335,"Ġìĥģë²ķ":12336,"ĠSE":12337,"Ġè©©":12338,"ĠCN":12339,"ê´ĳì£¼":12340,"Ġì¤Ħë¦¬":12341,"ĠíĮ¡":12342,"Ġë¹Ķ":12343,"ĠìĦ¤íĻĶ":12344,"Ġíĳľë°©":12345,"ĠëĵĿíĳľìľ¨":12346,"LS":12347,"ĠíĮ¨íĸĪ":12348,"ĠìĽĲë£Į":12349,"ĠìķĦë¹Ħë":12350,"ĠíĮĮìĿ´ìĸ´":12351,"Ġê¹Ģê·ľ":12352,"ĠíĮĮëŀĢìĥī":12353,"Ġìĥīì±Ħ":12354,"Ġ1880":12355,"ĠìĻ¼ìĨĲ":12356,"ì½°ëıĦë¥´":12357,"ìļ°ì£¼":12358,"ĠìķĦëĭ´":12359,"ĠìĨĲê¼½":12360,"Ġë§¤ì¹´íĬ¸ëĭĪ":12361,"ê³°":12362,"ìŁģìĿ´":12363,"ĠíĲģ":12364,"ìĿ¼ìľ¼":12365,"Ġë°°ìĪĺ":12366,"ĠìļĶíķĺ":12367,"Ġìĸ´ë¥¸":12368,"ĠíĨłëª¨":12369,"ĠëıĻì¡°":12370,"ĠìĬ¤íı°":12371,"Ġì§ģê²°":12372,"ĠìłĪëıĦ":12373,"ê±°ë²ķ":12374,"Ġíķĺì°¨":12375,"Ġë¶ĢìĿĺìŀ¥":12376,"Ġì¡°ë¦½":12377,"Ġç²":12378,"ĠíĮ¨íķľ":12379,"ĠíĿĶíķľ":12380,"Ġëĭ¤ë¦Ħ":12381,"Ġì±Ħìļ°":12382,"ìĹ¬ëŀĺ":12383,"Ġë°©ìĤ¬ìĦł":12384,"ģĹ":12385,"Ġê¸°ìĪĻ":12386,"ĠìĦľìĭł":12387,"Ġì²´ì¤ĳ":12388,"ĠìŀĦìĽĲ":12389,"ĠìĺģêµŃìĿ¸":12390,"Ġ\"),":12391,"Ġë¶ĪëŁ¬ìĿ¼ìľ¼":12392,"ìŀĦë¸Įë¦¬ì§Ģ":12393,"åİŁ":12394,"Ġë¶Ģë¥¼":12395,"Ġìĸ½":12396,"ĠìĦ¸ìĿ¸":12397,"Ġë°ĶëĤĺ":12398,"Ġë¦¬ëĿ¼":12399,"Ġë¡¬ë":12400,"ĠëĥīìłĦ":12401,"Ġìłķíķ´ì§Ħ":12402,"ĠíĮĮìĿ´ëĦĲ":12403,"ª»":12404,"èĪ":12405,"ĠìĭłìĦł":12406,"Ġì²´ì¡°":12407,"Ġë¹Ħíĸīìŀ¥":12408,"ìĤ°ìĦ±":12409,"Ġíķ¨ìĦł":12410,"ĠSa":12411,"Ġìĭľë²Ķ":12412,"Ġíĥľê·¹":12413,"Ġì§ģê²½":12414,"ĠDay":12415,"ë³´ìĤ´":12416,"ĠRec":12417,"Ġë¸Įë£¨ë":12418,"Ġë¹Īê³¤":12419,"Ġë¸Įë¦¬íĬ¼":12420,"Ġëª¨ë¡ľì½Ķ":12421,"ëĨĢ":12422,"Ġë¯¸ìĨĮ":12423,"ê°ľìĿ¸":12424,"ĠìĹ´ëıĦ":12425,"Ġì²¨ëĭ¨":12426,"Ġæ²Ī":12427,"ĠCan":12428,"ĠêµŃë³´":12429,"Ġì£¼ëĲľ":12430,"Ġìĸĳë°ĺ":12431,"ĠíĶ¼ìĺ¤":12432,"æĹ¥":12433,"Ġì±Įë¦°ì§Ģ":12434,"ler":12435,"ĠìŀħêµŃ":12436,"ĠìĨįíİ¸":12437,"ĠIns":12438,"ä¸Ĭ":12439,"Ġê²ģ":12440,"ĠëıĻíĸī":12441,"Ġë¯¸íĤ¤":12442,"íŀĪì½Ķ":12443,"ĠëĳĲê»ĺ":12444,"ĠìĿ¼ìľ¼íĤ¬":12445,"ĠìĽĲë¡ľìĽĲ":12446,"ĠìĿĺê²°":12447,"Ġë©´ìłľ":12448,"ĠíĻĶìĥģ":12449,"ĠíıŃê²©ê¸°":12450,"ĠìĦ¸ìĿ´ë¶Ģ":12451,"ject":12452,"ĠìĿ´ê´Ģ":12453,"ĠìĪĺì¶ķ":12454,"ìłľìĭľ":12455,"Ġë§Īìķ¼":12456,"Ġì¦ĿìĨĲ":12457,"Ġë£°":12458,"Ġê·¸ëŀĺë¯¸":12459,"Ġun":12460,"ìŀĩ":12461,"ĠìĿ´ìļ©ìŀĲ":12462,"Ġì·¨íķŃ":12463,"íħĮë©´":12464,"be":12465,"Ġì§Ģìĺ¥":12466,"ìłķëıĻ":12467,"Ġê¸´ë":12468,"Ġê³łìĨįëıĦ":12469,"ë¦¬ì¦ĺ":12470,"ĠìĬ¤ëĭĺ":12471,"Ġìĥģíĳľ":12472,"ëĭĪìĭľ":12473,"íĻĺê²½":12474,"¯¸ëĵľ":12475,"to":12476,"ìłķë¦¬":12477,"ĠDon":12478,"Ġë¶ĦëŁī":12479,"ĠíĹĮìĭł":12480,"ĠëĵľëŁ¬ë¨¸":12481,"åłĤ":12482,"ĠëĮĢëĳĲ":12483,"ĠìŀĲìŀĳ":12484,"Ġë¹ĦìĦĿ":12485,"ìľ¼ë¡ľ":12486,"Ġëª¨ìĦľë¦¬":12487,"Ġë¯¹":12488,"Ġì²´íģ¬":12489,"Ġë£¨íĥĢ":12490,"Ġê±°ëŀĺìĨĮ":12491,"Ġì«ĵê²¨ë":12492,"ê±Ģ":12493,"Ġíİłë¦¬":12494,"Ġç¢ĳ":12495,"Ġê¹Ģíĥľ":12496,"ings":12497,"ĠìĬ¤ìľĦì¹ĺ":12498,"ë¼Ī":12499,"ìĤ¬ìĿ´ëĵľ":12500,"Ġìĺ¤ìĦ¸":12501,"Ġìĸ´ëł¸":12502,"Ġëĵ¤ìĸ´ê°Ī":12503,"ĠìĽĲë³¸":12504,"ĠíĹ¤ë¹Ħ":12505,"ë¹ħ":12506,"Ġëĭ¹ìĹ°íŀĪ":12507,"Ġíĺ¸ìĦ¸":12508,"ĠëıĪë":12509,"Ġíĳľìłģ":12510,"ê³¡ëıĻ":12511,"¥´ëıĦ":12512,"Ġìŀĥìĸ´ë":12513,"Ġê´´ë¡Ń":12514,"Ġê²½ìĦ±ë¶Ģ":12515,"Ġå§ľ":12516,"Ġê°Ģìĺ¥":12517,"Ġìłľì¹ĺ":12518,"ìĸ´ë§ģ":12519,"íĮĮìĿ´":12520,"ĠJT":12521,"Ġì¢Įì¸¡":12522,"ĠëĶ°ìĻĶ":12523,"ĠìłĲìĦ±ìĪł":12524,"Ġíĺ¸ë¥´ëª¬":12525,"ĠìĿ´ëĭ¨":12526,"ìĭľì¦ĺ":12527,"ĠìŀĲíĺķ":12528,"ĠIM":12529,"æĸ¹":12530,"ĠìĹŃëŁī":12531,"Ġìļ°ì²´":12532,"ĠKor":12533,"ĠìĬµì§Ģ":12534,"ĠíĬ¸ë¡ľìĿ´":12535,"Ġì²ľë¬¸ëĮĢ":12536,"ĠCEO":12537,"ĠìĿ´ì§Ģ":12538,"ĠìķĦì¼Ģ":12539,"Ġíķ´ì§Ħëĭ¤":12540,"ĠìĦ±íıŃ":12541,"ĠAD":12542,"ĠìĻ¸ê´Ģ":12543,"ĠëĤ¨ë§¤":12544,"éĻµ":12545,"ĠëıĦì¹´ìĿ´":12546,"ìĺ¤ëĬĺ":12547,"Ġì»·":12548,"íĿĶ":12549,"ĠìĤ¼ì´Į":12550,"ĠíĥĦëıĦ":12551,"Ġë³´ë³µ":12552,"Ġìķłëį¤":12553,"æķİ":12554,"éķ·":12555,"ìĦłëıĦ":12556,"Ġì¡°ìĦ¸":12557,"Ġê¹Ģì§Ħ":12558,"Ġíĩ´ìĹŃ":12559,"Ġhtt":12560,"íģ´ëłĪìĬ¤":12561,"ĠèĢħ":12562,"ĠëĮĢëªħ":12563,"Ġë¬´ëĦĪì§Ģ":12564,"Ġé³³":12565,"íĨ¨ëłĪë§ĪìĿ´ìĺ¤ìĬ¤":12566,"Ġê·¸ë¦ĩ":12567,"ĠìĬ¤íĦ°":12568,"ìĹŃíķĻ":12569,"Ġì½Ķë¥´ë":12570,"Ġë®¤ì§Ģìħĺ":12571,"Ġíķĺëĭ¨":12572,"ĠMed":12573,"íİĺíħĮë¥´ë¶Ģë¥´íģ¬":12574,"ĠìĤ¬ìĹħê°Ģ":12575,"ĠëĪĦìłģ":12576,"oss":12577,"Ġìĥģê¸Ī":12578,"Ġì½°":12579,"ĠëłĪìĺ¨":12580,"Ġë²ĮìĿ¸":12581,"²¤ì²ĺ":12582,"¹ĦëĤĺ":12583,"ë±ħ":12584,"ĠëĮĢíķ©":12585,"ìľĦìĦ±":12586,"ĠìĦ¤êµĲ":12587,"ĠìŀĦê´Ģ":12588,"íħĮìĿ¸":12589,"ĠìĦłëıĻ":12590,"Ġê·¹íķľ":12591,"íķ´ëıĦ":12592,"ĠRobert":12593,"Ġëª«":12594,"Ġì¤ĳê³µ":12595,"íĬ¸íİĺíħĮë¥´ë¶Ģë¥´íģ¬":12596,"ĠìłĦë°©":12597,"Ġìĸ´ë¢°":12598,"ĠÎ±":12599,"Ġê³µë¦¬":12600,"ĠíĻĶê°ķ":12601,"ë³´ê¸°":12602,"ê¸ĢëŁ¬ìĬ¤":12603,"ìľĻ":12604,"ì´Įë":12605,"Ġë¯¸ëĿ¼":12606,"ĠëŁ¬ìĭľ":12607,"Ġä¸ĥ":12608,"¥´ëĭ´":12609,"Ġë¦¬ë·°":12610,"res":12611,"ution":12612,"Ġë¡ľìļ°":12613,"ĠëĤ¨êµ¬":12614,"ĠHT":12615,"ĠëĤłì¹´ë":12616,"Ġë°ĿíŀĮ":12617,"ĠçĽ£":12618,"OU":12619,"Ġat":12620,"ĠìĿ´ì¦Ī":12621,"ĠìĺĢìĿĮ":12622,"Ġê³µê´Ģ":12623,"Ġë¯¼ê°Ĳ":12624,"ĠNor":12625,"Ġìĺ¤ìĤ¬ì¹´ë¶Ģ":12626,"ĠìĹ°ìĤ°êµ°":12627,"ìķĦëĵľ":12628,"ĠìĨĮëĤĺë¬´":12629,"ĠìłľëĦ¤ë°Ķ":12630,"Ġê°Ģëł¤":12631,"ĠíĥĢìŀĦìĬ¤":12632,"Ġì¶©ì£¼":12633,"Ġì¿łë¥´":12634,"Ġëī´ìļķì£¼":12635,"ĠìĹ¼ì¦Ŀ":12636,"Ġì¥Ĳê³¼":12637,"Ġë²łëĦ¤ëĶķ":12638,"ĠíĬ¹ê¶Į":12639,"Ġë³ĢìĿ´":12640,"ĠíĨłê¸°":12641,"ĠìĬ¤íĥĢë¦¬ê·¸":12642,"âĢ¢":12643,"éĥ½":12644,"FL":12645,"Ł´ëĵľ":12646,"Ġëĭ¨ìĿĺ":12647,"Ġê´ĳëĮĢ":12648,"ìĤ°ë§¥":12649,"ĠëĭĪì½ľëĿ¼":12650,"íķ¨ë§Īë":12651,"yd":12652,"Ġìĭľì½Ķ":12653,"ĠìĦłíĸī":12654,"Ġê´ĢìĦ¸":12655,"ĠCJ":12656,"Ġìłľë¡ľ":12657,"Ġå¯¦":12658,"1948":12659,"ĠíĺĲìĺ¤":12660,"Ġì¶ĺì²ľ":12661,"HD":12662,"Ġ1800":12663,"ĠMon":12664,"Ġê°ĲìķĪ":12665,"ĠìĿ¼ë¶Ģë¶Ħ":12666,"Ġìŀ¥ê¸°ê°Ħ":12667,"Ġë¡ľê·¸":12668,"Ġë³¸ë¬¸":12669,"ĠíĪ´":12670,"Ġëį§ë¶ĻìĹ¬":12671,"íĬ¬":12672,"ĠìĽĲì²ľ":12673,"Ġê°ĲìŀĲ":12674,"lect":12675,"ĠëłĪë°Ķëħ¼":12676,"Ġíĳľê¸°ë²ķ":12677,"ĠìĦ¼ëĭ¤":12678,"Ġë¶ĢìĬ¤":12679,"ìĽĲìĪĺ":12680,"ê³µì£¼":12681,"Ġë°Ķë¥´ë":12682,"íĥĢë¯¸":12683,"ëıĦì¿Ħ":12684,"ĠìĦľìľłëŁ½":12685,"Ġê¶Įì´Ŀ":12686,"íĬ¸ë¥¨":12687,"ħ¸íĶĦ":12688,"ë²łíĬ¸ëĤ¨":12689,"ìĭłë¬¸":12690,"Ġì£¼ìĸ´ì§Ħëĭ¤":12691,"ĠìĿ´ìĦ±ê³Ħ":12692,"ĠíŀĪìĸ´ë¡ľì¦Ī":12693,"Ġì§ĢëħĶ":12694,"ĠìĭľíĤ´":12695,"Ġë¦¬íĶĦ":12696,"ĠíİĺëĦĲ":12697,"äº¬":12698,"Ġì¦Ĳê²¨":12699,"ĠìĹłë":12700,"ĠìłĦìľĦ":12701,"Ġì£¼ì¡°":12702,"ĠëĮĢìĦ±ëĭ¹":12703,"æ²":12704,"ĠëıĦë¯¸ëĭĪ":12705,"Ġìĭ¤ë¬´":12706,"Ġph":12707,"ë¸ĮëĿ¼":12708,"éĿ¢":12709,"ê°ľê³¨":12710,"Ġë¹Ħëī´":12711,"Ġë©ĶíĥĢ":12712,"Ġíļ¨ê³ł":12713,"Ġìĺ¬ëĿ¼ê°Ħëĭ¤":12714,"Ġì²´ëł¥":12715,"Ġêµ°íķ¨":12716,"ĠëĤ¨ìĽĲ":12717,"ĠSu":12718,"Ġê°ĦíĨł":12719,"ĠëıĮê¸°":12720,"Ġê°Īëŀĺ":12721,"Ġê¼ŃëĮĢê¸°":12722,"ĠìĹ¬ìļ´":12723,"Ġ1860":12724,"©ĶìĿ´":12725,"Ġê¹ĮëĭŃ":12726,"įìĬ¤":12727,"Ġë°ĺê³µ":12728,"Ġê°ģìĥī":12729,"Ġì§ĪìĨĮ":12730,"Ġ1889":12731,"ĠêµĲëĮĢ":12732,"íĢĺìĸ´":12733,"íķĺëĤĺ":12734,"Ġëĵ±ìļ©":12735,"Ġëĭ¹ìĪĺ":12736,"ĠìķĪìĦ±":12737,"ĠìĨĮëł¹":12738,"Ġìļ´ìĪĺ":12739,"Ġìĸ´ëĵľë²¤ì²ĺ":12740,"Ġê³µìĺĪ":12741,"ĠìĦ±ë¬¸":12742,"Ġëħ¸íĥľìļ°":12743,"Ġì½Ķì¹´":12744,"Ġä½Ĳ":12745,"Ġæµ¦":12746,"¸ë¡ľ":12747,"Ġê¸°ëħ":12748,"ĠìĪĺíĻķ":12749,"Ġëªħíķĺ":12750,"ĠëĤ¨ìŀĳ":12751,"Ġê·¹ëĮĢ":12752,"idae":12753,"Ġì´īë§¤":12754,"Ġíķľì¸µ":12755,"Ġê¸°ë¥´":12756,"ĠGS":12757,"Ġë¯¸ë¥´":12758,"ëıĻë¬¼":12759,"Ġë¬´ìĬ¨":12760,"ĠíĶ¼ê²¨":12761,"Ġå¹´":12762,"Ġê·¸ëł¤ì§Ħ":12763,"ĠìĹĲìļ°":12764,"Ġê³łìķĦ":12765,"Ġê¸°ìļĶ":12766,"íĻĶíķĻ":12767,"ĠìĬ¤íĦ´":12768,"ëĤŃ":12769,"Ġìĺ¤ë¯¸":12770,"Ġì²´ìĬ¤":12771,"ĠëĴ¤ìª½":12772,"ĠëĤ¨ë¯¸":12773,"ĠëĤľì§ķ":12774,"Ġæľ±":12775,"Ġê´ĳì£¼ê´ĳìĹŃìĭľ":12776,"ĠìĿ´ë£¬":12777,"UC":12778,"Ġë°į":12779,"Ġê¸°ìĬŃ":12780,"ĠíĺĦê°Ĳ":12781,"ĠåĪ¶":12782,"åĲį":12783,"Ġë²¨ëĿ¼ë£¨ìĬ¤":12784,"ĠëıĻëĦ¤":12785,"ì¹´ë¦¬":12786,"Ġë§ĪëħĢ":12787,"Ġì±ĦìĨĮ":12788,"Ġse":12789,"ë£¨ìĬ¤":12790,"ĠçĶ²":12791,"Ġ\"()":12792,"ĠìĿĺìĿĺ":12793,"Ġâħ":12794,"ĠíĿł":12795,"Ġëĭ¬ìķĦë":12796,"ĠìĶĮ":12797,"ĠìķĦë¯¸ëħ¸ìĤ°":12798,"çķ":12799,"Ġë¡ľë§Īë":12800,"ĠìĤ¬íĨł":12801,"ĠSystem":12802,"ĠíĬ¹ìĥī":12803,"Ġ1600":12804,"ĠìĹ¼ìĥīì²´":12805,"ĠìķĦëĭĲ":12806,"Ġì§±":12807,"ãĢĮ":12808,"ĠëĤĺê°Ħëĭ¤":12809,"ĠìĺģëĤ¨":12810,"íĮ¨ë":12811,"erm":12812,"CD":12813,"èĪĪ":12814,"ĠìĤ¬ìĤ´":12815,"Ġì¡°ìĬ¹":12816,"Ġme":12817,"ĠëĦĺê¸°":12818,"Ġêµ¬íĺķ":12819,"Ġìĸ´ëĳł":12820,"Ġëī´íĦ´":12821,"Ġëª°ìķĦëĤ´":12822,"Ġê±°ì£¼ì§Ģ":12823,"ĠíĬ¸ë¦¬íĶĮ":12824,"Ġê´Ģê´ĳì§Ģ":12825,"Ġìĸ´ë¡ľ":12826,"ĠíĶ¼ê³łìĿ¸":12827,"ª°ë¡ľ":12828,"ìį¼":12829,"ê°Ģìŀ¥":12830,"Ġê³µê³ł":12831,"ìĿ´ë¹Ħ":12832,"ĠMB":12833,"Ġê°Ħìĭł":12834,"Ġë¬¼ê°Ģ":12835,"ĠíĮĮë³ĳ":12836,"Ġê¹¨ëģĹ":12837,"Ġê¸Ģë£¨":12838,"ĠëĥĦìĥĪ":12839,"å³":12840,"Ġì¤ĳìĤ°":12841,"ino":12842,"Ġìĵ°ì´¨":12843,"Ġëĳ¥ê¸Ģ":12844,"Ġè³¢":12845,"ĠíĶĮëŀĺìĭľ":12846,"Ġì¡°íĺķ":12847,"ĠìĨĮìĭľ":12848,"Ġì¢ħìłĲ":12849,"Ġë¶Īë¦°":12850,"Ġì½Ķëģ¼ë¦¬":12851,"ìĥ¤ë°Ķ":12852,"Ġìĺģëĵ±":12853,"ĠëĶľ":12854,"Ġê·¸ëĮĢ":12855,"Ġê²°ìłľ":12856,"ane":12857,"ê·¸ëłĩ":12858,"ĠìĥĪê²¨ì§Ħ":12859,"ê³¼ê±°":12860,"ĠíĻįë¬¸ê´Ģ":12861,"Ġå·¥":12862,"Ġref":12863,"ĠíĽĦìĨįìŀĳ":12864,"ļ´":12865,"ĠëĮĢë¬¸":12866,"Ġê°ľíĻĶ":12867,"Ġë¶Īê½ĥ":12868,"ì¿łë²Ħ":12869,"ĠíĹĮìłķ":12870,"ĠíŀĪë¡ľìĭľ":12871,"ĠëĤ¨ëıĻìĥĿ":12872,"łģ":12873,"ĠìŀĲìĺ¤":12874,"ĠìĿ¼ëªħ":12875,"ë°Ķëĭ¥":12876,"ĠãĦ":12877,"ĠêµĲíĨµêµŃ":12878,"Ŀ¼ìĿ´ìĸ¸íĬ¸":12879,"Ġê°Ģë£¨":12880,"íİĳ":12881,"ì¹´ëĤĺ":12882,"íħįì²ĺ":12883,"ìĪłë":12884,"ĠìĽ¨ìĬ¤íĬ¸ë":12885,"iti":12886,"ìŀĺ":12887,"Ġê°ĢìĹ´":12888,"ĠçŃ":12889,"ĠíļĮìĥģ":12890,"ĠMag":12891,"ĠìĽĲëĤ´":12892,"Ġì§Ģì§Ģìľ¨":12893,"Ġìļ¸ìĤ°ê´ĳìĹŃìĭľ":12894,"æ°´":12895,"ĠLCK":12896,"ê°Ħì§Ģ":12897,"Ġê°ķë³Ģ":12898,"Ġíİĺë¥´ëĤľë":12899,"40":12900,"ìŀĲë¥´":12901,"Ġê³µëªħ":12902,"Ġê²½ìŀĳ":12903,"ĠëıĻíĺķ":12904,"Ġë³´íĹ¤ë¯¸":12905,"Ġë¬´ìĦ±":12906,"Ġë¶ĪíĥĢ":12907,"Ġìľ¼ëł¤ê³ł":12908,"Ġíİĺë¥´ëĶĶë":12909,"Ġçį":12910,"Ġë°ľëł¹":12911,"Ġë³µíķ©ì²´":12912,"ĠìĤ¬íļĮëĭ¹":12913,"Ġê°ķëĤ¨êµ¬":12914,"æŀĹ":12915,"é®®":12916,"Ġë¯¸ìĭľìĭľíĶ¼":12917,"Ġè´":12918,"Ġì´ĿëĮĢì£¼êµĲ":12919,"Ġìłķìłģ":12920,"Ġì¤ĳê³µìĹħ":12921,"Ġìļ©ìĦľ":12922,"ĠíıŃë¡ľ":12923,"ç§ĳ":12924,"ĠìĹĩ":12925,"Ġì§Ģë¯¸":12926,"ĠìĪĺë£Į":12927,"ĠìķĦë²¨":12928,"ĠìĭłìĽĲ":12929,"Ġë°Ľì¹¨":12930,"ĠìŀĺëĿ¼":12931,"chn":12932,"ĠìĽ¨ìĬ¤íĦ´":12933,"âĢľ":12934,"ĠìĥĿì²´":12935,"Ġëª¨ìĬ¤íģ¬":12936,"ì»¨ëĮĢ":12937,"Ġìĭ¬íĻĶ":12938,"ĠëĬĲë¦¬":12939,"Ġìķłì¹Ń":12940,"êµĲíĨµ":12941,"íĥĢì¼Ģ":12942,"Ġì§ĳê²°":12943,"ĠìłľìŀĳìĤ¬":12944,"Ġìĭľì¼°ìľ¼ë©°":12945,"Ġå¤§åŃ¸":12946,"ĠìķĦë¦Ħë":12947,"ìĺ¬ë¡ľ":12948,"Ã¤":12949,"ì£¼ìĸ¼":12950,"íĥľíıīìĸĳ":12951,"ëħ¸ìĿ´":12952,"ĠìķĦíĤ¤íħįì²ĺ":12953,"Ġê°ĢìĹŃ":12954,"Ġëª¨íĭ°ë¸Į":12955,"ë°ĶëĤĺ":12956,"Ġë¯¼ê°ĦìĿ¸":12957,"ëĥĲ":12958,"ìĹĶë":12959,"¼ë¦¬ë¹ĦìķĦ":12960,"ĠëıĮìŀħ":12961,"Ġì§ĢëıĦë¶Ģ":12962,"Ġë¥ľ":12963,"ĠêµŃìĺģ":12964,"Ġì¹¨ì²´":12965,"Ġæºª":12966,"Ġë¶ĢëĵľëŁ¬ìļ´":12967,"ħ¸ë¦¬":12968,"ĠíĨłëģ¼":12969,"Ġì¤Ģì£¼":12970,"Ġìĭ¸ìĽĮ":12971,"Ġë°ĶìĿ´íĤ¹":12972,"ìĵ¸":12973,"ê±°ëŀĺ":12974,"ĠéĮ«":12975,"¹¨":12976,"çļ":12977,"ĠìĦľì´Ī":12978,"Ġë¦¬ë°Ķ":12979,"ella":12980,"Ġê¸°ê´Ģì´Ŀ":12981,"ĠíĢĺë²¡":12982,"OV":12983,"Ġíķĺê³ł":12984,"Ġë¶Ģê°Ģ":12985,"ĠìĿ¼ë¦¬":12986,"ĠìĺĪëªħ":12987,"ĠíŀĮëĳĲêµĲ":12988,"ìķĦìĺ¤":12989,"Ġì¡°ìĪĺ":12990,"Ġë¶Īìĭł":12991,"ĠëıħìĦ±":12992,"Ġëĭ¬ê±Ģ":12993,"ĠæĺŁ":12994,"Ġì¶©ì²ŃëıĦ":12995,"Ġë£©ìħĪë¶Ģë¥´íģ¬":12996,"ĠìĿ´ê²½":12997,"ĠëĮĢìĦľìĸĳ":12998,"ĠìĿ´ë¶ģ":12999,"¬¸íĬ¸":13000,"Ġê¹Ģìŀ¬":13001,"Ġì½ĶìĬ¤íĥĢ":13002,"Ġê°Ĳë§Ī":13003,"uck":13004,"íĶĦëŀĳíģ¬":13005,"Ġì½ķ":13006,"ĠìĹ°ëĮĢê¸°":13007,"ìĭŃìŀĲ":13008,"ĠìłĦìĭľíļĮ":13009,"ĠìĤ¬ìłģ":13010,"ì£¼ìļĶ":13011,"ĠìĦ±ë³Ħ":13012,"Ġê±°ëĴĢ":13013,"ara":13014,"Ġì¹´ë¡¤":13015,"Ġê°Ģìł¸ìĺ¤":13016,"Ġìĭłì¶ķ":13017,"ì¼ĢìĿ´":13018,"Ġê²Ģì¶ľ":13019,"Ġìĵ°ëłĪê¸°":13020,"ĠìĺĢìľ¼ë¯Ģë¡ľ":13021,"Ġìļ°íĮĮ":13022,"Ġìļ°ì¦Īë²ł":13023,"Ġë¶ĦìĪĺ":13024,"ĠCS":13025,"ĠFe":13026,"Ġê²ĢìĹ´":13027,"Ġì²łíıĲ":13028,"Ġê·¹ìŀĳê°Ģ":13029,"ë°ķì¥Ĳ":13030,"urn":13031,"Ġë°©ìĤ¬ìĦ±":13032,"ĠìĹĲì½°ëıĦë¥´":13033,"Ġì§Ģë°©ìĤ°":13034,"ìĤ¬ìĥģ":13035,"ĠìłķíĻĶ":13036,"ìłľìŀĦìĬ¤":13037,"Ġìĥģê²½":13038,"ìľ¼ëĭĪ":13039,"ĠìĤ¬ìĿ´íģ´":13040,"Ġè±Ĭ":13041,"ìĽĲìŀ¥":13042,"ĠìĦ±ì§Ģ":13043,"Ġê³¡ë¬¼":13044,"íĬ¸ë¡ľìĿ´íĬ¸":13045,"ĠìłľíĶĦ":13046,"íķĺíĤ¤":13047,"ĠìĥģíĬ¸íİĺíħĮë¥´ë¶Ģë¥´íģ¬":13048,"Ġìľłì²´":13049,"ĠíķľêµŃë°©ìĨ¡ê³µìĤ¬":13050,"ĠìłĳìĪĺ":13051,"ĠìĥĪë¡ľìĿ´":13052,"ĠêµĲëŁī":13053,"Ġì§Ĳìŀĳ":13054,"ĠìĿ¼íĮĮ":13055,"ĠìĥĿê¸´ëĭ¤":13056,"Ġê°ķëĮĢ":13057,"ĠìĹ´ë¦°ëĭ¤":13058,"Ġì¡°ë¥´":13059,"ĠìĿ´ì£¼íķĺ":13060,"Ġä¼¯":13061,"íķ¨ë§Īëĵľ":13062,"GM":13063,"ĠìľĪë":13064,"ìĬ¤íĭ´":13065,"Ġê²½ê³¼":13066,"ĠëłĪìĬ¬ë§ģ":13067,"ĠLA":13068,"Ġë¬´ëªħ":13069,"Ġê°Īë¦¬ìķĦ":13070,"Ńĩ":13071,"ĠìŀĲë¹Ħ":13072,"ë¬µ":13073,"Ġë§ĮìĦ±":13074,"Ġì²ľíķĺ":13075,"ëª°ë":13076,"ë°Ķë¥´":13077,"Ġê±°ì§ĵë§Ĳ":13078,"Ġê³µíĻ©":13079,"Ġë°ĺêµ°":13080,"ë¡ľëĵľ":13081,"Ġì°¨ë¥´":13082,"ĠëĨįë¶Ģ":13083,"Ġëĭ¨ë©´":13084,"ë©´ë":13085,"ĠìĤ´ëł¤":13086,"ĠìķĦë¦Ħëĭµ":13087,"Ġëĭ¤íĪ¼":13088,"ĠìĿĦê¹Į":13089,"ê¸°íĥĢ":13090,"Ġë¶ģìķĦíĶĦë¦¬ì¹´":13091,"Ġíķ©ëĭ¹":13092,"Ġ1870":13093,"ĠìĿ´ë¥¼íħĮë©´":13094,"ë¦¬íĭ°":13095,"Ġë°ľë¦¬":13096,"Ġë©Ķì»¤":13097,"ĠìķĦìĭľì¹´ê°Ģ":13098,"ê³¼íķĻ":13099,"Ġíĺ¸ìĿĳ":13100,"Ġë¯¼ìłķ":13101,"Ġì²Ńìĥī":13102,"íį¼ìĬ¨":13103,"ĠìĽĮíģ¬":13104,"ĠíĦ°ë³´":13105,"1987":13106,"Ġè«¸":13107,"Ġìĭľë®¬ëłĪìĿ´ìħĺ":13108,"ìĿĺìĤ¬":13109,"Ġë§ŀë¶Ļ":13110,"rop":13111,"Ġì½Ķë¯¹":13112,"ĠìĤ¿íı¬ë¡ľ":13113,"ìľĹ":13114,"ĠìĦľë¬¸":13115,"Ġë°ľëĿ¼":13116,"ĠìķĦìĿ´ìĺ¤":13117,"Ġíĩ´ìłģ":13118,"ë¦¬ëĭĪ":13119,"ĠìĿ¸ì§Ī":13120,"Ġì²ŃìĤ°":13121,"é¡":13122,"ĠìĹ®":13123,"ë¦¬ì½Ķ":13124,"ê¸°êµ¬":13125,"ĠëĤ«":13126,"Ġê±°ì²ĺ":13127,"Ġìķ½íķĺ":13128,"Ġë¯¸ëĵ¤":13129,"ĠìĬ¬ëĿ¼ë¸Į":13130,"ĠëĮĢêµ¬ê´ĳìĹŃìĭľ":13131,"Ġëļľ":13132,"ĠæľĿé®®":13133,"ĠêµĲëıĦìĨĮ":13134,"Î¹":13135,"Ġëĭ¤íģ¬":13136,"Ġê°Ģë³":13137,"Ġê¸°ë¶Ħ":13138,"ĠëĤĺëŀĢíŀĪ":13139,"ĠëıĻíķĻ":13140,"Ġë¬´ê¶ģ":13141,"ĠëĨįìĤ¬":13142,"Ġë¶ĻìĹ¬ì§Ħ":13143,"Ġë¶Ģìŀĳìļ©":13144,"oy":13145,"ì§Ģìĺ¤":13146,"Ġì¶Ķì²¨":13147,"Ġë³µìļ©":13148,"ĠíĬ¸ë¡ľíĶ¼":13149,"Ġìłģêµ°":13150,"Ġë³´ê°ķ":13151,"ìĬĲ":13152,"ĠíļĮíĶ¼":13153,"ĠíĥĢìĦĿ":13154,"Ġì¼ĢìŀĦë¸Įë¦¬ì§Ģ":13155,"ĠëĿ¼ìĿ´ìĸ¸":13156,"Ġéģĭ":13157,"Ġì»¨íĬ¸ë¦¬":13158,"Ġì³Ĳëĵ¤":13159,"ê°ĸ":13160,"ĠìłĦê²©":13161,"ĠíķĦíĦ°":13162,"Ġë£¨ìĭľ":13163,"Ġì§Ģì¼°":13164,"Ġë²ķìłķëıĻ":13165,"Ġê°ķíĿ¬":13166,"Ġë³µê¶Į":13167,"Ġì¼ĢëĥĲ":13168,"ĠìĥĿê²¨ëĤĺ":13169,"å±":13170,"ĠìĿ¼ìĤ°":13171,"Ġì¶ľìĦĿ":13172,"eng":13173,"ĠëĮĢìĽħìłĦ":13174,"Ġìĭľìķ¼":13175,"Ġì°¨ê°Ģ":13176,"ĠëĳĲêº":13177,"ĠëĳĲê°ľê³¨":13178,"ĠìĽĮíĦ°":13179,"ĠìķĦëĤĺíĤ¤":13180,"Ġìĺ¥ìĬ¤íį¼ëĵľ":13181,"ĠìķĦì¦Ī":13182,"Ġë´īíķ´":13183,"³´ëĭ¹":13184,"Ġì¹´ë©Ķë":13185,"US":13186,"Ġê³µìķ½":13187,"ĠìĦ¼íĭ°ë":13188,"å®ļ":13189,"ĠìłĦìĹ¼ë³ĳ":13190,"Ġë¹ĪëıĦ":13191,"Ġëª¨ëĤĺ":13192,"ĠìľłëĿ¼":13193,"ĠíĥĢíĺĳ":13194,"Ġ240":13195,"Ġëĭ¤íķŃìĭĿ":13196,"ìŀŃ":13197,"íĦ±":13198,"ĠíĬľ":13199,"Ġå°į":13200,"Ġ1883":13201,"RT":13202,"ä¹":13203,"ĠìĿ´ë°Ķ":13204,"ital":13205,"íĦ°ë§ģ":13206,"ĠìķĦëŀĺìª½":13207,"ĠéĢ²":13208,"Ġëĵ¤ëł¤":13209,"Ġ450":13210,"Ġì¶©ë¶ģ":13211,"ĠëıĦìĦł":13212,"ĠêµŃìłľë":13213,"Ġë°ľëłĮìĭľìķĦ":13214,"ĠGeor":13215,"ĠìĪĺì¤ĳ":13216,"íķ´íĬ¼":13217,"ëĭ¨ë":13218,"ĠBS":13219,"ĠêµĲìľ¡ë¶Ģ":13220,"Ġê·¹ëıĦ":13221,"ÏĤ":13222,"ĳĺ":13223,"ĠëĮĢë³¸":13224,"ĠçĿ":13225,"Ġê¶Įìŀ¥":13226,"Ġê°¤ëŁ¬ë¦¬":13227,"Ġì§Ģìļ°":13228,"Ġë³´ìľĦ":13229,"Ġë¯¸ìĦ¸":13230,"ĠâĦĵ":13231,"ĠëıĦìļĶíĨłë¯¸":13232,"ìĤ¬ê´ĢíķĻêµĲ":13233,"AF":13234,"ĠìķĦëıĮíĶĦ":13235,"Ġêµ¬ìĻĢ":13236,"Ġë¬´ìĪł":13237,"ê²°êµŃ":13238,"ĠìķĦëĭĪíķĺ":13239,"Ġìĸ¸ìĸ´íķĻ":13240,"Ġë¦¬ëįĶìĭŃ":13241,"ç©":13242,"ĠìłķìĦ±":13243,"ìĸ´ì¡Į":13244,"ĠìĨĮíĸīìĦ±":13245,"Ġë²ĪìĦ±":13246,"Ġì¸łë":13247,"ĠIN":13248,"Ġìĥ¤ë¥¼":13249,"Ġëį®ìĹ¬":13250,"èĹ":13251,"Ġìĳ":13252,"ĠëĮĢì¶ľ":13253,"ĠìŀĲê²°":13254,"ĠìĭľëĦ¤":13255,"Ġìŀħìĸĳ":13256,"Ġë¸Įë¦¬ì§Ģ":13257,"ĠìķĦë¦¬ìĬ¤íĨł":13258,"Ġåĺī":13259,"ĩ´ë":13260,"ĠìĨĮëĮĢ":13261,"ĠëģĦ":13262,"ĠìĹ°ëª»":13263,"ĠRock":13264,"ĠíĤ¤ë¥´":13265,"ĠíŀĪë©Ķ":13266,"ª°ë¡ľì§Ģ":13267,"MI":13268,"Ġëĭ¤ë":13269,"ì¤ĳíĻĶ":13270,"Ġë¸Įë¡ľëĵľ":13271,"ëį°ìĿ´ë":13272,"ĠìĿ´ëıĻíķĺ":13273,"ĠëĮĢìĤ¬íĹĮ":13274,"Ġë©Ķì»¤ëĭĪì¦ĺ":13275,"Ġê¸°ìłĢ":13276,"Ġê³¼ìĭ¤":13277,"ê¸°ìĬ¤":13278,"ĠíĨµìĺģ":13279,"ĠìĬĽ":13280,"ĠìłĢëł´":13281,"Ġê°ĳìĺ·":13282,"ĠìĨĮìĪĺìŀĲ":13283,"ì»´í":13284,"å¿ĥ":13285,"Ġìłķë¬¸":13286,"ĠëıĻì°¸":13287,"Ġæĭ":13288,"Ġæł¹":13289,"Ġìĥģê³ł":13290,"Ġë³´ìĿ´ìĬ¤":13291,"Ġë°ĺìłĦ":13292,"ìĦłëĮĢìĽĲêµ°":13293,"ĠìļĶìķ½":13294,"ĠìĿĮíĸ¥":13295,"ì¸łíģ¬":13296,"ĠìºĲìĭľ":13297,"Ġë²¨íĬ¸":13298,"Ġvs":13299,"ĠìĤ¬ëª¨":13300,"ĠEX":13301,"ĠíĬ¹ë³ĦìŀĲì¹ĺ":13302,"Ġì¶Ķë¡ł":13303,"ĠëĬĲëĤĢ":13304,"ĠíĬ¹ë³ĦìŀĲì¹ĺìĭľ":13305,"LA":13306,"ìĦ±ìļ°":13307,"ĠNE":13308,"ĤľìĦ±":13309,"Ġìĺ®ê²¨ì¡Į":13310,"Ġëµ":13311,"Ġì¶Ķì¢ħ":13312,"ĠGl":13313,"ĠíķĦë¦¬íĶĦ":13314,"ĠìĬ¤íģ¬ë¦½íĬ¸":13315,"ľ¨ëł¸":13316,"Ķľ":13317,"ĠìĪĺëħĢ":13318,"ì°Įë":13319,"Ġêµ¬ìĿ´":13320,"ĠëĶ°ëŀĲ":13321,"ĠíĽĦë°ĺê¸°":13322,"Ġëª°ìķĦë":13323,"Ġë¯¸ëĦ¤ìĨĮ":13324,"Ġê°Ģë³į":13325,"ĠìĿ¼ìŀĲë¦¬":13326,"ĠìĨĮìŀĲ":13327,"íŀĪíĨł":13328,"ĠìķĪì¹ĺ":13329,"ĠìķĮëĿ¼":13330,"Ġì¿Ħ":13331,"ĠæŃĮ":13332,"ĠìĿµìĬ¤íĶĦëłĪìĬ¤":13333,"ħĦë":13334,"Ġì©":13335,"ì²ľëıĻ":13336,"Ġæ¦®":13337,"hel":13338,"Ġê·¸ë¦¬ìĬ¤ìĿ¸":13339,"ĠëĶĶë¹Ħìĭľìĺ¨":13340,"ĠBlack":13341,"Ġë²µ":13342,"Ġë¯¸ì£¼ë¦¬":13343,"Ġì¢ħíĮĮ":13344,"Ġì¹´ìĬ¤íĭ°":13345,"Ġì¤ĺ":13346,"ĠíŀĪíĥĢ":13347,"ģĦë":13348,"ìľĮë¦¬ìĹĦ":13349,"ĠìĹĲëĶĶìħĺ":13350,"Ġíĩ´ìŀ¥":13351,"ĠìĸĳìĦ±ìŀĲ":13352,"Ġä¼Ĭ":13353,"Ġê¸°ëħĲë¹Ħ":13354,"ĠìĦłìŀ¥":13355,"ĠíĽĦìŀĳ":13356,"Ġë§Įì£¼êµŃ":13357,"Ġë°ĢëŀĢ":13358,"æ±":13359,"ê³łë¦¬ìĺ¤":13360,"ĠTHE":13361,"Ġì´Ŀë¬´":13362,"Ġìķŀìŀ¥":13363,"Ġë¸ĶëĿ¼ëĶĶë¯¸ë¥´":13364,"Ġíķĺë¦¬":13365,"Ġê³µíĳľ":13366,"Ġìĭ¤ìłģ":13367,"íĮĮíģ¬":13368,"Ġê´ĳìłĢìļ°":13369,"Ġê°ĲëıĻ":13370,"Ġë¹Īë²Ī":13371,"ĠíķĺíĶĦ":13372,"ĠëĮĢê´Ģ":13373,"Ġì¤ĳìĽĲ":13374,"Ġìŀ¥ë²½":13375,"ĠìķĪìĤ°":13376,"Ġkt":13377,"Ġë²łëĭĪ":13378,"ĠæĪ°":13379,"ield":13380,"Ġë²ķì¡°ìĿ¸":13381,"ĠìĿ´ê±´":13382,"ĠíķĺìĿ´ëĵľ":13383,"Ġê´ĢìłĪ":13384,"Ġstation":13385,"Ĳµ":13386,"Ġê°ķíĴį":13387,"Ġë¶Ħì¶ľ":13388,"ĠìĦ¤ë¦½ìŀĲ":13389,"ê¸ĢëĿ¼ëį°ìĭľ":13390,"Ġë³´íĬ¸":13391,"Ġì§ĦìłĦ":13392,"Ġ111":13393,"ĠíĶĮëĿ¼ìĿ´":13394,"íħĮìĿ´ìħĺ":13395,"Ġë¡¬":13396,"£¨ëĥĲ":13397,"Ġì¹¼ëĿ¼":13398,"ĠìĤ¼êµŃì§Ģ":13399,"ĠìĬ¤íĬ¸ëĿ¼ìĿ´íģ¬":13400,"ral":13401,"ĠìĪĺëª©":13402,"Ġíģ´ëĿ¼ë":13403,"ĠìĦ¸ìĽĮìł¸":13404,"Ġè¡Ľ":13405,"ìĹ°ë³Ģ":13406,"²ĮëłĪ":13407,"ĠBro":13408,"Ġìĺ¤ëĿ½":13409,"Ġê²½ìŁģëł¥":13410,"ĠìĦłë³´ìĿ´":13411,"Ġë³µìĿĮìĦľ":13412,"Ġíĺ¸ì¡±":13413,"ĠìķĪê²½":13414,"Ġé«Ķ":13415,"Ġëĭ¤ëĭĪìĹĺ":13416,"ĠëĵľëłĪìĬ¤":13417,"Ġìĺ¬ë°Ķ":13418,"Ġä»¤":13419,"ĠçĨĻ":13420,"ĠìĿ¼ëłīíĬ¸ë¡ľ":13421,"Ġëĭ¤ë¥¼":13422,"Ġìĺ¨ëĮĢ":13423,"ĠêµŃëĭ¹":13424,"Ġëª¨ìĿ¸":13425,"ĠìĹ°ëıĻ":13426,"ĠíĮ¨ë°Ģë¦¬":13427,"Ġê²Ĳì§Ģ":13428,"ĠíĥģìĽĶ":13429,"Ġæ¿Ł":13430,"ĠíĨµíĭĢìĸ´":13431,"ael":13432,"éº":13433,"Ġë§ĪìĬ¤íģ¬":13434,"ĠìĨĮíĸī":13435,"ĠëĲľëĭ¤ë©´":13436,"ouse":13437,"ĭĲ":13438,"ĠìĦłê±°ë²ķ":13439,"ĠìļĶë¥´ëĭ¨":13440,"Ġì½ľëĿ¼":13441,"ĠìĬ¤íĨłìĸ´":13442,"ĠíİĺìĿ´ìĬ¤ë¶ģ":13443,"RI":13444,"êµ¬ìĹŃ":13445,"ĠìĿ´ëĵĿ":13446,"Ġíı¬íĦ°":13447,"ĠCBS":13448,"ĠWal":13449,"Ġ1868":13450,"Ġë¶ĻìĹ¬ì¡Į":13451,"ë»":13452,"į¸ë":13453,"Ġê³µê°Ĳ":13454,"Ġë¬´ì¡°ê±´":13455,"íĹĮìĺģ":13456,"ĠëĵĢìĺ¤":13457,"ĠìĨĶë£¨ìħĺ":13458,"Ġê¸°ëħĲê´Ģ":13459,"Ġê¸°ë³ĳëĮĢ":13460,"Ġê²īë³´ê¸°":13461,"Ġê³µìļ©ìĸ´":13462,"ĠìĭľìĹĲë":13463,"íķłìĭľ":13464,"ĠëŁ¬ìħĢ":13465,"ì¹´ë§Ī":13466,"ĠíĶĦíĨ¨ëłĪë§ĪìĿ´ìĺ¤ìĬ¤":13467,"çĶ°":13468,"Ġíı¬ì¼ĵëª¬ìĬ¤íĦ°":13469,"DA":13470,"Ġëĵłëĭ¤":13471,"ĠìłľìĿ¸":13472,"ĠìĦ¸ìĨĲ":13473,"Ġë°ľê°ģ":13474,"Ġíı¬ìĬ¤íĦ°":13475,"ê¹ĥ":13476,"íĻĢë¦Ħ":13477,"Ġê°ķê°Ħ":13478,"Ġë°ĺìĹŃ":13479,"ĠBer":13480,"íĳ¸ë¥´":13481,"ĠìĤ¬ë¬´ì´Ŀìŀ¥":13482,"ĠëĳĺëŁ¬ìĭ¸ìĹ¬":13483,"ìķĮëłīìĤ°ë":13484,"ĠëıĻìļĶ":13485,"ĠìĦľë¦¬":13486,"Ġì¹ĺë¥¸":13487,"Ġëłĺ":13488,"Ġê¶ģì¤ĳ":13489,"ĠåĲį":13490,"Ġê·¸ë¦¼ìŀĲ":13491,"ĠìķĦëĤ":13492,"ĠêµĲìľ¡ì²Ń":13493,"ĠëıĦìĤ¬":13494,"Ġìĥģê°Ģ":13495,"ëĮĢíķľ":13496,"íħĢ":13497,"Ġì¤ĳìķĻìķĦìĭľìķĦ":13498,"ĠëĤ®ì¶Ķ":13499,"ĠìłĪëĭ¨":13500,"ĠíĹ¬ë¥¨":13501,"ĠíİĺëĦĲíĭ°":13502,"Ġìĸ´ë¦¬":13503,"ĠìĹ´ìĭ¬":13504,"Ġíĳľì°½":13505,"Ġì¤ĳìķĻë¶Ģ":13506,"ĠìĬ¤íĬ¸ëĿ¼ìĿ´ì»¤":13507,"êµŃìĤ¬":13508,"ĠíĻķê³ł":13509,"ĠëĨįë¦¼":13510,"ëıħë¦½":13511,"Ġë¹ĽëĤĺ":13512,"çķĮ":13513,"Ġìĺ¤íĶ¼ìĬ¤":13514,"Ġê·¸ë£¨":13515,"ĠíĶĦë¡ł":13516,"ì½¥íĦ°":13517,"Ġdes":13518,"ĠìĿ¸ëĶĶìķłëĤĺ":13519,"ĠëĮĢìŀ¥êµ°":13520,"ĠìŀĲìĦ¸íŀĪ":13521,"Ġì½¤íĮ©íĬ¸":13522,"ì§Ģë¥´":13523,"ĠìķĦëĿ¼ë¹ĦìķĦ":13524,"Ġèĵ":13525,"Ġìŀħì£¼":13526,"Ġë§¤ëĭ¬":13527,"ìĦĿíĥĳ":13528,"Ġ1892":13529,"ĠíĮĮëĿ¼ê³¼ìĿ´":13530,"ê¸°ëħĲë¬¼":13531,"RE":13532,"Ġ')":13533,"Ġìŀ¥ìłľ":13534,"Ġíģ´ëĿ¼ìĿ´ìĸ¸íĬ¸":13535,"Ġì§ĦíĸīìŀĲ":13536,"Ġë§¥ëıĦ":13537,"Ġå¸«":13538,"port":13539,"ĠìĿ´ë¹¨":13540,"ĠìĬ¤íĬ¸":13541,"Ġìŀ¥ìĽĲ":13542,"Ġìļ°ìĥģ":13543,"ott":13544,"ìĹĲë¯¸":13545,"Ġë§¹ìĦ¸":13546,"ĠèĢģ":13547,"ĠìĤ¬ìĬ´":13548,"ëĮĢíĳľ":13549,"Ġíĺ¸ìĿĺ":13550,"ĠìŀħìĪĺ":13551,"ì²ľìĤ¬":13552,"Ġê¹Ģê²½":13553,"ĠìĤ´ìķĦ":13554,"Ġìĺ¨ê°ĸ":13555,"ê¼¬ë¦¬":13556,"ĠìĤ¬ê°Ģ":13557,"Ġèĸ":13558,"Ġìľłë¶Ģ":13559,"ĠíĮĮìļ¸":13560,"Ġë¸ĶëĿ¼":13561,"ĠíķľìĬ¤":13562,"ĠìĬ¤íĢĺìĸ´":13563,"Ġê²©ìŀĲ":13564,"ĠìķĦìĿ¸ìĬĪíĥĢìĿ¸":13565,"Ġì½ĺìĬ¤íĥĦíĭ°ëħ¸íı´ë¦¬ìĬ¤":13566,"Ġíķĺì¹ĺ":13567,"ìĿ´ëĭĿ":13568,"Ġìļ°íļĮ":13569,"ĠíĴĪë":13570,"ĠìĦĿíļĮ":13571,"ĠìĹ¼ìĨĮ":13572,"Ġë»Ķ":13573,"éĢł":13574,"çĽ¸":13575,"ĠìĥģìĹ°":13576,"ĠìĥģìĿĳ":13577,"Ġìľłëł¹":13578,"Ġê²©ì°¨":13579,"Ġ1888":13580,"ìĿĦë":13581,"Ġëĵ±ê·¹":13582,"ĠíĽĦì§Ħ":13583,"Ġë§Īëĭ¹":13584,"Ġê²½ìłľíķĻìŀĲ":13585,"Ġì·¨ë¯¸":13586,"Ġìķ¼ë§Īêµ¬ì¹ĺ":13587,"ĠìŀĲëŀĢëĭ¤":13588,"ĭĲëĿ¼":13589,"ĠìĥĿê²¨":13590,"Ġë°°ìĨį":13591,"ëįĶë":13592,"Ġìļ°ë¬¼":13593,"Ġíĺ¸ëª¨":13594,"ëĵľë¥´":13595,"Ġæ´¥":13596,"ç¨":13597,"Ġê°ľíķŃ":13598,"Ġë¬´ìĬ¤":13599,"Ġë¶Īíĸī":13600,"Ġë²Ħíģ´ë¦¬":13601,"Ġì¤Ħìĸ´ë":13602,"ĠéĿŀ":13603,"ĠìĨĮë°©ìĦľ":13604,"ì°®":13605,"ĠêµŃìľł":13606,"Ġë°°ìļ°ìŀĲ":13607,"Ġë²½íĻĶ":13608,"Ġê³łìĦ±":13609,"Ġì§Ģë¡ľ":13610,"ë§Įë":13611,"Ġìłķê´Ģ":13612,"ĠìķĦíı´ë¡ľ":13613,"Ġëª¨ìĿĢ":13614,"ade":13615,"ì¦Īë§Ī":13616,"åº¦":13617,"Ġíķĺë¥´":13618,"ì¡°ë¦¬":13619,"ë°ķìĬ¤":13620,"ĠëĤĻíķĺ":13621,"ç¦":13622,"ĠìĨįì£¼":13623,"ì²ĺìĬ¤":13624,"ĠìĹĺë¦¬íĬ¸":13625,"Ġìłķëł¤":13626,"Ġê°Ĳê¸Ī":13627,"ĠíĨłìĭľ":13628,"Ġì¤Ħê±°ë¦¬":13629,"Ġç¦ª":13630,"Ġì¹´ë¥¼ë¡ľìĬ¤":13631,"ìĹ°ë³ĢìĿ´":13632,"Ġë§ĪíĤ¤":13633,"Ġìŀ¬ì§Ī":13634,"inal":13635,"Ġì¤ĦìĹ¬":13636,"Ġíķ¨ë¶Ģë¥´íģ¬":13637,"ĠíĻľë°ľíŀĪ":13638,"Ġqu":13639,"ĠìłĦë³µ":13640,"ĠPol":13641,"Ġë¡Ģ":13642,"ìĤŃìĬ¤":13643,"ĠìķĪíĨłëĭĪìĺ¤":13644,"Ġê°ľìĿ¸ìłĦ":13645,"ìĿ´ìĭľ":13646,"ĠíĺĦì§ģ":13647,"ĠSk":13648,"Ġíıīë¯¼":13649,"Ġê´ĳë¬´":13650,"ì½¥":13651,"ĠëĤ´ë©´":13652,"ator":13653,"ĠìķĮëłīìĤ°ëĵľë¦¬ìķĦ":13654,"æĦ":13655,"Ġë©ĶëĿ¼":13656,"Ġê²½ì§Ī":13657,"ĠìľłëĭīìĬ¤":13658,"ĠìĿĺê³¼":13659,"ĠìĪĺêµĲ":13660,"Ġê³µíĮĮ":13661,"ĠëĤ´ìķ¼ìĪĺ":13662,"Ġê²¬ìĿ¸":13663,"Ġì£¼ì§Ģ":13664,"Ġë¦¬ì¡°":13665,"ĠìĦ¸ë¹Ħ":13666,"ĠéģĶ":13667,"ĠMusic":13668,"ĠìĹĲë²Ħ":13669,"Ġìĺ¤ìĺ¤":13670,"ê¸Ģë¡ľ":13671,"ĠíĹĲ":13672,"Ġë¯¼ìļĶ":13673,"Ġìĭ¬ìķ¼":13674,"íħĶëłĪìĬ¤":13675,"Ġë°Ķë¥´ìĥ¤ë°Ķ":13676,"æīĢ":13677,"Ġë§Īìļ´íĬ¸":13678,"ww":13679,"Ġëªħë¶Ħ":13680,"ĠMic":13681,"Ġëį°ìĬ¤íģ¬":13682,"íħĮë¦¬ìķĦ":13683,"Ġê¼½íŀĮëĭ¤":13684,"Ġì°½ìĭľìŀĲ":13685,"lude":13686,"ĠìĿ´ì¤Ģ":13687,"Ĥĺë¯¸":13688,"ĠìľĦìĥĿ":13689,"ëłĽ":13690,"Ġêµ¬ìķ½":13691,"ĠíĪ¬íķŃ":13692,"Ġê°Ĳìĭ¸":13693,"Ġë¶ĪëŁ¬ë":13694,"Ġíľ´ê°Ģ":13695,"©ĺìĬ¤":13696,"ĠComm":13697,"ĠLife":13698,"íķĺìĿ´ìĺ¤":13699,"OT":13700,"Ġê°ĢëıĦ":13701,"Ġê°ĢìĤ°":13702,"Ġìĭľíķ©":13703,"ê¹Ĳ":13704,"ĠíĿīëħ¸":13705,"çĩ":13706,"Ġë¢°":13707,"Ġåħ¸":13708,"Ġæª":13709,"ony":13710,"ican":13711,"Ġìĭ¸ìĿ´":13712,"Ġë²Ħë§Ī":13713,"ĠìĹĶì§ĢëĭĪìĸ´":13714,"ìĿ¸ê°Ħ":13715,"ĠíĻķì§Ħ":13716,"ĠìĦ¬ìĦ¸":13717,"Ġì¹ľë¶Ħ":13718,"Ġìĺ¤ë¡ľì§Ģ":13719,"ura":13720,"¯¹ìĬ¤":13721,"Ġìĺ¤íģ¬":13722,"Ġë§ĪìĿ¸":13723,"Ġìļ°ìĻķ":13724,"Ġêµ°ì²Ń":13725,"ĠGDP":13726,"Ġìĵ°ìĭľë§Ī":13727,"ĠíĤ¤ìĺĪíĶĦ":13728,"ĠìĪĻì£¼":13729,"ĠìĿ´ë£©":13730,"ë³¸ëŀĺ":13731,"ĠKorea":13732,"Ġê°Ģë":13733,"Ġìľłì§Ħ":13734,"Ġìŀ¥ìŀĲ":13735,"Ġëª¨ëª¨":13736,"ĠHigh":13737,"ĠìĽĮì¹ĺ":13738,"Ġê´ĺ":13739,"Ġê°ľíĹĮ":13740,"ìĤ°ìĹħ":13741,"ĠíĨµìļ©":13742,"ë¡ľë²ĦíĬ¸":13743,"Ġíĭ°ì½Ķ":13744,"Ġì§ĦìĪĺ":13745,"ĠëįĶìļ±ìĿ´":13746,"ĠTime":13747,"Ġê°Ģìł":13748,"ĠëıĻìĿ´":13749,"ĠìłĦëĤł":13750,"ìĬ¤íħĶ":13751,"Ġìĺ¥ìĪĺìĪĺ":13752,"Ġì¥ĲìĨį":13753,"ĠãİĿ":13754,"oo":13755,"Ġë¯¸ìĥĿë¬¼":13756,"ĠìĿ¼ëĭ¹":13757,"ĠíĻī":13758,"ĠìĦłìļ°":13759,"ĠêµŃë¬¸":13760,"ë¬´ìĨĮ":13761,"Ġìĸ´ë¥ĺ":13762,"Ġì²Ļì¶Ķ":13763,"ĠìľłëĮĢêµĲ":13764,"Ġíķĳíģ¬":13765,"ìĦľë¦°":13766,"ĠëĮĢíĳľë":13767,"ĠìĭľêµŃ":13768,"Ġì°¨ìļ©":13769,"Ġíķ´ë¶Ģ":13770,"ĠíĻľì£¼ë¡ľ":13771,"Ġìŀ¬ëĤľ":13772,"ĠíĮĮë¬¸":13773,"ĠåĪ¥":13774,"ĠëıĻìĦ±ìķłìŀĲ":13775,"Ġë³´íĹ¤ë¯¸ìķĦ":13776,"Ġê°ĢìĿĺ":13777,"ĠìłľìĻķ":13778,"ĠíĹĽ":13779,"Ġì²ĺíķĺ":13780,"ĠíİĺëĭĪ":13781,"ìĭľëĤĺ":13782,"ĠìĻľêµ¬":13783,"Ġìľłì¹ĺìĽĲ":13784,"Ġëĭ¤ì¼Ģëĭ¤":13785,"ĪëĩĮ":13786,"ĠìĻĢìĿ¼ëĵľ":13787,"ĠìŀĲìĥĿ":13788,"Ġë¶Ĳ":13789,"Ġë³µìĨĮìĪĺ":13790,"ĠIV":13791,"ĠGra":13792,"Ġ1893":13793,"Ġìĭľëĭ¬ë¦¬":13794,"Ġì§ĢìĦ±":13795,"Ġê¸°ìĦ±":13796,"ì§Ģê¸°":13797,"Ġæĵ":13798,"ĠìĻķìłķ":13799,"Ġë¶ģê²½":13800,"ëħ¸ìĬ¤":13801,"1984":13802,"Ġíı¬ëıĦëĭ¹":13803,"Ġæ¤į":13804,"³¸ë":13805,"Ġëĭ¤íĪ¬":13806,"Ġë³¼ë¦¬ë¹ĦìķĦ":13807,"Ġìĭľì¤ĳ":13808,"Ġìĭłì¢ħ":13809,"ëıĻêµ°":13810,"ĠCla":13811,"ĠëıĮìĹ°ë³ĢìĿ´":13812,"íħĮìĵ°":13813,"ì¸µìĦĿíĥĳ":13814,"łīìħĺ":13815,"Ġìĭłë¬¸ìĤ¬":13816,"ĠìĽĮëĦĪ":13817,"ĠëŁ¬ìĬ¤":13818,"ĠëģĿëĤ¬":13819,"ĠìīĲ":13820,"ĠíĶ¼ë¡ľ":13821,"Ġ1882":13822,"ĠíĶĦëŀĢì¸ł":13823,"Ġë§ĪëĿ¼íĨ¤":13824,"ĠëĮĢëĭĪ":13825,"ĠìĦľìŀ¥":13826,"ê²½ìłľ":13827,"Ġë²¨ëĿ¼":13828,"Ġì¡°ê³Ħ":13829,"ë³´ìĦł":13830,"Ġìķłë¦¬":13831,"å°ĩ":13832,"¾°ì¡±":13833,"Ġìļ°ì²´êµŃ":13834,"ĠìĿ¸íĶĦëĿ¼":13835,"°ë¥¸":13836,"ê´Ģê³Ħ":13837,"Ġë¬´ì²Ļ":13838,"Ġë²¤ì¹ĺ":13839,"ĠEng":13840,"ĠATP":13841,"ĠåĬŁèĩ£":13842,"ĩ¨":13843,"ãĢī":13844,"Ġê²Įë¦¬":13845,"íĥĢìĿ´ëĵľ":13846,"Ġby":13847,"Ġìĺ¬ëŀĲìľ¼ë©°":13848,"Ġìłķìľł":13849,"ĠìłķëıĻ":13850,"Ġì£¼ìŀĦ":13851,"Ġë§Īìļ°ìĬ¤":13852,"ìķłíĭĢ":13853,"ĠìĿ¼ìľ¼íĤ¨ëĭ¤":13854,"ì§ĢëĬ¥":13855,"ëĭĪê¹Į":13856,"ë¹Ļ":13857,"Ĥ¨ë":13858,"ìķĪëıĦ":13859,"Ġìĭľì¢ħ":13860,"ĠìłĦêµ¬":13861,"ĠìĿ´ëį°":13862,"Ġâĸ":13863,"Ġëł¤ëįĺ":13864,"¯¸ëĤĺ":13865,"ëĴ¤":13866,"Ġë³´íĺ¸ë":13867,"ĠIm":13868,"Ġìĭľìĸ´":13869,"ĠíĶĦë¡¤":13870,"¥´ëĦ¤":13871,"ille":13872,"Ġçķµ":13873,"ì©Įëĳ¥":13874,"ìķ¨ë":13875,"Ġì¤ĳìĦľ":13876,"Ġê³µìĨĲ":13877,"Ġì£¼ìĿ´":13878,"Ġë¦¬íĦ°":13879,"Ġëª¨íķĺ":13880,"Ġì´Īë¹Ļ":13881,"èŃ°":13882,"Ġêµ¬ì²Ń":13883,"Ġê±¸ë¦°":13884,"Ġë°ĺëŀĢêµ°":13885,"ĠíħįìĤ¬ìĬ¤ì£¼":13886,"Ġì¤ĳìĥģ":13887,"Ġê°ķì²ł":13888,"Ġë³´ëĤ¸ëĭ¤":13889,"Ġë¹ĦëĬĺ":13890,"ĠíĻ©ëıĦ":13891,"Ġë¶ĢëĵľëŁ½":13892,"Ġìĺ¬ë°Ķë¥¸":13893,"mun":13894,"Ġìķŀìª½":13895,"ĠëįĶë¹Ħ":13896,"ĠíħĮëĦ¤":13897,"Ġíİ¸ì§ĳìŀĲ":13898,"ĠëĦĺìĸ´ê°Ķ":13899,"Ġê¹Ģê·ľìĭĿ":13900,"Ġë°ĺíķĺ":13901,"ĠëįĶê¸ĢëŁ¬ìĬ¤":13902,"Ġë¨¸ìĬ¤":13903,"ë§Īëĵľ":13904,"åįģ":13905,"Ġé½ĭ":13906,"Ġíķĺë¥ĺ":13907,"Ġë§Īì²ľë":13908,"ëıĻê°ķ":13909,"Ġê¸īìĪĺ":13910,"ĵ¨íĮħ":13911,"¨ë²ķìĿ¸":13912,"ĠìłķêµŃ":13913,"Ŀ¼ëĭ¤":13914,"Ġëĭ¹ëĤ´":13915,"Ġëª¨ìļ©":13916,"ê±°ì§Ģ":13917,"Ġì¼ĢëĿ¼":13918,"Ġå¤ı":13919,"Ġëŀį":13920,"Ġå¢ĵ":13921,"Ġëĭ¨íĸīë³¸":13922,"ìľĦìĽĲíļĮ":13923,"èº«":13924,"ê°ĦëĮĢ":13925,"Ġì§Ģì²Ń":13926,"ĠìŀĲì¹Ń":13927,"íı¬ë¨¼ìĬ¤":13928,"ĠìĺĪìłķìŀĲ":13929,"ĠéĻµ":13930,"Ġê²½ìĺģìŀĲ":13931,"Ġìľłê²©ìĪĺ":13932,"Ġì´ĿìĤ¬ëł¹ê´Ģ":13933,"Ġê°ĢíĥĢ":13934,"ĠìĿ¸íħĮë¥´":13935,"ĪëĿ¼":13936,"Ġê²Įë¦´ëĿ¼":13937,"Ġì¡°ìĿ¸":13938,"ĠAN":13939,"ĠëĤĺíĥĢëĥĪ":13940,"Ġå¸¸":13941,"ave":13942,"Ġíķ´ìł¸":13943,"ĠêµŃìķħ":13944,"Ġë§Įìŀ¥":13945,"Ġë¶ĦíĮĮ":13946,"ĠìĤ°ì¶ľ":13947,"Ġì¹´íĥĪë":13948,"Ġì¶©ëł¬":13949,"ited":13950,"Ġì½ĺíħĮ":13951,"ĠíĿĺëŁ¬ë":13952,"Ġì¹´ë¥´íĥĢ":13953,"ĠëĮĢì§Ģì§Ħ":13954,"Ġì¹Ļëł¹":13955,"Ġê·łë":13956,"ĠìĪĺìĭ¬":13957,"ìķĦìĿ´ë":13958,"íŀĪíĬ¸":13959,"ĠìĽĲê²©":13960,"ĠíĶ¼ì¹ĺ":13961,"êµ¬ë¥´":13962,"Ġì¤Ģê²°ìĬ¹ìłĦ":13963,"ìłľíĴĪ":13964,"Ġì¦ĿìĿ¸":13965,"ĠëĬ¥ìĦł":13966,"ê°ĢìĬ¤ì¹´ë¥´":13967,"ĠìĪĺëħĦ":13968,"ĠSL":13969,"ĠSec":13970,"ĠìłĢê²©":13971,"ĠëĦ¤ìĿ´":13972,"Ġíį¼íı¬ë¨¼ìĬ¤":13973,"ĠëĮĢê°ģ":13974,"ĠíĿ¥ìĦłëĮĢìĽĲêµ°":13975,"ĠìĪĺìĽĲìĭľ":13976,"ĠëĿ¼ìĺ¤":13977,"ĠëĬĶëĭ¤ë©´":13978,"ĠìĤ¼êµŃìĤ¬ê¸°":13979,"ĠíĮŁ":13980,"ìľłìĤ¬":13981,"Ġìĭ¤ë¦°":13982,"Ġëıħì°½":13983,"ĠMac":13984,"Ġë³µìĭĿ":13985,"Ġê°ĲìĪĺ":13986,"ĠGT":13987,"Ġê°Īë¦¬":13988,"ĠStar":13989,"ëĥĪ":13990,"Ġíīģ":13991,"ìĹł":13992,"¯¸íĬ¸":13993,"Ġìĥģíĸī":13994,"Ġê´Ģì²Ń":13995,"Ġìŀ¥ëĮĢ":13996,"ĠìĦ¸ëĦ¤":13997,"Ġë¦¬ëª¨":13998,"Ġìĺ¤ë¥¸ìĨĲ":13999,"Ġì¹¼ë±ħ":14000,"Ġë¶Ħê³¼":14001,"Ġë°Ķìļ°":14002,"Ġíģ¬ë¡¬":14003,"Ġìĸ´ëł¤ìĽł":14004,"Ġëİ":14005,"ĠìĹĲëĵľë":14006,"Ġíķĺíĸī":14007,"Ġê°ĢìĨĶ":14008,"ìķĶëıĻ":14009,"ĠìĦ±ëł¹":14010,"ê´Ģë¦¬":14011,"Ġì¶ľê°Ģ":14012,"íķ©ìĦ±":14013,"Ġìŀ¬íķ´":14014,"ìĥĪë":14015,"Ġê´ĳëªħ":14016,"ĠìĤ¬ìĿ´íĨł":14017,"ìĹĲëª½":14018,"Ġë°°ëł¤":14019,"Ġë¬´ê¶ģíĻĶ":14020,"ĠìĪĺìĿ¸":14021,"łëŁ¬":14022,"ĠíĶĦëłĪëĵľ":14023,"Ġëĭ¨ê³¼":14024,"Ġì´ĪìĽĲ":14025,"EG":14026,"air":14027,"ĠìĿ¸ì¹Ń":14028,"Ġë¶Ģê°ģ":14029,"Ġìĭ¤ìłķ":14030,"Ġì´Ŀìķł":14031,"Ġíĭ°ì¼ĵ":14032,"íĮĮëĭĪìķĦ":14033,"Ġì²ľìĹ°ê¸°ëħĲë¬¼":14034,"ì»´íĵ¨íĦ°":14035,"ĠëĿ¼ìĦľ":14036,"ĠâĢķ":14037,"ĠíķĻìĦ¤":14038,"Ġê°ĪìķĦ":14039,"Ġìļ¸íĶĦ":14040,"ĠìľĦëĤĺëĿ¼":14041,"Ġonly":14042,"ŀ¬":14043,"ĠìľĦìĬ¤":14044,"Ġìľłê¶ĮìŀĲ":14045,"Ġë³¼ìħ°ë¹ĦíĤ¤":14046,"Ġì§Ħë£Į":14047,"ĠëıĮë³´":14048,"¨ë³ĳ":14049,"Ġìłķê²½":14050,"Ġë°ĺìĦ±":14051,"íİĺë¥´ë":14052,"ĠëĨįê²½":14053,"ĠåľŁ":14054,"ĠìķĦìĬ¤ëĦĲ":14055,"ĠìĹĦë°Ģ":14056,"ren":14057,"Ġâĺ":14058,"Ġíı¬ì°©":14059,"Ġì¹´íĶĦ":14060,"ìĿ´ê²ĥ":14061,"ê»į":14062,"ĠìķĮíĮĮë":14063,"erson":14064,"Ġìĸ´ì©Ķ":14065,"¥¼ë":14066,"Ġê°ĢëĬĺ":14067,"Ġë¬´ë¡ľ":14068,"ì¹´ëĭ¤":14069,"Ġê·¸ëłĩì§Ģë§Į":14070,"Ġìĵ°ìĹ¬ì§Ħ":14071,"ĠìĦ±ëĤ¨ìĭľ":14072,"PC":14073,"ĠìĦ¹ìĬ¤":14074,"ĠìĦ±ìĭ¤":14075,"ĠCM":14076,"ĠìłľëĭĪ":14077,"Ġë§ŀëĮĢ":14078,"CAF":14079,"ĠSci":14080,"èĢħ":14081,"ĠìłľëıĻ":14082,"ĠìĹ°íķľ":14083,"Ġê¹ĢíĺĦ":14084,"Ġë§ĪëĭĪ":14085,"ĠëĭĪì½Ķ":14086,"amb":14087,"Ġë¶Ħë¥ĺêµ°":14088,"Ġì¿łëĭĪ":14089,"Ġì°¬ìĸĳ":14090,"Ġëĭ«íŀĮ":14091,"lin":14092,"èī":14093,"ĠìĿ´ìŀ¥":14094,"ĠëĤļ":14095,"Ġíİ´":14096,"Ġë§¤ê±°ì§Ħ":14097,"ìŀīê¸Ģëŀľëĵľ":14098,"Ġç§ĳ":14099,"Ġì¢ħë§Ĳ":14100,"Ġë§¤ëģĦë":14101,"Ġë³¸ìĦ±":14102,"ĠëĶĶíĬ¸ë¡ľìĿ´íĬ¸":14103,"Ġê¶ģê¶Ĳ":14104,"Ġçī©":14105,"Ġçı¾":14106,"Ġìª":14107,"Ġë¾°ì¡±":14108,"Ġíķĺë°ĺ":14109,"Ġì°½ë¬¸":14110,"Ġì¦Ĳê¸¸":14111,"íķ´ë°©":14112,
[...]
